<unk>	0
<s>	0
</s>	0
<bik>	0
<cbk>	0
<ceb>	0
<eng>	0
<ilo>	0
<jil>	0
<krj>	0
<msb>	0
<pag>	0
<pam>	0
<prf>	0
<rol>	0
<tao>	0
<tgl>	0
<tiu>	0
<tsg>	0
<war>	0
<2eng>	0
<2tgl>	0
<2ceb>	0
▁the	-2.71407
,	-2.74787
▁and	-3.17934
▁of	-3.42781
.	-3.52972
▁to	-3.70372
▁you	-4.08434
▁in	-4.36674
;	-4.42517
▁a	-4.47011
▁will	-4.48277
▁he	-4.54261
▁for	-4.56637
▁i	-4.60707
▁is	-4.68109
▁your	-4.80601
▁lord	-4.82882
▁his	-4.8368
▁they	-4.84761
▁that	-4.86781
▁not	-4.89924
▁who	-4.90915
▁it	-4.94598
▁be	-4.96093
▁with	-4.97517
▁them	-5.02395
▁him	-5.05764
▁from	-5.12681
▁have	-5.18114
▁on	-5.18188
s	-5.19098
▁my	-5.204
▁all	-5.2296
▁but	-5.35113
▁are	-5.35834
▁me	-5.35933
▁so	-5.36046
▁their	-5.37922
▁was	-5.38072
▁shall	-5.38806
▁as	-5.4223
▁god	-5.46807
▁said	-5.48033
▁then	-5.50913
▁this	-5.59176
▁one	-5.59441
ing	-5.69437
▁has	-5.71727
?	-5.71975
▁which	-5.75065
ed	-5.7585
▁when	-5.81474
▁were	-5.82445
▁do	-5.84308
▁by	-5.86176
▁out	-5.86949
▁sons	-5.9584
▁had	-5.98466
▁people	-5.98565
▁am	-6.00338
▁there	-6.05808
▁up	-6.06364
▁what	-6.07549
▁israel	-6.08441
▁at	-6.09106
▁now	-6.09461
▁land	-6.10668
▁again	-6.11866
st	-6.22013
▁son	-6.24545
▁her	-6.24874
▁or	-6.25303
▁like	-6.30095
▁if	-6.31291
▁we	-6.31523
▁no	-6.31947
▁,	-6.33336
▁also	-6.35134
▁came	-6.36013
▁may	-6.36791
!	-6.37381
▁its	-6.37635
▁day	-6.38399
▁those	-6.38475
▁because	-6.3857
▁come	-6.40023
▁man	-6.45022
▁	-6.45445
▁saying	-6.46693
▁king	-6.47637
▁an	-6.48376
▁go	-6.496
▁into	-6.52883
▁us	-6.56333
▁before	-6.56868
▁these	-6.57721
▁house	-6.58264
▁did	-6.6104
▁our	-6.61917
▁over	-6.62257
-	-6.65265
▁hand	-6.65904
▁jesus	-6.68781
▁say	-6.6996
▁behold	-6.70068
▁down	-6.73716
▁father	-6.74013
▁put	-6.75385
▁she	-6.75545
▁g	-6.75801
d	-6.7705
▁been	-6.78781
▁earth	-6.79205
▁make	-6.79424
▁moses	-6.79995
▁take	-6.82132
▁let	-6.83299
:	-6.84377
▁about	-6.86186
▁w	-6.86564
▁men	-6.87029
▁know	-6.87136
▁things	-6.87412
▁went	-6.87413
▁made	-6.88339
▁offering	-6.88509
▁away	-6.88808
ong	-6.91228
▁place	-6.926
▁give	-6.93188
▁.	-6.93411
▁days	-6.95225
▁bring	-6.99684
▁name	-7.01398
▁person	-7.02263
▁nor	-7.03405
▁whom	-7.03821
▁city	-7.04495
ould	-7.06333
▁great	-7.07352
▁every	-7.0822
▁see	-7.08518
▁after	-7.08945
▁therefore	-7.08977
▁says	-7.11736
▁holy	-7.13074
▁two	-7.13476
▁way	-7.17204
▁word	-7.17414
▁brought	-7.18594
l	-7.18995
▁heart	-7.2019
▁time	-7.20384
▁jerusalem	-7.20505
▁good	-7.2055
▁egypt	-7.20719
ly	-7.2214
▁does	-7.25394
▁fire	-7.27841
▁where	-7.27843
▁through	-7.28071
▁took	-7.29022
▁even	-7.30077
▁become	-7.30412
▁any	-7.32424
▁heard	-7.33904
▁judah	-7.34518
▁many	-7.34627
▁how	-7.34988
▁nations	-7.35683
▁own	-7.35823
▁unti	-7.36733
▁saw	-7.37269
▁eat	-7.38153
▁spirit	-7.38976
ave	-7.39619
▁sent	-7.39836
▁words	-7.41315
▁live	-7.41522
▁fathers	-7.4196
▁water	-7.42188
▁according	-7.42477
▁life	-7.42739
▁priest	-7.43807
t	-7.44432
▁than	-7.44628
▁heaven	-7.45742
▁upon	-7.45795
▁yet	-7.46005
▁just	-7.47028
▁set	-7.47396
▁himself	-7.47678
▁law	-7.52053
▁each	-7.52579
▁other	-7.53214
▁eyes	-7.5336
▁called	-7.5481
▁evil	-7.5497
▁done	-7.55283
▁sin	-7.55841
▁more	-7.56799
▁hands	-7.58538
▁while	-7.58983
▁another	-7.59016
▁sea	-7.59313
▁spoke	-7.59585
▁brothers	-7.5983
▁going	-7.59988
ever	-7.60219
▁death	-7.60891
▁left	-7.61535
▁blood	-7.61535
▁given	-7.61593
▁speak	-7.61616
▁kings	-7.6261
▁some	-7.62858
▁od	-7.64207
▁jacob	-7.64255
▁years	-7.65559
▁voice	-7.6594
▁keep	-7.66177
▁christ	-7.67526
▁gold	-7.68219
▁seven	-7.68546
▁why	-7.69606
▁only	-7.69784
▁first	-7.70663
▁burn	-7.71093
▁right	-7.72149
▁hear	-7.72188
▁can	-7.72428
▁cities	-7.72448
▁declares	-7.72953
y	-7.73469
▁back	-7.73652
▁around	-7.739
▁drink	-7.74401
▁aaron	-7.74635
▁mouth	-7.74815
se	-7.76638
▁sword	-7.76685
▁woman	-7.77625
▁listen	-7.77734
▁priests	-7.78017
▁commanded	-7.78543
▁together	-7.79155
▁under	-7.79927
▁work	-7.81044
▁armies	-7.81495
▁righteous	-7.81805
▁turn	-7.81829
▁side	-7.81916
▁altar	-7.82526
▁found	-7.82767
▁righteousness	-7.84303
▁wife	-7.85111
▁face	-7.8525
ward	-7.85857
▁well	-7.85932
▁without	-7.85951
▁head	-7.87081
▁high	-7.87146
▁children	-7.87175
▁wicked	-7.87514
▁night	-7.8787
▁coming	-7.88028
▁fear	-7.8803
▁far	-7.89707
▁tell	-7.90146
▁three	-7.91009
gan	-7.91038
▁peace	-7.91431
▁glory	-7.9144
▁turned	-7.91769
▁since	-7.94164
▁bread	-7.94538
▁sight	-7.94542
▁tent	-7.94907
▁joseph	-7.95441
▁year	-7.95723
▁field	-7.95948
▁covenant	-7.96352
▁love	-7.96501
▁yourself	-7.96811
▁old	-7.96822
▁disciples	-7.97349
▁forever	-7.97399
▁long	-7.97399
▁inheritance	-7.97736
▁flesh	-7.98115
▁brother	-7.9835
▁kingdom	-7.99051
▁soul	-7.9906
▁m	-7.99114
▁blessed	-7.99756
▁servant	-8.00021
▁wilderness	-8.00558
▁dead	-8.00558
▁both	-8.01876
▁very	-8.02001
▁anger	-8.02001
▁joshua	-8.02486
▁daughter	-8.039
▁grain	-8.03957
▁midst	-8.0396
▁daughters	-8.04013
▁end	-8.0411
▁return	-8.04202
▁temple	-8.04356
▁silver	-8.04452
▁themselves	-8.04453
▁spoken	-8.04498
▁jews	-8.04524
▁;	-8.06002
▁abraham	-8.06477
▁wine	-8.06965
▁here	-8.07578
▁stand	-8.0761
came	-8.08274
▁ground	-8.08456
▁mother	-8.08466
▁serve	-8.08835
▁look	-8.08861
▁gate	-8.08997
▁die	-8.0908
▁servants	-8.09114
▁rest	-8.0948
▁send	-8.09545
▁babylon	-8.10065
▁offer	-8.1063
▁light	-8.11089
▁unclean	-8.11112
▁t	-8.11989
▁comes	-8.12043
▁walk	-8.12083
▁off	-8.12676
▁enemies	-8.12725
▁seen	-8.13351
▁everything	-8.14356
▁feet	-8.14357
▁same	-8.14905
▁longer	-8.14933
▁nothing	-8.15463
▁power	-8.15945
▁food	-8.16013
▁answered	-8.16206
▁being	-8.16321
▁full	-8.16517
▁save	-8.17614
▁yourselves	-8.17701
▁show	-8.17709
▁enter	-8.18153
▁oil	-8.18268
▁everyone	-8.18271
▁peoples	-8.18646
▁gods	-8.19132
▁certainly	-8.20001
▁anyone	-8.20579
▁pharaoh	-8.206
▁waters	-8.20611
▁y	-8.21091
n	-8.21313
▁taken	-8.21865
▁male	-8.2237
▁known	-8.22453
▁praise	-8.22849
▁might	-8.23487
▁angel	-8.23582
e	-8.23947
▁still	-8.24135
▁young	-8.24245
▁world	-8.2474
▁tribe	-8.24831
▁cut	-8.2536
▁faith	-8.25594
▁four	-8.25958
▁cannot	-8.25963
▁month	-8.26022
▁near	-8.26578
▁offerings	-8.26912
▁indeed	-8.27202
▁though	-8.27823
▁living	-8.27826
▁mountain	-8.27903
▁call	-8.28448
▁fruit	-8.28519
▁thousand	-8.29165
▁cubits	-8.29167
▁between	-8.31011
▁paul	-8.3166
▁fall	-8.31745
▁women	-8.32314
▁written	-8.32314
▁could	-8.32323
▁strength	-8.32961
▁joy	-8.32969
▁morning	-8.33634
▁must	-8.34034
▁ones	-8.34499
▁thing	-8.34973
▁slave	-8.35091
▁tree	-8.35094
▁body	-8.36328
▁inhabitants	-8.36405
▁died	-8.36513
▁war	-8.37012
▁presence	-8.37702
▁stone	-8.37718
▁l	-8.3784
▁prophet	-8.37844
▁lived	-8.38023
▁jordan	-8.38397
▁peter	-8.38397
er	-8.38859
▁s	-8.39122
▁too	-8.39512
▁east	-8.39761
▁told	-8.39813
▁deeds	-8.399
▁destroy	-8.40347
▁prophets	-8.40364
▁leave	-8.40625
▁wisdom	-8.41224
▁times	-8.41636
▁wrath	-8.41935
▁birth	-8.41944
▁along	-8.41965
▁find	-8.42489
▁command	-8.43219
▁sound	-8.43228
▁order	-8.4329
▁wise	-8.43316
▁little	-8.43398
▁speaking	-8.43426
▁camp	-8.43979
▁descendants	-8.44147
▁possession	-8.44318
▁within	-8.44651
▁judge	-8.44942
▁get	-8.45338
▁remember	-8.45478
▁kill	-8.46074
▁standing	-8.46115
▁sheep	-8.46373
▁should	-8.47106
▁country	-8.47126
▁ephraim	-8.4713
▁hundred	-8.47893
▁mankind	-8.47893
▁poor	-8.47893
▁levites	-8.47972
▁please	-8.47978
▁concern	-8.48019
▁new	-8.48105
▁mountains	-8.48568
▁families	-8.48662
▁pour	-8.48669
▁mighty	-8.4872
▁chief	-8.48863
▁border	-8.48868
▁myself	-8.49438
▁twenty	-8.49439
▁darkness	-8.50221
▁pass	-8.50329
▁john	-8.51006
▁stood	-8.51006
▁five	-8.5107
▁nation	-8.51255
▁truth	-8.51791
▁fell	-8.51796
▁heavens	-8.51796
▁elders	-8.51811
▁gone	-8.5182
▁north	-8.5183
▁strong	-8.52577
▁today	-8.52773
▁sun	-8.53344
▁help	-8.53724
▁present	-8.53918
▁ways	-8.53936
▁number	-8.54136
▁afraid	-8.54219
▁second	-8.54222
▁sacrifice	-8.54358
▁named	-8.54784
▁seek	-8.54975
▁ten	-8.54994
▁front	-8.55036
▁justice	-8.55042
▁fine	-8.55081
▁entered	-8.55471
▁jeremiah	-8.55865
▁zion	-8.55871
▁hav	-8.55878
▁meeting	-8.56071
▁favor	-8.56699
▁wrongdoing	-8.56982
g	-8.58131
▁guilt	-8.58337
▁kept	-8.58386
▁truly	-8.58386
▁salvation	-8.58387
▁o	-8.58882
▁congregation	-8.59241
▁much	-8.59243
▁whole	-8.59348
▁open	-8.59675
▁answer	-8.60107
▁rejoice	-8.60274
▁e	-8.60483
▁animals	-8.60524
▁believe	-8.60944
▁anything	-8.60973
▁struck	-8.60974
▁third	-8.60976
▁gathered	-8.61262
▁wall	-8.61313
▁mo	-8.61553
▁h	-8.61609
▁above	-8.6185
▁wind	-8.62167
▁valley	-8.6217
▁never	-8.62786
▁n	-8.63019
▁works	-8.63098
▁sins	-8.63453
▁however	-8.6381
▁able	-8.63921
▁flock	-8.63974
▁cry	-8.64192
▁gather	-8.64223
▁money	-8.64529
▁tabernacle	-8.64529
▁firstborn	-8.64531
▁raised	-8.64642
▁statutes	-8.64687
▁judgment	-8.6482
▁regard	-8.65441
▁looked	-8.65965
▁stay	-8.66007
▁sanctuary	-8.66355
▁twelve	-8.66355
▁alone	-8.66356
▁wood	-8.66367
▁killed	-8.66727
▁hill	-8.66731
▁got	-8.66803
▁appointed	-8.68299
▁filled	-8.68366
▁leaders	-8.68491
▁hold	-8.6871
▁sabbath	-8.69551
▁evening	-8.69562
▁benjamin	-8.69743
▁sing	-8.70034
▁spread	-8.70726
▁mount	-8.70754
▁david	-8.71073
▁cast	-8.71086
▁places	-8.71455
▁mind	-8.71483
▁master	-8.71487
▁bless	-8.71935
▁large	-8.72044
▁understanding	-8.72354
▁cover	-8.72386
▁destroyed	-8.72455
▁ord	-8.72771
▁stones	-8.72825
▁half	-8.73024
▁reason	-8.73027
▁army	-8.73046
on	-8.7328
▁commandments	-8.73285
▁receive	-8.73335
▁rock	-8.73444
▁household	-8.7346
ance	-8.73962
▁born	-8.74027
in	-8.74351
▁fat	-8.7492
▁mercy	-8.75015
▁knowledge	-8.75016
▁broken	-8.75025
▁laid	-8.75046
▁heads	-8.75338
▁clean	-8.75978
▁moab	-8.76026
▁lay	-8.76469
▁throne	-8.76489
▁burned	-8.76881
▁pay	-8.77042
▁ask	-8.77044
▁isaac	-8.77061
▁hope	-8.77323
▁pasture	-8.77762
▁south	-8.78061
▁woe	-8.78077
▁outside	-8.78092
▁saved	-8.78308
▁returned	-8.78703
▁belong	-8.78771
▁lead	-8.79106
▁everlasting	-8.79117
▁immediately	-8.79117
▁idols	-8.79184
▁garments	-8.79475
▁courtyard	-8.79604
▁want	-8.79879
▁shame	-8.80015
▁follow	-8.80024
▁family	-8.8017
th	-8.80229
▁understand	-8.80321
▁hearts	-8.80791
▁sky	-8.81234
▁ark	-8.81239
▁doing	-8.81342
▁bronze	-8.82309
▁faithfulness	-8.82314
▁worship	-8.83056
▁trees	-8.83198
▁crowd	-8.83938
▁lands	-8.84142
▁break	-8.84153
▁such	-8.84496
▁committed	-8.84529
▁opened	-8.84879
▁generations	-8.84965
giving	-8.85044
▁drive	-8.85381
▁remain	-8.8551
▁lips	-8.85606
▁manasseh	-8.85606
▁cloud	-8.86172
▁accord	-8.86394
▁makes	-8.86593
▁better	-8.86744
▁nd	-8.86906
▁animal	-8.87313
▁whether	-8.87866
▁destruction	-8.87866
▁feast	-8.88081
▁perish	-8.8834
▁sisters	-8.88384
▁consider	-8.89016
▁officials	-8.89141
▁pure	-8.8921
▁gives	-8.89452
▁river	-8.89839
▁compassion	-8.90177
▁beyond	-8.90178
▁disaster	-8.90178
▁wait	-8.90469
▁lamb	-8.908
▁trust	-8.91048
▁entire	-8.9128
▁built	-8.91355
▁testimony	-8.91355
▁assembly	-8.91355
▁throughout	-8.9136
▁pieces	-8.91542
▁labor	-8.91626
▁lie	-8.91862
es	-8.91874
▁arise	-8.91928
▁cause	-8.92519
▁esau	-8.92545
▁grace	-8.92545
▁eye	-8.92981
▁rain	-8.93347
▁raise	-8.93656
▁battle	-8.93678
▁child	-8.93745
▁deep	-8.93751
▁dust	-8.93754
▁pharisees	-8.93807
▁seventh	-8.9381
▁ears	-8.94206
▁curse	-8.94277
▁sister	-8.94417
▁beside	-8.94463
▁amon	-8.94742
▁reach	-8.94841
▁wickedness	-8.94995
▁happened	-8.95113
▁led	-8.95552
▁ram	-8.95639
▁produce	-8.96024
▁ou	-8.96135
▁bear	-8.96187
▁canaan	-8.96194
▁female	-8.96204
▁forth	-8.96255
▁rise	-8.96863
▁refuge	-8.97435
▁except	-8.97457
▁branches	-8.9746
▁gates	-8.97538
▁portion	-8.98158
▁bull	-8.98164
▁stranger	-8.98164
▁part	-8.98524
▁un	-8.98529
▁hate	-8.98618
▁authority	-8.9872
▁famine	-8.9872
▁linen	-8.98732
▁yes	-8.98761
▁honor	-8.99095
▁lot	-8.99404
▁tongue	-8.99432
▁build	-8.99621
al	-8.99917
▁sat	-8.99986
▁enemy	-9.00002
▁six	-9.00007
▁egyptians	-9.00102
▁sign	-9.004
▁generation	-9.00749
▁deal	-9.01317
▁lives	-9.01412
▁bow	-9.0175
▁neighbor	-9.02058
▁slaves	-9.02377
▁free	-9.02408
▁others	-9.02426
▁account	-9.02617
▁next	-9.02617
▁daniel	-9.02618
▁guard	-9.0262
▁goes	-9.02797
▁book	-9.03371
▁houses	-9.0366
▁hour	-9.0395
▁foot	-9.03974
ah	-9.04172
▁meet	-9.05
▁teaching	-9.05029
▁angels	-9.05191
▁wealth	-9.05255
▁atonement	-9.05301
▁beloved	-9.05301
▁iron	-9.05394
▁teach	-9.0545
▁husband	-9.06106
▁prayer	-9.06121
▁hair	-9.06672
▁gentiles	-9.06675
▁birds	-9.06997
▁asked	-9.07075
▁passed	-9.07198
▁declare	-9.07385
▁service	-9.08062
▁gilead	-9.08063
▁horses	-9.08321
▁seed	-9.08436
▁camped	-9.0863
▁kind	-9.08826
▁sit	-9.09008
▁beth	-9.09124
▁plunder	-9.09149
▁tribes	-9.09339
▁remove	-9.0935
▁harvest	-9.09468
▁hidden	-9.09468
▁smoke	-9.09468
▁mourning	-9.0965
▁throw	-9.10036
▁touch	-9.10391
▁sacrifices	-9.10433
▁carry	-9.10556
▁d	-9.11037
▁perform	-9.11698
▁ate	-9.11777
▁goat	-9.11807
▁ever	-9.11921
▁blind	-9.11998
▁slaughter	-9.12044
▁eliminate	-9.12223
▁livestock	-9.12346
▁strike	-9.12346
▁surround	-9.12346
▁last	-9.12369
▁received	-9.12578
▁once	-9.12601
▁clothes	-9.12629
▁ear	-9.13139
law	-9.13588
▁beginning	-9.13817
▁curtain	-9.13817
▁incense	-9.13817
▁sinned	-9.13817
▁someone	-9.13823
▁sitting	-9.13827
▁none	-9.13848
▁carried	-9.13852
▁forty	-9.13934
▁act	-9.14028
▁households	-9.14648
▁proclaim	-9.14659
▁shout	-9.14666
▁trouble	-9.147
▁plague	-9.14736
en	-9.15196
▁wives	-9.1531
▁write	-9.15312
▁satisfied	-9.15312
▁continually	-9.15338
▁names	-9.1548
▁west	-9.15696
▁flee	-9.1586
selah	-9.16088
▁simon	-9.16193
▁table	-9.16208
▁dream	-9.16216
▁matter	-9.16247
▁road	-9.16253
either	-9.16592
▁angry	-9.16825
▁swore	-9.16825
▁womb	-9.16825
▁fish	-9.16826
▁mine	-9.16828
▁lion	-9.17226
▁covered	-9.17293
▁rebuke	-9.17556
▁desire	-9.17677
▁cross	-9.17714
▁sake	-9.17732
▁looking	-9.17834
▁obey	-9.18058
▁wash	-9.1826
▁burning	-9.18281
▁thanks	-9.18419
▁bones	-9.18471
▁shekels	-9.18514
▁appeared	-9.18532
h	-9.19695
▁prison	-9.19893
▁reuben	-9.19918
▁nebuchadnezzar	-9.19925
▁something	-9.19926
▁dry	-9.19934
▁appearance	-9.19935
▁prepared	-9.20029
▁exalted	-9.2008
▁believed	-9.20147
▁home	-9.20888
▁rich	-9.21251
▁ox	-9.21503
▁harm	-9.21505
▁human	-9.21512
▁beautiful	-9.21513
▁opposite	-9.21513
▁alive	-9.21515
▁followed	-9.21968
▁following	-9.22024
▁signs	-9.22198
▁offered	-9.22427
▁rescue	-9.22431
▁vision	-9.22564
▁garment	-9.22573
▁ashamed	-9.23126
▁thirty	-9.23126
▁defiled	-9.23216
▁scribes	-9.23366
▁horns	-9.23455
▁lambs	-9.23893
▁lies	-9.239
▁flocks	-9.24131
▁vine	-9.24193
▁placed	-9.24385
▁utter	-9.24447
▁cloth	-9.24657
▁behind	-9.24765
▁scattered	-9.24908
▁staff	-9.25845
▁!	-9.25856
▁?	-9.2591
▁abandon	-9.26131
▁attention	-9.26432
▁blessing	-9.26441
▁loved	-9.26882
▁tear	-9.27567
▁judgments	-9.2758
▁desolate	-9.27996
▁abimelech	-9.28127
▁oath	-9.2813
▁pillars	-9.28341
▁hide	-9.29268
▁reign	-9.29269
▁donkey	-9.29294
▁gracious	-9.29764
▁length	-9.29776
▁pursue	-9.29849
▁galilee	-9.29852
▁white	-9.29854
▁philistines	-9.29856
▁fled	-9.29879
an	-9.30189
▁besides	-9.30643
▁edge	-9.30993
▁door	-9.31243
▁distress	-9.31278
▁b	-9.31357
▁faithful	-9.31542
▁entrance	-9.31605
▁gospel	-9.31605
▁true	-9.31605
▁property	-9.31606
▁case	-9.31609
▁chaldeans	-9.3163
▁eaten	-9.31681
▁youth	-9.31687
▁rams	-9.32402
▁assyria	-9.33357
▁witness	-9.33376
▁levi	-9.33386
▁violence	-9.33391
▁quickly	-9.33399
▁instead	-9.33426
▁finished	-9.33459
▁wings	-9.33484
▁established	-9.33584
▁journey	-9.34306
▁skin	-9.3463
▁speaks	-9.34677
▁watch	-9.34829
▁possess	-9.34878
▁lift	-9.34908
▁loud	-9.35103
▁mordecai	-9.35209
▁shechem	-9.35209
▁rather	-9.35209
▁sheol	-9.35225
▁greater	-9.35439
▁ruins	-9.35471
▁top	-9.35949
ness	-9.35985
re	-9.36047
▁pray	-9.36383
▁prostitute	-9.36491
▁fill	-9.36766
ting	-9.36804
▁prepare	-9.36938
▁already	-9.37061
▁swear	-9.37064
▁aside	-9.37205
▁gifts	-9.37536
▁faces	-9.37723
▁seeking	-9.37837
ion	-9.37913
▁song	-9.3793
▁secret	-9.37981
▁dwell	-9.3804
▁knows	-9.38177
▁fool	-9.38388
▁vineyard	-9.38388
▁read	-9.38544
▁dwelling	-9.38705
▁balaam	-9.38948
▁cattle	-9.38948
▁enough	-9.38948
▁herself	-9.38948
▁width	-9.38948
▁shut	-9.38948
▁passover	-9.38964
▁fallen	-9.38979
▁responded	-9.3902
▁fourth	-9.39026
▁cursed	-9.3914
▁weeping	-9.39227
▁afterward	-9.39334
▁sleep	-9.39951
i	-9.40274
▁leader	-9.40361
▁ammon	-9.40866
▁job	-9.4087
▁remnant	-9.40871
▁territory	-9.40871
▁forget	-9.40871
▁doorway	-9.40871
▁sold	-9.40879
▁mary	-9.40879
▁feed	-9.40899
▁age	-9.40919
ers	-9.40922
▁continued	-9.40931
▁wonders	-9.40963
▁removed	-9.41054
▁healed	-9.41068
▁loves	-9.41273
▁served	-9.41334
▁acts	-9.41599
▁friend	-9.42275
▁choice	-9.42832
▁abram	-9.42832
▁chosen	-9.42844
▁oh	-9.42917
▁fulfilled	-9.42966
▁rejected	-9.42984
▁tenth	-9.43006
▁bases	-9.43135
▁lifted	-9.43164
▁breath	-9.43287
▁numbered	-9.43563
▁goats	-9.4359
▁delight	-9.43919
▁used	-9.44221
▁teacher	-9.44281
▁small	-9.44337
▁prophesy	-9.44484
▁pit	-9.44528
▁silent	-9.44738
▁edom	-9.44823
▁re	-9.44831
▁bound	-9.44832
▁nakedness	-9.44837
▁eternal	-9.44837
▁seventy	-9.44839
▁haman	-9.44839
▁almighty	-9.44845
▁afflicted	-9.44853
▁needy	-9.4487
▁allow	-9.44916
▁divided	-9.4492
▁restore	-9.45014
▁villages	-9.45018
▁noah	-9.45095
▁abominations	-9.45311
▁remained	-9.45376
▁plant	-9.45687
▁arm	-9.45801
over	-9.45946
▁test	-9.46228
▁image	-9.46318
▁buy	-9.46447
▁accept	-9.46538
able	-9.46573
▁false	-9.46799
iddle	-9.4687
▁attack	-9.46872
▁esther	-9.46872
▁itself	-9.46872
▁pilate	-9.46873
▁punishment	-9.46878
▁lying	-9.4688
ation	-9.46944
▁amorites	-9.47097
hrew	-9.47376
▁greatly	-9.47662
▁forward	-9.47915
thrown	-9.47976
▁waste	-9.47992
▁charge	-9.48057
▁multitude	-9.48355
▁rod	-9.48383
▁commandment	-9.48419
▁humble	-9.48835
▁foolish	-9.48864
▁upright	-9.48946
▁celebrate	-9.48956
▁eleazar	-9.48956
▁fifty	-9.48956
▁injustice	-9.48956
▁jericho	-9.48956
▁unleavened	-9.48956
▁otherwise	-9.48958
▁few	-9.48965
▁unless	-9.48965
▁gad	-9.4905
▁bowed	-9.49438
▁bed	-9.49703
ful	-9.49781
▁rule	-9.5035
▁laban	-9.50453
▁fight	-9.50734
▁mak	-9.51013
▁careful	-9.51018
▁church	-9.51069
▁flour	-9.51081
▁disgrace	-9.51083
▁testify	-9.51086
▁mixed	-9.51106
▁ahead	-9.51122
▁early	-9.51188
▁ordinances	-9.51438
▁abandoned	-9.5147
us	-9.51706
▁remembered	-9.5195
▁walls	-9.52453
▁grow	-9.52546
▁moon	-9.52667
▁gift	-9.52702
▁innocent	-9.53257
▁pride	-9.53257
▁lebanon	-9.53257
▁torn	-9.53258
▁saints	-9.53264
▁chariots	-9.53484
▁use	-9.53714
▁friends	-9.53878
▁judges	-9.54911
▁shepherd	-9.54927
▁dan	-9.55021
▁f	-9.55096
▁plead	-9.55138
▁ephah	-9.5548
▁bashan	-9.5548
▁previously	-9.55488
▁created	-9.55523
▁mothers	-9.55645
▁reported	-9.55743
▁journeyed	-9.55852
ites	-9.56295
▁boat	-9.57161
▁neck	-9.57173
▁cup	-9.57175
▁de	-9.57375
▁sees	-9.57559
▁sick	-9.57664
▁midian	-9.57743
▁grass	-9.57752
▁honey	-9.57752
▁zedekiah	-9.57752
▁knew	-9.57755
▁officers	-9.57785
▁ready	-9.57807
▁revealed	-9.57936
▁ends	-9.58031
▁rulers	-9.58288
▁shepherds	-9.58325
▁inner	-9.58445
uches	-9.58774
▁walked	-9.59049
▁commit	-9.59087
▁need	-9.59234
▁escape	-9.59323
▁plan	-9.59437
▁garden	-9.59502
▁abomination	-9.59522
▁bird	-9.59527
▁redeem	-9.59697
▁anoint	-9.59776
▁provide	-9.59971
▁abundance	-9.60078
▁replied	-9.60078
▁fellow	-9.60089
▁root	-9.60119
▁anointed	-9.6038
▁parts	-9.61114
▁sprinkle	-9.61491
▁care	-9.61708
▁practice	-9.6177
▁ruler	-9.6191
▁wrong	-9.61993
▁weep	-9.62134
▁reward	-9.62167
ous	-9.62327
▁defile	-9.62351
▁joyful	-9.62413
▁aroma	-9.62459
▁rebellious	-9.62459
▁desolation	-9.62459
▁teeth	-9.62459
during	-9.62466
▁amazed	-9.62469
▁witnesses	-9.62481
▁satan	-9.62489
▁eliminated	-9.62663
▁riches	-9.62714
▁redeemed	-9.62769
▁cri	-9.63167
ted	-9.63368
r	-9.63549
▁crowds	-9.63684
▁hills	-9.63918
▁devour	-9.64012
▁wrongdoings	-9.64065
▁boy	-9.64322
a	-9.64335
▁widow	-9.64335
▁listened	-9.64381
▁praises	-9.64729
▁always	-9.64898
▁flood	-9.64898
▁queen	-9.64898
▁milk	-9.64899
▁rachel	-9.64907
▁completely	-9.64945
▁apostles	-9.64974
▁guilty	-9.65028
othing	-9.65075
▁rings	-9.65167
▁red	-9.65237
▁wave	-9.65318
▁amen	-9.65378
▁performed	-9.65411
▁rivers	-9.65619
▁donkeys	-9.65694
▁strangers	-9.65987
▁form	-9.66284
▁desert	-9.66503
▁suffer	-9.66736
▁tomb	-9.66827
▁terror	-9.66829
▁synagogue	-9.66835
▁spring	-9.66836
▁en	-9.67061
though	-9.67169
▁decree	-9.67259
▁consume	-9.67393
▁apart	-9.67398
▁behalf	-9.67398
▁defect	-9.67398
▁hezekiah	-9.67398
▁scarlet	-9.67398
▁spend	-9.67398
▁tyre	-9.67398
▁yield	-9.67398
▁james	-9.67398
▁utensils	-9.67406
▁bethel	-9.67408
▁wide	-9.67412
▁forgiven	-9.67426
▁measured	-9.67586
▁stars	-9.67636
▁demons	-9.67759
▁sure	-9.67816
▁doors	-9.68281
▁happen	-9.68722
▁report	-9.68996
▁beast	-9.69377
▁object	-9.6938
▁baal	-9.69395
▁crie	-9.69429
▁comfort	-9.69618
▁punish	-9.69641
▁consecrate	-9.69838
▁forgive	-9.69923
▁gideon	-9.69951
▁glad	-9.69953
▁repay	-9.69955
▁euphrates	-9.69962
▁scroll	-9.69962
▁wept	-9.69964
▁buried	-9.69967
▁bind	-9.69967
▁baptized	-9.69986
▁former	-9.69986
▁asher	-9.70023
▁streets	-9.70187
▁persons	-9.70222
▁means	-9.70238
▁clouds	-9.71255
▁mourn	-9.71331
▁hears	-9.71391
▁ran	-9.71553
▁exile	-9.71895
▁veil	-9.71964
▁crown	-9.72007
▁yours	-9.72084
▁gain	-9.72286
▁prince	-9.72318
▁deceit	-9.72585
▁proceed	-9.72593
▁purple	-9.72593
▁samaria	-9.72593
▁violet	-9.72593
▁sodom	-9.72594
▁balak	-9.72594
▁worthless	-9.72594
▁pick	-9.72597
▁else	-9.72603
▁hard	-9.72613
▁judea	-9.72624
▁area	-9.72635
▁captured	-9.72641
▁departed	-9.72784
▁warriors	-9.72855
▁approached	-9.72857
▁messengers	-9.7287
▁eats	-9.73035
▁clothing	-9.73072
▁pleased	-9.73076
▁tents	-9.73211
▁upward	-9.7411
▁discipline	-9.74568
▁region	-9.74714
ver	-9.74811
▁hurry	-9.74924
▁pharaohs	-9.75166
▁release	-9.75171
▁bad	-9.75257
▁foreign	-9.75264
▁broke	-9.75267
▁horn	-9.75289
▁ephod	-9.75296
▁hungry	-9.75297
▁terrified	-9.75298
▁suddenly	-9.75305
▁tax	-9.75305
▁steps	-9.75373
▁isaiah	-9.75395
▁camels	-9.75412
▁thorns	-9.75442
or	-9.75479
▁sinners	-9.75534
▁canaanites	-9.75673
▁thoughts	-9.7583
m	-9.76108
▁covering	-9.76249
▁ordered	-9.76432
▁bulls	-9.76506
▁dies	-9.77135
▁appear	-9.7718
▁endure	-9.77369
▁purpose	-9.77445
▁robe	-9.77507
▁governor	-9.77516
▁foundation	-9.77564
▁sell	-9.77693
▁establish	-9.77756
▁close	-9.77869
▁hearing	-9.7792
▁storm	-9.78028
▁draw	-9.78046
▁hid	-9.78051
▁speech	-9.7807
▁sworn	-9.78074
▁ourselves	-9.78076
▁fourteen	-9.78078
▁herod	-9.78083
▁foolishness	-9.78086
▁fifth	-9.78097
▁circumcised	-9.78101
▁sinai	-9.78106
▁mark	-9.78155
▁summoned	-9.78164
▁meat	-9.7817
▁inside	-9.78279
▁consumed	-9.78284
▁relatives	-9.78319
▁paths	-9.78508
▁formed	-9.78556
▁kingdoms	-9.78586
▁per	-9.78797
▁forest	-9.78861
▁al	-9.7895
▁eating	-9.78988
▁net	-9.79081
ught	-9.79094
▁presented	-9.79122
▁turns	-9.79209
▁remains	-9.79486
am	-9.79494
▁thought	-9.79799
ies	-9.80041
▁promise	-9.80228
▁olive	-9.80292
▁commander	-9.8046
▁zebulun	-9.80475
ment	-9.80522
five	-9.80702
▁seat	-9.80805
rote	-9.80924
▁ai	-9.80926
▁adultery	-9.80931
▁astray	-9.80931
▁message	-9.80931
▁taught	-9.80931
▁vengeance	-9.80931
▁sexual	-9.80931
▁caught	-9.80932
▁detestable	-9.80932
▁due	-9.80933
▁nile	-9.80933
▁interpretation	-9.80933
▁yoke	-9.80934
▁rose	-9.80934
▁sarah	-9.80934
▁taking	-9.80935
▁naphtali	-9.80935
▁fought	-9.80936
▁wild	-9.80936
▁extend	-9.80984
▁forgotten	-9.81007
▁assembled	-9.81027
▁granted	-9.81199
▁chambers	-9.81264
▁hated	-9.81344
▁p	-9.81478
▁slaughtered	-9.81533
▁sow	-9.82839
▁boast	-9.82907
▁roar	-9.82941
▁tremble	-9.83143
▁lampstand	-9.8328
▁room	-9.83302
▁press	-9.83308
▁horse	-9.83332
▁months	-9.83583
▁simeon	-9.83868
▁futility	-9.83872
▁judas	-9.83872
▁nevertheless	-9.83872
▁precious	-9.83872
▁resurrection	-9.83872
▁shadow	-9.83872
▁tomorrow	-9.83872
▁blameless	-9.83873
▁memorial	-9.83873
▁salt	-9.83889
▁held	-9.83891
▁distance	-9.83899
▁fruitful	-9.83919
▁relations	-9.83948
▁cleansed	-9.83953
▁moved	-9.83962
▁oppressed	-9.84132
▁flowing	-9.84153
▁fools	-9.84754
▁kinds	-9.85058
▁neighbors	-9.85142
▁wear	-9.85565
▁heal	-9.85768
▁count	-9.85995
▁news	-9.86059
▁approach	-9.86236
▁waist	-9.86241
▁stop	-9.86272
▁fig	-9.86287
▁pleasure	-9.86311
▁shield	-9.8632
▁pain	-9.86355
▁shed	-9.86421
▁perfect	-9.86573
▁request	-9.86585
▁exalt	-9.86606
el	-9.86665
▁permanent	-9.86822
hap	-9.86824
▁ishmael	-9.86895
▁ancient	-9.86903
▁glorify	-9.86903
▁leprosy	-9.86903
▁samson	-9.86903
▁furthermore	-9.86903
▁bore	-9.86903
▁stopped	-9.86905
▁likewise	-9.86911
▁kindness	-9.86922
▁worthy	-9.86928
▁settled	-9.86954
▁weary	-9.86981
▁lost	-9.86987
▁arrows	-9.87032
▁promised	-9.8704
▁provinces	-9.87413
▁crossed	-9.87507
▁low	-9.87771
▁share	-9.88373
▁fast	-9.89316
▁increase	-9.89326
▁seeing	-9.89346
▁question	-9.89435
▁trumpet	-9.89467
▁statute	-9.89476
▁greet	-9.89664
▁fields	-9.89669
im	-9.897
▁sides	-9.89856
▁bitter	-9.89944
▁branch	-9.90013
▁philip	-9.90027
▁captivity	-9.90028
▁wipe	-9.90029
▁quiet	-9.90039
▁conceived	-9.9009
▁bars	-9.90181
▁line	-9.90259
▁either	-9.90513
▁judged	-9.90609
▁acted	-9.90676
▁exiles	-9.90698
ar	-9.91733
▁lions	-9.92438
▁refuse	-9.92546
▁palm	-9.92592
▁virgin	-9.92686
▁choose	-9.9269
▁disciple	-9.92702
▁grant	-9.92951
ce	-9.92953
▁damascus	-9.93253
▁empty	-9.93253
▁sihon	-9.93253
▁swallow	-9.93253
▁sackcloth	-9.93254
▁spent	-9.93254
▁contend	-9.93254
▁later	-9.93257
▁oxen	-9.93275
▁greatness	-9.93406
▁counted	-9.93579
▁towns	-9.93704
id	-9.93742
p	-9.93803
tified	-9.93911
▁add	-9.9406
▁asking	-9.94403
▁follows	-9.94997
▁receives	-9.95125
▁recognize	-9.9538
▁repent	-9.95589
▁possessions	-9.95756
▁orders	-9.95839
▁learn	-9.95897
▁thunder	-9.95927
▁result	-9.95958
▁language	-9.9601
▁province	-9.96028
▁ordinance	-9.9603
▁falls	-9.96099
▁appoint	-9.96299
▁divide	-9.96474
▁pronounce	-9.96575
▁royal	-9.96585
▁adversaries	-9.96587
▁beauty	-9.96587
▁issachar	-9.96587
▁material	-9.96587
▁redemption	-9.96587
▁wheat	-9.96587
▁gibeah	-9.96587
▁multiply	-9.96587
▁benefit	-9.96587
▁lightning	-9.96587
▁bodies	-9.96589
▁cherubim	-9.96589
▁statement	-9.96592
▁hired	-9.96606
▁dew	-9.96606
▁shaken	-9.96616
▁completed	-9.96724
▁sail	-9.96746
▁rescued	-9.96873
▁caused	-9.97067
▁planted	-9.97101
▁washed	-9.97257
▁governors	-9.97265
▁practices	-9.97382
▁worshiped	-9.97531
▁kiss	-9.97568
▁vineyards	-9.9759
▁calling	-9.9843
▁think	-9.9909
▁scatter	-9.99147
▁captain	-9.99374
▁shake	-9.99424
▁instruction	-9.99429
▁parable	-9.99468
▁tower	-9.99468
▁piece	-9.99486
▁betray	-9.9972
▁execute	-9.99906
▁change	-9.99911
▁inherit	-10.0002
▁dark	-10.0002
▁drunk	-10.0002
▁naked	-10.0003
▁heshbon	-10.0003
▁majesty	-10.0003
▁numerous	-10.0003
▁offspring	-10.0003
▁sweet	-10.0004
▁leather	-10.0004
▁dawn	-10.0004
▁seir	-10.0004
▁bloodshed	-10.0004
▁point	-10.0004
▁leah	-10.0004
▁arrived	-10.0006
▁married	-10.0006
▁poles	-10.0007
▁spoils	-10.0008
▁defeated	-10.0014
▁grapes	-10.002
▁nobles	-10.0026
▁boards	-10.0042
▁spirits	-10.0058
▁watching	-10.0069
▁shouting	-10.0084
▁outer	-10.0085
▁tears	-10.0119
▁sits	-10.0143
▁mans	-10.0175
▁masters	-10.0207
▁treasure	-10.029
▁square	-10.0302
▁heap	-10.0302
▁path	-10.0305
▁shoulder	-10.0314
▁wander	-10.0319
▁base	-10.032
▁flow	-10.0322
▁listening	-10.0323
▁oppress	-10.0326
▁bare	-10.0346
drew	-10.0351
oreover	-10.0354
▁subject	-10.036
▁stir	-10.036
▁drank	-10.0361
▁furnace	-10.0361
▁rebuild	-10.0361
▁contrary	-10.0361
▁awesome	-10.0361
▁swarm	-10.0361
▁prosperity	-10.0361
▁hail	-10.0361
▁metal	-10.0362
▁prey	-10.0362
▁designate	-10.0362
▁inhabited	-10.0369
▁risen	-10.0369
▁despised	-10.0372
▁seized	-10.0373
▁crushed	-10.0382
▁breasts	-10.0388
▁stands	-10.0393
▁creatures	-10.0394
▁wages	-10.0396
▁prayed	-10.042
▁trumpets	-10.0425
▁carrying	-10.0447
▁plans	-10.0448
▁start	-10.0475
▁altars	-10.0506
▁fail	-10.0597
▁vow	-10.0644
▁run	-10.0654
▁spot	-10.0668
▁serpent	-10.0673
▁basket	-10.0674
▁scribe	-10.0685
▁jew	-10.0691
▁reveal	-10.0701
▁owner	-10.0704
▁strengthen	-10.0706
▁complete	-10.0712
▁arrogant	-10.0723
▁public	-10.0723
▁abundant	-10.0724
▁continual	-10.0724
▁search	-10.0725
▁awake	-10.0728
▁straight	-10.073
▁bond	-10.0731
▁kiriath	-10.0731
▁integrity	-10.0731
▁rebekah	-10.0731
▁strife	-10.0731
▁testimonies	-10.0731
▁trembling	-10.0731
▁loaves	-10.0731
▁hebron	-10.0731
▁crucified	-10.0732
▁dried	-10.0733
▁passes	-10.0738
▁redeemer	-10.0744
▁consecrated	-10.0749
▁double	-10.075
▁depths	-10.0751
▁preaching	-10.0756
▁healing	-10.0774
▁devoured	-10.0778
▁herds	-10.0787
▁vows	-10.0789
▁pai	-10.0839
▁carv	-10.0859
▁desires	-10.0869
ve	-10.0882
▁cush	-10.089
it	-10.0924
▁mouths	-10.0925
▁prove	-10.0932
▁try	-10.0954
▁clothe	-10.0999
est	-10.1004
less	-10.1012
▁lack	-10.1023
▁ruin	-10.103
▁stumble	-10.104
▁demon	-10.106
▁height	-10.1071
o	-10.1075
▁taunt	-10.108
▁protect	-10.1081
▁reject	-10.1086
▁wail	-10.1099
▁assemble	-10.1103
▁seize	-10.1105
▁profane	-10.1108
▁jealous	-10.1111
▁deed	-10.1114
▁direct	-10.1115
▁sidon	-10.1116
▁acacia	-10.1116
▁ambush	-10.1116
▁barnabas	-10.1116
▁calf	-10.1116
▁council	-10.1116
▁daily	-10.1116
▁heavy	-10.1116
▁jephthah	-10.1116
▁mizpah	-10.1116
▁savior	-10.1116
▁uncircumcised	-10.1116
▁zechariah	-10.1116
▁bethlehem	-10.1116
▁circumcision	-10.1116
▁taste	-10.1116
▁jeshua	-10.1116
▁stumbling	-10.1116
▁elijah	-10.1116
▁splendor	-10.1116
▁interest	-10.1116
▁vain	-10.1116
▁justified	-10.1116
▁groom	-10.1117
▁oppression	-10.1117
▁unable	-10.1118
▁forefathers	-10.1119
▁thanksgiving	-10.1119
▁sixth	-10.1121
▁chains	-10.1123
▁tablets	-10.1128
▁infection	-10.1129
▁lower	-10.1129
▁often	-10.1135
▁less	-10.1141
▁corners	-10.1148
▁building	-10.1153
▁treasures	-10.1177
▁eli	-10.1258
▁herd	-10.126
▁walking	-10.1368
▁feared	-10.1401
▁measure	-10.1446
▁contribution	-10.1456
▁cloak	-10.1457
▁palace	-10.1458
▁ship	-10.1459
▁thousands	-10.1466
▁letter	-10.1467
▁ho	-10.1474
▁uncover	-10.1485
tribe	-10.1493
▁separate	-10.1503
▁fierce	-10.1506
▁aton	-10.1507
▁certain	-10.151
▁persia	-10.1512
▁heat	-10.1514
rove	-10.1515
▁ahasuerus	-10.1516
▁glorified	-10.1516
▁glorious	-10.1516
▁negev	-10.1516
▁surface	-10.1516
▁further	-10.1516
▁sixty	-10.1516
▁twist	-10.1516
▁ashes	-10.1516
▁devil	-10.1516
▁nun	-10.1516
▁pull	-10.1517
▁thirsty	-10.1519
▁guide	-10.1521
▁ropes	-10.1521
▁joined	-10.1539
▁ruined	-10.1548
▁stretched	-10.1555
▁ships	-10.1572
▁praying	-10.1591
▁severe	-10.166
▁single	-10.1668
▁crying	-10.1671
▁hates	-10.1698
▁rises	-10.17
▁dis	-10.1722
▁bathe	-10.1732
▁sabbaths	-10.1758
▁believes	-10.1781
▁provoke	-10.1823
▁seas	-10.1832
▁finds	-10.1835
▁depart	-10.1836
oth	-10.1837
▁met	-10.1873
▁orphan	-10.1875
▁finger	-10.1875
▁hebrew	-10.1875
▁captive	-10.1876
▁canaanite	-10.1878
▁godly	-10.189
▁support	-10.1898
▁drinking	-10.1901
▁thick	-10.1931
▁bright	-10.1931
▁ezra	-10.1932
▁precepts	-10.1932
▁rejoicing	-10.1932
▁breastpiece	-10.1932
▁baruch	-10.1932
▁pleasant	-10.1932
▁rebelled	-10.1932
▁price	-10.1932
▁saul	-10.1933
▁dug	-10.1933
▁jealousy	-10.1937
▁repairs	-10.1943
▁lose	-10.1944
▁warned	-10.1946
▁fact	-10.1947
▁goodness	-10.195
▁soil	-10.1955
▁streams	-10.1967
▁sha	-10.2001
▁springs	-10.2027
▁commits	-10.2035
▁wanted	-10.2055
▁je	-10.206
▁visions	-10.2081
▁meal	-10.2106
▁continue	-10.2289
▁flame	-10.2305
▁thigh	-10.2306
▁shine	-10.2308
▁scripture	-10.2311
▁lamp	-10.2311
▁cubit	-10.2312
▁pillar	-10.2312
▁ha	-10.2314
▁fruits	-10.2317
▁weight	-10.2319
▁delay	-10.2334
▁fulfill	-10.2336
▁spare	-10.2354
▁beat	-10.2355
▁devise	-10.2359
▁deceitful	-10.236
▁despise	-10.2361
▁sets	-10.2362
▁weak	-10.2366
▁centurion	-10.2367
▁discharge	-10.2367
▁fresh	-10.2367
▁darius	-10.2367
▁revolt	-10.2367
▁visit	-10.2367
▁bury	-10.2367
▁roof	-10.2367
▁korah	-10.2367
▁exceedingly	-10.2367
▁horsemen	-10.2367
▁stirred	-10.2367
▁gilgal	-10.2368
▁steal	-10.237
▁sown	-10.2372
▁threshing	-10.2372
▁firmly	-10.2373
▁treacherously	-10.2373
▁invited	-10.2373
▁coastlands	-10.2376
▁carefully	-10.2382
▁hurled	-10.2384
▁profaned	-10.2386
▁escaped	-10.2391
▁wheels	-10.2391
▁survivors	-10.2404
▁fully	-10.2406
▁declared	-10.2412
▁notice	-10.2423
▁lamps	-10.2424
▁proclaimed	-10.2458
▁widows	-10.2469
▁inquire	-10.2481
▁arms	-10.249
▁passing	-10.2562
▁portions	-10.2566
w	-10.2626
▁ended	-10.2645
▁incline	-10.2716
▁leaves	-10.2723
▁stronghold	-10.2763
ite	-10.2772
▁treat	-10.2793
▁bowl	-10.2793
▁cease	-10.281
▁hin	-10.2813
▁chose	-10.2819
▁dread	-10.2821
▁advice	-10.2822
▁arnon	-10.2822
▁barley	-10.2822
▁boaz	-10.2822
▁caleb	-10.2822
▁fifteen	-10.2822
▁fountain	-10.2822
▁grew	-10.2822
▁grief	-10.2822
▁merchandise	-10.2822
▁ninth	-10.2822
▁play	-10.2822
▁pledge	-10.2822
▁prophesied	-10.2822
▁subdue	-10.2822
▁understood	-10.2822
▁native	-10.2822
ai	-10.2822
▁issued	-10.2826
▁hooks	-10.2828
▁soldiers	-10.2831
▁pity	-10.2833
▁separated	-10.2836
▁trampled	-10.2836
▁changed	-10.2839
▁refused	-10.2839
▁descended	-10.2842
▁doves	-10.2849
▁companions	-10.2849
▁dispute	-10.2853
▁sealed	-10.2855
▁souls	-10.2911
▁shouted	-10.2917
▁maker	-10.2918
▁synagogues	-10.2926
▁waves	-10.2929
▁perished	-10.2946
▁charges	-10.2948
▁songs	-10.296
▁spit	-10.2985
▁plot	-10.3016
▁murder	-10.3196
▁blow	-10.32
▁princes	-10.3228
▁custom	-10.3236
▁solomon	-10.3239
▁chamber	-10.3242
▁inhabitant	-10.3243
▁ja	-10.3253
▁setting	-10.3257
▁im	-10.3294
▁courage	-10.3297
▁sand	-10.3298
▁across	-10.3298
▁aware	-10.3298
▁crawl	-10.3298
▁divorce	-10.3298
▁indignation	-10.3298
▁jehoiakim	-10.3298
▁josiah	-10.3298
▁siege	-10.3298
▁thief	-10.3298
▁zerubbabel	-10.3298
▁bride	-10.3298
▁leaving	-10.3298
▁occurred	-10.3298
▁testified	-10.3298
▁ago	-10.3298
▁jonah	-10.3298
▁lazy	-10.3298
▁slain	-10.3298
▁eighth	-10.3299
▁kadesh	-10.33
▁eight	-10.33
▁miracles	-10.3302
▁singers	-10.3302
▁lovers	-10.3304
▁cleanse	-10.3306
▁assured	-10.3306
oven	-10.3309
▁hot	-10.3312
▁falsely	-10.3315
▁lights	-10.3326
▁talking	-10.3331
▁uncovered	-10.3334
▁searched	-10.3339
▁prisoners	-10.3343
▁seal	-10.3359
▁chooses	-10.3382
▁trap	-10.3395
▁foundations	-10.3396
▁jo	-10.3402
▁opening	-10.3426
0	-10.3444
▁breaking	-10.3451
as	-10.3475
▁swords	-10.354
▁march	-10.3569
▁seeks	-10.3639
▁pleases	-10.3662
▁moment	-10.37
▁reap	-10.3728
▁preach	-10.3731
▁talk	-10.3732
▁caesar	-10.3738
▁girl	-10.374
▁offense	-10.3741
▁amorite	-10.3742
▁board	-10.3744
▁clear	-10.3758
▁crush	-10.3766
▁wish	-10.377
▁males	-10.377
▁instruct	-10.377
▁ring	-10.3774
tenth	-10.3775
▁official	-10.3787
▁violent	-10.379
▁perfume	-10.3797
▁faint	-10.3798
▁dominion	-10.3798
▁expanse	-10.3798
▁extreme	-10.3798
▁green	-10.3798
▁horror	-10.3798
▁prostitution	-10.3798
▁asleep	-10.3798
▁floor	-10.3798
▁flag	-10.3798
▁hananiah	-10.3798
▁allotment	-10.3798
▁confidence	-10.3798
▁anymore	-10.3799
▁hurried	-10.38
▁sharp	-10.38
▁arabah	-10.3801
▁deny	-10.3802
▁bag	-10.3802
▁kindled	-10.3803
▁allot	-10.3808
▁pleasing	-10.3809
▁insight	-10.3814
▁younger	-10.3818
▁sandals	-10.3823
▁ascended	-10.3824
▁og	-10.3826
▁treated	-10.3832
▁looks	-10.3839
▁thinking	-10.3849
▁roll	-10.385
▁locusts	-10.3852
▁workers	-10.3859
▁accepted	-10.3874
▁virgins	-10.3887
▁obeyed	-10.3899
▁commanders	-10.3904
▁j	-10.3938
▁images	-10.394
te	-10.3961
▁stretch	-10.3984
ought	-10.4139
iah	-10.414
▁resting	-10.414
▁condemn	-10.4226
▁burden	-10.4228
ble	-10.423
k	-10.4242
▁join	-10.4249
▁move	-10.4257
▁eagle	-10.4258
ter	-10.4262
▁belt	-10.4264
▁band	-10.4267
▁cedar	-10.4268
▁locust	-10.4268
▁messenger	-10.4268
▁chariot	-10.4268
▁levite	-10.427
▁accomplish	-10.4286
▁expect	-10.4287
▁confess	-10.429
▁marry	-10.4291
▁deceive	-10.4307
▁contempt	-10.4308
▁heir	-10.4312
▁enters	-10.4317
▁difficult	-10.4319
▁voluntar	-10.4324
▁beware	-10.4324
▁business	-10.4324
▁conduct	-10.4324
▁decide	-10.4324
▁gedaliah	-10.4324
▁insult	-10.4324
▁naomi	-10.4324
▁plenty	-10.4324
▁purify	-10.4324
▁rebuilt	-10.4324
▁sorrow	-10.4324
▁split	-10.4324
▁planned	-10.4324
▁micah	-10.4324
▁assessment	-10.4324
▁susa	-10.4324
▁boundary	-10.4324
▁jewish	-10.4324
▁serving	-10.4325
▁satisfy	-10.4325
▁countrymen	-10.4325
▁cain	-10.4326
▁basin	-10.4327
▁humiliated	-10.4327
▁knees	-10.4338
▁hardened	-10.4342
▁secretly	-10.4345
▁increased	-10.4346
▁windows	-10.4348
▁foreigners	-10.4367
▁learned	-10.4374
▁offenses	-10.4384
ene	-10.4398
▁rejoiced	-10.4402
▁heights	-10.4403
▁st	-10.4426
▁snare	-10.4455
▁willing	-10.4456
▁actual	-10.4478
▁husbands	-10.4549
▁lots	-10.4564
ity	-10.4628
b	-10.4712
▁boil	-10.4785
▁thirst	-10.4812
▁plain	-10.4815
▁forehead	-10.4821
▁warrior	-10.4824
▁town	-10.4824
▁shekel	-10.4825
▁restrain	-10.4841
▁alarm	-10.4847
▁conceal	-10.4849
▁mention	-10.4849
▁obtain	-10.4849
▁revive	-10.4865
▁proud	-10.487
▁unfaithful	-10.4871
▁short	-10.4872
▁proper	-10.4872
▁treacherous	-10.4873
▁firm	-10.4874
▁potter	-10.4875
▁self	-10.4879
▁obsc	-10.488
▁anguish	-10.488
▁arrogance	-10.488
▁banquet	-10.488
▁baptism	-10.488
▁burial	-10.488
▁common	-10.488
▁custody	-10.488
▁gibeon	-10.488
▁jubilee	-10.488
▁scepter	-10.488
▁slow	-10.488
▁misery	-10.488
▁lobe	-10.488
▁cyrus	-10.488
▁lyre	-10.488
▁plow	-10.488
▁bought	-10.4881
▁bitterness	-10.4881
▁spy	-10.4882
▁multiplied	-10.4882
▁past	-10.4887
▁drawn	-10.4893
▁informed	-10.4897
▁joyfully	-10.4897
▁frightened	-10.4898
▁dispossess	-10.49
▁released	-10.4907
▁shattered	-10.4909
▁preached	-10.4915
▁powerful	-10.492
▁vessels	-10.493
▁troubled	-10.493
eth	-10.4934
▁cedars	-10.494
▁scriptures	-10.4953
▁figs	-10.4986
▁helper	-10.5008
▁honored	-10.5017
▁loathe	-10.5023
▁waited	-10.5029
▁examine	-10.5074
▁den	-10.5081
ced	-10.515
▁best	-10.5174
▁minds	-10.5217
ive	-10.5222
▁valleys	-10.5251
reached	-10.5252
▁star	-10.5265
▁voices	-10.5266
▁wage	-10.5326
▁respect	-10.5371
▁reside	-10.5397
▁bribe	-10.5406
▁affliction	-10.5408
▁jebusite	-10.5409
▁creature	-10.5412
▁village	-10.5412
▁cave	-10.5415
▁cling	-10.542
▁fac	-10.5425
▁nest	-10.5428
▁feel	-10.543
▁prevail	-10.5437
▁shatter	-10.5437
▁ascend	-10.5438
▁exchange	-10.5441
▁worker	-10.5448
▁acquire	-10.5456
▁corrupt	-10.546
▁collect	-10.5462
▁trample	-10.5466
▁stubborn	-10.5467
▁fragran	-10.5467
▁antioch	-10.5468
▁booths	-10.5468
▁divination	-10.5468
▁fury	-10.5468
▁group	-10.5468
▁haughty	-10.5468
▁kidneys	-10.5468
▁kinsmen	-10.5468
▁maaseiah	-10.5468
▁manoah	-10.5468
▁meditate	-10.5468
▁smooth	-10.5468
▁tarshish	-10.5468
▁pregnant	-10.5468
▁arose	-10.5468
▁running	-10.5468
▁shade	-10.5468
▁impurity	-10.5468
▁mystery	-10.5468
▁beneath	-10.5468
▁brook	-10.5468
▁profit	-10.5468
▁big	-10.5468
▁wonderful	-10.5468
▁signet	-10.5468
▁astonished	-10.5469
▁begin	-10.547
▁pronouncement	-10.547
▁determined	-10.5471
▁repentance	-10.5471
▁churches	-10.5472
▁youngest	-10.5472
▁coals	-10.5473
▁securely	-10.5474
▁manna	-10.5477
▁fortunes	-10.548
▁urge	-10.5481
ern	-10.5488
▁weapons	-10.549
▁pitch	-10.5492
▁scales	-10.5508
▁wrapp	-10.5514
▁grounds	-10.5523
▁bake	-10.5523
▁resides	-10.5526
ry	-10.5535
▁forces	-10.5538
▁skill	-10.5538
▁comforted	-10.554
▁deserted	-10.5542
▁captives	-10.5549
▁ga	-10.5564
▁pains	-10.5581
▁trusted	-10.5626
▁c	-10.5656
▁dreams	-10.5696
▁gathering	-10.5704
▁destroyer	-10.5775
▁courtyards	-10.5799
▁r	-10.5833
▁real	-10.5849
▁winds	-10.5863
▁k	-10.5864
led	-10.5876
▁jacobs	-10.5897
▁lea	-10.5958
▁overflow	-10.5991
▁se	-10.6001
▁soothsayer	-10.6027
▁pool	-10.6027
▁hang	-10.6029
▁court	-10.603
▁block	-10.603
▁harp	-10.6032
▁hittite	-10.6033
▁quarrel	-10.6034
▁ne	-10.6034
▁tithe	-10.6036
▁article	-10.6036
▁vessel	-10.6036
▁street	-10.6037
▁relative	-10.6037
▁sinner	-10.604
▁prisoner	-10.6046
▁limp	-10.6056
▁arrest	-10.6062
▁require	-10.6074
▁mud	-10.6074
▁kohath	-10.6092
▁cheerful	-10.6092
▁cherub	-10.6092
▁assign	-10.6093
▁jackals	-10.6093
▁marriage	-10.6093
▁nazareth	-10.6093
▁outrageous	-10.6093
▁overlay	-10.6093
▁overtake	-10.6093
▁parents	-10.6093
▁sisera	-10.6093
▁thirteen	-10.6093
▁treasury	-10.6093
▁nahor	-10.6093
▁remote	-10.6093
▁snow	-10.6093
▁drop	-10.6093
▁caesarea	-10.6093
▁partiality	-10.6093
▁immorality	-10.6093
▁forsaken	-10.6093
▁deaf	-10.6093
▁haran	-10.6094
▁sickness	-10.6094
▁dragon	-10.6094
▁shiloh	-10.6094
▁priesthood	-10.6094
▁pigs	-10.6095
▁happy	-10.6095
▁wool	-10.6095
▁acceptable	-10.6095
▁legs	-10.6098
▁uncleanness	-10.6104
▁grown	-10.6104
▁evildoers	-10.6106
▁talents	-10.6113
▁collectors	-10.6113
▁wounded	-10.6123
▁withered	-10.6138
le	-10.6157
▁likeness	-10.6159
▁letters	-10.6183
▁parables	-10.6198
▁olives	-10.6221
▁crossing	-10.6238
▁proclaiming	-10.6243
▁performing	-10.6248
ic	-10.6254
▁dwells	-10.6288
he	-10.6305
▁namely	-10.6363
▁prayers	-10.6366
▁jar	-10.6478
▁entering	-10.6491
▁1	-10.6492
▁exten	-10.6524
▁permit	-10.6604
▁wound	-10.6672
▁hat	-10.6683
▁obligation	-10.6694
▁direction	-10.6698
▁tunic	-10.6702
▁stream	-10.6703
▁corner	-10.6703
▁survivor	-10.6704
for	-10.6718
▁groan	-10.6725
▁measur	-10.6725
▁demand	-10.6727
▁intend	-10.6728
▁smash	-10.6728
▁descend	-10.6729
▁persecute	-10.6747
▁capture	-10.6747
▁zeal	-10.6749
ped	-10.6751
▁shave	-10.6753
▁amalek	-10.6759
▁dish	-10.6759
growers	-10.676
▁burst	-10.676
▁capernaum	-10.676
▁clay	-10.676
▁condition	-10.676
▁crucify	-10.676
▁earthquake	-10.676
▁hagar	-10.676
▁lachish	-10.676
▁lazarus	-10.676
▁merari	-10.676
▁nineveh	-10.676
▁restitution	-10.676
▁statue	-10.676
▁swept	-10.676
▁twilight	-10.676
▁unwilling	-10.676
▁confront	-10.676
▁johanan	-10.676
▁mortal	-10.676
▁shelter	-10.676
▁bald	-10.676
▁below	-10.676
▁vari	-10.676
▁view	-10.676
▁exact	-10.676
▁heifer	-10.676
shach	-10.676
▁countries	-10.676
▁shemaiah	-10.676
▁holiness	-10.676
▁perverse	-10.676
▁turban	-10.676
▁perseverance	-10.676
▁hostility	-10.676
▁straw	-10.676
▁office	-10.676
▁bodyguard	-10.676
▁loss	-10.676
▁felt	-10.676
▁grumble	-10.676
▁gomorrah	-10.676
▁countryman	-10.6761
▁elam	-10.6761
drach	-10.6762
▁gladness	-10.6762
▁trade	-10.6762
▁forgiveness	-10.6762
▁hypocrites	-10.6766
▁troops	-10.6766
▁sheba	-10.6766
▁leaven	-10.6766
▁highest	-10.6767
▁pierced	-10.6767
▁acquired	-10.6774
▁deceived	-10.6779
▁cakes	-10.6781
▁abel	-10.679
▁closed	-10.6793
▁measurements	-10.6793
▁prevailed	-10.6795
▁rabbi	-10.6798
bed	-10.6805
▁reed	-10.6807
▁restored	-10.6808
▁desired	-10.6819
▁articles	-10.6821
▁lacking	-10.6821
▁plains	-10.6829
▁warm	-10.6833
▁added	-10.6837
▁bowls	-10.6845
ard	-10.6853
▁tobiah	-10.6895
▁nets	-10.6898
▁terrors	-10.6916
▁personal	-10.6935
▁plants	-10.6953
▁sleeps	-10.6965
▁nights	-10.6999
ence	-10.7002
▁force	-10.7013
▁spi	-10.7109
upper	-10.7124
▁store	-10.7172
▁lend	-10.731
▁seem	-10.7327
▁sprout	-10.7382
▁working	-10.7384
servant	-10.7395
▁grave	-10.7403
▁tribulation	-10.7408
▁threshold	-10.7408
▁hammer	-10.741
▁laws	-10.7413
▁row	-10.7413
▁bank	-10.7414
▁load	-10.7414
▁concubine	-10.7415
▁overcome	-10.7415
▁rebel	-10.7416
▁breast	-10.7418
▁striv	-10.7418
▁flower	-10.7419
▁egyptian	-10.7419
▁foreigner	-10.7424
▁maintain	-10.7438
▁inflict	-10.7441
▁torment	-10.7442
▁confirm	-10.7443
▁dishonor	-10.7443
▁pan	-10.7443
▁post	-10.7444
▁melt	-10.7448
laid	-10.7451
two	-10.7451
stretched	-10.7456
▁settle	-10.7459
▁conceive	-10.7462
▁valiant	-10.7466
▁distan	-10.7468
▁loose	-10.7471
▁eleven	-10.7472
▁strange	-10.7473
▁enjoy	-10.7473
▁consult	-10.7474
nego	-10.7474
▁acknowledge	-10.7474
▁artaxerxes	-10.7474
▁attitude	-10.7474
▁beersheba	-10.7474
▁chaff	-10.7474
▁crooked	-10.7474
▁defense	-10.7474
▁eliashib	-10.7474
▁entrails	-10.7474
▁explain	-10.7474
▁festus	-10.7474
▁frankincense	-10.7474
▁gatekeepers	-10.7474
▁poverty	-10.7474
▁responsibility	-10.7474
▁retribution	-10.7474
▁rising	-10.7474
▁succoth	-10.7474
▁turtledove	-10.7474
▁unpunished	-10.7474
▁vegetation	-10.7474
▁repeatedly	-10.7474
▁goshen	-10.7474
▁center	-10.7474
▁sarai	-10.7474
▁tribute	-10.7474
▁admonish	-10.7474
▁hatred	-10.7474
▁flies	-10.7474
▁dung	-10.7474
▁possible	-10.7474
▁eden	-10.7474
▁bondage	-10.7474
▁summer	-10.7475
▁porches	-10.7475
▁humanity	-10.7475
▁useless	-10.7475
▁hunger	-10.7476
▁spies	-10.7476
▁hell	-10.7477
▁slavery	-10.7477
▁dismayed	-10.7477
latter	-10.748
▁watches	-10.748
▁tried	-10.7481
▁shelah	-10.7481
▁course	-10.7482
▁accus	-10.7484
▁fullness	-10.7486
▁alike	-10.7488
▁weighed	-10.7494
▁bent	-10.7506
▁sour	-10.7509
▁eunuchs	-10.751
▁obtained	-10.7514
ier	-10.7515
▁hanging	-10.7515
▁accomplished	-10.7516
▁greeks	-10.7518
▁instructed	-10.7519
▁condemned	-10.7519
▁provided	-10.752
▁inscription	-10.7528
▁seems	-10.7531
arba	-10.7534
▁strengthened	-10.7535
▁wounds	-10.7536
▁aha	-10.754
▁tithes	-10.754
▁snares	-10.755
▁sole	-10.7553
▁approaching	-10.7558
▁hebrews	-10.7574
▁tested	-10.7592
▁sacrificed	-10.7594
▁prophesying	-10.7602
▁ham	-10.761
handed	-10.7621
▁mean	-10.7634
▁plundered	-10.7636
▁tombs	-10.7643
the	-10.7651
▁dip	-10.767
▁prostitutes	-10.7703
▁spreading	-10.7744
▁withers	-10.7802
▁tongues	-10.7807
▁snatch	-10.7816
▁curses	-10.7825
▁tail	-10.7848
▁dig	-10.7874
ch	-10.7887
▁rocks	-10.7908
▁hamath	-10.7929
▁gathers	-10.7951
▁opens	-10.7974
▁borders	-10.8033
▁rush	-10.8059
▁ce	-10.8088
rely	-10.8095
▁compl	-10.8123
▁sanctif	-10.813
▁caus	-10.8149
▁minister	-10.815
▁season	-10.8153
▁respond	-10.8169
▁hor	-10.8173
llowed	-10.8176
▁counsel	-10.8179
▁nurs	-10.8181
▁murderer	-10.8181
▁proverb	-10.8183
▁hoof	-10.8184
▁record	-10.8185
▁oak	-10.8186
▁pot	-10.8187
▁bone	-10.8193
▁includ	-10.8211
▁neglect	-10.8211
▁finish	-10.8213
▁hurl	-10.8219
▁equal	-10.8234
▁secure	-10.8236
▁skillful	-10.8237
▁complain	-10.8237
▁dut	-10.824
▁porch	-10.8242
▁bush	-10.8242
▁zerah	-10.8242
▁ordain	-10.8243
▁addition	-10.8243
▁advantage	-10.8243
▁alert	-10.8243
▁aloud	-10.8243
▁baptist	-10.8243
▁behavior	-10.8243
▁black	-10.8243
▁copy	-10.8243
▁debir	-10.8243
▁eglon	-10.8243
▁excellent	-10.8243
▁gaza	-10.8243
▁gnash	-10.8243
▁jerubbaal	-10.8243
▁joppa	-10.8243
▁macedonia	-10.8243
▁malchijah	-10.8243
▁outcry	-10.8243
▁paralyzed	-10.8243
▁phinehas	-10.8243
▁proportion	-10.8243
▁reclining	-10.8243
▁reply	-10.8243
▁sadducees	-10.8243
▁satraps	-10.8243
▁shackles	-10.8243
▁stick	-10.8243
▁terrify	-10.8243
▁writing	-10.8243
▁argue	-10.8243
▁increasing	-10.8243
▁position	-10.8243
▁withhold	-10.8243
▁commission	-10.8243
▁solemn	-10.8243
▁machir	-10.8243
▁worn	-10.8243
▁martha	-10.8243
▁azariah	-10.8243
▁noise	-10.8243
▁cruel	-10.8243
tical	-10.8243
▁leaf	-10.8243
▁everywhere	-10.8244
▁terah	-10.8244
▁deception	-10.8244
▁colt	-10.8244
▁unintentionally	-10.8244
▁different	-10.8244
▁compassionate	-10.8244
▁dough	-10.8244
▁cleansing	-10.8245
▁announce	-10.8245
▁sir	-10.8245
▁beaten	-10.8245
▁diligently	-10.8245
▁successful	-10.8246
▁delightful	-10.8246
▁rage	-10.8247
▁persuaded	-10.8247
▁exposed	-10.8248
▁grieved	-10.8248
▁eagerly	-10.8249
▁complaint	-10.8249
▁purchased	-10.8251
▁credited	-10.8252
▁sanctified	-10.8253
▁entrusted	-10.8254
▁provisions	-10.8255
▁wedding	-10.8257
▁spices	-10.8264
▁godless	-10.8265
▁leap	-10.8267
▁merchants	-10.8268
▁delivered	-10.8272
▁diseases	-10.8273
▁divisions	-10.8273
▁ble	-10.8273
▁late	-10.8276
▁andrew	-10.8278
▁dogs	-10.8281
▁groaning	-10.8284
▁eastward	-10.8288
▁cords	-10.8291
▁humbled	-10.8295
▁ministers	-10.8301
▁beating	-10.8306
▁pleading	-10.8306
▁vowed	-10.8309
▁failed	-10.831
▁bands	-10.8328
▁beings	-10.8331
▁fasting	-10.8332
▁co	-10.8364
▁baskets	-10.8365
mo	-10.8372
▁towers	-10.8375
▁denie	-10.8378
▁stoned	-10.8402
▁robes	-10.8408
▁lo	-10.8414
▁praised	-10.8436
▁labored	-10.8453
▁site	-10.8453
to	-10.8471
▁ar	-10.8518
▁vines	-10.8524
▁rescues	-10.853
▁roads	-10.8549
▁staying	-10.855
▁ma	-10.8598
by	-10.8631
▁labors	-10.8635
▁intent	-10.8648
▁z	-10.8666
▁drinks	-10.8687
▁mere	-10.8698
age	-10.8743
▁carrie	-10.8748
▁carve	-10.8803
ash	-10.8813
▁compare	-10.8847
▁4	-10.8861
▁tie	-10.8862
▁sh	-10.8888
▁worked	-10.8888
7	-10.8896
red	-10.8901
ath	-10.8915
▁laugh	-10.8943
▁control	-10.9013
▁overseer	-10.9014
▁hivite	-10.9015
▁period	-10.9015
▁citadel	-10.9016
▁oppressor	-10.9018
ish	-10.9018
▁pair	-10.9018
▁sack	-10.9018
▁scale	-10.902
▁idol	-10.9021
gged	-10.9027
▁deliver	-10.9038
▁receiv	-10.9043
▁strip	-10.9044
▁comp	-10.9054
coming	-10.9055
▁swift	-10.9068
▁gloom	-10.9071
▁flam	-10.9072
▁overthrow	-10.9074
▁fortress	-10.9075
ehold	-10.9075
▁gershon	-10.9076
▁bani	-10.9076
▁balsam	-10.9076
▁barak	-10.9076
▁confusion	-10.9076
▁disobedient	-10.9076
▁ephesus	-10.9076
▁kareah	-10.9076
▁laborious	-10.9076
▁magdalene	-10.9076
▁meshullam	-10.9076
▁mislead	-10.9076
▁obstinate	-10.9076
▁proclamation	-10.9076
▁renew	-10.9076
▁shealtiel	-10.9076
▁slept	-10.9076
▁stomach	-10.9076
▁testifies	-10.9076
▁thoroughly	-10.9076
▁thread	-10.9076
▁tread	-10.9076
▁uproar	-10.9076
▁vomit	-10.9076
▁welcome	-10.9076
▁zalmunna	-10.9076
▁aroer	-10.9076
▁broad	-10.9076
▁display	-10.9076
▁security	-10.9076
▁libnah	-10.9076
▁necessary	-10.9076
▁space	-10.9076
▁ahikam	-10.9076
▁sustain	-10.9076
▁twice	-10.9076
▁disperse	-10.9076
▁opportunity	-10.9076
▁safety	-10.9077
▁axe	-10.9077
▁sang	-10.9077
▁myrrh	-10.9077
▁resident	-10.9077
▁watchmen	-10.9077
▁ruth	-10.9077
▁flatter	-10.9077
▁nebu	-10.9078
▁hazor	-10.9078
▁adam	-10.9078
▁avenger	-10.9078
▁appalled	-10.9078
▁attendants	-10.9079
▁blemish	-10.908
▁perez	-10.908
▁hamor	-10.908
▁hermon	-10.908
▁tired	-10.9081
▁helpless	-10.9081
▁confined	-10.9083
▁sentence	-10.9084
▁ramah	-10.9085
▁dressed	-10.9086
▁darkened	-10.9086
▁afar	-10.9093
▁violated	-10.9093
▁abundantly	-10.9094
▁fever	-10.9097
▁total	-10.9097
▁westward	-10.91
▁asia	-10.9104
▁stumbled	-10.9105
▁belly	-10.9107
▁pomegranates	-10.9109
▁aram	-10.9117
▁endured	-10.9117
▁arrested	-10.9118
▁hanged	-10.9119
▁shem	-10.9119
hand	-10.9123
▁weeks	-10.9125
▁ride	-10.9127
▁talked	-10.9129
ant	-10.9136
is	-10.9174
▁girls	-10.9174
▁beg	-10.9177
▁inter	-10.9191
▁fingers	-10.9195
▁armed	-10.9211
▁fighting	-10.9219
ster	-10.9231
▁wickedly	-10.9231
▁sleeping	-10.9235
tently	-10.9293
▁provok	-10.9304
▁con	-10.9317
om	-10.9317
▁delights	-10.9328
▁belonging	-10.9371
▁blessings	-10.9379
▁pile	-10.9391
▁tables	-10.941
▁helped	-10.9413
▁unit	-10.9414
▁plagues	-10.9415
▁lean	-10.9443
▁dim	-10.9474
▁er	-10.9481
▁2	-10.9501
▁bath	-10.9502
▁finding	-10.9503
▁chase	-10.9519
▁thrones	-10.9576
▁rejoices	-10.9666
▁advance	-10.9674
▁ba	-10.9757
▁di	-10.9783
ne	-10.9812
▁ow	-10.9907
▁glean	-10.9911
▁mock	-10.9915
▁festival	-10.992
▁decision	-10.9923
▁sense	-10.9924
▁roman	-10.9926
▁perizzite	-10.9926
▁spear	-10.9928
ors	-10.9928
▁cord	-10.9928
▁greek	-10.9928
▁companion	-10.9929
ab	-10.9936
▁wither	-10.994
▁ransom	-10.9946
scribe	-10.9949
▁slander	-10.9949
▁grasp	-10.9952
▁discover	-10.9954
▁frighten	-10.9955
▁summon	-10.9956
▁noble	-10.9959
▁harden	-10.9959
iel	-10.9968
▁roo	-10.9968
▁silence	-10.9972
oops	-10.9972
▁recline	-10.9972
ph	-10.9974
▁correct	-10.9978
▁thin	-10.9981
▁hunt	-10.9983
▁carcass	-10.9984
▁encourage	-10.9985
▁observe	-10.9985
▁drip	-10.9985
▁task	-10.9986
▁decay	-10.9986
▁poison	-10.9986
▁suppo	-10.9986
zarad	-10.9986
▁apportion	-10.9986
▁assault	-10.9986
▁barabbas	-10.9986
▁craftsmen	-10.9986
▁eighteen	-10.9986
▁ekron	-10.9986
▁eliphaz	-10.9986
▁evidence	-10.9986
▁exhausted	-10.9986
▁gazelle	-10.9986
▁gray	-10.9986
▁hardship	-10.9986
▁horeb	-10.9986
▁hyssop	-10.9986
▁intoxicat	-10.9986
▁iscariot	-10.9986
▁ithamar	-10.9986
▁jethro	-10.9986
▁jubilant	-10.9986
▁loft	-10.9986
▁manslaughter	-10.9986
▁milcah	-10.9986
▁ministry	-10.9986
▁nazirite	-10.9986
▁nethaniah	-10.9986
▁pashhur	-10.9986
▁patience	-10.9986
▁rahab	-10.9986
▁stupid	-10.9986
▁succeed	-10.9986
▁twelfth	-10.9986
▁valid	-10.9986
▁value	-10.9986
▁winter	-10.9986
▁withheld	-10.9986
▁zadok	-10.9986
▁zebedee	-10.9986
▁prudent	-10.9986
blaz	-10.9986
▁dibon	-10.9986
▁remainder	-10.9986
nadab	-10.9986
▁ahaz	-10.9986
▁anathoth	-10.9986
▁silas	-10.9986
▁haggai	-10.9986
▁imprisonment	-10.9986
▁devastation	-10.9986
▁lowland	-10.9986
▁traders	-10.9986
▁joash	-10.9986
▁ease	-10.9986
▁creation	-10.9986
▁weaver	-10.9986
▁ruthless	-10.9986
▁unrighteousness	-10.9986
▁fragrance	-10.9986
▁realm	-10.9986
▁ananias	-10.9986
▁timnah	-10.9986
▁chew	-10.9987
▁sweep	-10.9987
▁hezron	-10.9987
▁stubbornness	-10.9987
▁abound	-10.9987
▁stripped	-10.9988
▁cold	-10.9988
▁wineskins	-10.9989
▁translated	-10.999
▁safely	-10.9991
▁duty	-10.9991
▁tempted	-10.9993
▁dishon	-10.9993
▁owl	-10.9993
special	-10.9997
▁refined	-10.9998
▁install	-10.9998
▁warn	-10.9998
▁stern	-10.9999
▁canals	-10.9999
▁selected	-11.0002
▁persecuted	-11.0003
▁weeds	-11.0004
▁scorched	-11.0005
▁encouraged	-11.0006
▁observed	-11.0006
▁flashing	-11.0007
▁greatest	-11.0008
▁uncle	-11.001
▁closely	-11.0011
▁liver	-11.0013
▁ceased	-11.0013
▁riding	-11.0014
gad	-11.0015
▁greetings	-11.0016
▁dove	-11.0018
▁warning	-11.0021
▁inquired	-11.0021
▁confirmed	-11.0026
aries	-11.0026
▁smashed	-11.0029
▁oven	-11.003
▁kindly	-11.0036
▁concealed	-11.0038
▁blossoms	-11.0038
old	-11.0042
▁spears	-11.0043
▁wailing	-11.0071
me	-11.008
▁heirs	-11.0087
▁invite	-11.0098
▁blows	-11.0099
▁palaces	-11.0121
rs	-11.0123
▁serpents	-11.0132
▁cr	-11.0134
▁distinguish	-11.0136
▁withdraw	-11.0138
▁languages	-11.0149
▁distressed	-11.0155
▁increases	-11.0161
▁possessed	-11.0171
▁appears	-11.0183
▁beard	-11.019
▁needs	-11.0223
▁grows	-11.024
▁faced	-11.0338
ure	-11.0361
▁graze	-11.0373
esh	-11.0401
▁bears	-11.0432
▁destroying	-11.0465
▁feasts	-11.0474
▁devot	-11.0476
▁understands	-11.0515
▁zeba	-11.058
ling	-11.0629
▁driv	-11.063
ut	-11.0655
em	-11.0657
▁chiefs	-11.0718
▁commands	-11.0762
▁cu	-11.0828
un	-11.0857
▁prosper	-11.0879
▁grind	-11.0887
▁exist	-11.0889
fertile	-11.0904
▁ashdod	-11.0904
▁wrap	-11.0907
▁associate	-11.092
▁riddle	-11.0921
▁cistern	-11.0923
possessed	-11.0925
▁bulb	-11.0926
▁inform	-11.0928
▁blossom	-11.0928
▁week	-11.0928
▁depth	-11.0929
▁thorn	-11.093
▁wheel	-11.0931
▁hip	-11.094
▁disturb	-11.0952
▁prolong	-11.0953
▁defeat	-11.0955
▁vindicate	-11.0972
▁collapse	-11.0972
▁perceive	-11.0972
▁revere	-11.0973
▁create	-11.0974
▁eager	-11.0978
▁hung	-11.0984
▁divine	-11.0984
▁interpret	-11.0985
▁fashion	-11.0986
▁roast	-11.0986
jearim	-11.0986
▁agrippa	-11.0986
▁awoke	-11.0986
▁brimstone	-11.0986
▁calm	-11.0986
▁carmel	-11.0986
▁company	-11.0986
▁conscience	-11.0986
▁correspond	-11.0986
▁dinner	-11.0986
▁disgust	-11.0986
▁flint	-11.0986
▁frogs	-11.0986
▁future	-11.0986
▁humility	-11.0986
▁infidelity	-11.0986
▁investigate	-11.0986
▁jedaiah	-11.0986
▁jephunneh	-11.0986
▁jotham	-11.0986
▁juniper	-11.0986
▁midnight	-11.0986
▁nazarene	-11.0986
▁nebo	-11.0986
▁obedience	-11.0986
▁ordination	-11.0986
▁overpower	-11.0986
▁prevent	-11.0986
▁rephaim	-11.0986
▁reverence	-11.0986
▁sanballat	-11.0986
▁stubble	-11.0986
▁supply	-11.0986
▁thomas	-11.0986
▁timothy	-11.0986
▁abiram	-11.0986
▁obedient	-11.0986
▁purification	-11.0986
▁dathan	-11.0986
▁simpl	-11.0986
▁terms	-11.0986
▁entiles	-11.0986
▁flute	-11.0986
▁generous	-11.0986
▁malice	-11.0986
▁robbery	-11.0986
▁freedom	-11.0986
▁hazar	-11.0986
▁quiver	-11.0986
▁shone	-11.0986
▁adversity	-11.0986
▁nature	-11.0986
▁eliab	-11.0986
▁appeal	-11.0986
▁watchman	-11.0986
▁sickle	-11.0987
▁farther	-11.0987
▁reminder	-11.0987
▁courageous	-11.0987
▁fly	-11.0987
▁station	-11.0987
▁seashore	-11.0987
▁tall	-11.0988
▁eleventh	-11.0988
▁trustworthy	-11.0989
▁instruments	-11.0989
▁boldly	-11.0989
▁diviners	-11.0989
▁bolt	-11.0989
▁tamar	-11.099
▁sale	-11.0991
▁hostil	-11.0992
tened	-11.0992
▁correctly	-11.0994
dding	-11.0994
▁eighty	-11.0996
▁sad	-11.0999
▁fitting	-11.1
▁repaired	-11.1001
▁cows	-11.1001
▁tied	-11.1003
▁nine	-11.1004
so	-11.1006
▁figure	-11.1006
▁corpses	-11.1007
▁laborers	-11.1009
▁bitterly	-11.101
▁nurse	-11.1011
▁moth	-11.1011
▁sinful	-11.1013
▁accompani	-11.1014
▁spared	-11.1016
▁pegs	-11.1019
▁deprive	-11.1025
▁counselors	-11.1026
▁wealthy	-11.1029
▁ministering	-11.1032
▁shoots	-11.1038
▁northward	-11.1039
▁wrongful	-11.1043
▁higher	-11.1048
▁sacks	-11.1056
▁awe	-11.1058
▁oaks	-11.1062
▁records	-11.1062
▁bend	-11.1064
▁rebels	-11.1068
▁suffering	-11.1073
▁tunics	-11.1075
▁settings	-11.1112
▁customs	-11.1112
▁punished	-11.1113
▁sanctifie	-11.1124
man	-11.1125
▁accuser	-11.1137
▁lacks	-11.1143
▁committ	-11.1146
▁spiritual	-11.1163
▁shoulders	-11.1167
▁noon	-11.1195
▁promises	-11.1199
▁rightly	-11.1206
▁baals	-11.1223
▁happens	-11.1225
▁anah	-11.1231
▁boys	-11.1236
,500.	-11.1239
▁cups	-11.1255
▁rods	-11.128
▁encircle	-11.1282
▁skins	-11.1328
▁troubles	-11.1332
▁differ	-11.1369
▁state	-11.1393
▁rebukes	-11.1393
▁matters	-11.1394
na	-11.142
▁sounded	-11.1444
▁books	-11.1451
▁gush	-11.1462
▁waits	-11.1516
ach	-11.1552
ate	-11.1579
▁catch	-11.1581
▁pastures	-11.1592
▁backs	-11.1604
▁plaster	-11.1614
▁3	-11.1779
▁urg	-11.178
took	-11.1816
▁ab	-11.1826
▁founded	-11.1837
men	-11.1867
some	-11.191
▁fearing	-11.1917
▁bar	-11.194
▁weigh	-11.1982
▁u	-11.1994
▁rid	-11.1995
▁fold	-11.1999
▁triumph	-11.2002
▁awaken	-11.201
▁consum	-11.2012
day	-11.2018
▁amount	-11.2031
▁undergarment	-11.2036
▁log	-11.2036
▁scoffer	-11.2037
▁shoot	-11.2039
▁eunuch	-11.204
▁wonder	-11.204
▁grape	-11.2041
▁pharisee	-11.2041
▁measurement	-11.2041
▁sandal	-11.2043
▁ut	-11.2047
▁string	-11.2049
▁discern	-11.206
▁prais	-11.2061
▁deserv	-11.2068
▁drag	-11.2071
8	-11.2072
four	-11.2072
▁pre	-11.2079
▁enlarge	-11.2082
▁pierce	-11.2084
nah	-11.2084
▁repai	-11.2088
▁unjust	-11.2089
▁hil	-11.2092
▁honest	-11.2092
▁revel	-11.2096
▁govern	-11.2096
▁flourish	-11.2096
▁worm	-11.2097
▁ashkelon	-11.2097
▁authorities	-11.2097
▁forgot	-11.2097
▁level	-11.2097
▁ven	-11.2097
barnea	-11.2097
sufficient	-11.2097
▁abroad	-11.2097
▁adulteress	-11.2097
▁adversary	-11.2097
▁attentive	-11.2097
▁baggage	-11.2097
▁belteshazzar	-11.2097
▁census	-11.2097
▁consecration	-11.2097
▁contingent	-11.2097
▁cornerstone	-11.2097
▁craftsman	-11.2097
▁cupbearer	-11.2097
▁deborah	-11.2097
▁denarius	-11.2097
▁distinction	-11.2097
▁embrace	-11.2097
▁enoch	-11.2097
▁enslave	-11.2097
▁envy	-11.2097
▁fault	-11.2097
▁felix	-11.2097
▁footstool	-11.2097
▁impossible	-11.2097
▁jonathan	-11.2097
▁jubilation	-11.2097
▁kedesh	-11.2097
▁majestic	-11.2097
▁overnight	-11.2097
▁paddan	-11.2097
▁prophecy	-11.2097
▁pursuing	-11.2097
▁rebellion	-11.2097
▁seraiah	-11.2097
▁shaft	-11.2097
▁shelemiah	-11.2097
▁striking	-11.2097
▁thumb	-11.2097
▁victory	-11.2097
▁vigor	-11.2097
▁welfare	-11.2097
▁wondrous	-11.2097
▁yeast	-11.2097
▁zelophehad	-11.2097
▁abyss	-11.2097
▁bethany	-11.2097
▁parched	-11.2097
▁lamech	-11.2097
▁pardon	-11.2097
▁devout	-11.2097
▁music	-11.2097
▁jesse	-11.2097
▁shaphan	-11.2097
▁briar	-11.2097
▁250	-11.2097
▁cyprus	-11.2097
▁ninety	-11.2097
▁flax	-11.2097
▁naive	-11.2097
▁blast	-11.2097
▁falsehood	-11.2097
▁bethuel	-11.2097
▁anakim	-11.2097
▁herdsmen	-11.2097
▁uzziah	-11.2097
ehud	-11.2097
▁lioness	-11.2097
▁ledge	-11.2097
▁torches	-11.2097
▁purified	-11.2098
▁lake	-11.2098
▁flashes	-11.2098
▁resist	-11.2098
▁construct	-11.2098
▁fame	-11.2098
▁onyx	-11.2098
▁insolent	-11.2098
▁events	-11.2098
▁condemnation	-11.2098
▁rash	-11.2098
▁dedan	-11.2098
▁carcasses	-11.2099
▁marvelous	-11.2099
▁disappear	-11.2099
▁apply	-11.2099
▁brightness	-11.2099
▁protection	-11.2099
▁greedy	-11.2099
▁ebed	-11.21
▁clasps	-11.21
▁hailstones	-11.21
▁almond	-11.2101
▁express	-11.2101
▁nearby	-11.2101
▁doubt	-11.2101
▁island	-11.2102
▁betrothed	-11.2102
▁graciousness	-11.2103
rance	-11.2105
▁devastated	-11.2106
▁difficulty	-11.2107
▁quaked	-11.2107
▁sorcerers	-11.2107
▁wrongdoers	-11.2107
▁skillfully	-11.2108
▁plainly	-11.2112
▁erected	-11.2113
▁violently	-11.2114
▁clearly	-11.2114
▁citizens	-11.2114
▁bricks	-11.2114
▁showers	-11.2115
▁builders	-11.2115
▁schemes	-11.2116
▁asaph	-11.2117
▁survived	-11.2119
▁publicly	-11.212
▁required	-11.212
▁stray	-11.212
▁ravines	-11.2121
▁dragg	-11.2121
▁shallum	-11.2123
▁lowly	-11.2126
▁blasphemed	-11.2127
▁contains	-11.2128
▁cultivate	-11.2129
▁homer	-11.2129
▁heber	-11.2129
▁stronger	-11.2133
▁executed	-11.214
▁southward	-11.2143
▁dishonored	-11.2147
▁trembled	-11.2148
▁restrained	-11.2163
▁freely	-11.2164
servants	-11.2167
▁meant	-11.217
▁entirely	-11.2172
one	-11.2175
har	-11.219
▁untie	-11.2202
▁armor	-11.2204
▁taunting	-11.2204
▁betrayed	-11.2208
▁moves	-11.2225
▁suffered	-11.2245
▁strongholds	-11.2245
▁rec	-11.2246
▁selling	-11.2246
▁compel	-11.2265
▁cloaks	-11.2266
▁tend	-11.2281
▁heaps	-11.2287
▁returns	-11.2291
▁shields	-11.2322
▁regions	-11.235
▁objects	-11.2364
▁fleeing	-11.2376
▁devours	-11.2379
▁rais	-11.2389
▁gardens	-11.2393
▁necks	-11.24
▁dwellings	-11.2464
▁tops	-11.248
▁reigns	-11.2499
aram	-11.2507
▁recogniz	-11.2527
▁homes	-11.2535
▁bows	-11.2557
▁dare	-11.2612
il	-11.2617
ke	-11.2641
▁produces	-11.2663
ty	-11.2675
▁gog	-11.2682
▁arises	-11.2687
▁ste	-11.2691
hu	-11.2698
▁nose	-11.274
▁wing	-11.2751
▁ben	-11.2761
▁restless	-11.2772
and	-11.2775
▁rot	-11.2807
▁heth	-11.2809
▁accuse	-11.2827
▁refresh	-11.2835
▁9	-11.2925
niah	-11.2962
lah	-11.2992
▁sa	-11.3077
▁camps	-11.3087
▁destroys	-11.3105
biah	-11.3108
drawn	-11.3121
scribed	-11.3121
,500	-11.3134
▁dr	-11.3146
rah	-11.3161
ad	-11.3181
▁dog	-11.3192
▁la	-11.32
ally	-11.3213
u	-11.3234
▁slip	-11.3274
▁appetite	-11.3274
▁tradition	-11.3274
▁relent	-11.3274
▁doom	-11.328
▁valuable	-11.3281
▁convocation	-11.3281
▁raven	-11.3281
▁ill	-11.3281
▁strap	-11.3281
▁occur	-11.3285
▁censer	-11.3286
▁crop	-11.3288
▁window	-11.3291
per	-11.3292
▁el	-11.3301
▁worry	-11.3303
▁action	-11.3305
▁thank	-11.3306
▁arrow	-11.3309
▁travel	-11.3309
▁che	-11.331
▁accompan	-11.3311
▁despair	-11.3313
▁pervert	-11.3314
▁uproot	-11.3314
▁inhabit	-11.3316
dad	-11.3316
▁attain	-11.3319
peor	-11.3322
nine	-11.3323
six	-11.3324
throne	-11.3328
ize	-11.3329
▁purchase	-11.3333
▁baptize	-11.3334
▁basi	-11.3339
▁safe	-11.3339
▁charit	-11.3341
▁rememb	-11.3343
raw	-11.3345
▁engrave	-11.3346
▁unrighteous	-11.3346
▁anak	-11.3346
akku	-11.3347
▁conquer	-11.3347
rtificat	-11.3347
▁1,2	-11.3347
▁accurate	-11.3347
▁altogether	-11.3347
▁amminadab	-11.3347
▁baptizing	-11.3347
▁belshazzar	-11.3347
▁caiaphas	-11.3347
▁colleagues	-11.3347
▁disobedience	-11.3347
▁distort	-11.3347
▁earthenware	-11.3347
▁eliakim	-11.3347
▁elizabeth	-11.3347
▁ephron	-11.3347
▁filigree	-11.3347
▁gnaw	-11.3347
▁hashabiah	-11.3347
▁helmet	-11.3347
▁hypocrisy	-11.3347
▁indignant	-11.3347
▁jewelry	-11.3347
▁kadmiel	-11.3347
▁lilies	-11.3347
▁makkedah	-11.3347
▁mamre	-11.3347
▁memphis	-11.3347
▁messiah	-11.3347
▁misfortune	-11.3347
▁nahshon	-11.3347
▁natural	-11.3347
▁nehemiah	-11.3347
▁nethanel	-11.3347
▁nostrils	-11.3347
▁outcome	-11.3347
▁philistia	-11.3347
▁pisgah	-11.3347
▁rabshakeh	-11.3347
▁refrain	-11.3347
▁regain	-11.3347
▁reproach	-11.3347
▁smell	-11.3347
▁steadfast	-11.3347
▁sunrise	-11.3347
▁thrust	-11.3347
▁tubal	-11.3347
▁uphold	-11.3347
▁vashti	-11.3347
▁whirlwind	-11.3347
▁wolves	-11.3347
▁woof	-11.3347
▁zephaniah	-11.3347
▁zoar	-11.3347
▁adoni	-11.3347
▁covet	-11.3347
▁insane	-11.3347
▁jewels	-11.3347
▁regular	-11.3347
▁sacr	-11.3347
▁terrible	-11.3347
▁throat	-11.3347
▁mattaniah	-11.3347
▁stephen	-11.3347
▁extra	-11.3347
▁kenite	-11.3347
▁equipment	-11.3347
▁iddo	-11.3347
▁molding	-11.3347
▁gallows	-11.3347
▁colorful	-11.3347
▁unbelief	-11.3347
▁wormwood	-11.3347
▁luz	-11.3347
▁neriah	-11.3347
▁speckled	-11.3347
▁impairment	-11.3347
▁sidonians	-11.3347
▁malicious	-11.3347
▁sensible	-11.3347
▁topaz	-11.3347
▁pale	-11.3347
▁shook	-11.3347
▁dancing	-11.3347
▁rehum	-11.3347
▁temptation	-11.3347
▁declaration	-11.3347
▁edict	-11.3347
▁begun	-11.3347
▁laughter	-11.3347
▁prominent	-11.3347
▁immer	-11.3347
▁game	-11.3347
▁adar	-11.3347
▁hanan	-11.3347
▁eber	-11.3347
shai	-11.3347
▁uriah	-11.3347
kiah	-11.3347
▁rome	-11.3347
▁robbers	-11.3348
▁stolen	-11.3348
▁permission	-11.3348
▁amalekites	-11.3348
▁privately	-11.3348
▁avoid	-11.3348
▁merciful	-11.3349
▁harim	-11.3349
▁shameful	-11.3349
▁push	-11.3349
▁bushes	-11.3349
▁tender	-11.3349
▁zin	-11.335
▁horrified	-11.335
▁sheaves	-11.335
▁hurt	-11.3351
▁locked	-11.3352
▁cart	-11.3353
▁reubenites	-11.3353
▁preacher	-11.3353
▁demonstrate	-11.3355
▁settlement	-11.3355
▁memor	-11.3356
▁revoke	-11.3357
▁baker	-11.3357
▁rimmon	-11.3358
▁guardrooms	-11.3359
▁pearls	-11.3359
▁sheaf	-11.3359
▁fatness	-11.3359
45	-11.3362
▁adah	-11.3363
▁corruptly	-11.3363
▁perishes	-11.3364
▁sharpened	-11.3366
▁storehouses	-11.3366
▁doorposts	-11.3367
▁deserves	-11.3368
▁pretend	-11.3373
▁restraints	-11.3374
▁insignificant	-11.3375
▁slanderer	-11.3378
af	-11.3379
▁fasten	-11.3381
▁jaws	-11.3382
▁slopes	-11.3382
▁vipers	-11.3382
▁debts	-11.3382
▁saves	-11.3383
▁existed	-11.3387
▁discerning	-11.3387
▁lusts	-11.339
▁flying	-11.3392
▁devised	-11.3392
▁discovered	-11.3393
ron	-11.3395
▁loudly	-11.3402
▁tormented	-11.3404
▁melted	-11.3404
▁leavened	-11.3408
▁intended	-11.3408
▁robb	-11.3409
▁overflowing	-11.3421
▁confessed	-11.3425
▁practiced	-11.343
▁jab	-11.3437
▁hoofs	-11.3445
▁concubines	-11.3453
▁overcomes	-11.3453
3	-11.3453
▁reeds	-11.3461
▁trib	-11.3461
▁mass	-11.3474
▁jebusites	-11.3477
▁foreheads	-11.3485
▁requested	-11.3485
▁ahi	-11.3487
▁sowed	-11.3506
▁gained	-11.3506
▁solomons	-11.3509
▁serves	-11.3509
▁infertile	-11.352
▁orphans	-11.3532
▁happening	-11.3533
▁measures	-11.3544
▁runs	-11.3557
▁squares	-11.3564
▁shap	-11.3571
▁shakes	-11.3573
▁scatters	-11.3573
▁washing	-11.3584
▁refuses	-11.3589
▁dance	-11.3597
ans	-11.3603
▁rooms	-11.3613
▁boasts	-11.3614
▁sows	-11.3616
iness	-11.3626
▁endures	-11.3629
▁crowns	-11.3645
▁mourns	-11.3647
▁beasts	-11.3653
▁deserts	-11.3662
rushed	-11.3668
dan	-11.369
▁teachers	-11.3751
▁beds	-11.3758
▁perishing	-11.3769
▁feasting	-11.377
▁remaining	-11.3781
▁incit	-11.3783
▁sp	-11.3809
2;	-11.3819
▁staffs	-11.3824
ner	-11.3837
ordina	-11.3838
▁har	-11.3851
▁ridicule	-11.3875
▁approve	-11.3883
ahath	-11.3906
▁su	-11.3914
ur	-11.3928
▁discour	-11.3972
▁honors	-11.3975
▁assume	-11.3979
▁ru	-11.3996
▁weari	-11.4005
▁clap	-11.41
scent	-11.4137
▁pe	-11.4189
ated	-11.4216
▁rights	-11.4216
▁tooth	-11.4226
▁mis	-11.4254
ezer	-11.4278
▁pil	-11.4283
tha	-11.4294
▁bil	-11.4318
▁fit	-11.4336
▁pi	-11.4341
ael	-11.4363
lapped	-11.4376
greed	-11.4386
ied	-11.4402
ged	-11.4485
▁camel	-11.4491
ol	-11.4492
ul	-11.4507
▁media	-11.4553
ible	-11.4568
yed	-11.4582
ac	-11.4584
out	-11.4591
▁product	-11.4598
▁br	-11.4599
ir	-11.4613
tes	-11.4624
▁injure	-11.4692
▁rob	-11.4699
▁apple	-11.471
▁distribute	-11.4711
▁az	-11.4711
▁trial	-11.4716
▁pomegranate	-11.4718
▁disease	-11.4718
▁division	-11.4718
▁weapon	-11.4719
▁counselor	-11.4719
▁rider	-11.472
▁po	-11.4728
▁pleas	-11.4729
▁discuss	-11.4735
▁consent	-11.4736
▁stagger	-11.4737
▁flash	-11.4739
▁wield	-11.474
eight	-11.474
▁scorch	-11.4744
year	-11.4752
fourth	-11.4754
▁abihu	-11.4759
▁kneel	-11.476
▁circumcise	-11.4763
▁kindle	-11.4766
▁quick	-11.4768
▁almo	-11.4773
▁attend	-11.4775
horon	-11.4775
shemesh	-11.4775
▁anxiety	-11.4775
▁anxious	-11.4775
▁arioch	-11.4775
▁ashtaroth	-11.4775
▁beelzebul	-11.4775
▁believing	-11.4775
▁bethsaida	-11.4775
▁bezalel	-11.4775
▁binnui	-11.4775
▁bridle	-11.4775
▁calves	-11.4775
▁cargo	-11.4775
▁catastrophe	-11.4775
▁channel	-11.4775
▁circumstances	-11.4775
▁cohort	-11.4775
▁comprehend	-11.4775
▁convinc	-11.4775
▁deceased	-11.4775
▁decrease	-11.4775
▁delilah	-11.4775
▁denarii	-11.4775
▁district	-11.4775
▁doctrine	-11.4775
▁edrei	-11.4775
▁endurance	-11.4775
▁enraged	-11.4775
▁evident	-11.4775
▁example	-11.4775
▁exercise	-11.4775
▁experience	-11.4775
▁eyelids	-11.4775
▁favorably	-11.4775
▁futile	-11.4775
▁grandchildren	-11.4775
▁guarantor	-11.4775
▁insanity	-11.4775
▁ivory	-11.4775
▁jabbok	-11.4775
▁jahaz	-11.4775
▁jezreel	-11.4775
▁kedar	-11.4775
▁knead	-11.4775
▁laodicea	-11.4775
▁lepro	-11.4775
▁magistrates	-11.4775
▁meshech	-11.4775
▁miriam	-11.4775
▁mortar	-11.4775
▁oholibamah	-11.4775
▁penalty	-11.4775
▁persecuting	-11.4775
▁population	-11.4775
▁prophesies	-11.4775
▁rabbah	-11.4775
▁razor	-11.4775
▁reddish	-11.4775
▁relief	-11.4775
▁reprimand	-11.4775
▁response	-11.4775
▁sheepfolds	-11.4775
▁shephatiah	-11.4775
▁shinar	-11.4775
▁slumber	-11.4775
▁surrender	-11.4775
▁tetrarch	-11.4775
▁treasuries	-11.4775
▁unholy	-11.4775
▁unloved	-11.4775
▁vicinity	-11.4775
▁visible	-11.4775
▁whisper	-11.4775
▁winnow	-11.4775
▁zoan	-11.4775
▁zorah	-11.4775
▁obligated	-11.4775
▁pallet	-11.4775
▁persecution	-11.4775
▁praetorium	-11.4775
▁render	-11.4775
▁resembl	-11.4775
▁transfer	-11.4775
▁timber	-11.4775
▁adorn	-11.4775
▁tonight	-11.4775
▁worse	-11.4775
▁nathan	-11.4775
▁prun	-11.4775
hoglah	-11.4775
▁claim	-11.4775
▁venture	-11.4775
▁advisers	-11.4775
▁embroiderer	-11.4775
▁humiliation	-11.4775
▁riblah	-11.4775
▁darling	-11.4775
▁furnishings	-11.4775
▁childbirth	-11.4775
▁stature	-11.4775
▁wafer	-11.4775
▁defend	-11.4775
▁mockery	-11.4775
▁jump	-11.4775
▁120	-11.4775
▁doorkeeper	-11.4775
▁rottenness	-11.4775
▁dinah	-11.4775
▁meribah	-11.4775
▁jazer	-11.4775
▁syria	-11.4776
▁thicket	-11.4776
▁lebo	-11.4776
▁wasteland	-11.4776
▁elect	-11.4776
▁reuel	-11.4776
▁sailors	-11.4776
▁highway	-11.4776
▁easier	-11.4776
▁prosperous	-11.4776
▁round	-11.4776
▁span	-11.4776
▁gershonites	-11.4777
▁virginity	-11.4777
▁accusation	-11.4777
▁pursuers	-11.4777
▁finally	-11.4777
▁jabin	-11.4777
▁error	-11.4777
▁layman	-11.4777
▁prophetess	-11.4777
▁desirable	-11.4778
▁speechless	-11.4778
▁panic	-11.4778
▁constantly	-11.4778
▁excluded	-11.4778
▁vat	-11.4779
▁closer	-11.478
▁wishes	-11.478
▁eggs	-11.478
▁fleece	-11.4781
▁gadites	-11.4781
▁tabor	-11.4781
▁uprightness	-11.4782
▁discouraged	-11.4783
▁kn	-11.4783
▁confused	-11.4784
▁shamefully	-11.4785
▁ripe	-11.4785
▁violate	-11.4785
▁pin	-11.4786
▁sower	-11.4788
▁begging	-11.4789
ius	-11.4789
▁stoop	-11.4789
▁clubs	-11.4789
▁signal	-11.4791
▁reapers	-11.4792
▁deer	-11.4793
▁imprisoned	-11.4793
▁unfaithfully	-11.4796
▁sheath	-11.4797
▁grumblings	-11.4798
▁adulterers	-11.4798
▁tendons	-11.4798
▁reduce	-11.4799
▁swelling	-11.48
▁sighing	-11.48
▁peor	-11.4805
▁shaved	-11.4805
▁arrogantly	-11.4806
▁bestow	-11.4806
▁clusters	-11.4807
▁guests	-11.4807
licious	-11.4807
▁discussing	-11.4811
▁member	-11.4812
eals	-11.4814
▁infants	-11.4816
▁samaritans	-11.4816
▁minas	-11.4817
▁traveling	-11.4817
▁assyrians	-11.4817
cal	-11.4817
▁badly	-11.4818
▁midianites	-11.4821
▁cost	-11.4822
▁web	-11.4825
▁fatherless	-11.4826
,400.	-11.4826
▁treasured	-11.4831
▁striped	-11.4832
▁mocking	-11.4834
▁faithfully	-11.4843
▁crops	-11.4844
▁offend	-11.4852
▁powers	-11.4854
ial	-11.4868
▁ruled	-11.487
▁perizzites	-11.4871
▁handful	-11.4874
▁laughs	-11.4881
▁cl	-11.4885
▁overthrown	-11.489
▁desolated	-11.4894
▁sprouts	-11.49
▁blaspheme	-11.4902
▁ter	-11.4915
▁quarrels	-11.4918
▁caves	-11.4927
▁clings	-11.4927
▁pa	-11.4933
▁wisely	-11.4937
▁boils	-11.4937
▁perfected	-11.4937
▁backward	-11.495
ently	-11.4953
3;	-11.4956
▁ke	-11.4966
▁menstrua	-11.4991
▁contributions	-11.5001
▁sla	-11.5039
▁testing	-11.5049
ith	-11.5059
▁drie	-11.5067
▁questions	-11.5067
▁reading	-11.5071
▁righteously	-11.5076
▁uttered	-11.5076
▁pleasures	-11.5076
▁lampstands	-11.5086
▁answers	-11.5101
▁disciplines	-11.5114
▁agree	-11.5144
▁owned	-11.5156
▁hades	-11.5158
f	-11.5175
▁boats	-11.518
▁persist	-11.52
▁rules	-11.5209
rib	-11.521
▁beor	-11.5259
▁secrets	-11.5264
▁youths	-11.5304
▁areas	-11.5306
▁mounted	-11.5307
pplied	-11.5323
▁singing	-11.5373
ks	-11.5374
▁flees	-11.5394
▁fears	-11.5394
▁seeds	-11.5449
destined	-11.5458
ost	-11.55
ran	-11.5508
▁couch	-11.5543
nd	-11.5607
▁besiege	-11.5649
▁realize	-11.5656
▁dedicat	-11.5688
elt	-11.5691
▁destin	-11.5691
din	-11.5702
ary	-11.5702
▁devote	-11.5718
▁faithless	-11.572
▁teache	-11.5767
▁despi	-11.5841
▁health	-11.5871
li	-11.5923
▁sever	-11.5938
▁pastur	-11.5991
zed	-11.6025
▁longing	-11.6046
▁remembers	-11.6069
shan	-11.6088
▁believer	-11.6095
▁sounds	-11.6099
▁represent	-11.6127
nt	-11.6127
c	-11.6129
uth	-11.6131
abies	-11.6169
▁blasphem	-11.621
▁avenge	-11.6215
▁assur	-11.622
ca	-11.622
▁pur	-11.6236
we	-11.6252
scription	-11.631
et	-11.6327
▁lust	-11.6333
land	-11.6333
▁lap	-11.6354
▁quake	-11.6369
▁limit	-11.637
▁snake	-11.637
▁sapphire	-11.6377
▁liar	-11.6377
▁millstone	-11.6379
▁keeper	-11.638
▁gileadite	-11.6381
▁tambourine	-11.6381
▁limb	-11.6382
▁marketplace	-11.6382
she	-11.6384
▁merchant	-11.6385
▁talent	-11.6385
▁cake	-11.6385
▁apostle	-11.6386
▁collector	-11.6387
▁peg	-11.6391
eep	-11.64
hip	-11.6402
▁judg	-11.6407
▁resid	-11.6408
▁refer	-11.6408
▁retain	-11.6408
ermo	-11.6409
▁chest	-11.6409
▁select	-11.6411
mah	-11.6411
ely	-11.6412
arrow	-11.6413
born	-11.6414
hinnom	-11.6414
side	-11.6418
hamath	-11.6418
wood	-11.6419
▁teman	-11.6421
▁calculate	-11.6426
▁damage	-11.6426
▁isolate	-11.6426
▁hur	-11.6427
mariah	-11.6427
▁entice	-11.6427
rumbling	-11.6428
▁confine	-11.6429
▁issue	-11.643
▁ex	-11.6431
▁moabites	-11.6433
▁geba	-11.6435
▁previous	-11.6435
▁success	-11.6436
▁worth	-11.6437
teen	-11.6438
vai	-11.6439
▁zebul	-11.644
▁acqui	-11.6441
▁timna	-11.6441
ozadak	-11.6442
▁graft	-11.6442
▁depend	-11.6442
▁detriment	-11.6442
▁encompass	-11.6442
▁headband	-11.6442
▁risk	-11.6442
▁achieve	-11.6442
▁acquaintances	-11.6442
▁adopt	-11.6442
▁arpachshad	-11.6442
▁ataroth	-11.6442
▁attempt	-11.6442
▁barracks	-11.6442
▁bilhah	-11.6442
▁birthright	-11.6442
▁buckler	-11.6442
▁cilicia	-11.6442
▁cleft	-11.6442
▁cornelius	-11.6442
▁diligence	-11.6442
▁discretion	-11.6442
▁drowned	-11.6442
▁earnestly	-11.6442
▁emerald	-11.6442
▁eshcol	-11.6442
▁eternity	-11.6442
▁fishermen	-11.6442
▁gnats	-11.6442
▁grudg	-11.6442
▁guardhouse	-11.6442
▁hometown	-11.6442
▁impatient	-11.6442
▁indecen	-11.6442
▁injunction	-11.6442
▁jarmuth	-11.6442
▁jasper	-11.6442
▁knives	-11.6442
▁lattice	-11.6442
▁laughingstock	-11.6442
▁leviathan	-11.6442
▁loyalty	-11.6442
▁lurk	-11.6442
▁maggot	-11.6442
▁meremoth	-11.6442
▁mesopotamia	-11.6442
▁methuselah	-11.6442
▁michael	-11.6442
▁midwives	-11.6442
▁mishael	-11.6442
▁mistress	-11.6442
▁nails	-11.6442
▁necklace	-11.6442
▁ocean	-11.6442
▁oholibah	-11.6442
▁overjoyed	-11.6442
▁overwhelm	-11.6442
▁plentiful	-11.6442
▁prefer	-11.6442
▁regulation	-11.6442
▁rezin	-11.6442
▁sank	-11.6442
▁scorn	-11.6442
▁skies	-11.6442
▁srael	-11.6442
▁stricken	-11.6442
▁struggle	-11.6442
▁tahpanhes	-11.6442
▁thieves	-11.6442
▁unbelieving	-11.6442
▁uncircumcision	-11.6442
▁underneath	-11.6442
▁unsuspecting	-11.6442
▁vicious	-11.6442
▁vulture	-11.6442
▁whirl	-11.6442
▁wolf	-11.6442
▁workmanship	-11.6442
▁worried	-11.6442
▁zibeon	-11.6442
▁adulterous	-11.6442
▁bottom	-11.6442
▁dirt	-11.6442
▁impurities	-11.6442
▁sorry	-11.6442
▁topheth	-11.6442
▁undergo	-11.6442
▁loins	-11.6442
▁manager	-11.6442
▁oreb	-11.6442
▁provocation	-11.6442
▁tirzah	-11.6442
▁achan	-11.6442
▁curds	-11.6442
▁habitually	-11.6442
▁japheth	-11.6442
▁mistreat	-11.6442
▁abaddon	-11.6442
▁halt	-11.6442
▁crystal	-11.6442
▁annul	-11.6442
▁sunset	-11.6442
▁cursing	-11.6442
▁dictation	-11.6442
▁benaiah	-11.6442
▁flogged	-11.6442
▁ophrah	-11.6442
▁pathway	-11.6442
▁excuse	-11.6442
▁omer	-11.6442
▁crows	-11.6442
▁pertain	-11.6442
▁choke	-11.6442
▁mercies	-11.6442
▁tenons	-11.6442
▁philippi	-11.6442
▁abib	-11.6442
▁gerar	-11.6442
▁hormah	-11.6442
▁roam	-11.6442
▁consolation	-11.6442
▁creator	-11.6442
▁uzziel	-11.6442
▁incurable	-11.6442
▁drunkenness	-11.6442
▁shaul	-11.6442
▁eliezer	-11.6442
▁peleg	-11.6442
▁gentleness	-11.6442
mination	-11.6442
▁selfish	-11.6443
▁suit	-11.6443
▁carmi	-11.6443
▁ebal	-11.6443
▁weaned	-11.6443
holah	-11.6443
▁gateway	-11.6443
▁melchizedek	-11.6443
▁encouragement	-11.6443
▁motion	-11.6443
▁medes	-11.6443
▁paran	-11.6443
▁salmon	-11.6443
▁grating	-11.6443
▁violation	-11.6443
▁fier	-11.6443
▁achs	-11.6444
▁wrappings	-11.6444
▁marrie	-11.6444
▁lifetime	-11.6444
▁splend	-11.6444
▁underfoot	-11.6444
▁reu	-11.6444
▁frost	-11.6444
▁filthy	-11.6444
▁partner	-11.6444
▁shimei	-11.6444
▁rushes	-11.6444
▁fulfillment	-11.6444
▁justif	-11.6444
▁kenaz	-11.6444
▁jael	-11.6444
▁hepher	-11.6444
▁endow	-11.6445
▁elim	-11.6445
▁polished	-11.6445
▁section	-11.6445
▁sash	-11.6445
▁amoz	-11.6446
▁raging	-11.6446
▁intercede	-11.6446
▁jeh	-11.6447
▁painful	-11.6447
▁boastful	-11.6447
▁enduring	-11.6447
▁key	-11.6447
▁twins	-11.6448
▁reserved	-11.6448
ripped	-11.6448
▁childless	-11.6449
▁sunk	-11.6449
▁esteemed	-11.6451
▁na	-11.6451
▁amram	-11.6452
▁tolera	-11.6452
▁loan	-11.6453
▁whip	-11.6453
▁main	-11.6453
▁whitewash	-11.6453
▁upstairs	-11.6453
▁unjustly	-11.6454
▁blown	-11.6454
▁honorable	-11.6454
▁sheet	-11.6454
▁74	-11.6456
▁behave	-11.6456
▁opposed	-11.6456
enched	-11.6457
▁gezer	-11.6457
▁pottery	-11.6457
▁cubs	-11.6459
▁shrines	-11.6459
▁taskmasters	-11.6459
▁assess	-11.6459
▁ugl	-11.6459
▁kohathites	-11.6461
eeping	-11.6462
▁tablet	-11.6463
stern	-11.6464
▁earlie	-11.6464
▁temanite	-11.6465
▁gleaming	-11.6465
▁extinguished	-11.6468
▁trained	-11.647
▁israelite	-11.6471
▁pitchers	-11.6472
abba	-11.6473
▁lusted	-11.6475
▁handle	-11.6475
▁severely	-11.6476
▁fearful	-11.6477
▁remind	-11.6479
▁holes	-11.648
▁arguments	-11.648
▁fugitives	-11.648
▁housetops	-11.648
▁uprooted	-11.6486
▁relented	-11.6486
▁ability	-11.6489
▁limbs	-11.6502
▁marketplaces	-11.6502
▁quakes	-11.6502
▁trials	-11.6513
▁riders	-11.6515
▁neglected	-11.6516
▁char	-11.6516
▁lengthen	-11.6521
▁sprouted	-11.6522
▁owe	-11.6523
▁graciously	-11.6525
eh	-11.6526
▁totter	-11.653
▁islands	-11.6535
▁limping	-11.6545
▁alarmed	-11.6546
▁hips	-11.6546
▁bulbs	-11.6546
▁sufferings	-11.6546
▁fatal	-11.6546
▁pri	-11.6554
▁romans	-11.6557
▁hollow	-11.656
▁citadels	-11.6568
▁pairs	-11.6569
▁oppressors	-11.6569
▁proverbs	-11.6579
▁pots	-11.6579
▁seasons	-11.658
▁blowing	-11.658
▁loads	-11.659
▁rows	-11.659
▁banks	-11.659
▁mat	-11.6594
▁greeting	-11.6594
▁joint	-11.6598
▁hittites	-11.6612
unt	-11.6613
nim	-11.6616
▁repented	-11.6618
▁afflictions	-11.6624
▁air	-11.6624
▁freed	-11.6626
zur	-11.6629
▁included	-11.6633
▁burdens	-11.6646
ntil	-11.6656
▁caesars	-11.6657
▁sacrifici	-11.6663
▁mourned	-11.6667
ams	-11.6671
all	-11.6678
ice	-11.6683
ng	-11.6684
▁weights	-11.669
▁shines	-11.669
▁rebuk	-11.6704
▁breathed	-11.6747
▁wadi	-11.6756
▁thinks	-11.6759
▁complie	-11.6759
▁ju	-11.6761
▁forem	-11.677
▁planting	-11.6779
cy	-11.6793
▁summ	-11.6796
▁temples	-11.6798
▁trembles	-11.6815
urim	-11.6815
▁roars	-11.6815
▁pro	-11.6874
▁harsh	-11.6875
con	-11.6882
▁trim	-11.6896
▁43	-11.6897
omed	-11.6899
jah	-11.692
▁uz	-11.6948
▁fitt	-11.6963
ham	-11.6967
▁bite	-11.697
▁multitudes	-11.6974
ery	-11.7024
▁tool	-11.7026
muel	-11.7044
▁journeys	-11.7057
▁advanc	-11.7065
▁hides	-11.7101
▁resol	-11.7111
▁relat	-11.7115
ent	-11.7139
▁plate	-11.7158
ved	-11.7194
ill	-11.7213
azz	-11.7231
▁hush	-11.7256
▁besieg	-11.7303
▁reache	-11.7313
ga	-11.7345
▁8	-11.7381
zer	-11.7395
▁tails	-11.7401
anah	-11.7448
course	-11.745
▁18	-11.745
at	-11.7451
da	-11.7516
▁stretche	-11.7531
▁greed	-11.757
▁vo	-11.7579
ha	-11.7587
▁implore	-11.7594
▁car	-11.7598
▁tel	-11.7618
▁plat	-11.7639
▁shar	-11.767
▁han	-11.769
snared	-11.7712
50	-11.7712
▁examin	-11.7722
▁refine	-11.7725
her	-11.7745
▁ca	-11.7751
▁numbers	-11.7872
▁returning	-11.7873
▁13	-11.7883
▁insert	-11.7896
▁fl	-11.7898
▁loath	-11.7905
um	-11.7937
▁ki	-11.7956
▁chi	-11.7968
diah	-11.8025
▁sum	-11.8029
eph	-11.804
ort	-11.8064
son	-11.8066
sha	-11.8091
gal	-11.8122
▁bit	-11.8209
▁anothers	-11.8209
▁inward	-11.8219
▁howl	-11.8242
▁reel	-11.8245
▁origin	-11.8247
cluded	-11.8256
▁shear	-11.8307
gon	-11.8309
asaph	-11.835
▁knee	-11.835
▁charm	-11.8352
▁le	-11.8353
ns	-11.8356
▁cares	-11.8359
▁describe	-11.8368
▁dissension	-11.837
▁repair	-11.837
▁arab	-11.837
▁leopard	-11.837
▁sw	-11.8372
▁aramean	-11.8376
▁goldsmith	-11.8376
▁preparation	-11.8376
di	-11.8377
▁coat	-11.8377
▁physician	-11.8379
▁torrent	-11.8379
▁contain	-11.838
▁ammonite	-11.838
▁cheek	-11.8381
▁rim	-11.8381
▁samaritan	-11.8383
▁infant	-11.8383
▁slope	-11.8383
▁viper	-11.8383
▁ewe	-11.8383
▁mina	-11.8383
▁jaw	-11.8385
▁midianite	-11.8386
▁relation	-11.8387
1	-11.8389
minded	-11.8394
▁debt	-11.8396
▁sigh	-11.84
▁recover	-11.8402
60	-11.8404
▁breach	-11.8405
▁surviv	-11.8406
▁swell	-11.8407
▁plac	-11.8408
▁displeas	-11.8408
▁enlighten	-11.8408
▁deport	-11.8408
bow	-11.8409
▁extinguish	-11.8409
▁erect	-11.841
miss	-11.8411
▁entrust	-11.8411
▁train	-11.8411
broth	-11.8412
▁sharpen	-11.8415
▁ston	-11.8416
fearing	-11.8418
gilead	-11.8419
moab	-11.8419
lumi	-11.8423
▁assyrian	-11.8423
▁arrange	-11.8424
▁frustrate	-11.8426
▁bereave	-11.8428
▁confuse	-11.8429
▁hire	-11.843
▁confident	-11.8433
they	-11.8434
▁sudden	-11.8435
▁bold	-11.8436
▁chaldea	-11.8438
acle	-11.8439
▁twent	-11.8439
▁borrow	-11.8439
▁vanish	-11.844
▁decepti	-11.844
▁permissi	-11.844
▁ephrath	-11.844
▁torch	-11.844
▁zippor	-11.8441
▁luxuri	-11.8441
▁habit	-11.8441
▁speck	-11.8442
▁coast	-11.8442
▁gypt	-11.8442
▁consist	-11.8442
▁immoral	-11.8442
▁shovel	-11.8442
▁fiftie	-11.8442
,000	-11.8442
,100	-11.8442
54	-11.8442
hattaavah	-11.8442
▁abusive	-11.8442
▁accursed	-11.8442
▁address	-11.8442
▁aijalon	-11.8442
▁alphaeus	-11.8442
▁ancestors	-11.8442
▁annually	-11.8442
▁arabia	-11.8442
▁aristarchus	-11.8442
▁await	-11.8442
▁basemath	-11.8442
▁berechiah	-11.8442
▁bracelets	-11.8442
▁breastplate	-11.8442
▁bundle	-11.8442
▁carefree	-11.8442
▁chebar	-11.8442
▁climb	-11.8442
▁compulsion	-11.8442
▁conflict	-11.8442
▁cunning	-11.8442
▁cyrene	-11.8442
▁decorations	-11.8442
▁delicacies	-11.8442
▁deposit	-11.8442
▁diamond	-11.8442
▁dungeon	-11.8442
▁dwelt	-11.8442
▁effort	-11.8442
▁emptied	-11.8442
▁engraving	-11.8442
▁enosh	-11.8442
▁eshtaol	-11.8442
▁expert	-11.8442
▁explore	-11.8442
▁fellowship	-11.8442
▁firepans	-11.8442
▁foliage	-11.8442
▁furrows	-11.8442
▁gamaliel	-11.8442
▁girgashite	-11.8442
▁harbor	-11.8442
▁hosanna	-11.8442
▁izhar	-11.8442
▁jachin	-11.8442
▁knife	-11.8442
▁landowner	-11.8442
▁lystra	-11.8442
▁machpelah	-11.8442
▁matthew	-11.8442
▁megiddo	-11.8442
▁migdol	-11.8442
▁miscarri	-11.8442
▁motives	-11.8442
▁myriads	-11.8442
▁myrtle	-11.8442
▁nicodemus	-11.8442
▁overlook	-11.8442
▁pallu	-11.8442
▁parosh	-11.8442
▁pelican	-11.8442
▁penuel	-11.8442
▁perplexed	-11.8442
▁pound	-11.8442
▁radiance	-11.8442
▁relied	-11.8442
▁relieve	-11.8442
▁religion	-11.8442
▁renown	-11.8442
▁rephidim	-11.8442
▁revenge	-11.8442
▁shebna	-11.8442
▁shecaniah	-11.8442
▁shedeur	-11.8442
▁similar	-11.8442
▁socket	-11.8442
▁stairway	-11.8442
▁tarsus	-11.8442
▁tempest	-11.8442
▁turmoil	-11.8442
▁ungodly	-11.8442
▁unsearchable	-11.8442
▁wrestl	-11.8442
▁zabdi	-11.8442
▁zeeb	-11.8442
▁zilpah	-11.8442
▁zuar	-11.8442
▁zurishaddai	-11.8442
▁chephir	-11.8442
▁compensat	-11.8442
▁delicate	-11.8442
▁pavement	-11.8442
▁poll	-11.8442
▁revert	-11.8442
▁shethar	-11.8442
▁thessalonica	-11.8442
▁verdict	-11.8442
access	-11.8442
▁achor	-11.8442
▁shining	-11.8442
▁thummim	-11.8442
▁artemis	-11.8442
▁intelligent	-11.8442
tempered	-11.8442
▁agagite	-11.8442
▁crumble	-11.8442
▁hazeroth	-11.8442
▁zaccur	-11.8442
ekod	-11.8442
▁agony	-11.8442
▁joiada	-11.8442
▁molech	-11.8442
▁consistent	-11.8442
▁shimron	-11.8442
▁thistles	-11.8442
▁planning	-11.8442
▁definite	-11.8442
▁conform	-11.8442
▁invade	-11.8442
▁javan	-11.8442
▁perversion	-11.8442
▁stork	-11.8442
ulf	-11.8442
▁jozabad	-11.8442
▁chop	-11.8442
▁excessive	-11.8442
▁cook	-11.8442
▁ophir	-11.8442
▁stump	-11.8442
▁barefoot	-11.8442
▁harem	-11.8442
▁asshur	-11.8442
▁exhortation	-11.8442
▁predestined	-11.8442
▁elimelech	-11.8442
▁feeble	-11.8442
▁kiriathaim	-11.8442
▁laish	-11.8442
▁noblemen	-11.8442
▁abominable	-11.8442
▁foreskin	-11.8442
▁saddle	-11.8442
▁stirring	-11.8442
▁fuel	-11.8442
▁jozadak	-11.8442
▁severity	-11.8442
▁deuel	-11.8442
▁dignit	-11.8442
▁prow	-11.8442
▁destitute	-11.8442
▁ariel	-11.8442
▁baby	-11.8442
▁beeroth	-11.8442
▁foxes	-11.8442
pirit	-11.8442
▁bela	-11.8442
▁sect	-11.8442
▁rab	-11.8442
▁activity	-11.8442
▁conspiracy	-11.8442
▁dull	-11.8442
▁marsh	-11.8442
,700	-11.8443
▁drought	-11.8443
▁flog	-11.8443
▁sinning	-11.8443
▁bebai	-11.8443
▁blasphemies	-11.8443
▁ostriches	-11.8443
▁somewhere	-11.8443
▁delaiah	-11.8443
▁mahalalel	-11.8443
▁planks	-11.8443
▁senseless	-11.8443
▁crete	-11.8443
▁kir	-11.8443
▁purim	-11.8443
▁harness	-11.8443
▁oppose	-11.8443
▁illness	-11.8443
▁fun	-11.8444
▁hoba	-11.8444
▁overturn	-11.8444
▁sashes	-11.8444
▁seth	-11.8444
▁helon	-11.8444
▁batter	-11.8444
▁magnificent	-11.8444
▁sharon	-11.8444
▁harass	-11.8444
▁story	-11.8444
▁fairly	-11.8445
▁rehob	-11.8445
▁sort	-11.8445
▁countryside	-11.8445
▁effect	-11.8445
▁meditation	-11.8445
▁shittim	-11.8445
▁6	-11.8445
▁arts	-11.8445
▁elon	-11.8445
▁fortresses	-11.8446
▁developed	-11.8446
▁lawlessness	-11.8446
▁wink	-11.8446
▁marah	-11.8446
▁deliverance	-11.8446
▁grieving	-11.8447
▁asherim	-11.8447
▁subjection	-11.8447
▁ishmaelites	-11.8447
▁passage	-11.8448
▁creditor	-11.8448
▁violator	-11.8448
▁seventeen	-11.8448
▁obed	-11.8448
▁mandrakes	-11.8449
▁partakers	-11.845
niel	-11.845
▁jair	-11.845
▁approval	-11.8451
ung	-11.8451
▁mob	-11.8451
▁horites	-11.8452
▁attached	-11.8453
▁fam	-11.8453
▁approaches	-11.8453
▁payment	-11.8455
▁trans	-11.8455
▁arranged	-11.8455
▁scarc	-11.8456
▁truthful	-11.8456
▁skirt	-11.8456
▁trick	-11.8457
ows	-11.8458
▁followers	-11.8461
▁distresses	-11.8462
▁injury	-11.8462
meon	-11.8462
▁marker	-11.8462
▁earrings	-11.8463
▁hordes	-11.8463
▁tyrants	-11.8463
▁raped	-11.8465
▁valiantly	-11.8465
▁wiser	-11.8466
▁growth	-11.8468
▁collapsed	-11.847
▁properly	-11.8472
▁silenced	-11.8473
mission	-11.8476
▁containers	-11.8477
▁,400.	-11.8479
▁deceitfully	-11.8482
▁gath	-11.8482
▁stepp	-11.8482
▁stated	-11.8483
▁debate	-11.8485
▁abijah	-11.8485
▁blaspheming	-11.8488
▁caps	-11.8489
▁anna	-11.8489
▁galileans	-11.849
▁fee	-11.8491
▁galler	-11.8491
▁eng	-11.8493
▁perverted	-11.8497
▁heels	-11.8503
▁ewes	-11.8503
▁cheeks	-11.8503
▁folded	-11.8505
▁attained	-11.8505
▁prolonged	-11.8512
▁fate	-11.8513
▁moabitess	-11.8517
▁tambourines	-11.8517
▁absen	-11.8519
▁mocked	-11.8519
▁willingly	-11.852
▁spice	-11.8523
▁mil	-11.8533
▁owed	-11.8537
▁inflicted	-11.8541
ders	-11.8542
▁censers	-11.8544
▁occurs	-11.8544
▁actions	-11.8545
▁tema	-11.8545
serah	-11.8547
▁demanded	-11.8549
▁meaning	-11.855
▁disciplined	-11.8552
▁undergarments	-11.8558
▁scoffers	-11.8559
▁nursed	-11.8563
▁amend	-11.8564
▁mentioned	-11.8571
▁cleared	-11.8586
aven	-11.8587
▁wished	-11.8592
▁lit	-11.8593
▁units	-11.8594
▁expecting	-11.8595
pa	-11.8597
▁unt	-11.8597
▁hivites	-11.8599
▁periods	-11.8599
▁beach	-11.86
▁delayed	-11.8608
▁pant	-11.861
▁cos	-11.8611
▁pleadings	-11.8613
▁strive	-11.8615
ri	-11.8619
▁stag	-11.8621
vious	-11.8624
▁graves	-11.8627
▁mahl	-11.8632
▁bene	-11.8637
▁refute	-11.864
▁entertain	-11.8642
▁jars	-11.8644
ba	-11.8645
adah	-11.8652
▁harps	-11.8654
▁hissing	-11.8669
▁beer	-11.867
▁jehud	-11.8676
▁hearth	-11.8677
▁sink	-11.8686
▁roared	-11.8691
5;	-11.8707
ema	-11.871
▁af	-11.871
▁boasting	-11.8724
▁seals	-11.8728
▁lied	-11.8729
▁aveng	-11.873
▁hurrying	-11.8748
▁guides	-11.8749
▁thighs	-11.8752
▁needed	-11.8759
ro	-11.8763
▁israelites	-11.8766
ered	-11.8792
▁delighted	-11.8812
5	-11.8813
▁instructions	-11.8836
gai	-11.8858
ute	-11.8874
▁dor	-11.8892
mentary	-11.8892
▁counts	-11.8894
dia	-11.8949
▁sore	-11.8997
▁signed	-11.902
ax	-11.9052
act	-11.9055
▁ze	-11.9097
▁accordingly	-11.9115
▁thoughtless	-11.9117
▁pits	-11.914
▁wretche	-11.9146
ess	-11.9149
▁vil	-11.9169
▁mill	-11.9172
▁chal	-11.9175
althy	-11.9181
ow	-11.9182
▁edges	-11.924
lly	-11.9266
hi	-11.9279
▁patrol	-11.9288
▁heel	-11.9292
▁owns	-11.9315
don	-11.9327
▁onward	-11.9359
ush	-11.9364
▁sprinkl	-11.9377
rolled	-11.9414
▁plum	-11.9427
ile	-11.9434
▁mar	-11.9457
co	-11.948
▁teachings	-11.9495
▁realiz	-11.9539
▁blesse	-11.9543
▁holder	-11.9556
locks	-11.9569
os	-11.9572
▁rains	-11.9621
ving	-11.9626
▁uns	-11.9632
lam	-11.9637
▁snatche	-11.9728
aim	-11.9735
▁drives	-11.9741
▁earthly	-11.9742
▁32	-11.9766
▁layer	-11.9778
▁plott	-11.979
▁hinder	-11.9806
op	-11.985
▁cre	-11.9857
▁graz	-11.9868
▁ours	-11.9877
▁12	-11.9933
▁surpasse	-11.994
ool	-11.9969
ge	-11.998
mposed	-12.0005
▁relate	-12.0014
pe	-12.0026
▁shi	-12.0043
▁invent	-12.0066
ome	-12.0094
▁tra	-12.0154
▁encircl	-12.0182
zai	-12.0197
▁bu	-12.0232
▁hop	-12.0243
▁goods	-12.0256
that	-12.0259
melech	-12.0302
▁tro	-12.0352
aiah	-12.0362
rity	-12.0376
▁da	-12.0408
seven	-12.0421
▁jamin	-12.0456
▁pu	-12.05
▁uri	-12.0503
mad	-12.0522
enan	-12.0556
▁ur	-12.0587
▁mi	-12.0622
ib	-12.064
sai	-12.0641
▁wars	-12.0688
▁refu	-12.0695
2	-12.071
oke	-12.0721
had	-12.0723
bel	-12.0728
▁satisf	-12.0731
elu	-12.0741
▁sub	-12.0752
▁circle	-12.0786
ra	-12.0789
▁li	-12.079
ory	-12.0796
braham	-12.0827
▁step	-12.0836
▁res	-12.0837
phel	-12.0846
ssed	-12.0848
▁violat	-12.0859
▁trampl	-12.0862
ea	-12.0869
▁guardian	-12.087
▁ponder	-12.087
▁bruise	-12.087
kam	-12.0871
▁crime	-12.0871
▁ration	-12.0874
▁grandson	-12.0876
▁writhe	-12.0876
action	-12.0877
▁ethiopian	-12.0879
▁profan	-12.0879
▁cliff	-12.0879
▁balance	-12.0879
▁criminal	-12.088
▁galilean	-12.0881
▁argument	-12.0882
▁fugitive	-12.0882
▁housetop	-12.0882
▁guest	-12.0883
▁cluster	-12.0883
▁ravine	-12.0884
▁corpse	-12.0884
▁hole	-12.0884
▁traveler	-12.0885
▁evildoer	-12.0885
▁fortune	-12.0885
▁coastland	-12.0886
▁chain	-12.0887
▁barn	-12.0888
▁descendant	-12.0888
▁soldier	-12.0889
▁moabite	-12.0892
ightly	-12.0897
▁occup	-12.0902
▁forfeit	-12.0903
▁credit	-12.0904
▁gale	-12.0905
▁gleam	-12.0905
▁declar	-12.0907
▁thresh	-12.0908
▁register	-12.0908
▁imprison	-12.0909
▁mol	-12.091
▁afflict	-12.0911
▁dress	-12.0911
godliness	-12.0912
▁straighten	-12.0912
▁mix	-12.0912
▁threaten	-12.0914
rope	-12.0915
9	-12.0917
▁restraint	-12.0917
ripe	-12.0917
rimmon	-12.0918
how	-12.0918
marry	-12.0918
fifth	-12.0919
steps	-12.0919
white	-12.0919
looking	-12.0919
three	-12.0919
ulous	-12.0919
tested	-12.092
baal	-12.092
▁darken	-12.0921
▁farm	-12.0922
▁shim	-12.0924
tax	-12.0926
▁ignore	-12.0927
▁illuminate	-12.0928
stand	-12.0928
▁fade	-12.0928
▁abuse	-12.0928
▁multiplie	-12.0929
▁amaze	-12.093
▁expose	-12.093
▁grieve	-12.093
▁arrive	-12.093
▁strict	-12.0933
▁survive	-12.0933
▁patient	-12.0934
▁diligent	-12.0935
▁marvel	-12.0937
attenai	-12.0938
▁content	-12.0938
▁scoff	-12.0939
uck	-12.0939
▁smelt	-12.0939
ection	-12.0939
zah	-12.0939
hearted	-12.094
▁uzzi	-12.094
▁languish	-12.094
ecause	-12.0941
rink	-12.0941
▁hurrie	-12.0941
▁gentle	-12.0941
▁rechab	-12.0941
▁encamp	-12.0941
▁detest	-12.0941
fected	-12.0941
ects	-12.0941
yrus	-12.0942
▁excess	-12.0942
▁humiliate	-12.0942
▁script	-12.0942
▁joia	-12.0942
timate	-12.0942
dden	-12.0942
▁multi	-12.0942
bozenai	-12.0942
jeshimoth	-12.0942
oenai	-12.0942
rishathaim	-12.0942
▁abinoam	-12.0942
▁achaia	-12.0942
▁aground	-12.0942
▁alabaster	-12.0942
▁aloes	-12.0942
▁ammihud	-12.0942
▁apparel	-12.0942
▁appropriate	-12.0942
▁aquila	-12.0942
▁aramaic	-12.0942
▁arguing	-12.0942
▁arimathea	-12.0942
▁attire	-12.0942
▁azekah	-12.0942
▁bartholomew	-12.0942
▁barzillai	-12.0942
▁brief	-12.0942
▁bystanders	-12.0942
▁canceled	-12.0942
▁caravan	-12.0942
▁chedorlaomer	-12.0942
▁chemosh	-12.0942
▁chronicles	-12.0942
▁column	-12.0942
▁contrite	-12.0942
▁convict	-12.0942
▁copper	-12.0942
▁crack	-12.0942
▁cumin	-12.0942
▁decorate	-12.0942
▁derbe	-12.0942
▁derision	-12.0942
▁disheartened	-12.0942
▁domineer	-12.0942
▁dripping	-12.0942
▁dwindle	-12.0942
▁earnings	-12.0942
▁embittered	-12.0942
▁emptiness	-12.0942
▁exploit	-12.0942
▁fixed	-12.0942
▁furious	-12.0942
▁garland	-12.0942
▁genealogy	-12.0942
▁gerahs	-12.0942
▁glass	-12.0942
▁grasshopper	-12.0942
▁greece	-12.0942
▁hakkoz	-12.0942
▁hammedatha	-12.0942
▁hanoch	-12.0942
▁happiness	-12.0942
▁hasshub	-12.0942
▁havilah	-12.0942
▁henadad	-12.0942
▁heritage	-12.0942
▁hymn	-12.0942
▁iconium	-12.0942
▁ignorance	-12.0942
▁inspection	-12.0942
▁jehohanan	-12.0942
▁jehoiachin	-12.0942
▁jeshurun	-12.0942
▁kenizzite	-12.0942
▁lavish	-12.0942
▁lifeblood	-12.0942
▁major	-12.0942
▁malluch	-12.0942
▁meanwhile	-12.0942
▁medeba	-12.0942
▁mediator	-12.0942
▁miserable	-12.0942
▁monster	-12.0942
▁morsel	-12.0942
▁nebaioth	-12.0942
▁oboth	-12.0942
▁oholiab	-12.0942
▁oneself	-12.0942
▁opposition	-12.0942
▁outburst	-12.0942
▁overshadow	-12.0942
▁pamphylia	-12.0942
▁peaks	-12.0942
▁pedaiah	-12.0942
▁principle	-12.0942
▁proconsul	-12.0942
▁proposal	-12.0942
▁quarantine	-12.0942
▁radiant	-12.0942
▁reflect	-12.0942
▁remaliah	-12.0942
▁reputation	-12.0942
▁sanctuaries	-12.0942
▁seacoast	-12.0942
▁serug	-12.0942
▁sheshbazzar	-12.0942
▁shrivel	-12.0942
▁shudder	-12.0942
▁shuhite	-12.0942
▁skull	-12.0942
▁sorceries	-12.0942
▁sovereignty	-12.0942
▁spacious	-12.0942
▁stadia	-12.0942
▁structure	-12.0942
▁sustenance	-12.0942
▁tassel	-12.0942
▁thyatira	-12.0942
▁tychicus	-12.0942
▁unaware	-12.0942
▁upheld	-12.0942
▁vindication	-12.0942
▁vinegar	-12.0942
▁zaccheus	-12.0942
▁zanoah	-12.0942
▁zattu	-12.0942
▁zohar	-12.0942
histle	-12.0942
▁complacen	-12.0942
▁deride	-12.0942
▁gemariah	-12.0942
▁joiakim	-12.0942
▁offensive	-12.0942
▁stallions	-12.0942
▁stiff	-12.0942
▁bozrah	-12.0942
▁confer	-12.0942
▁glow	-12.0942
▁holiday	-12.0942
▁idolatr	-12.0942
▁lodging	-12.0942
▁promote	-12.0942
▁scrap	-12.0942
rian	-12.0942
▁speed	-12.0942
sepher	-12.0942
▁box	-12.0942
▁quail	-12.0942
▁taanach	-12.0942
▁homage	-12.0942
▁crowed	-12.0942
▁trivial	-12.0942
▁wagons	-12.0942
▁drachmas	-12.0942
▁magic	-12.0942
▁ziph	-12.0942
▁important	-12.0942
▁obst	-12.0942
▁beheaded	-12.0942
▁flew	-12.0942
▁chinnereth	-12.0942
▁geshurites	-12.0942
▁midday	-12.0942
▁zoph	-12.0942
▁looted	-12.0942
▁race	-12.0942
▁adaiah	-12.0942
▁capital	-12.0942
▁lime	-12.0942
▁dignitaries	-12.0942
▁110	-12.0942
▁pattern	-12.0942
▁stench	-12.0942
▁colors	-12.0942
▁zealot	-12.0942
▁menstruation	-12.0942
▁kenan	-12.0942
▁dying	-12.0942
▁shortened	-12.0942
▁herodias	-12.0942
▁pathros	-12.0942
bbling	-12.0942
▁guidance	-12.0942
▁stories	-12.0942
▁ruling	-12.0942
▁groves	-12.0942
▁ambition	-12.0942
▁naaman	-12.0942
▁athens	-12.0942
▁skip	-12.0942
▁slipped	-12.0942
▁cult	-12.0942
▁misled	-12.0942
▁extortion	-12.0943
▁idle	-12.0943
▁arad	-12.0943
▁interv	-12.0943
▁swim	-12.0943
▁kishon	-12.0943
▁reck	-12.0943
▁pont	-12.0943
▁festiv	-12.0943
▁certainty	-12.0943
▁manger	-12.0943
▁market	-12.0943
▁heavi	-12.0943
▁pap	-12.0943
▁hanani	-12.0943
▁legion	-12.0943
ebai	-12.0943
namel	-12.0943
▁agreement	-12.0943
▁habitation	-12.0943
▁presumptuously	-12.0943
▁furnish	-12.0943
▁imitat	-12.0943
ziah	-12.0943
▁discernment	-12.0943
▁italy	-12.0943
▁anywhere	-12.0944
▁foremen	-12.0944
▁rumor	-12.0944
▁salem	-12.0944
▁partial	-12.0944
▁mature	-12.0944
▁expression	-12.0944
rated	-12.0944
▁mahlon	-12.0944
▁panel	-12.0944
▁shur	-12.0944
▁trough	-12.0945
▁tola	-12.0945
▁suck	-12.0945
▁platter	-12.0945
▁bodi	-12.0945
▁zerahites	-12.0945
▁fence	-12.0945
▁daybreak	-12.0945
▁qui	-12.0945
▁joel	-12.0945
▁instantly	-12.0946
▁foam	-12.0946
▁thebes	-12.0946
▁flourishes	-12.0946
▁62	-12.0946
▁,600	-12.0946
▁educated	-12.0946
▁elishama	-12.0946
▁mizpeh	-12.0946
▁tappuah	-12.0946
▁dealings	-12.0946
enath	-12.0947
▁unfaithfulness	-12.0947
▁confession	-12.0947
▁spitting	-12.0948
▁weakness	-12.0948
▁thickness	-12.0948
▁zered	-12.0949
kah	-12.0949
▁purged	-12.0949
▁repeat	-12.0949
▁contention	-12.095
▁jug	-12.095
▁patiently	-12.095
▁tongs	-12.095
▁discussion	-12.095
▁confesses	-12.095
▁kit	-12.095
▁medium	-12.095
▁nard	-12.0951
being	-12.0951
▁crushes	-12.0951
▁archer	-12.0951
▁reconciled	-12.0952
▁prefects	-12.0952
▁sparrows	-12.0952
▁vegetables	-12.0952
▁pinions	-12.0952
gle	-12.0952
▁danites	-12.0952
▁abarim	-12.0953
▁honesty	-12.0954
▁abused	-12.0956
▁baalah	-12.0956
▁presses	-12.0957
73	-12.0957
▁disclosed	-12.0957
▁stretcher	-12.0958
▁gloomy	-12.0958
▁missing	-12.0959
▁taxes	-12.0959
▁ele	-12.0959
▁disagree	-12.0959
▁farthe	-12.096
pipe	-12.096
▁blindness	-12.0961
▁inwardly	-12.0961
▁va	-12.0963
▁swoop	-12.0964
▁unity	-12.0965
▁allowance	-12.0967
▁hashum	-12.0968
lish	-12.0968
▁seller	-12.0969
▁zur	-12.0969
▁representatives	-12.0969
▁mules	-12.0969
▁scorpions	-12.0969
▁banners	-12.0969
▁knocking	-12.0969
▁debtors	-12.0969
▁lustful	-12.097
▁requirement	-12.097
▁amos	-12.097
▁mid	-12.0971
▁tar	-12.0971
▁cured	-12.0973
phas	-12.0973
▁wrathful	-12.0975
▁registered	-12.0976
▁mist	-12.0978
▁buyer	-12.0979
▁vindicated	-12.0979
▁revered	-12.0979
▁moan	-12.0981
▁shortly	-12.0982
▁reclined	-12.0983
▁zealous	-12.0985
▁deported	-12.0985
▁displeased	-12.0985
▁enlightened	-12.0985
▁gleanings	-12.0987
▁psalms	-12.0987
▁lawyers	-12.0987
▁fists	-12.0987
▁farmers	-12.0988
color	-12.0989
▁plotting	-12.0989
▁swing	-12.0991
▁stormy	-12.0993
sses	-12.0994
imus	-12.0994
▁lod	-12.0994
▁referr	-12.0994
▁sen	-12.0995
▁cana	-12.0995
▁retained	-12.0996
med	-12.1
▁perceived	-12.1004
▁balances	-12.1005
▁cliffs	-12.1005
▁criminals	-12.1005
▁barns	-12.1005
ured	-12.1006
▁travelers	-12.1007
▁miz	-12.1007
▁sho	-12.1009
king	-12.101
▁worshipers	-12.1012
▁staggering	-12.1013
▁despaired	-12.1015
▁cap	-12.1015
▁permanently	-12.1017
▁sores	-12.1017
▁hadad	-12.1019
▁physicians	-12.1023
▁torrents	-12.1023
▁awakened	-12.1025
▁mudd	-12.1026
▁forbid	-12.1027
▁consequen	-12.1032
▁drain	-12.1032
▁min	-12.1032
▁aflame	-12.1034
▁handled	-12.1037
▁millstones	-12.1041
▁laps	-12.1041
sa	-12.1041
del	-12.1043
▁grasped	-12.1044
▁gleaned	-12.105
▁growl	-12.1053
▁disturbed	-12.1053
▁laughed	-12.1055
▁gid	-12.1058
▁resided	-12.1061
▁ches	-12.1071
gently	-12.1072
▁gap	-12.1078
▁jared	-12.1086
▁lotan	-12.1091
▁exiled	-12.1092
▁strings	-12.1095
▁awakens	-12.1096
▁decreed	-12.1099
▁circl	-12.11
▁rite	-12.11
▁respected	-12.1103
▁cisterns	-12.1113
raim	-12.1117
lita	-12.1124
▁decisions	-12.1131
▁marrying	-12.1145
▁overseers	-12.115
▁counsels	-12.1168
shore	-12.117
▁supported	-12.1171
▁oth	-12.1178
controlled	-12.1182
▁protected	-12.1191
▁flowers	-12.1194
▁posts	-12.1198
▁directions	-12.1205
elaiah	-12.121
▁openly	-12.1211
▁oly	-12.1216
▁courts	-12.1223
▁blocks	-12.1225
ms	-12.1241
▁bribes	-12.1241
▁nests	-12.1241
▁respects	-12.1242
▁fasted	-12.1251
ring	-12.1255
▁thirsts	-12.126
▁learning	-12.1269
▁wanderer	-12.1276
ians	-12.1278
ments	-12.1292
▁par	-12.1313
▁sowing	-12.1316
▁murders	-12.1317
ular	-12.132
emuel	-12.1345
▁rewarded	-12.135
▁wronged	-12.1351
ot	-12.1356
addar	-12.1396
elah	-12.14
▁stumbles	-12.141
▁aged	-12.1413
▁drinker	-12.1419
lets	-12.1422
▁charg	-12.1425
▁spots	-12.1427
▁heated	-12.1428
▁fails	-12.1431
even	-12.1439
▁trac	-12.1441
vial	-12.1451
▁representati	-12.1455
▁lovely	-12.1455
atch	-12.1456
ened	-12.1462
ikla	-12.1472
▁results	-12.1485
05	-12.1517
earned	-12.1523
▁str	-12.1534
▁maa	-12.154
▁owners	-12.1541
▁stops	-12.1542
tan	-12.1586
sion	-12.1587
▁purposes	-12.1599
▁blinded	-12.1624
▁veils	-12.1637
▁abid	-12.1694
▁bother	-12.1709
▁compar	-12.1731
▁escapes	-12.1736
ering	-12.1755
uch	-12.1774
▁galli	-12.1785
ew	-12.1791
▁moons	-12.1794
▁justly	-12.1797
▁labans	-12.1813
▁desp	-12.1823
▁wasted	-12.1833
72	-12.1847
▁downward	-12.1899
▁thr	-12.1917
alah	-12.1933
▁ash	-12.1947
▁impose	-12.1984
ssing	-12.1984
guided	-12.2025
▁carri	-12.2029
▁ner	-12.2044
65	-12.2049
22;	-12.2063
▁tri	-12.2102
▁implor	-12.2146
si	-12.2157
▁sakes	-12.2175
amathite	-12.2186
▁simons	-12.2195
fter	-12.2201
til	-12.2262
▁answering	-12.2283
sure	-12.2392
▁sc	-12.2406
▁wag	-12.2418
▁prov	-12.2452
▁14	-12.2459
▁annihilate	-12.2509
▁lock	-12.2516
▁vi	-12.2523
if	-12.2588
tion	-12.2715
ban	-12.2728
atha	-12.2753
▁dedicate	-12.2754
▁dar	-12.2764
30	-12.2779
▁sam	-12.2816
rough	-12.2856
▁mate	-12.2862
▁baana	-12.2895
▁cultivat	-12.291
uel	-12.2914
▁cha	-12.2926
ched	-12.296
ache	-12.2962
▁fe	-12.2963
▁applie	-12.299
▁abi	-12.301
lessness	-12.3031
vo	-12.3036
bi	-12.3045
▁produc	-12.3074
hall	-12.31
retched	-12.3103
▁matt	-12.3107
here	-12.3113
eri	-12.3135
ros	-12.3143
arah	-12.3191
▁ni	-12.3204
▁22	-12.3219
tus	-12.322
▁kisse	-12.3228
▁inquir	-12.3269
cia	-12.3289
ide	-12.3334
ight	-12.3352
mmed	-12.3354
ye	-12.3362
ump	-12.3367
▁stor	-12.3378
rea	-12.34
tip	-12.3408
azaniah	-12.3437
ker	-12.3449
ok	-12.3454
ake	-12.3495
▁trappe	-12.3523
hen	-12.3545
rained	-12.3548
be	-12.3567
▁tens	-12.3614
phath	-12.3641
oday	-12.3658
roi	-12.3664
dication	-12.369
him	-12.3692
▁restor	-12.3713
sia	-12.3729
▁fa	-12.3732
ether	-12.374
▁upset	-12.3773
▁sacrific	-12.3781
his	-12.3862
▁pag	-12.3879
▁eu	-12.3893
x	-12.39
fully	-12.3918
▁devo	-12.3928
ficial	-12.3939
sar	-12.3949
▁mahli	-12.3958
▁wove	-12.3976
▁searche	-12.4008
▁sto	-12.4011
stain	-12.4019
▁rap	-12.408
▁fin	-12.4092
▁com	-12.4093
▁expens	-12.4104
cu	-12.4106
▁cow	-12.4109
my	-12.4112
▁soft	-12.4119
form	-12.4121
own	-12.4124
▁nullif	-12.4134
▁fo	-12.4142
fection	-12.4146
▁knock	-12.4172
▁quart	-12.4175
work	-12.4186
flame	-12.4189
▁observ	-12.4193
▁encourag	-12.4193
▁determine	-12.4197
▁plea	-12.42
gate	-12.4201
▁defi	-12.4202
▁cobra	-12.4203
▁opponent	-12.4203
▁pursuit	-12.4203
▁anchor	-12.421
▁perfumer	-12.421
▁deserve	-12.4212
▁provid	-12.4212
▁psalm	-12.4213
▁fist	-12.4213
▁lawyer	-12.4213
▁hunter	-12.4215
▁adulterer	-12.4216
▁farmer	-12.4217
▁storehouse	-12.4217
▁citizen	-12.4217
▁brick	-12.4217
▁doorpost	-12.4218
▁provision	-12.4218
▁container	-12.4219
▁coin	-12.422
▁spoil	-12.422
▁elder	-12.422
▁officer	-12.4225
▁customer	-12.4226
▁chaldean	-12.4226
▁hook	-12.4227
▁tendon	-12.4227
▁ramp	-12.4227
▁bo	-12.4231
▁remark	-12.4231
▁remov	-12.4232
▁divid	-12.4234
▁pitcher	-12.4234
▁encounter	-12.4236
▁pluck	-12.4236
▁assert	-12.4237
▁patch	-12.4237
light	-12.4238
▁perceiv	-12.4239
lie	-12.4239
▁contribut	-12.4239
bak	-12.4239
▁practic	-12.4239
▁rescu	-12.4241
▁creat	-12.4241
will	-12.4243
▁persian	-12.4244
▁complet	-12.4244
▁tempt	-12.4244
bezek	-12.4245
▁wick	-12.4246
up	-12.4246
almon	-12.4246
▁grumbling	-12.4246
foot	-12.4247
coal	-12.4248
vil	-12.4248
anath	-12.4248
jamin	-12.4248
cloth	-12.4249
disturbed	-12.4249
more	-12.4249
skirt	-12.425
stairs	-12.425
debt	-12.425
worthy	-12.4251
mounted	-12.4251
ability	-12.4251
control	-12.4251
arabah	-12.4252
wife	-12.4252
what	-12.4253
but	-12.4254
bone	-12.4255
▁quench	-12.4256
▁rope	-12.4257
▁threat	-12.4259
▁populate	-12.4259
▁appease	-12.4259
▁advise	-12.4261
▁engage	-12.4261
metic	-12.4261
zion	-12.4261
▁reconcile	-12.4261
lud	-12.4262
▁reserve	-12.4262
▁disclose	-12.4262
▁cur	-12.4263
idal	-12.4263
▁persuade	-12.4263
▁bell	-12.4264
hood	-12.4267
▁shrewd	-12.4267
▁disrespectful	-12.4267
mish	-12.4267
▁constant	-12.4268
▁64	-12.4268
shua	-12.4269
▁contentio	-12.4269
▁apostas	-12.4269
haph	-12.427
▁trustworth	-12.4271
usual	-12.4271
▁filth	-12.4271
90	-12.4272
▁ethiopia	-12.4272
▁mistake	-12.4272
this	-12.4272
▁stole	-12.4272
▁alexand	-12.4272
ellow	-12.4273
lect	-12.4273
▁genealogi	-12.4273
▁portico	-12.4273
▁ostrich	-12.4274
fits	-12.4274
▁mica	-12.4274
polis	-12.4274
uda	-12.4274
upha	-12.4274
▁extort	-12.4274
stitute	-12.4274
▁incur	-12.4274
▁treacher	-12.4275
▁caphtor	-12.4275
▁impair	-12.4275
minal	-12.4275
▁adullam	-12.4275
zabad	-12.4275
▁mirac	-12.4275
▁demo	-12.4275
▁illumin	-12.4275
▁disa	-12.4275
secrate	-12.4275
▁occ	-12.4275
▁magi	-12.4275
▁necess	-12.4275
intellig	-12.4275
▁administrat	-12.4275
llegi	-12.4275
▁ginnetho	-12.4275
▁avvi	-12.4275
▁disc	-12.4275
▁embalm	-12.4275
▁temper	-12.4275
▁zaanan	-12.4275
diblathaim	-12.4275
gress	-12.4275
hahiroth	-12.4275
jaakan	-12.4275
rabbim	-12.4275
togarmah	-12.4275
▁144,000	-12.4275
▁abihail	-12.4275
▁achzib	-12.4275
▁afford	-12.4275
▁ambassador	-12.4275
▁amethyst	-12.4275
▁amulets	-12.4275
▁argob	-12.4275
▁arpad	-12.4275
▁arvad	-12.4275
▁autumn	-12.4275
▁bamoth	-12.4275
▁bernice	-12.4275
▁bethphage	-12.4275
▁bewildered	-12.4275
▁blunt	-12.4275
▁bramble	-12.4275
▁bucket	-12.4275
▁canopy	-12.4275
▁captors	-12.4275
▁cassia	-12.4275
▁celebrating	-12.4275
▁check	-12.4275
▁chilion	-12.4275
▁cinnamon	-12.4275
▁commendable	-12.4275
▁commotion	-12.4275
▁companies	-12.4275
▁comparison	-12.4275
▁controvers	-12.4275
▁coral	-12.4275
▁corinth	-12.4275
▁craftsmanship	-12.4275
▁cramped	-12.4275
▁craving	-12.4275
▁cucumber	-12.4275
▁cymbals	-12.4275
▁debris	-12.4275
▁defraud	-12.4275
▁detail	-12.4275
▁disguise	-12.4275
▁disowned	-12.4275
▁displace	-12.4275
▁document	-12.4275
▁downfall	-12.4275
▁dregs	-12.4275
▁elapse	-12.4275
▁elealeh	-12.4275
▁eminen	-12.4275
▁excellence	-12.4275
▁expertise	-12.4275
▁explanation	-12.4275
▁exterminate	-12.4275
▁forbidden	-12.4275
▁fortifications	-12.4275
▁futilities	-12.4275
▁gabriel	-12.4275
▁galloping	-12.4275
▁gennesaret	-12.4275
▁gerizim	-12.4275
▁gershom	-12.4275
▁ghost	-12.4275
▁granddaughter	-12.4275
▁gratitude	-12.4275
▁hawk	-12.4275
▁headwaiter	-12.4275
▁hedgehog	-12.4275
▁honeycomb	-12.4275
▁horonite	-12.4275
▁hoshaiah	-12.4275
▁hoshea	-12.4275
▁hyrax	-12.4275
▁ignorant	-12.4275
▁impart	-12.4275
▁implications	-12.4275
▁insensitive	-12.4275
▁intelligence	-12.4275
▁invisible	-12.4275
▁involve	-12.4275
▁jaddua	-12.4275
▁jeshaiah	-12.4275
▁jokneam	-12.4275
▁jurisdiction	-12.4275
▁kerioth	-12.4275
▁kittim	-12.4275
▁lazuli	-12.4275
▁luke	-12.4275
▁lydda	-12.4275
▁management	-12.4275
▁melody	-12.4275
▁memucan	-12.4275
▁mephaath	-12.4275
▁meshezabel	-12.4275
▁midheaven	-12.4275
▁miscarry	-12.4275
▁neigh	-12.4275
▁nephilim	-12.4275
▁nurture	-12.4275
▁ochran	-12.4275
▁outcasts	-12.4275
▁paseah	-12.4275
▁patriarch	-12.4275
▁pethahiah	-12.4275
▁pillage	-12.4275
▁pirathon	-12.4275
▁plowshares	-12.4275
▁pocket	-12.4275
▁poplar	-12.4275
▁potiphera	-12.4275
▁powder	-12.4275
▁preeminen	-12.4275
▁priscilla	-12.4275
▁profusely	-12.4275
▁project	-12.4275
▁prompt	-12.4275
▁proof	-12.4275
▁prudence	-12.4275
▁psaltery	-12.4275
▁quantity	-12.4275
▁quota	-12.4275
▁quote	-12.4275
▁replace	-12.4275
▁reptile	-12.4275
▁repudiate	-12.4275
▁responsib	-12.4275
▁sardis	-12.4275
▁scapegoat	-12.4275
▁shawl	-12.4275
▁shelomi	-12.4275
▁shemida	-12.4275
▁sibmah	-12.4275
▁silversmith	-12.4275
▁sledge	-12.4275
▁slippery	-12.4275
▁smoking	-12.4275
▁spectacle	-12.4275
▁stack	-12.4275
▁stammer	-12.4275
▁stank	-12.4275
▁subsided	-12.4275
▁subsides	-12.4275
▁supervis	-12.4275
▁supplies	-12.4275
▁sycamore	-12.4275
▁talmai	-12.4275
▁tanner	-12.4275
▁target	-12.4275
▁terribly	-12.4275
▁territories	-12.4275
▁titus	-12.4275
▁tribunal	-12.4275
▁turquoise	-12.4275
▁undefiled	-12.4275
▁undertake	-12.4275
▁unfathomable	-12.4275
▁unique	-12.4275
▁unnoticed	-12.4275
▁vapor	-12.4275
▁vehemently	-12.4275
▁victim	-12.4275
▁volunteer	-12.4275
▁witchcraft	-12.4275
▁worries	-12.4275
▁zare	-12.4275
▁zillah	-12.4275
mmanuel	-12.4275
▁engedi	-12.4275
▁fervent	-12.4275
▁fringe	-12.4275
▁lick	-12.4275
▁serious	-12.4275
▁subsequent	-12.4275
▁unceasing	-12.4275
ficient	-12.4275
▁asriel	-12.4275
▁collar	-12.4275
▁etham	-12.4275
▁exclusive	-12.4275
▁fraud	-12.4275
▁income	-12.4275
▁pedahzur	-12.4275
▁phoenicia	-12.4275
▁rameses	-12.4275
▁sponge	-12.4275
▁sways	-12.4275
▁thefts	-12.4275
▁undertakings	-12.4275
▁allegiance	-12.4275
▁epaphr	-12.4275
▁estate	-12.4275
▁goiim	-12.4275
▁griddle	-12.4275
▁superior	-12.4275
▁wrists	-12.4275
▁bounty	-12.4275
▁mahanaim	-12.4275
▁convert	-12.4275
▁joktan	-12.4275
▁malchiel	-12.4275
▁mixture	-12.4275
▁omens	-12.4275
▁snort	-12.4275
▁trays	-12.4275
▁ancestr	-12.4275
▁brazier	-12.4275
▁beriah	-12.4275
▁migrat	-12.4275
geber	-12.4275
intel	-12.4275
▁jacinth	-12.4275
▁maimed	-12.4275
▁beneficial	-12.4275
▁gomer	-12.4275
▁shamir	-12.4275
▁stroke	-12.4275
▁tiberias	-12.4275
▁kedemoth	-12.4275
▁exits	-12.4275
▁transform	-12.4275
berith	-12.4275
zaphan	-12.4275
millo	-12.4275
▁filthiness	-12.4275
▁repe	-12.4275
▁undone	-12.4275
▁zeboiim	-12.4275
senaah	-12.4275
▁astonishment	-12.4275
▁intimately	-12.4275
▁pelatiah	-12.4275
▁nourishe	-12.4275
▁administrators	-12.4275
▁bunni	-12.4275
▁imagination	-12.4275
▁senir	-12.4275
▁procession	-12.4275
avelin	-12.4275
▁silk	-12.4275
▁distracted	-12.4275
▁suet	-12.4276
▁fester	-12.4276
▁hesitat	-12.4276
tub	-12.4276
▁danger	-12.4276
▁disposal	-12.4276
▁forcefully	-12.4276
▁arrival	-12.4276
▁supplied	-12.4276
▁unfortunate	-12.4276
▁micaiah	-12.4276
icated	-12.4276
audi	-12.4276
▁adullamite	-12.4276
▁beryl	-12.4276
▁jehiel	-12.4276
loyal	-12.4276
▁horribl	-12.4276
▁joses	-12.4276
▁alpha	-12.4276
▁fainthearted	-12.4276
▁siddim	-12.4276
▁literat	-12.4276
▁admah	-12.4276
tych	-12.4276
▁leaks	-12.4276
resses	-12.4276
▁rehoboth	-12.4276
▁spurn	-12.4276
730	-12.4276
▁raamah	-12.4276
▁uncultivated	-12.4276
luhi	-12.4276
▁herodians	-12.4276
▁contemptible	-12.4276
▁flight	-12.4276
▁haza	-12.4276
▁128	-12.4276
▁cherishes	-12.4276
▁seba	-12.4276
▁gaius	-12.4276
▁rechabites	-12.4276
▁sympathy	-12.4276
routed	-12.4276
▁azmon	-12.4276
▁occupation	-12.4276
▁perga	-12.4277
ically	-12.4277
▁childhood	-12.4277
▁waterpot	-12.4277
allai	-12.4277
▁drifter	-12.4277
▁40	-12.4277
▁ahab	-12.4277
▁palate	-12.4277
▁joyously	-12.4277
▁departure	-12.4277
▁boldness	-12.4277
▁hug	-12.4277
▁individually	-12.4277
▁hananel	-12.4277
▁luxuriously	-12.4277
lashes	-12.4277
▁lament	-12.4277
▁languishes	-12.4278
▁zipporah	-12.4278
▁geder	-12.4278
kem	-12.4278
▁purchaser	-12.4278
▁brokenhearted	-12.4278
▁alexander	-12.4278
▁earns	-12.4278
▁descent	-12.4278
▁breaches	-12.4278
▁barri	-12.4278
▁convened	-12.4278
▁mistaken	-12.4279
▁nemuel	-12.4279
▁lye	-12.4279
▁jobab	-12.4279
▁hatch	-12.4279
ammi	-12.428
ements	-12.428
▁rouse	-12.428
▁babylonians	-12.428
▁borrower	-12.428
▁massah	-12.428
▁needle	-12.4281
▁shobal	-12.4281
▁moresheth	-12.4281
amgar	-12.4281
▁mattenai	-12.4281
▁lain	-12.4281
▁impl	-12.4281
▁jashub	-12.4281
▁sparing	-12.4281
feri	-12.4281
▁corruption	-12.4282
▁team	-12.4282
▁ridge	-12.4282
▁loving	-12.4282
▁kindred	-12.4282
▁1,0	-12.4282
▁dreadful	-12.4283
▁kite	-12.4283
unge	-12.4283
▁dishan	-12.4283
▁equipped	-12.4283
▁careless	-12.4283
▁arrangement	-12.4283
▁oppresse	-12.4284
▁shrewdly	-12.4284
▁disrespectfully	-12.4284
▁size	-12.4284
▁continuing	-12.4284
▁ripen	-12.4284
▁marrow	-12.4284
gannim	-12.4285
▁bud	-12.4285
▁sicknesses	-12.4286
hira	-12.4286
▁simeonites	-12.4286
▁composed	-12.4287
▁gaze	-12.4287
▁trance	-12.4287
▁daytime	-12.4288
▁drunken	-12.4288
▁perfection	-12.4288
▁sling	-12.4289
lia	-12.4289
avid	-12.4289
▁lily	-12.4289
▁advised	-12.429
▁engaged	-12.429
▁ephesians	-12.429
▁abiezrites	-12.429
▁persecutors	-12.429
▁spells	-12.429
▁apollos	-12.429
▁designs	-12.429
▁maacathites	-12.429
▁mourners	-12.429
▁confidently	-12.429
▁stocks	-12.429
▁mushi	-12.4291
▁gideoni	-12.4292
▁intention	-12.4292
▁indulg	-12.4292
▁workmen	-12.4292
▁date	-12.4292
▁harshly	-12.4293
roth	-12.4294
▁supper	-12.4294
▁spiritists	-12.4294
aris	-12.4294
▁ignored	-12.4295
▁faded	-12.4295
▁illuminated	-12.4296
▁15	-12.4296
▁screamed	-12.4297
▁banished	-12.4297
▁11	-12.4297
▁sav	-12.4298
▁guiltless	-12.4298
▁wayside	-12.4298
▁hak	-12.4299
▁indicate	-12.4299
mpulsi	-12.4299
▁establishes	-12.4299
▁almon	-12.4299
▁delivery	-12.4299
▁76	-12.43
▁err	-12.4301
▁brighter	-12.4301
▁bereaved	-12.4301
solve	-12.4302
▁bat	-12.4302
▁fleeting	-12.4303
▁rudder	-12.4303
▁easi	-12.4303
ural	-12.4306
▁alliance	-12.4306
▁shua	-12.4306
▁enticed	-12.4307
▁crave	-12.4307
▁laborer	-12.431
▁azar	-12.431
▁contributed	-12.4311
▁quenched	-12.4311
▁reasonable	-12.4312
than	-12.4313
▁aris	-12.4313
▁worshiper	-12.4314
▁swiftly	-12.4314
▁tim	-12.4315
▁convulsions	-12.4315
▁stalks	-12.4315
▁herbs	-12.4316
▁passions	-12.4317
▁treasurers	-12.4317
▁,3	-12.4318
works	-12.4318
▁jog	-12.4319
▁enlarged	-12.4324
▁60	-12.4325
▁sparkl	-12.4325
▁dens	-12.4326
▁devastate	-12.4327
17	-12.4328
▁gesh	-12.4329
occupied	-12.4329
▁budd	-12.4329
▁comforters	-12.433
▁threatening	-12.4331
tai	-12.4332
▁alter	-12.4333
▁repute	-12.4334
▁slanderous	-12.4335
▁hinnom	-12.4335
▁enan	-12.4335
▁watcher	-12.4335
▁cower	-12.4338
▁recovered	-12.4339
▁lawless	-12.434
▁coins	-12.4341
▁anchors	-12.4341
▁determines	-12.4341
▁ramps	-12.4341
▁knocks	-12.4341
▁persians	-12.4342
dor	-12.4342
cing	-12.4344
▁rib	-12.4345
▁abhorren	-12.4346
▁soot	-12.4346
▁ezer	-12.4353
▁breached	-12.4355
▁peaceful	-12.4356
▁aboard	-12.436
▁berea	-12.4361
▁conclud	-12.4362
▁clo	-12.4365
bim	-12.4365
▁wielded	-12.4367
▁writhes	-12.4367
▁grandsons	-12.4367
▁ethiopians	-12.4367
▁indict	-12.4368
va	-12.437
▁farms	-12.4372
▁olivet	-12.4373
▁formation	-12.4375
ulent	-12.4379
▁kneeling	-12.4379
▁gleaning	-12.438
use	-12.4383
▁canal	-12.4392
▁coats	-12.4393
▁goldsmiths	-12.4393
▁preparations	-12.4393
▁arameans	-12.4393
▁arisen	-12.4395
▁relenting	-12.4395
▁revived	-12.4398
6;	-12.4402
▁disab	-12.4406
▁impe	-12.4406
▁unsh	-12.4407
▁deceiver	-12.441
▁ammonites	-12.441
do	-12.4415
▁replaster	-12.4417
▁wadis	-12.4419
▁liars	-12.442
▁chests	-12.442
▁sapphires	-12.442
comm	-12.4421
▁sickly	-12.4422
▁intermi	-12.4428
▁nob	-12.443
▁foolishly	-12.4436
▁kor	-12.4436
▁app	-12.4438
▁lowe	-12.4439
ob	-12.4441
hur	-12.4442
▁gileadites	-12.4444
ished	-12.4444
▁apples	-12.4446
▁seasoned	-12.4454
elet	-12.446
▁laughing	-12.4461
▁merai	-12.4464
▁sheph	-12.4466
▁maintained	-12.4467
▁straps	-12.4472
▁ravens	-12.4473
▁valuables	-12.4473
▁convocations	-12.4473
ber	-12.4474
runner	-12.4476
▁te	-12.4478
▁injur	-12.4488
▁rank	-12.4493
igdal	-12.4494
775	-12.4496
▁amounts	-12.4499
▁folds	-12.45
▁weighs	-12.45
ade	-12.451
gotten	-12.4512
▁hy	-12.4522
▁boiled	-12.4526
▁associates	-12.4526
▁riddles	-12.4526
▁exists	-12.4527
▁prospers	-12.4527
▁burdened	-12.454
ura	-12.454
▁feeling	-12.4541
▁submit	-12.4547
cut	-12.4551
▁wr	-12.4552
▁senses	-12.4553
▁festivals	-12.4553
▁murdered	-12.4569
▁scheme	-12.4574
▁participat	-12.4598
▁dimon	-12.4601
abb	-12.4607
▁murderers	-12.4615
▁originat	-12.4632
▁thresholds	-12.4634
▁tribulations	-12.4634
▁hammers	-12.4634
▁lends	-12.4637
▁banne	-12.4641
arden	-12.4641
▁obligations	-12.4661
▁mattath	-12.4668
▁pools	-12.4688
▁soothsayers	-12.4689
▁overflows	-12.469
▁failing	-12.4709
rang	-12.4724
▁ver	-12.4727
agon	-12.4734
▁orion	-12.4748
▁interrogate	-12.4751
▁impur	-12.4752
ench	-12.4756
▁belts	-12.4769
▁eagles	-12.4771
hum	-12.4771
▁condemns	-12.4772
▁artist	-12.4776
▁sec	-12.4791
▁reaps	-12.4796
▁won	-12.4816
▁openings	-12.4827
▁enroll	-12.4832
▁shamed	-12.4867
▁continues	-12.4883
▁flames	-12.489
▁scab	-12.49
▁conspire	-12.4905
▁departs	-12.4912
ces	-12.4918
its	-12.4922
▁zebulunite	-12.4922
▁hamon	-12.493
udent	-12.4936
sight	-12.4944
agog	-12.4959
▁buildings	-12.4966
ull	-12.4968
▁envi	-12.4981
char	-12.5001
▁fleshly	-12.502
wed	-12.5034
▁captains	-12.5051
▁ch	-12.5065
▁thunders	-12.5077
▁buying	-12.5079
▁repents	-12.508
▁breathing	-12.5108
▁palms	-12.5108
milit	-12.5113
▁mysteri	-12.5118
▁kin	-12.5124
ias	-12.5157
▁describ	-12.5159
▁waists	-12.5166
sheth	-12.5166
urged	-12.5169
adiah	-12.5185
00.	-12.5188
zaniah	-12.519
▁inclin	-12.5217
ized	-12.5267
hat	-12.5281
▁reports	-12.5345
,200	-12.5348
▁prostrat	-12.5349
tly	-12.5363
▁mad	-12.5394
▁shun	-12.5402
ions	-12.543
nia	-12.55
▁mov	-12.5506
▁reform	-12.5558
▁sup	-12.5599
then	-12.5636
▁refin	-12.5638
▁mer	-12.5654
▁abdo	-12.5666
▁ro	-12.57
▁jok	-12.5725
z	-12.5752
liness	-12.5843
▁surpass	-12.5859
▁sal	-12.5872
anna	-12.5888
▁stra	-12.5899
95	-12.5923
▁benjaminite	-12.5927
▁muster	-12.5996
▁breathe	-12.6011
rim	-12.608
riph	-12.6097
nding	-12.6184
ena	-12.6239
▁forti	-12.626
aph	-12.6267
not	-12.6361
▁cro	-12.6384
bal	-12.6401
▁5	-12.6473
▁crouch	-12.648
47	-12.649
ita	-12.6533
▁zeb	-12.6547
▁liken	-12.6549
chased	-12.655
▁sil	-12.6586
▁hab	-12.6605
room	-12.6641
mit	-12.6682
▁rub	-12.6689
ually	-12.6731
az	-12.6746
▁non	-12.6888
▁pl	-12.693
ace	-12.6933
▁naha	-12.6942
▁jer	-12.6959
6	-12.6962
▁approv	-12.7015
nite	-12.7043
▁ridicul	-12.7044
▁stat	-12.7056
▁elm	-12.7105
tle	-12.7124
ily	-12.713
tah	-12.7202
ram	-12.7217
let	-12.7235
▁sar	-12.727
▁gushe	-12.7304
▁sli	-12.7316
eel	-12.7322
net	-12.734
▁pat	-12.734
▁incite	-12.739
▁pr	-12.7406
▁buz	-12.7414
phar	-12.7446
ior	-12.7512
ark	-12.7521
▁annihilat	-12.7523
▁gall	-12.7528
▁raisin	-12.7597
ei	-12.7602
▁cushi	-12.7611
cher	-12.7652
▁devi	-12.7666
ipped	-12.7685
arat	-12.7693
▁ka	-12.7698
enter	-12.7724
▁prostrate	-12.7733
mag	-12.7734
2,200	-12.7735
lled	-12.7881
▁haggi	-12.7908
▁overthr	-12.7976
herefore	-12.8015
ature	-12.8025
bearing	-12.8029
ified	-12.8048
▁20	-12.8076
tter	-12.8095
▁imp	-12.8105
▁ep	-12.8119
loth	-12.8144
unites	-12.8166
ni	-12.8204
gog	-12.822
ocated	-12.8252
▁sab	-12.8273
▁stud	-12.8291
▁distinguishe	-12.8312
▁conspir	-12.8345
▁si	-12.8349
▁sincere	-12.8351
unc	-12.8391
▁compe	-12.8428
▁secu	-12.8474
▁bearer	-12.8487
▁arti	-12.8507
zan	-12.8511
killed	-12.8518
▁interrogat	-12.8543
hash	-12.8566
▁jehu	-12.8628
▁schem	-12.8702
ailed	-12.8704
▁cle	-12.8711
eni	-12.8728
amon	-12.8745
▁shuni	-12.8746
tro	-12.8751
aked	-12.8753
▁stew	-12.8766
lines	-12.8766
tain	-12.8783
▁sela	-12.8821
ries	-12.8831
▁rece	-12.8835
▁areli	-12.884
▁stare	-12.8842
stic	-12.8857
kl	-12.8871
phi	-12.888
no	-12.8886
alled	-12.8887
▁rabbit	-12.8921
ended	-12.8922
▁sn	-12.8942
mas	-12.8949
addon	-12.8955
,400	-12.8959
▁lib	-12.896
aliah	-12.8961
bon	-12.8976
ately	-12.8979
ipha	-12.8999
ule	-12.9005
duced	-12.9024
wns	-12.9026
▁du	-12.9038
▁depriv	-12.9038
marks	-12.9039
wel	-12.9058
sequence	-12.9074
od	-12.9082
▁deceiv	-12.9084
makers	-12.9106
▁sco	-12.9109
board	-12.9116
quir	-12.9121
dict	-12.9124
way	-12.9127
like	-12.9133
far	-12.9139
▁devastat	-12.9139
head	-12.9141
significant	-12.9141
bility	-12.915
bijah	-12.915
cable	-12.9152
▁deba	-12.9153
fork	-12.9153
▁preten	-12.9153
time	-12.9155
rmor	-12.9156
▁helek	-12.9159
vah	-12.916
▁abhorre	-12.9161
ccording	-12.9162
dded	-12.9162
west	-12.9168
▁execution	-12.9175
▁fowl	-12.9175
mation	-12.9178
▁herb	-12.9178
rap	-12.9181
post	-12.9184
ink	-12.9188
mus	-12.9193
mon	-12.9193
▁spark	-12.9194
lan	-12.9197
▁gossip	-12.9201
▁proselyte	-12.9204
▁rampart	-12.9204
▁glutton	-12.9204
▁hedge	-12.9204
▁track	-12.9205
▁encampment	-12.9206
wise	-12.9206
▁twig	-12.9206
▁convulsion	-12.9211
▁stalk	-12.9211
ession	-12.9211
▁scorpion	-12.9213
baz	-12.9214
col	-12.9214
▁banner	-12.9215
▁horde	-12.9215
▁representative	-12.9215
ister	-12.9216
▁debtor	-12.9216
▁rai	-12.9216
▁shrine	-12.9216
▁taskmaster	-12.9216
▁pearl	-12.9217
▁cub	-12.9218
ities	-12.9218
▁sorcerer	-12.9218
▁wrongdoer	-12.9218
▁tyrant	-12.9218
▁mule	-12.9218
▁earring	-12.9218
cation	-12.9219
▁hypocrite	-12.9219
▁troop	-12.9219
▁guardroom	-12.922
▁forefather	-12.922
▁miracle	-12.922
▁kohathite	-12.922
▁pole	-12.9221
▁bri	-12.9222
isted	-12.9224
antly	-12.9224
tic	-12.9225
▁humbl	-12.9227
▁treasurer	-12.9228
▁club	-12.9228
olad	-12.9229
▁contemp	-12.9232
▁possessor	-12.9232
53	-12.9234
ighten	-12.9234
▁reviv	-12.9237
▁scream	-12.924
▁banish	-12.924
tuous	-12.9241
▁troubl	-12.9241
ilities	-12.9241
shed	-12.9242
▁attach	-12.9243
▁esteem	-12.9243
▁situat	-12.9244
▁betroth	-12.9244
▁dismay	-12.9245
zephon	-12.9246
skins	-12.9247
▁desir	-12.9248
indulg	-12.9248
quench	-12.9248
abarim	-12.925
keeper	-12.925
pelet	-12.925
▁eas	-12.925
main	-12.925
guard	-12.925
growth	-12.925
approval	-12.925
jair	-12.925
bbing	-12.9251
tabor	-12.9251
went	-12.9251
closed	-12.9251
doubt	-12.9251
figure	-12.9252
tamar	-12.9252
ounded	-12.9252
perez	-12.9252
firm	-12.9252
condemned	-12.9252
grown	-12.9252
you	-12.9252
happy	-12.9252
gathering	-12.9252
who	-12.9252
kadesh	-12.9252
treat	-12.9252
certain	-12.9252
fruitful	-12.9252
blemish	-12.9252
appoint	-12.9252
lifted	-12.9252
fields	-12.9252
third	-12.9253
pour	-12.9253
quiet	-12.9253
known	-12.9253
second	-12.9253
vows	-12.9253
first	-12.9253
fact	-12.9253
water	-12.9253
without	-12.9253
regard	-12.9253
back	-12.9253
count	-12.9253
sick	-12.9253
because	-12.9253
tell	-12.9254
workers	-12.9254
sense	-12.9254
▁devis	-12.9255
▁reaper	-12.9255
upon	-12.9256
▁waver	-12.9257
▁sham	-12.9257
seventh	-12.9257
▁translat	-12.9258
▁tir	-12.9258
bolt	-12.9259
cain	-12.9259
nounce	-12.9259
▁propose	-12.926
ception	-12.9261
well	-12.9261
made	-12.9262
upp	-12.9262
▁purge	-12.9262
▁exclude	-12.9262
▁hori	-12.9263
▁bloo	-12.9263
uzza	-12.9264
bag	-12.9265
log	-12.9265
van	-12.9265
▁fair	-12.9267
▁shoba	-12.9267
▁haughti	-12.9267
▁private	-12.9268
▁unintentional	-12.9268
tri	-12.9268
▁fil	-12.9268
phan	-12.9269
▁evi	-12.9269
eans	-12.9269
bol	-12.9269
▁shepher	-12.9269
▁instant	-12.927
▁perpetual	-12.927
▁exert	-12.927
▁final	-12.927
▁loosen	-12.927
▁exc	-12.9271
ists	-12.9271
▁cho	-12.9271
▁statut	-12.9271
elchizedek	-12.9271
corrupti	-12.9271
▁surg	-12.9272
rachel	-12.9272
yself	-12.9272
▁possibl	-12.9272
amps	-12.9272
▁drift	-12.9272
▁discourag	-12.9273
ext	-12.9273
▁cherish	-12.9274
▁prof	-12.9274
▁col	-12.9274
▁fox	-12.9274
eopard	-12.9274
▁famili	-12.9274
▁raam	-12.9274
runk	-12.9274
shal	-12.9274
▁zalmon	-12.9274
▁agitat	-12.9274
▁compass	-12.9274
alak	-12.9274
▁squa	-12.9274
▁exhort	-12.9274
▁persever	-12.9274
▁consol	-12.9275
▁gera	-12.9275
roduc	-12.9275
▁zere	-12.9275
tracted	-12.9275
▁blame	-12.9275
repare	-12.9275
▁bakbuk	-12.9275
minated	-12.9275
▁chinner	-12.9275
▁kish	-12.9275
▁opportun	-12.9275
razin	-12.9275
▁infl	-12.9275
ejected	-12.9275
ejoice	-12.9275
astus	-12.9275
morr	-12.9275
drachma	-12.9275
▁liqu	-12.9275
▁oversee	-12.9275
▁perpet	-12.9275
augu	-12.9275
quee	-12.9275
ummim	-12.9275
▁rotten	-12.9275
icket	-12.9275
▁rakk	-12.9275
zedek	-12.9275
▁chryso	-12.9275
▁estimation	-12.9275
▁melchi	-12.9275
▁shihor	-12.9275
▁taber	-12.9275
▁attribute	-12.9275
▁blindfold	-12.9275
▁caretaker	-12.9275
▁deck	-12.9275
▁elteke	-12.9275
▁enrich	-12.9275
▁eshtemo	-12.9275
▁evangelist	-12.9275
▁expend	-12.9275
▁forewarn	-12.9275
▁gloat	-12.9275
▁illusion	-12.9275
▁mahan	-12.9275
▁ointment	-12.9275
▁opinion	-12.9275
▁parcel	-12.9275
▁rhod	-12.9275
▁screen	-12.9275
▁spatter	-12.9275
▁swindler	-12.9275
▁tranquil	-12.9275
▁vault	-12.9275
aeus	-12.9275
alyze	-12.9275
authori	-12.9275
baladan	-12.9275
blished	-12.9275
clusion	-12.9275
detected	-12.9275
haggidgad	-12.9275
hagoyim	-12.9275
haired	-12.9275
ibboleth	-12.9275
kabzeel	-12.9275
ladder	-12.9275
merodach	-12.9275
oboam	-12.9275
specting	-12.9275
stricted	-12.9275
tality	-12.9275
trator	-12.9275
vvah	-12.9275
▁absolutely	-12.9275
▁achbor	-12.9275
▁adulteries	-12.9275
▁affairs	-12.9275
▁aloof	-12.9275
▁ammishaddai	-12.9275
▁annoyed	-12.9275
▁antelope	-12.9275
▁archippus	-12.9275
▁ashpenaz	-12.9275
▁bargain	-12.9275
▁barren	-12.9275
▁bdellium	-12.9275
▁beggar	-12.9275
▁blade	-12.9275
▁blanket	-12.9275
▁bochim	-12.9275
▁bottle	-12.9275
▁brandish	-12.9275
▁breakfast	-12.9275
▁bukki	-12.9275
▁bulge	-12.9275
▁bulrush	-12.9275
▁calneh	-12.9275
▁champion	-12.9275
▁cherethites	-12.9275
▁chislev	-12.9275
▁clamor	-12.9275
▁coastline	-12.9275
▁coffin	-12.9275
▁condu	-12.9275
▁congratulate	-12.9275
▁conjurers	-12.9275
▁conscious	-12.9275
▁consumption	-12.9275
▁corro	-12.9275
▁couriers	-12.9275
▁cozbi	-12.9275
▁crane	-12.9275
▁crimson	-12.9275
▁crumbs	-12.9275
▁decapolis	-12.9275
▁defame	-12.9275
▁demetrius	-12.9275
▁desponden	-12.9275
▁disorder	-12.9275
▁dispersion	-12.9275
▁dorcas	-12.9275
▁eliud	-12.9275
▁ellasar	-12.9275
▁elnathan	-12.9275
▁emasculate	-12.9275
▁embracing	-12.9275
▁emperor	-12.9275
▁epaphroditus	-12.9275
▁evaporate	-12.9275
▁evict	-12.9275
▁extremity	-12.9275
▁fabric	-12.9275
▁falcon	-12.9275
▁favoritism	-12.9275
▁fracture	-12.9275
▁fragile	-12.9275
▁fragments	-12.9275
▁frail	-12.9275
▁gerasenes	-12.9275
▁gethsemane	-12.9275
▁gibbethon	-12.9275
▁golgotha	-12.9275
▁guarantee	-12.9275
▁gudgodah	-12.9275
▁hacaliah	-12.9275
▁hagab	-12.9275
▁hashabneiah	-12.9275
▁hattush	-12.9275
▁hauran	-12.9275
▁hirah	-12.9275
▁hoopoe	-12.9275
▁horonaim	-12.9275
▁hosea	-12.9275
▁hospitality	-12.9275
▁idolater	-12.9275
▁immovable	-12.9275
▁infuriated	-12.9275
▁innocence	-12.9275
▁intensely	-12.9275
▁invalidat	-12.9275
▁investigating	-12.9275
▁investigation	-12.9275
▁irijah	-12.9275
▁irreparable	-12.9275
▁janoah	-12.9275
▁japhia	-12.9275
▁jareb	-12.9275
▁jattir	-12.9275
▁jehoshaphat	-12.9275
▁jotbathah	-12.9275
▁judaism	-12.9275
▁julius	-12.9275
▁kehelathah	-12.9275
▁keilah	-12.9275
▁kick	-12.9275
▁kolaiah	-12.9275
▁launderer	-12.9275
▁lawgiver	-12.9275
▁lawsuit	-12.9275
▁lizard	-12.9275
▁luxury	-12.9275
▁lycaonia	-12.9275
▁lysias	-12.9275
▁magician	-12.9275
▁maturity	-12.9275
▁mehujael	-12.9275
▁methushael	-12.9275
▁miletus	-12.9275
▁mirror	-12.9275
▁miseries	-12.9275
▁mithkah	-12.9275
▁mithredath	-12.9275
▁moisture	-12.9275
▁mottled	-12.9275
▁mutter	-12.9275
▁nahalal	-12.9275
▁nahaliel	-12.9275
▁nephtoah	-12.9275
▁nicolaitans	-12.9275
▁obadiah	-12.9275
▁paphos	-12.9275
▁paradise	-12.9275
▁pedestal	-12.9275
▁pentecost	-12.9275
▁pergamum	-12.9275
▁perplexity	-12.9275
▁philadelphia	-12.9275
▁philosoph	-12.9275
▁phrygia	-12.9275
▁pigeon	-12.9275
▁plateau	-12.9275
▁pleiades	-12.9275
▁ponds	-12.9275
▁prematurely	-12.9275
▁preparing	-12.9275
▁problems	-12.9275
▁procedure	-12.9275
▁publius	-12.9275
▁pulverize	-12.9275
▁punon	-12.9275
▁rabboni	-12.9275
▁rafter	-12.9275
▁ratified	-12.9275
▁reconciliation	-12.9275
▁reef	-12.9275
▁registration	-12.9275
▁rehoboam	-12.9275
▁reliable	-12.9275
▁religious	-12.9275
▁reservoir	-12.9275
▁retract	-12.9275
▁revenue	-12.9275
▁rissah	-12.9275
▁rithmah	-12.9275
▁safekeeping	-12.9275
▁salecah	-12.9275
▁saliva	-12.9275
▁sallu	-12.9275
▁sardius	-12.9275
▁scaveng	-12.9275
▁sepharvaim	-12.9275
▁shabbethai	-12.9275
▁shammua	-12.9275
▁shulammite	-12.9275
▁slingstones	-12.9275
▁smear	-12.9275
▁smith	-12.9275
▁smolder	-12.9275
▁smyrna	-12.9275
▁sorceress	-12.9275
▁squander	-12.9275
▁straggler	-12.9275
▁stylus	-12.9275
▁surplus	-12.9275
▁swirl	-12.9275
▁tabeel	-12.9275
▁tabitha	-12.9275
▁tekoa	-12.9275
▁temporary	-12.9275
▁tertullus	-12.9275
▁thaddaeus	-12.9275
▁theophilus	-12.9275
▁tigris	-12.9275
▁trousers	-12.9275
▁unfastened	-12.9275
▁unfeeling	-12.9275
▁unload	-12.9275
▁unpleasant	-12.9275
▁uphaz	-12.9275
▁wholeheartedly	-12.9275
▁zichri	-12.9275
▁jahzeel	-12.9275
▁remedy	-12.9275
▁zeresh	-12.9275
▁2,81	-12.9275
▁aphek	-12.9275
▁balm	-12.9275
▁bazl	-12.9275
▁bigger	-12.9275
▁bowstring	-12.9275
▁carousing	-12.9275
▁egla	-12.9275
▁emim	-12.9275
▁foretold	-12.9275
▁hethlon	-12.9275
▁import	-12.9275
▁instinct	-12.9275
▁kidnap	-12.9275
▁lonely	-12.9275
▁netophathite	-12.9275
▁paws	-12.9275
▁physical	-12.9275
▁rogue	-12.9275
▁substance	-12.9275
▁syene	-12.9275
▁tumult	-12.9275
▁ulai	-12.9275
▁waving	-12.9275
▁chronic	-12.9275
▁crafti	-12.9275
▁expel	-12.9275
▁framework	-12.9275
▁holon	-12.9275
▁palti	-12.9275
▁shift	-12.9275
▁sym	-12.9275
▁syr	-12.9275
▁unrestrained	-12.9275
▁casiphia	-12.9275
▁elevat	-12.9275
▁embar	-12.9275
▁helkath	-12.9275
▁meager	-12.9275
▁nimrod	-12.9275
▁ozni	-12.9275
▁stamp	-12.9275
▁edification	-12.9275
▁malignancy	-12.9275
▁profound	-12.9275
▁misgivings	-12.9275
▁orpah	-12.9275
▁oseph	-12.9275
▁thebez	-12.9275
▁zacc	-12.9275
▁achim	-12.9275
▁aeneas	-12.9275
▁lydia	-12.9275
▁seizure	-12.9275
▁torture	-12.9275
▁august	-12.9275
▁beak	-12.9275
▁flogging	-12.9275
▁juttah	-12.9275
▁sift	-12.9275
▁undef	-12.9275
▁mishal	-12.9275
▁soap	-12.9275
▁harbona	-12.9275
▁abolish	-12.9275
▁curren	-12.9275
▁irritating	-12.9275
▁salome	-12.9275
▁unstable	-12.9275
▁antipa	-12.9275
emek	-12.9275
sition	-12.9275
▁652	-12.9275
▁matthan	-12.9275
▁nephew	-12.9275
▁zabbai	-12.9275
▁jeremoth	-12.9275
▁jokshan	-12.9275
▁karta	-12.9275
▁nahum	-12.9275
▁netopha	-12.9275
egation	-12.9275
inciden	-12.9275
▁hamstr	-12.9275
riot	-12.9275
▁96	-12.9275
▁abiezer	-12.9275
▁conceit	-12.9275
▁meadow	-12.9275
▁rubbish	-12.9275
▁abdomen	-12.9275
▁gazite	-12.9275
▁iphtahel	-12.9275
▁oars	-12.9275
▁persuasive	-12.9275
▁chair	-12.9275
▁ablaze	-12.9275
▁madmen	-12.9275
chereth	-12.9276
▁azzur	-12.9276
▁lehi	-12.9276
deiah	-12.9276
▁shuhamites	-12.9276
▁magnified	-12.9276
▁46	-12.9276
▁areopagus	-12.9276
▁irad	-12.9276
▁bakbukiah	-12.9276
▁lewdness	-12.9276
▁plumage	-12.9276
▁watchtower	-12.9276
▁zimri	-12.9276
▁kark	-12.9276
▁qualif	-12.9276
▁buzite	-12.9276
▁avail	-12.9276
▁voluntarily	-12.9276
▁dislocated	-12.9276
sannah	-12.9276
▁elishah	-12.9276
▁hoarded	-12.9276
▁spelt	-12.9276
▁unproductive	-12.9276
▁genital	-12.9276
easant	-12.9276
ezib	-12.9276
▁lentil	-12.9276
▁goads	-12.9276
▁sarid	-12.9276
▁zebadiah	-12.9276
▁excel	-12.9276
▁adram	-12.9276
▁nineteen	-12.9276
▁41	-12.9276
▁rubble	-12.9276
hoz	-12.9276
▁mattanah	-12.9276
▁rubies	-12.9276
▁zaphon	-12.9276
▁liquor	-12.9276
erech	-12.9276
▁cori	-12.9276
ntage	-12.9276
▁alternat	-12.9276
▁pails	-12.9276
▁specific	-12.9276
▁azri	-12.9276
▁spun	-12.9276
▁demas	-12.9276
▁infantry	-12.9276
▁kishion	-12.9276
▁agitation	-12.9276
▁caphtorim	-12.9276
▁mason	-12.9276
▁troas	-12.9276
▁laz	-12.9276
▁headlong	-12.9276
▁lept	-12.9276
ilize	-12.9276
▁briers	-12.9276
▁fairness	-12.9276
▁noonday	-12.9276
▁shepham	-12.9276
▁successive	-12.9276
▁calah	-12.9276
▁mysterious	-12.9277
zum	-12.9277
▁scare	-12.9277
▁roadway	-12.9277
▁zalmonah	-12.9277
▁gaunt	-12.9277
▁meaningless	-12.9277
▁cure	-12.9277
▁awl	-12.9277
maim	-12.9277
▁kain	-12.9277
▁enaim	-12.9277
xion	-12.9277
▁cell	-12.9277
▁chislo	-12.9277
▁pact	-12.9277
▁assistance	-12.9277
▁haul	-12.9277
▁arida	-12.9277
▁revile	-12.9277
▁stout	-12.9277
▁alush	-12.9277
▁mail	-12.9277
▁cypr	-12.9277
▁homelessness	-12.9278
▁loom	-12.9278
▁enact	-12.9278
▁undo	-12.9278
▁burdensome	-12.9278
▁conversi	-12.9278
cam	-12.9278
▁flat	-12.9278
mpha	-12.9278
▁justifies	-12.9278
▁eloquent	-12.9278
▁jairus	-12.9278
▁beads	-12.9278
lank	-12.9278
▁bandage	-12.9278
▁emer	-12.9278
▁bigtha	-12.9278
▁royalty	-12.9278
▁genealogies	-12.9278
▁gossiper	-12.9278
▁porticoes	-12.9278
▁azor	-12.9278
▁zerahiah	-12.9278
▁eldad	-12.9278
▁defiantly	-12.9279
▁naph	-12.9279
▁colon	-12.9279
▁shilo	-12.9279
▁stings	-12.9279
▁bark	-12.9279
▁puah	-12.9279
▁jezer	-12.9279
▁libya	-12.9279
▁outwardly	-12.9279
▁mightily	-12.9279
beha	-12.9279
▁elk	-12.9279
▁sneer	-12.928
immed	-12.928
▁schemer	-12.928
▁ephrathah	-12.928
▁jerah	-12.928
gnified	-12.928
hazz	-12.928
▁chim	-12.928
▁galatian	-12.928
▁engraver	-12.928
▁surge	-12.928
▁thankful	-12.928
▁super	-12.928
▁eliph	-12.928
▁exertion	-12.928
▁salu	-12.928
▁uzal	-12.9281
acob	-12.9281
bowl	-12.9281
spense	-12.9281
▁vanishes	-12.9281
▁tires	-12.9281
steady	-12.9281
▁revelers	-12.9281
▁enjoyment	-12.9282
▁device	-12.9282
▁zemar	-12.9282
▁coal	-12.9282
▁eze	-12.9282
▁smelter	-12.9282
ander	-12.9282
▁shema	-12.9282
udah	-12.9283
neel	-12.9283
▁dripped	-12.9283
▁infe	-12.9283
▁mockers	-12.9283
▁leadership	-12.9283
▁victorious	-12.9284
▁untr	-12.9284
▁haughtily	-12.9284
ple	-12.9284
▁perpetually	-12.9284
▁apostasy	-12.9285
commend	-12.9285
▁rowers	-12.9285
▁carc	-12.9285
▁gouge	-12.9285
hage	-12.9286
▁lent	-12.9286
inu	-12.9286
▁phil	-12.9286
▁acquaint	-12.9286
▁shillem	-12.9286
▁ridden	-12.9286
▁breed	-12.9286
▁642	-12.9286
▁cheerfulness	-12.9286
nacle	-12.9287
▁comforter	-12.9287
▁burie	-12.9287
▁unw	-12.9287
▁nimr	-12.9287
▁azm	-12.9287
ture	-12.9288
▁active	-12.9289
▁depraved	-12.9289
▁impoverished	-12.9289
▁123	-12.9289
▁negligent	-12.9291
▁nullified	-12.9291
▁proposed	-12.9291
▁rattling	-12.9291
▁insisting	-12.9291
▁goodwill	-12.9291
itting	-12.9292
▁partic	-12.9292
▁recovery	-12.9292
▁lookout	-12.9293
▁tahath	-12.9293
▁mint	-12.9293
▁repayment	-12.9293
▁prote	-12.9293
▁sna	-12.9294
▁defilement	-12.9295
ananiah	-12.9295
▁cont	-12.9295
▁strictly	-12.9296
▁phi	-12.9297
52	-12.9297
▁por	-12.9297
▁soften	-12.9297
▁frontier	-12.9298
haiah	-12.9298
▁kil	-12.9298
▁libni	-12.9298
▁passion	-12.9298
eluded	-12.9299
dew	-12.9299
▁clever	-12.9299
forward	-12.93
▁shaal	-12.93
therwise	-12.9301
▁appeased	-12.9301
mic	-12.9301
▁vinedressers	-12.9301
▁carpenters	-12.9301
▁choirs	-12.9301
▁constellations	-12.9301
▁footprints	-12.9301
▁insistent	-12.9302
▁ravages	-12.9302
idian	-12.9303
▁meriba	-12.9303
▁assari	-12.9303
sopher	-12.9304
▁edomites	-12.9304
▁charity	-12.9305
▁rom	-12.9305
▁truthfully	-12.9307
▁defil	-12.9307
▁zephon	-12.9307
cles	-12.9308
▁archite	-12.9309
▁gebal	-12.931
▁daylight	-12.9311
▁populated	-12.9312
destructi	-12.9313
nated	-12.9314
▁loosened	-12.9314
▁situated	-12.9314
▁52	-12.9314
▁pret	-12.9315
▁eve	-12.9317
rom	-12.9317
▁sata	-12.9318
▁avert	-12.9319
etur	-12.9319
posts	-12.9319
▁wavering	-12.9321
▁frustrated	-12.9322
▁72	-12.9322
▁goring	-12.9323
▁bezek	-12.9324
times	-12.9325
▁hateful	-12.9325
▁plunderers	-12.9325
▁reme	-12.9326
▁assist	-12.9327
sho	-12.9328
▁amra	-12.9329
▁union	-12.9329
▁shemariah	-12.933
▁collection	-12.9331
▁damaged	-12.9332
▁calculated	-12.9332
▁isolated	-12.9332
▁anew	-12.9334
▁dreamer	-12.9334
▁inspir	-12.9337
▁swea	-12.9338
▁ankles	-12.9338
▁encountered	-12.9339
▁plucked	-12.9339
▁patched	-12.9339
▁acceptance	-12.9341
▁joking	-12.9342
▁healer	-12.9342
▁abihud	-12.9343
▁aven	-12.9344
▁rubb	-12.9345
▁cret	-12.9346
stead	-12.9346
▁hedges	-12.9347
▁gluttons	-12.9347
▁proselytes	-12.9347
▁twigs	-12.9347
▁gossips	-12.9347
▁tracks	-12.9347
▁encampments	-12.9347
▁remarking	-12.9347
standing	-12.9347
▁ramparts	-12.9347
huphamites	-12.9348
▁equally	-12.9351
▁wil	-12.9354
▁gabba	-12.9354
▁possessors	-12.9354
▁gaddi	-12.9355
337	-12.9356
930	-12.9356
▁ishv	-12.9359
ously	-12.936
▁gravel	-12.9361
pulsi	-12.9362
▁accomplishment	-12.9362
▁harmon	-12.9363
▁galeed	-12.9364
▁forfeited	-12.9364
▁seers	-12.9365
▁straightened	-12.9365
▁broth	-12.9366
gates	-12.9371
▁builder	-12.9372
▁refugees	-12.9372
▁executioner	-12.9376
▁fowler	-12.9376
▁proudly	-12.9381
▁louder	-12.9383
▁scent	-12.9391
▁cheat	-12.9392
▁dreamers	-12.9393
▁pursuits	-12.9394
▁cobras	-12.9394
▁opponents	-12.9394
▁asserted	-12.9396
▁perfumers	-12.9397
▁triumphant	-12.9397
lene	-12.9401
▁hunters	-12.9401
still	-12.9403
▁customers	-12.9408
▁circulate	-12.941
gel	-12.9414
▁seduce	-12.9416
▁sinking	-12.9418
▁fiercely	-12.9424
▁fou	-12.9426
▁godliness	-12.9427
▁mus	-12.943
▁consented	-12.9441
▁ponders	-12.9441
▁rations	-12.9441
▁quarter	-12.9441
▁crimes	-12.9442
▁bruises	-12.9442
▁guardians	-12.9445
▁lover	-12.9445
▁lighten	-12.9449
▁wares	-12.9454
▁gat	-12.9456
▁hamm	-12.9461
▁shal	-12.9464
▁listeners	-12.9464
▁mib	-12.9465
▁lan	-12.9468
▁anath	-12.9472
saac	-12.9479
▁medad	-12.948
droom	-12.948
ursed	-12.9485
▁rims	-12.9489
▁dissensions	-12.9489
▁leopards	-12.9489
▁arabs	-12.9489
iasaph	-12.9491
▁worrying	-12.9491
▁refreshed	-12.9492
▁despis	-12.9494
▁nullifie	-12.9495
▁biz	-12.95
▁justus	-12.9503
▁deserved	-12.9519
▁prospered	-12.952
▁mast	-12.9521
lk	-12.9522
▁del	-12.9526
crow	-12.9527
ather	-12.953
▁limits	-12.9537
▁snakes	-12.9537
▁localit	-12.9544
▁ransomed	-12.9544
▁leg	-12.9545
▁distribut	-12.9551
▁rape	-12.956
▁expense	-12.9562
▁moreh	-12.9563
▁miss	-12.9565
▁exchang	-12.9566
▁charmer	-12.9572
▁silently	-12.9578
tained	-12.9585
liberati	-12.9593
iza	-12.9595
▁mal	-12.9597
▁helb	-12.9603
outs	-12.961
tered	-12.9624
▁dances	-12.9628
▁appetites	-12.9634
▁traditions	-12.9634
▁slips	-12.9634
▁washings	-12.9635
▁responding	-12.964
▁imm	-12.9643
▁parm	-12.9653
arded	-12.9659
▁richly	-12.9659
▁battlement	-12.9665
▁interc	-12.9669
scr	-12.9678
▁logs	-12.9682
▁triumphs	-12.9683
▁michmas	-12.9686
▁mole	-12.9687
▁lame	-12.9687
babel	-12.9696
▁leans	-12.9721
▁urgent	-12.973
▁leb	-12.973
dies	-12.9735
▁wo	-12.9744
aruma	-12.975
▁arod	-12.9766
pat	-12.9771
lice	-12.9772
▁ashdodite	-12.9787
▁bared	-12.9797
▁sung	-12.98
▁asso	-12.9811
▁ankle	-12.9812
ez	-12.9832
anites	-12.9832
ten	-12.9896
▁grinder	-12.9901
purity	-12.9934
shearers	-12.9947
▁shiph	-12.9979
mes	-12.999
setting	-13.0132
zi	-13.0178
▁lender	-13.0187
▁zena	-13.0203
pressed	-13.0238
leased	-13.0255
▁sabt	-13.0351
mitted	-13.0368
ahiah	-13.0387
oses	-13.0391
located	-13.0417
cum	-13.0476
▁loo	-13.051
▁cru	-13.0561
▁bilga	-13.0649
ibza	-13.066
ttah	-13.0683
efore	-13.0712
emon	-13.0733
roph	-13.0797
▁cou	-13.0911
lax	-13.0974
▁accu	-13.0981
serted	-13.0986
▁smalle	-13.0993
▁princess	-13.1001
moral	-13.1009
▁zi	-13.1032
hul	-13.1119
uci	-13.1122
esar	-13.1166
rip	-13.125
acc	-13.1283
lem	-13.1427
sent	-13.1532
▁mischie	-13.1569
pha	-13.1581
oz	-13.1619
▁extensi	-13.1643
thful	-13.1667
37	-13.1737
ther	-13.1744
▁impress	-13.183
ook	-13.1894
▁refreshe	-13.1911
▁hagg	-13.1934
assed	-13.1963
▁reg	-13.2084
elem	-13.2252
▁rott	-13.2398
▁tryph	-13.2421
hindered	-13.2448
▁greedi	-13.2465
mul	-13.247
▁91	-13.2567
▁th	-13.2585
gaz	-13.2586
▁jaala	-13.2605
rive	-13.2638
believers	-13.2649
▁catche	-13.2682
▁marche	-13.2713
escent	-13.2748
gging	-13.2834
82	-13.2876
fluent	-13.2939
▁guid	-13.3028
▁59	-13.3123
▁broo	-13.3192
▁83	-13.3401
bul	-13.342
▁assum	-13.352
▁fertili	-13.3624
zzar	-13.3635
ushim	-13.382
▁mara	-13.406
haara	-13.4185
iving	-13.4188
▁ent	-13.4355
mur	-13.4516
▁differen	-13.4545
▁lowli	-13.4595
j	-13.9252
4	-15.3112
q	-15.3113
v	-15.3114
