<unk>	0
<s>	0
</s>	0
<bik>	0
<cbk>	0
<ceb>	0
<eng>	0
<ilo>	0
<jil>	0
<krj>	0
<msb>	0
<pag>	0
<pam>	0
<prf>	0
<rol>	0
<tao>	0
<tgl>	0
<tiu>	0
<tsg>	0
<war>	0
<2eng>	0
<2tgl>	0
<2ceb>	0
▁sa	-2.53222
▁	-3.03129
▁ang	-3.14988
.	-3.24496
▁ug	-3.34295
ng	-3.45477
▁nga	-3.50193
,	-3.57282
mga	-3.66301
-	-4.28352
▁ako	-4.50784
g	-4.52036
▁ka	-4.61122
▁na	-4.69099
▁sila	-4.91071
▁si	-4.92901
▁ginoo	-4.96205
▁siya	-4.96837
iyang	-5.07935
an	-5.08817
▁ko	-5.09027
▁wala	-5.12086
▁ni	-5.14534
▁dios	-5.17813
▁dili	-5.18981
▁kamo	-5.20185
▁niya	-5.22617
▁niini	-5.25224
▁kini	-5.26391
▁pag	-5.34996
▁tawo	-5.43352
y	-5.45352
▁apan	-5.46781
▁kay	-5.46782
▁imo	-5.54099
▁nag	-5.56773
▁unya	-5.56846
▁mo	-5.57807
▁usa	-5.62225
▁man	-5.63287
▁tanan	-5.63374
ilang	-5.63452
▁aron	-5.64654
▁inyo	-5.6805
▁mao	-5.71929
on	-5.72117
▁gi	-5.7267
▁kon	-5.74681
▁nila	-5.75037
!	-5.79857
;	-5.82148
▁katawhan	-5.82925
▁ngadto	-5.84184
▁kaniya	-5.84874
?	-5.85928
▁kanako	-5.86303
▁miingon	-5.86352
▁o	-5.87021
▁didto	-5.88091
▁busa	-5.89191
▁anak	-5.90322
▁pa	-5.90806
▁gikan	-5.92744
▁mi	-5.9412
▁kanila	-5.97737
▁may	-6.02008
a	-6.03105
▁gayod	-6.05486
▁sama	-6.05522
▁kang	-6.05915
▁ninyo	-6.0646
▁diha	-6.09528
▁usab	-6.13603
▁kaninyo	-6.183
▁tungod	-6.19112
▁hari	-6.22616
▁jesus	-6.23851
▁kanimo	-6.24397
▁mag	-6.26564
alang	-6.31087
▁yuta	-6.32311
▁adlaw	-6.3346
▁uban	-6.37742
▁israel	-6.40962
▁ayaw	-6.47873
i	-6.49259
▁maoy	-6.49775
▁ba	-6.49946
▁ingon	-6.56468
▁kami	-6.57858
▁pinaagi	-6.58204
▁bis	-6.60287
▁ma	-6.65859
▁hangtod	-6.7213
▁siyudad	-6.72897
▁kining	-6.74091
▁iya	-6.74802
ingon	-6.76938
▁moises	-6.77463
▁daotan	-6.77828
▁maayo	-6.80395
▁lamang	-6.82154
▁maka	-6.84478
▁karon	-6.85827
▁kinahanglan	-6.87135
▁ikaw	-6.87155
▁unsa	-6.88215
▁tana	-6.88653
▁babaye	-6.89219
▁dapit	-6.8949
▁amahan	-6.91036
▁halad	-6.92168
▁mahimo	-6.94942
▁ti	-6.96843
▁pari	-6.97439
buok	-7.00713
▁gihatag	-7.04253
▁labi	-7.04598
▁bahin	-7.06802
▁sala	-7.08062
▁panahon	-7.09602
▁jerusalem	-7.09657
:	-7.10577
▁nasod	-7.117
▁banay	-7.12397
▁ehipto	-7.1285
▁nakita	-7.13144
ayo	-7.13995
▁niadto	-7.14694
▁mitubag	-7.15362
▁kalibotan	-7.16105
▁gibuhat	-7.16387
▁atubangan	-7.18317
▁duha	-7.1965
▁ila	-7.1974
▁kita	-7.20734
▁balaod	-7.20959
adto	-7.21732
▁sulod	-7.21946
▁m	-7.22949
▁unta	-7.23338
▁giingnan	-7.23471
▁kinsa	-7.23475
▁sumala	-7.23897
▁pangulo	-7.25471
▁kaugalingon	-7.26256
▁lalaki	-7.26912
▁kaliwat	-7.27619
▁balay	-7.28205
▁templo	-7.28892
▁kaayo	-7.29826
▁gamhanan	-7.30736
▁karnero	-7.30934
▁balaan	-7.32107
▁kinabuhi	-7.32112
▁kaaway	-7.34993
▁juda	-7.35413
▁butang	-7.36
▁israelita	-7.3829
▁ngalan	-7.38762
d	-7.38802
among	-7.40557
▁kadto	-7.41005
▁langit	-7.41007
n	-7.41412
▁gipa	-7.41633
▁naka	-7.42033
▁mananap	-7.4347
mtang	-7.43557
▁mahi	-7.437
▁tuig	-7.4435
▁judio	-7.44448
▁pagkaon	-7.45624
dad	-7.46751
▁igsoon	-7.46978
atong	-7.48578
▁gihimo	-7.49438
sayod	-7.50679
▁matarong	-7.51407
▁ngano	-7.52084
▁matag	-7.52997
▁daghan	-7.53705
▁anaa	-7.54491
▁tubig	-7.55683
▁siyag	-7.55971
▁buhaton	-7.56262
batok	-7.56265
▁gahom	-7.57256
abot	-7.57828
▁sugo	-7.58824
▁jacob	-7.58908
▁ra	-7.599
▁dinhi	-7.61066
▁dako	-7.62968
▁taga	-7.63016
p	-7.6315
▁hinuon	-7.63452
▁tinun	-7.63541
▁una	-7.66001
▁nagpuyo	-7.66186
▁diin	-7.66424
▁tolda	-7.66463
▁halaran	-7.67733
▁gidala	-7.68107
▁inig	-7.68467
▁buot	-7.68578
la	-7.68974
▁laki	-7.69393
▁sulugoon	-7.71092
▁gisulti	-7.7179
▁espiritu	-7.7211
tungod	-7.72161
▁bato	-7.72688
▁aaron	-7.73502
▁gawas	-7.73819
▁baka	-7.74228
ampo	-7.75538
▁gisugo	-7.75623
▁angay	-7.76121
▁lai	-7.76634
▁himoon	-7.76691
▁i	-7.76818
▁propeta	-7.77411
▁anghel	-7.77412
▁pagka	-7.77656
alagad	-7.78453
▁bukid	-7.78507
▁bulawan	-7.78535
▁kamot	-7.79323
▁bisag	-7.79381
▁namo	-7.79692
▁kahoy	-7.80043
usab	-7.80248
▁kanamo	-7.80364
▁diosdios	-7.80366
▁pulong	-7.80553
▁nahimo	-7.8081
▁giingon	-7.81278
▁mamatay	-7.81865
▁ganghaan	-7.82245
▁ihatag	-7.82643
ag	-7.83502
▁asawa	-7.8366
▁jose	-7.8534
▁babilonia	-7.85513
ong	-7.85538
▁human	-7.86771
▁kanunay	-7.86928
▁kanasoran	-7.86955
▁adlawa	-7.87233
▁kanato	-7.87742
▁kalayo	-7.8775
▁bisti	-7.88154
▁daw	-7.88943
▁pan	-7.9022
▁kasabotan	-7.91418
▁patay	-7.91438
▁mas	-7.92435
▁ginganla	-7.93103
▁kadagkoan	-7.93531
▁buhat	-7.93866
▁pito	-7.93955
▁katigulangan	-7.94382
▁buhi	-7.94595
aw	-7.9522
▁dugo	-7.95251
tuman	-7.96795
▁tulo	-7.97566
▁dagat	-7.97883
▁lang	-7.98158
▁lawas	-7.98771
▁niana	-7.99401
▁gani	-8.00153
▁suba	-8.0116
▁kaniadto	-8.01511
▁abraham	-8.02439
▁bata	-8.02484
▁miabot	-8.02841
▁bulan	-8.03116
▁ania	-8.03385
▁ulipon	-8.04287
▁kasuko	-8.04798
▁gihapon	-8.05202
▁lungsod	-8.05276
▁nagsulti	-8.05769
▁inahan	-8.05794
▁cristo	-8.0639
anan	-8.06814
▁kondili	-8.07246
▁josue	-8.08196
▁naghimo	-8.0824
▁patyon	-8.08339
▁gabii	-8.08692
▁moingon	-8.0911
iya	-8.09654
sultihan	-8.09727
▁gusto	-8.09803
▁silotan	-8.09963
▁gingharian	-8.10191
▁gugma	-8.10192
▁kamingawan	-8.11205
▁nangutana	-8.11714
▁kasingkasing	-8.11714
▁mahitabo	-8.12231
▁kamatayon	-8.12275
▁makita	-8.12291
▁pablo	-8.13261
▁bino	-8.13783
▁ulo	-8.14312
t	-8.1495
▁sunogon	-8.15147
▁sundalo	-8.15376
▁nagbuhat	-8.16111
▁pipi	-8.16437
s	-8.17169
▁kasundalohan	-8.18049
▁dalan	-8.18766
▁kataposan	-8.19147
ob	-8.19601
▁tawhana	-8.19697
▁pagtuo	-8.20184
▁sukad	-8.21404
o	-8.2201
▁gikuha	-8.22177
▁kahadlok	-8.22342
▁pedro	-8.22506
▁duol	-8.22646
▁juan	-8.24817
▁espada	-8.25397
▁kana	-8.25664
▁pultahan	-8.25985
▁dagha	-8.26175
▁tan	-8.26629
▁sultih	-8.26778
uban	-8.26801
▁magpabilin	-8.27207
▁paghimo	-8.27236
▁moabot	-8.27952
▁ika	-8.28606
antos	-8.29076
▁gayo	-8.29084
▁makakita	-8.29644
▁kalipay	-8.29867
▁ato	-8.30128
▁mensahe	-8.30201
▁plata	-8.30202
▁gisaad	-8.30278
▁opisyal	-8.31441
▁nato	-8.32279
▁kahangtoran	-8.32695
▁hugaw	-8.33057
▁ipa	-8.33245
▁intawon	-8.33328
▁diay	-8.33329
▁isulti	-8.3333
▁nimo	-8.33372
od	-8.34522
▁jordan	-8.34606
▁ihalad	-8.35273
▁kabos	-8.35918
▁bag	-8.36423
▁labaw	-8.36866
ot	-8.37538
▁lain	-8.3782
▁kanding	-8.37874
▁kusog	-8.38931
▁gubat	-8.39316
▁kabungtoran	-8.39887
▁kaalam	-8.39944
▁tingog	-8.40148
▁aduna	-8.40427
▁kan	-8.40556
▁panimalay	-8.40568
▁lana	-8.40568
▁nahitabo	-8.40604
▁magpuyo	-8.40655
▁mata	-8.40778
▁langyaw	-8.40793
▁dayon	-8.40933
▁masayod	-8.41553
▁kahayopan	-8.41942
away	-8.42037
▁silang	-8.42074
▁pagbuhat	-8.42287
▁kahayag	-8.42672
awon	-8.42687
▁maalamon	-8.42865
▁sakop	-8.43181
▁atu	-8.43341
▁himaya	-8.43425
▁pamati	-8.43458
▁nating	-8.43519
▁magtutudlo	-8.44749
▁tumanon	-8.44774
▁levita	-8.44808
dawat	-8.44995
biya	-8.45798
▁kauban	-8.45951
sunod	-8.45974
tas	-8.46007
▁taliwala	-8.46184
▁husto	-8.46204
▁hatagan	-8.46343
▁paingon	-8.49153
kuyog	-8.50067
▁mong	-8.50086
▁batan	-8.50314
▁upat	-8.50784
▁naghatag	-8.51622
▁agalon	-8.52902
▁metros	-8.52905
▁paghalad	-8.5316
▁mangamatay	-8.53677
▁kabukiran	-8.56042
▁sudlanan	-8.56048
ngadto	-8.56362
▁mamati	-8.5684
▁namatay	-8.57647
▁paagi	-8.57693
▁salapi	-8.58526
▁bahandi	-8.59251
awa	-8.59253
▁utlanan	-8.59279
ad	-8.59421
▁bana	-8.59761
▁amihanan	-8.59821
▁kasaulogan	-8.60106
▁tinuod	-8.60106
sulod	-8.60703
▁kasulatan	-8.60941
▁ehiptohanon	-8.61779
▁makig	-8.62153
▁langgam	-8.62626
▁tagboanan	-8.62626
▁higala	-8.62822
▁hunahuna	-8.62846
og	-8.62873
▁moadto	-8.63252
ga	-8.63313
▁tiil	-8.63722
▁layo	-8.63751
▁makahimo	-8.64091
▁lumolupyo	-8.64343
▁binuhat	-8.6459
▁balita	-8.64599
▁lawak	-8.65213
▁walog	-8.65364
buntog	-8.65951
▁isaac	-8.6609
▁motuo	-8.66091
▁nagdala	-8.6632
▁miduol	-8.66336
▁igpapahulay	-8.66975
▁asno	-8.66976
▁moab	-8.6704
but	-8.67454
ila	-8.67507
una	-8.68243
▁david	-8.68768
▁paril	-8.68799
hatag	-8.68891
▁mibiya	-8.69092
▁nanga	-8.69624
▁bunga	-8.69697
awit	-8.69709
▁gibutang	-8.69737
tipon	-8.69858
duol	-8.70199
▁hingpit	-8.70538
▁ibabaw	-8.70901
▁nadungog	-8.718
buhat	-8.7181
▁hangin	-8.72457
▁uma	-8.72829
atubang	-8.73052
▁panganod	-8.73401
▁pagpatay	-8.73402
▁laglagon	-8.73409
▁nakakita	-8.73612
▁katalagman	-8.74351
▁ta	-8.74826
wad	-8.7485
▁hinumdomi	-8.75387
▁makaila	-8.75429
itugyan	-8.75585
▁panahona	-8.75601
▁ingna	-8.75989
▁ubos	-8.76284
▁gipatay	-8.7633
▁hapit	-8.76408
▁kasadpan	-8.76408
▁pundok	-8.77007
▁kampo	-8.77064
▁benjamin	-8.7739
▁efraim	-8.77539
▁sion	-8.78083
▁nakig	-8.78134
▁trono	-8.78254
▁nahibilin	-8.78255
▁toro	-8.78256
▁gihalad	-8.78481
▁yawa	-8.78756
▁kabtangan	-8.79254
▁ihalas	-8.79254
▁gasa	-8.79255
▁tuo	-8.79806
▁lig	-8.80237
▁nagpadala	-8.80298
▁hawanan	-8.80321
▁panan	-8.80712
▁gipili	-8.81384
▁asa	-8.8141
▁kangitngit	-8.81497
▁hustisya	-8.82316
▁ikatulo	-8.82347
▁paghari	-8.82399
▁pang	-8.82761
▁nagsugo	-8.83109
▁pagpa	-8.83174
▁adto	-8.83747
▁butanga	-8.83773
▁palasyo	-8.84397
▁bronsi	-8.8441
▁liyon	-8.8441
▁pagsulti	-8.84443
▁pagkakita	-8.84541
▁himoa	-8.84634
▁buhata	-8.84942
▁sakit	-8.8504
▁esau	-8.85474
▁insenso	-8.85474
▁kalinaw	-8.85502
hunong	-8.85532
▁daplin	-8.85773
tagsa	-8.86024
▁mang	-8.86101
inom	-8.86235
▁ngari	-8.8647
▁tapos	-8.86502
▁milagro	-8.86537
▁pariseo	-8.86549
▁paglaom	-8.86572
▁mosunod	-8.87116
▁gisalikway	-8.8776
anhi	-8.88069
▁balik	-8.88488
▁haligi	-8.88735
▁buangbuang	-8.88758
▁tag	-8.8883
▁unsaon	-8.88979
▁kabayo	-8.89208
▁kaliwatan	-8.89765
▁kaumahan	-8.89846
▁sidlakan	-8.8985
▁magbalantay	-8.89878
▁higayona	-8.90051
▁abot	-8.9006
anon	-8.90144
balita	-8.90295
as	-8.90394
▁tagsa	-8.90401
▁kabu	-8.90569
▁kamatuoran	-8.9097
▁tumana	-8.90998
▁nagtuo	-8.91014
▁panon	-8.91094
▁kahulogan	-8.91229
unsay	-8.91518
▁kuhaon	-8.9213
▁maghimo	-8.92153
▁gipadala	-8.92161
▁lakaw	-8.92392
▁mismo	-8.93256
▁lubnganan	-8.93257
▁hain	-8.9327
▁panit	-8.93321
▁gitugyan	-8.93458
▁panalanginan	-8.93701
▁dayg	-8.93793
▁tambok	-8.93874
▁silot	-8.93899
at	-8.94051
han	-8.9412
os	-8.94279
▁mobalik	-8.94489
▁gitawag	-8.94648
▁dugay	-8.94651
▁nakadungog	-8.9531
▁libot	-8.9534
▁kaluy	-8.95592
▁habagatan	-8.95656
▁pagtuman	-8.95675
▁dapita	-8.96295
▁kadaot	-8.96364
▁agi	-8.96375
padayag	-8.96411
▁manases	-8.96785
▁hatagi	-8.96798
▁napulo	-8.97021
ipakita	-8.97135
▁nasuko	-8.97991
▁luwason	-8.98002
▁makasasala	-8.98145
▁makalilisang	-8.98329
▁gutom	-8.98871
ay	-8.99069
▁kayutaan	-8.9921
▁ikaduha	-8.9922
▁pagsimba	-8.99248
ibutang	-8.99249
▁lima	-8.99368
▁dagko	-8.99487
▁matuod	-8.99798
▁binuhatan	-9.00091
▁canaan	-9.00138
kigsulti	-9.00367
▁dali	-9.004
▁nagkalainlain	-9.00444
▁yahweh	-9.00444
▁gamiton	-9.00457
▁mipadayon	-9.00525
▁damgo	-9.00543
▁giluwas	-9.00696
kadungog	-9.00765
▁kota	-9.00912
▁mokaon	-9.01695
▁mabuhi	-9.01706
▁molungtad	-9.0172
▁diyutay	-9.01791
▁luwasa	-9.01854
▁santo	-9.02197
▁pagkuha	-9.02986
▁sunod	-9.03805
▁isigkatawo	-9.04243
▁trigo	-9.04279
▁makabaton	-9.04291
▁baba	-9.04425
m	-9.04578
▁bakak	-9.04683
▁silangan	-9.04991
▁higayon	-9.05398
▁pagtulo	-9.05581
▁nagpabilin	-9.05704
▁maghalad	-9.05711
▁alagad	-9.05734
▁ilalom	-9.05742
▁matang	-9.06436
anha	-9.0667
▁mahibalo	-9.06673
▁pagkadaotan	-9.06856
▁kasugoan	-9.06944
▁buntag	-9.0696
▁kasamok	-9.07024
▁ulan	-9.07246
▁nagpa	-9.07527
▁job	-9.08188
▁nabucodonosor	-9.0819
▁gipangutana	-9.08218
▁hinungdan	-9.08228
▁ikapito	-9.08228
▁mibalik	-9.08279
▁lino	-9.08348
▁gisulat	-9.08416
▁pagdala	-9.08458
▁pamatia	-9.08757
▁saad	-9.08982
hikap	-9.09121
▁kalangitan	-9.09541
▁paraon	-9.09557
▁makapa	-9.09601
▁magdala	-9.09647
▁dala	-9.09869
▁daygon	-9.09912
▁bulahan	-9.10026
▁kaluoy	-9.10036
▁paghatag	-9.10089
▁nakasala	-9.10911
▁panapton	-9.10911
▁amorihanon	-9.10911
▁kapungot	-9.11002
▁moanhi	-9.11383
▁tanom	-9.11481
▁ray	-9.1149
ahisama	-9.11755
▁basahon	-9.12051
▁kalisdanan	-9.123
▁sanga	-9.12655
atiman	-9.13446
▁amo	-9.13461
nus	-9.13524
▁bay	-9.13608
▁gikinahanglan	-9.13708
▁pagpakasala	-9.13708
▁ruben	-9.13708
▁misulti	-9.13732
▁simon	-9.13812
▁andam	-9.14611
tukod	-9.14772
▁pula	-9.15085
halad	-9.15102
▁buluhaton	-9.15137
▁gilapdon	-9.15137
▁gipanalanginan	-9.15137
▁bungtod	-9.15178
▁gigamit	-9.1545
▁dato	-9.15477
▁matuman	-9.15538
▁edomea	-9.15687
puyo	-9.15981
cristo	-9.16134
▁ilimnon	-9.16586
▁sagbot	-9.16592
▁madugay	-9.16593
▁40	-9.16749
ani	-9.16793
▁12	-9.17103
▁gobernador	-9.18057
▁hilabihan	-9.18057
▁kapuslanan	-9.18071
▁pagkinabuhi	-9.1809
▁tabil	-9.18092
▁lalawigan	-9.18099
▁umaabot	-9.18139
▁gihigugma	-9.18309
▁naglingkod	-9.18386
▁nako	-9.18451
▁galilea	-9.18623
▁jesu	-9.19297
▁tigulang	-9.1955
▁daniel	-9.19551
▁simbahan	-9.19591
▁nagtigom	-9.19622
gamit	-9.19683
tungha	-9.20231
▁agianan	-9.20371
▁puthaw	-9.21065
▁maluwas	-9.2118
▁gipakita	-9.21188
▁nahadlok	-9.21213
▁nganhi	-9.21276
op	-9.21425
▁mosulod	-9.21762
gikan	-9.22289
gkampo	-9.2233
▁balaam	-9.22603
▁krus	-9.22603
▁gipamatay	-9.22604
▁masayr	-9.22606
▁nagsimba	-9.22643
▁makasabot	-9.22667
▁pagbalik	-9.22721
▁igo	-9.22792
▁gilead	-9.22959
▁tumoy	-9.22976
ha	-9.23836
▁sungay	-9.23993
isip	-9.24086
▁pulo	-9.24164
▁halangdon	-9.24165
▁karwahi	-9.24165
▁maghuhukom	-9.2421
▁pamatyon	-9.24224
▁pakigdait	-9.24372
likay	-9.24619
▁pagluwas	-9.24637
▁biyuda	-9.24687
▁suga	-9.24692
,000	-9.24693
▁pagpakig	-9.24706
▁tabon	-9.25312
▁atabay	-9.25466
▁sakayan	-9.2551
luwas	-9.25565
▁kadalanan	-9.25753
▁kaguol	-9.25875
▁kilid	-9.25958
▁hukmanan	-9.26229
▁laban	-9.26329
▁kahibalo	-9.26611
▁nabuhat	-9.27293
▁panalangin	-9.27296
▁awit	-9.27348
▁gideon	-9.27365
▁nawong	-9.27366
▁paglubad	-9.2737
▁katunga	-9.27528
▁kin	-9.27723
▁pagdayeg	-9.27739
▁mohatag	-9.27881
▁ala	-9.28056
▁mahadlok	-9.28416
dan	-9.28662
▁asiria	-9.28907
▁kaigsoonan	-9.29005
▁sukaranan	-9.2901
▁maghari	-9.29057
▁gisuginlan	-9.2907
▁inigka	-9.29164
▁gipu	-9.29231
▁yutaa	-9.29282
▁alaot	-9.29338
himuot	-9.29524
sangpit	-9.29545
▁parasan	-9.2955
tawag	-9.29648
▁buta	-9.29773
▁puno	-9.30217
lipay	-9.30223
▁saksi	-9.3036
ta	-9.30478
▁kabataan	-9.30672
▁kalungsoran	-9.30672
▁kapatagan	-9.30672
▁seremonyas	-9.30672
▁tulomanon	-9.30672
▁apostoles	-9.30672
kita	-9.30913
▁nahi	-9.32365
▁kasikbit	-9.32366
▁nangamatay	-9.32366
▁matahom	-9.32367
▁bili	-9.32387
▁harina	-9.32441
▁mitindog	-9.32475
▁naghunahuna	-9.32507
▁gisunog	-9.32597
▁unod	-9.3302
▁patubo	-9.33378
▁laraw	-9.33465
sa	-9.33793
baligya	-9.33806
▁guwardiya	-9.34091
▁hinigugma	-9.34091
▁abimelec	-9.34091
▁abram	-9.34091
▁maria	-9.34091
▁samson	-9.34091
▁makakaon	-9.34104
▁mahiagom	-9.34105
▁ipadala	-9.34114
▁diserto	-9.3414
▁mahanaw	-9.34162
▁dungog	-9.35093
▁motuman	-9.35573
dangop	-9.3559
▁olibo	-9.35845
▁trumpeta	-9.35845
▁pilato	-9.35846
▁dughan	-9.35852
▁tingali	-9.35863
matngon	-9.35917
▁sungkod	-9.35983
▁kadaghan	-9.35988
▁makadungog	-9.3608
▁malipayon	-9.37038
▁kasakit	-9.37199
laglag	-9.37238
▁tugot	-9.37315
▁tudlo	-9.37327
▁gad	-9.37383
▁katungod	-9.37469
unom	-9.37607
▁ginikanan	-9.37631
▁siyudara	-9.37631
▁sinagoga	-9.37635
san	-9.37735
▁motubag	-9.37934
▁tali	-9.38035
▁taas	-9.3834
k	-9.38613
▁pana	-9.39236
▁gun	-9.39317
▁levi	-9.3944
▁mardoqueo	-9.39449
▁ilhanan	-9.39449
▁hayop	-9.39449
▁gidaghanon	-9.3945
▁bangis	-9.39453
▁isipon	-9.39497
▁migula	-9.39513
▁dan	-9.39574
▁sapa	-9.40611
sugod	-9.40943
▁panag	-9.41163
▁grasya	-9.41301
▁pinili	-9.41301
▁manganak	-9.41305
▁mahugaw	-9.41328
▁isalikway	-9.41333
▁mosulti	-9.41346
▁naghari	-9.41425
pahibalo	-9.41947
▁paras	-9.42587
apil	-9.42836
▁tuyo	-9.42931
▁filistihanon	-9.43188
▁mesiyas	-9.43188
▁sinugo	-9.43188
▁pasayloon	-9.4319
▁gibiyaan	-9.43193
▁buhok	-9.43242
▁mituo	-9.43373
▁giandam	-9.43451
higugma	-9.44105
itugot	-9.44168
onon	-9.45106
▁karne	-9.45109
▁isda	-9.45111
▁nangita	-9.45115
hiusa	-9.4514
▁pulos	-9.45148
▁ester	-9.45166
▁bug	-9.45243
▁nagbarog	-9.45355
▁makasulod	-9.45362
hangyo	-9.45508
▁paghukom	-9.45582
▁tunga	-9.46024
lapas	-9.46087
▁nan	-9.46146
▁gitudlo	-9.46603
dumala	-9.46897
▁dalunggan	-9.47071
▁pagkamatarong	-9.47075
▁makasala	-9.47076
▁pagbuot	-9.4722
▁magpadayon	-9.47268
sulat	-9.47334
hukom	-9.47522
▁sako	-9.4753
▁dugang	-9.47713
puno	-9.47756
▁sir	-9.4805
tan	-9.48571
▁lunsay	-9.49072
▁kilo	-9.49073
▁naglaraw	-9.49087
▁nagdilaab	-9.49099
▁nasayran	-9.49167
ip	-9.49396
gpadayon	-9.49514
▁makaon	-9.49705
▁baal	-9.4973
▁sulti	-9.49888
▁apo	-9.49926
is	-9.50309
▁kuhaa	-9.50347
sukol	-9.51004
▁nasora	-9.51112
▁raquel	-9.51112
▁sedekias	-9.51112
▁kalapasan	-9.51121
▁paagiha	-9.51137
▁nanumpa	-9.51143
▁maulawan	-9.51274
▁pagpuyo	-9.51799
▁hinlo	-9.51827
▁larawan	-9.51919
dayeg	-9.52392
▁hukman	-9.52735
▁kalisang	-9.52875
wagtang	-9.53195
▁herodes	-9.53195
▁jeremias	-9.53195
▁jerico	-9.53195
▁tatsa	-9.53195
▁hinimo	-9.53197
▁binhi	-9.53197
▁kadaogan	-9.53198
▁katingalahan	-9.53198
▁mangita	-9.53199
▁canaanhon	-9.53204
▁tungatunga	-9.53257
▁tig	-9.53686
▁kahibulongan	-9.53804
lingkod	-9.53985
▁hukom	-9.5412
▁hinginlan	-9.54259
▁magtutuo	-9.55323
▁ubas	-9.55323
▁kaluwasan	-9.55335
▁nagmando	-9.55492
▁nagtudlo	-9.55534
▁judas	-9.55583
nsang	-9.5599
▁masakiton	-9.56067
obon	-9.56544
▁tinguha	-9.56769
▁katarong	-9.56948
▁bakakon	-9.5702
▁isigka	-9.57494
▁eleazar	-9.57497
▁paryenti	-9.57497
▁kamagulangan	-9.57497
▁bitin	-9.57497
▁tanaman	-9.57498
▁sinai	-9.57498
atbang	-9.575
▁uhay	-9.57502
▁nahisulat	-9.57507
▁milakaw	-9.57526
▁isulat	-9.5756
▁gitigom	-9.57586
▁sayop	-9.57588
▁kaayohan	-9.57624
▁pako	-9.57674
▁siquem	-9.57789
▁natawo	-9.57812
▁madawat	-9.57873
▁nagtukod	-9.58107
▁masuko	-9.58221
▁kaha	-9.58473
▁malipay	-9.58671
▁kadaotan	-9.58715
id	-9.58857
pasidungog	-9.59043
am	-9.59116
▁katungdanan	-9.59719
▁pagkabuntag	-9.59721
▁misinggit	-9.59737
▁kusgan	-9.59762
▁dawaton	-9.59782
▁gikasilagan	-9.59798
kop	-9.59855
▁makaluwas	-9.59883
ma	-9.59901
▁panganay	-9.59907
▁pahumot	-9.59931
tubag	-9.60303
▁magtuman	-9.60661
▁lit	-9.61277
▁magpa	-9.61402
susi	-9.6177
gtindog	-9.61802
▁bituon	-9.61992
▁pagtrabaho	-9.61992
▁sagrado	-9.61992
▁nanganak	-9.61999
▁lebanon	-9.62004
▁nagkuha	-9.62028
▁tabangi	-9.62047
▁pagsaylo	-9.62058
▁gisimba	-9.62059
▁matapos	-9.62115
▁manga	-9.62477
tabang	-9.62959
▁mahalon	-9.63091
▁puti	-9.63415
sukod	-9.63653
usa	-9.6388
▁tabok	-9.63915
ihap	-9.64114
basa	-9.64146
sukad	-9.64162
gahin	-9.64289
▁kamelyo	-9.64318
▁mangutana	-9.64318
▁noe	-9.64318
▁samaria	-9.64319
▁mipauli	-9.6432
▁pagkagamhanan	-9.6432
▁abog	-9.64369
▁pagpapas	-9.64369
▁gipahimutang	-9.6445
▁nabati	-9.64482
dasig	-9.64749
tungas	-9.64889
▁paglipay	-9.64997
sunog	-9.65018
▁kalag	-9.6511
unsa	-9.66484
▁garbo	-9.66696
▁bungbong	-9.66699
▁dihadiha	-9.66699
▁gagmay	-9.66699
▁galamiton	-9.66699
▁pinulongan	-9.66699
▁tore	-9.66699
▁barko	-9.66699
▁gisilotan	-9.667
▁betel	-9.66703
▁lanaw	-9.66705
▁rayna	-9.66705
▁puy	-9.66753
ang	-9.66818
▁buhis	-9.6686
dakop	-9.66935
▁pagsilot	-9.66987
▁20	-9.67017
▁gitugot	-9.67083
lig	-9.672
dala	-9.67202
patawag	-9.67343
silag	-9.67526
luy	-9.67645
▁sulong	-9.6771
andam	-9.67837
▁panuigon	-9.67925
▁hi	-9.67929
nha	-9.67959
▁sinugdan	-9.68489
unay	-9.68619
ra	-9.68765
▁mapahi	-9.68976
hi	-9.69043
▁simeon	-9.69138
▁patya	-9.69138
▁ginamit	-9.69138
▁mopatay	-9.69139
▁namati	-9.69146
▁nagbangotan	-9.69153
▁biyai	-9.69163
▁tupad	-9.69199
tapos	-9.69232
kat	-9.69369
▁gihangyo	-9.69511
▁tiro	-9.696
hulat	-9.69902
gawas	-9.704
ba	-9.70533
ok	-9.70835
sugat	-9.71178
▁kalit	-9.71187
tugot	-9.71304
▁sambingay	-9.71514
▁kagabhion	-9.71638
▁balak	-9.71638
▁isaias	-9.71638
▁tigumon	-9.71638
▁bukog	-9.71642
▁kuwarta	-9.71671
▁isangyaw	-9.7168
▁naglakaw	-9.71709
▁kadugo	-9.71839
▁basan	-9.71866
▁mopuyo	-9.72306
▁nagka	-9.72353
▁pasalamat	-9.72496
▁sayo	-9.73247
nalipod	-9.73598
isa	-9.7375
▁dalangpanan	-9.74202
▁katigayonan	-9.74202
▁yelo	-9.74202
▁satanas	-9.74203
▁lamisa	-9.74205
▁kupa	-9.74205
▁ikaupat	-9.74205
▁kagawasan	-9.74208
▁tabla	-9.74211
▁mahibilin	-9.74216
▁mogula	-9.74337
ugos	-9.74418
▁maghukom	-9.74447
▁haman	-9.74464
▁panabot	-9.74534
▁pagtahod	-9.74547
▁pino	-9.74561
▁gilibot	-9.74713
▁pagtabang	-9.74738
▁baga	-9.74964
▁oo	-9.75556
▁mihapa	-9.7583
▁nakapa	-9.75854
▁tiilan	-9.76106
tabok	-9.76473
saad	-9.76643
▁asul	-9.76833
▁pamilya	-9.76833
▁bukton	-9.76834
▁sidro	-9.76834
▁gabhiona	-9.76843
▁dulon	-9.76846
▁dalaga	-9.76883
tinud	-9.76895
saksi	-9.76971
▁pasidunggan	-9.7706
▁tabangan	-9.77095
▁panalipdan	-9.77178
▁daan	-9.77343
angkon	-9.77379
▁habog	-9.77728
im	-9.78222
▁pagsulod	-9.78393
tugyan	-9.78416
▁su	-9.78665
▁papan	-9.78772
ipahamtang	-9.78858
gpaabot	-9.79065
luoy	-9.79532
▁judea	-9.79536
▁salampati	-9.79536
▁santiago	-9.79536
▁toriyo	-9.79536
▁mopauli	-9.79538
▁kasaligan	-9.7954
▁putli	-9.79542
▁sodoma	-9.79614
▁pagbantay	-9.79644
▁makatabang	-9.79671
▁nagsalig	-9.79749
▁labot	-9.79903
▁aso	-9.79917
▁libo	-9.79937
tuod	-9.8002
▁mando	-9.80021
▁malu	-9.80142
ka	-9.80175
subay	-9.80187
▁pagtan	-9.80194
▁sapot	-9.80292
▁katahom	-9.80452
▁pagtukod	-9.80465
baton	-9.80472
▁tunglo	-9.80555
5	-9.8074
li	-9.80769
uli	-9.80928
▁ai	-9.81069
▁buhian	-9.8143
uyon	-9.81737
it	-9.81937
▁tug	-9.81963
▁lot	-9.82164
es	-9.82194
hisgot	-9.82278
▁ezequias	-9.82314
▁hudno	-9.82314
▁kadagatan	-9.82314
▁pasagdi	-9.82314
lugsong	-9.82314
▁eskina	-9.82314
▁igera	-9.82314
▁amonihanon	-9.82314
▁litro	-9.82316
▁mamunga	-9.82323
▁higugmaa	-9.82331
▁mikuha	-9.82345
▁silingan	-9.82399
▁gilubong	-9.82441
▁namauli	-9.8248
▁magkuha	-9.82591
▁milingkod	-9.82653
▁kasal	-9.82783
ambit	-9.82787
▁tukor	-9.83052
▁nailog	-9.83071
▁adtoa	-9.83108
▁nadawat	-9.83167
▁atop	-9.83341
e	-9.83754
▁tin	-9.83849
▁bet	-9.83944
abog	-9.84167
in	-9.84312
▁50	-9.84367
salikway	-9.84488
kighilawas	-9.84707
lansang	-9.85064
▁felipe	-9.85171
▁gigutom	-9.85171
▁kabaybayonan	-9.85171
▁pagkagabii	-9.85171
▁kagulangon	-9.85171
▁kutob	-9.85171
▁kahiladman	-9.85172
▁karaan	-9.85194
▁bilanggoan	-9.85195
▁magsulti	-9.85207
▁gidaugdaog	-9.85223
▁gud	-9.85232
▁magtagad	-9.85239
▁damasco	-9.85254
ig	-9.85413
▁giilog	-9.85447
▁nagpili	-9.85511
bangon	-9.85771
tinguha	-9.85828
ak	-9.85856
abli	-9.85913
▁katarongan	-9.86005
duha	-9.86008
humot	-9.8602
▁harianon	-9.86453
daghan	-9.86487
▁giayo	-9.87263
▁samad	-9.87276
los	-9.87352
ar	-9.87403
▁hebreo	-9.88112
▁kombira	-9.88112
▁neftali	-9.88112
▁rebecca	-9.88112
▁kalaglagan	-9.88122
▁tubod	-9.88127
▁naglibot	-9.88134
▁nahibulong	-9.88212
▁biyaan	-9.88255
▁singgit	-9.88354
▁agila	-9.88362
ygon	-9.88526
▁mabuntog	-9.88528
▁gidayeg	-9.88582
pa	-9.88583
▁saulo	-9.88598
▁sara	-9.88637
supak	-9.88766
▁sihon	-9.88805
palit	-9.88886
▁gitudloan	-9.89067
bahinbahin	-9.89093
▁30	-9.89251
sangyaw	-9.90191
itambo	-9.90355
▁makighilawas	-9.90371
naog	-9.90573
▁abo	-9.90627
▁aser	-9.90892
angin	-9.90927
▁pangasaw	-9.90932
dungog	-9.90969
▁sumbong	-9.90982
un	-9.91134
▁argulya	-9.91142
▁balhibo	-9.91142
▁delana	-9.91142
▁kahimanan	-9.91142
▁kerubin	-9.91142
▁langub	-9.91142
▁malinawon	-9.91142
▁manluluwas	-9.91142
▁nakaplagan	-9.91142
▁tabunok	-9.91142
▁ikalima	-9.91144
▁alpa	-9.91144
▁ikapulo	-9.91146
▁kupo	-9.91146
▁molampos	-9.91162
▁pagbangotan	-9.91165
agulo	-9.91167
▁gitakda	-9.91199
▁paglakaw	-9.91219
▁mosimba	-9.9122
▁ibaligya	-9.91232
▁masupilon	-9.91234
▁inay	-9.91236
▁nagkabayo	-9.9125
▁nagwali	-9.91258
▁midagan	-9.91283
latas	-9.91308
▁panaad	-9.91328
▁nagdumili	-9.91371
▁sukod	-9.91395
▁gisugilon	-9.91462
▁pagpalit	-9.91646
▁nahimutangan	-9.91658
▁kataw	-9.91878
▁padulong	-9.9195
gpasalamat	-9.92041
b	-9.92107
▁tambag	-9.92326
▁panaw	-9.92549
pakuha	-9.93071
barog	-9.93444
▁hubo	-9.93501
▁nahibalo	-9.93637
hon	-9.93746
kabati	-9.93759
ibubo	-9.93912
dugang	-9.94117
▁giyawaan	-9.94267
▁udyong	-9.94267
▁pagpamati	-9.94268
▁boas	-9.94268
▁kahimtang	-9.94268
▁ngipon	-9.94268
▁managsama	-9.94269
▁pisi	-9.9427
▁pagsulong	-9.94274
▁salawayon	-9.94275
▁elias	-9.94276
bitik	-9.94279
▁magmalipayon	-9.94282
▁pagpangita	-9.94293
iyahon	-9.94298
dor	-9.94313
▁matawo	-9.94327
▁tinub	-9.94333
▁puohon	-9.94337
▁gahi	-9.94354
▁zabulon	-9.94358
▁siria	-9.9452
▁gidakop	-9.94708
pabilin	-9.95016
▁nagun	-9.95148
▁misamo	-9.95277
▁punoan	-9.95605
ingnon	-9.95773
el	-9.9582
panuigon	-9.95848
po	-9.95927
hinginlan	-9.95952
gpakitabang	-9.96186
tingala	-9.96435
▁pay	-9.96567
▁h	-9.96649
▁utang	-9.96823
▁sugoa	-9.96848
▁ligid	-9.96993
▁gita	-9.97012
▁ugma	-9.97018
▁milu	-9.97091
▁hinumdoman	-9.97216
tabonan	-9.97357
▁ismael	-9.97492
▁hesbon	-9.97493
▁kabalayan	-9.97493
▁naninggit	-9.97494
▁timawa	-9.97495
▁ikanapulo	-9.97495
▁balangay	-9.97501
▁kawatan	-9.97508
▁makapugong	-9.97509
pagawas	-9.97509
▁makasulti	-9.97516
▁katubigan	-9.97546
▁dawata	-9.97552
▁kabalaka	-9.97599
▁gibilanggo	-9.97695
lag	-9.97716
▁moagi	-9.97774
▁pagsalig	-9.97802
▁silbi	-9.97805
▁nagbisti	-9.97922
hanaw	-9.98269
▁paglaglag	-9.98383
▁mahinlo	-9.98525
▁moinom	-9.98662
kastigo	-9.99149
tod	-9.99308
babilonia	-9.99346
did	-9.99455
pili	-9.99686
▁ilo	-9.9985
balhin	-10.001
matuod	-10.0019
▁gub	-10.0028
▁nagtan	-10.003
▁napulog	-10.0059
malik	-10.0072
l	-10.0074
▁bernabe	-10.0083
▁binilanggo	-10.0083
▁magtatambag	-10.0083
▁kapitan	-10.0083
▁ilubong	-10.0085
▁iro	-10.0085
▁lea	-10.0086
▁gimahal	-10.0092
▁gipangayo	-10.0093
▁mapuno	-10.0104
▁liog	-10.0108
▁makahatag	-10.0121
▁n	-10.0123
▁kilat	-10.0144
ri	-10.0144
▁tindog	-10.0154
timan	-10.0164
had	-10.0229
panaw	-10.0258
sugilon	-10.0275
himut	-10.028
uyog	-10.0292
agianan	-10.0305
ilog	-10.032
puli	-10.0384
▁kulon	-10.0392
labay	-10.0404
▁kamatay	-10.0423
▁awtoridad	-10.0427
▁caleb	-10.0427
▁dahon	-10.0427
▁emperador	-10.0427
▁eufrates	-10.0427
▁hinagiban	-10.0427
▁mediteraneo	-10.0427
▁sampinit	-10.0427
▁zacarias	-10.0427
▁hitihanon	-10.0427
▁tagda	-10.0428
▁midianhon	-10.0428
▁pagkaalaot	-10.0428
▁panagway	-10.0429
▁diri	-10.043
sangkap	-10.043
▁nahisama	-10.0431
▁maghinulsol	-10.0435
▁malaglag	-10.0451
▁naghilak	-10.0457
▁kaulawan	-10.0466
▁mangayo	-10.0468
▁pagtudlo	-10.047
▁pagpili	-10.0478
▁sulat	-10.0479
kad	-10.0496
▁pagsunog	-10.0498
panalipod	-10.0498
▁mubo	-10.0502
salo	-10.0511
pasabot	-10.0511
sama	-10.0527
▁gamay	-10.0563
▁inila	-10.0566
▁gidawat	-10.0592
gapos	-10.0594
▁1	-10.0612
ari	-10.0614
bo	-10.0643
pasagdan	-10.065
▁ting	-10.0651
kabat	-10.0685
▁misali	-10.0693
▁naayo	-10.0722
u	-10.0728
▁butangi	-10.0745
ngandoy	-10.075
ataki	-10.0754
▁nagpakita	-10.077
▁simbaha	-10.0779
▁baruc	-10.0785
▁gibeah	-10.0785
▁bulak	-10.0785
▁bililhon	-10.0785
▁sisera	-10.0785
▁magsoon	-10.0785
▁acasia	-10.0785
▁pagpakiggubat	-10.0785
▁batid	-10.0785
▁pasayloa	-10.0785
▁luha	-10.0785
▁nanglakaw	-10.0785
▁nangahadlok	-10.0785
▁kastigohon	-10.0786
▁yayongan	-10.0786
▁baye	-10.0786
▁70	-10.0786
▁nagkinabuhi	-10.0792
▁kagamhanan	-10.0794
nggula	-10.0806
▁gigukod	-10.0806
▁dugos	-10.081
▁nahulog	-10.0812
▁ha	-10.0817
▁pangandam	-10.0826
▁pagpakitabang	-10.0826
pasalamat	-10.0838
tahod	-10.0848
▁nahibaloan	-10.0857
▁kasubo	-10.0866
▁nagbaligya	-10.0869
▁makuha	-10.0871
ko	-10.0888
▁pasidaan	-10.0889
▁pikas	-10.0907
kasabot	-10.0909
▁limbongan	-10.0953
▁nagsunod	-10.0987
▁latas	-10.1003
▁pagdawat	-10.1036
▁pun	-10.1057
▁tawgon	-10.1059
▁gisul	-10.1072
ab	-10.1072
law	-10.1086
▁nahimutang	-10.1093
ug	-10.1098
▁bangon	-10.1102
c	-10.1125
dani	-10.1126
ti	-10.1132
▁cades	-10.1155
▁isacar	-10.1155
▁jefta	-10.1155
▁jonas	-10.1155
▁negeb	-10.1155
▁prinsipe	-10.1155
▁sentimetros	-10.1155
▁tawhanon	-10.1155
▁romanhon	-10.1155
▁taming	-10.1155
▁minasa	-10.1156
▁dila	-10.1156
▁makapatay	-10.1156
▁tamar	-10.1156
▁mamaayo	-10.1156
▁nun	-10.1156
▁mipaingon	-10.1157
▁higugmaon	-10.1158
▁mabanhaw	-10.1159
▁mahulog	-10.1162
▁bagyo	-10.1166
▁pagwali	-10.1172
▁maluoy	-10.1172
▁nakit	-10.1172
▁gitamb	-10.1173
hod	-10.118
▁gika	-10.118
▁bantogan	-10.1185
anam	-10.1186
hiuli	-10.1199
▁luyo	-10.1204
▁ulay	-10.1244
ibalik	-10.1246
▁binuang	-10.1262
▁mausab	-10.128
ahi	-10.1281
▁kahumot	-10.1286
▁pin	-10.1294
lalom	-10.1335
▁panalipod	-10.1339
▁gipang	-10.1381
padulong	-10.1392
al	-10.1401
bulag	-10.1423
▁tinago	-10.1426
tultol	-10.1433
supil	-10.1488
ninguha	-10.1513
▁salamangkero	-10.154
▁solomon	-10.154
▁amen	-10.154
▁hebron	-10.154
▁panggubatan	-10.154
▁seol	-10.154
▁tubag	-10.154
▁mosulong	-10.154
▁ikasulti	-10.154
▁higdaanan	-10.154
▁pagpakighilawas	-10.1542
▁gipakaulawan	-10.1543
▁gipanalipdan	-10.1543
▁gisulong	-10.1544
▁magsimba	-10.1545
▁misimba	-10.1546
▁iuli	-10.1547
▁tunglohon	-10.1553
ut	-10.156
▁nanagan	-10.1563
▁gihunahuna	-10.1567
▁tubagon	-10.1576
▁suhol	-10.1608
ihaw	-10.168
▁bugto	-10.1717
tudlo	-10.1736
agi	-10.1743
▁ganti	-10.1747
▁sunogonon	-10.1822
silot	-10.1844
▁adtoan	-10.1862
kaylap	-10.19
tagbo	-10.1909
▁pasipa	-10.1928
▁esdras	-10.194
▁kilometro	-10.194
▁minahal	-10.194
▁misulong	-10.194
▁sebada	-10.194
▁kamahalan	-10.194
▁lasang	-10.194
▁panagtigom	-10.194
▁ayohon	-10.194
▁banhawon	-10.194
▁manumpa	-10.194
▁awaaw	-10.194
lukso	-10.194
▁tigpanalipod	-10.1941
▁ibilin	-10.1941
▁gipangita	-10.1942
▁makakaplag	-10.1942
▁nangulo	-10.1943
▁mahibalik	-10.1944
▁patalinghogi	-10.1946
basin	-10.1947
▁pagsulay	-10.1956
▁pangayoon	-10.1959
▁motubo	-10.196
▁pagtigom	-10.1964
likod	-10.1967
▁nilo	-10.1971
▁kohat	-10.1985
▁hangyo	-10.1986
mingaw	-10.2
lamay	-10.2012
▁landong	-10.2016
ling	-10.2048
▁kahadloki	-10.2052
▁ilhon	-10.2062
▁paningkamot	-10.2065
▁sidon	-10.2089
▁dapig	-10.2116
▁subay	-10.2159
▁tam	-10.2167
lisod	-10.218
▁isul	-10.2228
pagula	-10.2236
▁tima	-10.2245
▁lag	-10.231
▁ihawon	-10.2322
▁pait	-10.2324
▁gipasipa	-10.2326
gisi	-10.2331
sulayan	-10.2337
tulog	-10.2344
▁sunoga	-10.2352
▁baybayon	-10.2356
▁giuhaw	-10.2356
▁kalimti	-10.2356
▁kaparasan	-10.2356
▁katilingban	-10.2356
▁simbahon	-10.2356
▁pasibsibanan	-10.2356
▁baboy	-10.2356
▁naomi	-10.2356
▁pangpang	-10.2356
▁gimandoan	-10.2356
▁inadlaw	-10.2356
▁pagdali	-10.2357
▁gihisgotan	-10.2357
▁sibsibanan	-10.2357
▁hunong	-10.2358
▁itaas	-10.2358
▁pilion	-10.2359
▁pagkabihag	-10.236
▁ngil	-10.2361
▁pagsabot	-10.2361
▁gibayaw	-10.2363
▁pagkatapos	-10.2364
▁mispa	-10.2369
▁tapol	-10.2369
▁gipasaylo	-10.2371
kaliwat	-10.2375
▁gibubo	-10.2375
▁ipadayag	-10.2376
▁miagi	-10.2385
▁arka	-10.239
▁persia	-10.239
▁pakan	-10.2397
▁pagmando	-10.2397
▁maglipay	-10.2404
▁makapana	-10.241
▁labihan	-10.2411
▁lin	-10.2432
▁naglak	-10.2449
▁tahor	-10.2472
tumba	-10.2516
ilalom	-10.2517
▁mosali	-10.2519
▁gikahimu	-10.2533
▁nahinumdom	-10.2536
lumpag	-10.2583
▁batoon	-10.2604
▁hala	-10.2624
▁mouban	-10.2636
▁ku	-10.2638
▁hilak	-10.264
balaan	-10.2652
tabon	-10.2654
patingog	-10.2667
takos	-10.2701
ulan	-10.2724
pakanaog	-10.2742
israelita	-10.2753
▁gisangyaw	-10.2768
▁tago	-10.2789
abugon	-10.2791
▁bintana	-10.2791
▁dumuduong	-10.2791
▁epod	-10.2791
▁makaplagan	-10.2791
▁nagkatibulaag	-10.2791
▁panaksan	-10.2791
▁ruth	-10.2791
▁jebusihanon	-10.2791
▁namuyo	-10.2791
▁sandalyas	-10.2791
▁yugo	-10.2791
▁trabaho	-10.2791
▁patibulaagon	-10.2791
▁elam	-10.2791
▁pukot	-10.2791
▁badlongon	-10.2792
▁nakapatay	-10.2792
ingilin	-10.2792
▁sukdanan	-10.2792
▁hamat	-10.2792
▁tinunglo	-10.2792
▁magbangotan	-10.2792
▁mangasawa	-10.2792
▁maligo	-10.2793
▁balod	-10.2793
▁makaikyas	-10.2795
▁binihag	-10.2804
▁mahimayaon	-10.2804
▁alahas	-10.2804
hait	-10.2806
▁nagbantay	-10.2806
▁mitubo	-10.2806
▁nakuha	-10.2807
▁maangkon	-10.2812
▁susih	-10.2817
▁nawala	-10.2822
▁ugangan	-10.2827
▁gikaon	-10.2831
▁gipanag	-10.284
▁mitabang	-10.284
▁managan	-10.2847
▁korona	-10.2849
▁padayon	-10.2853
▁kawang	-10.2857
himo	-10.2864
▁kalisod	-10.29
duaw	-10.2915
subo	-10.2939
oban	-10.2975
▁kadasig	-10.2984
ulog	-10.3027
▁kalig	-10.303
tindog	-10.3044
▁gamita	-10.3064
igo	-10.3168
kakita	-10.3175
las	-10.3187
gdumot	-10.321
luya	-10.321
hu	-10.3213
inyo	-10.3213
salop	-10.3213
▁lagda	-10.3217
ngomusta	-10.322
▁kadena	-10.3224
▁makit	-10.3229
asingkasing	-10.3245
▁gihabugon	-10.3246
▁joakim	-10.3246
▁kakahoyan	-10.3246
▁ninibe	-10.3246
▁presensya	-10.3246
▁hagar	-10.3246
▁handomanan	-10.3246
▁kaisog	-10.3246
▁kinaiya	-10.3246
▁yamog	-10.3246
▁pagmaya	-10.3246
▁hapon	-10.3246
▁gyod	-10.3247
atang	-10.3248
▁manghod	-10.3248
▁namiya	-10.3248
▁nagdamgo	-10.3249
▁pagkatawo	-10.3249
▁malisang	-10.3255
▁ilabay	-10.3256
▁duhaduha	-10.3258
▁bakol	-10.3259
▁gibanhaw	-10.3259
▁gibiaybiay	-10.3267
▁naandan	-10.3268
▁maunsa	-10.327
adlaw	-10.3276
▁tubaga	-10.3277
▁milabay	-10.328
▁panumpa	-10.328
▁kabilin	-10.3289
ikunsa	-10.3295
▁lumpagon	-10.3306
▁pakaulawan	-10.3306
▁betlehem	-10.3306
▁siloti	-10.3309
▁espiya	-10.3315
▁kalan	-10.3329
▁likod	-10.3338
▁matinumanon	-10.3338
salig	-10.3341
▁kahadlokan	-10.3347
malit	-10.3387
▁tudloan	-10.3415
ros	-10.3429
▁suginl	-10.3441
aaron	-10.3448
▁pakit	-10.3468
▁naluk	-10.349
▁25	-10.3519
14	-10.3543
▁hin	-10.3543
ngitngit	-10.3594
angulo	-10.3603
hunahuna	-10.3626
8	-10.365
ya	-10.3656
tay	-10.3664
dili	-10.3668
▁higot	-10.3672
na	-10.3682
liko	-10.37
mando	-10.37
▁eli	-10.3701
hugawhugaw	-10.3704
putli	-10.3708
▁tinuli	-10.372
papuy	-10.3721
▁ahasuero	-10.3722
▁dario	-10.3722
▁igdidihog	-10.3722
▁kantidad	-10.3722
▁katuyoan	-10.3722
▁kukaluoy	-10.3722
▁lagsaw	-10.3722
▁lazaro	-10.3722
▁makadiyot	-10.3722
▁miqueas	-10.3722
▁napukan	-10.3722
▁tigpak	-10.3722
▁arnon	-10.3722
▁gikahadlokan	-10.3722
▁agtang	-10.3722
▁kabuntagon	-10.3722
▁panihapon	-10.3722
▁lunhaw	-10.3722
▁panalipdi	-10.3722
▁mikaon	-10.3722
▁semana	-10.3722
ingnanay	-10.3722
▁ananias	-10.3723
▁nagkinahanglan	-10.3723
▁linibo	-10.3723
▁makalingkawas	-10.3725
anting	-10.3727
▁tiyan	-10.373
▁langitnon	-10.3734
tangtang	-10.3734
▁ipabuhat	-10.3734
▁mini	-10.3735
▁mahinungdanon	-10.3736
▁tulisan	-10.3736
▁nagbati	-10.3736
▁mailog	-10.3739
▁sanglit	-10.3742
▁tagoanan	-10.3742
▁paubani	-10.3744
ipanumpa	-10.3744
▁laray	-10.376
▁labh	-10.3763
▁gipahamtang	-10.3763
▁lahi	-10.3764
▁tigom	-10.3777
▁misaka	-10.379
▁nalisang	-10.3794
▁midangop	-10.3794
▁nangayo	-10.3799
▁lisod	-10.3813
0	-10.382
hagit	-10.3841
ulo	-10.3847
7	-10.3889
▁amihanang	-10.3899
▁kadaghanan	-10.3899
saulog	-10.3899
▁pahulay	-10.3904
▁gamot	-10.3913
▁pangutan	-10.3913
▁hut	-10.3923
▁bakos	-10.3937
kod	-10.394
▁paghigugma	-10.3943
▁iyaha	-10.3945
ona	-10.395
▁midali	-10.3956
init	-10.3958
▁gip	-10.3981
higda	-10.399
to	-10.3992
anay	-10.4001
ulod	-10.4047
bihag	-10.4055
daog	-10.4067
ho	-10.4077
daot	-10.4078
▁din	-10.415
▁pagh	-10.4154
▁gitum	-10.4158
▁kagul	-10.4159
oy	-10.4181
▁mahal	-10.4184
▁gilam	-10.4203
tunglo	-10.4214
▁nagsul	-10.4215
mabdos	-10.4219
hinaot	-10.4219
▁balatian	-10.4222
▁bandila	-10.4222
▁gahong	-10.4222
▁kagutom	-10.4222
▁komandante	-10.4222
▁nagpakasala	-10.4222
▁panultihon	-10.4222
▁yunuko	-10.4222
▁umoy	-10.4222
▁magmauswagon	-10.4222
▁gibantayan	-10.4222
▁lamyon	-10.4222
▁gipanulti	-10.4222
▁tungtonganan	-10.4222
▁gilutos	-10.4222
▁pilo	-10.4223
▁gatas	-10.4223
kagiw	-10.4224
apod	-10.4224
▁pagkamatay	-10.4226
▁nakahimo	-10.4229
▁gilimbongan	-10.4235
▁sakripisyo	-10.4237
▁bangkaw	-10.4237
▁madungog	-10.4242
hingpit	-10.4245
▁buok	-10.4245
▁makabati	-10.4246
▁garboso	-10.4247
▁masunog	-10.4248
pula	-10.4248
sumbong	-10.4249
asiria	-10.4254
▁kuno	-10.4255
mapahi	-10.4257
▁lapok	-10.4262
▁mapaubsanon	-10.4263
▁makahikap	-10.4263
▁magamit	-10.4264
▁100	-10.4272
▁gipaantos	-10.4274
▁gipasabot	-10.4274
▁nagpanaw	-10.4281
▁kobra	-10.4289
us	-10.4292
▁gibasa	-10.4295
▁andama	-10.4299
▁buotan	-10.4322
▁kainit	-10.4327
▁butangana	-10.4336
pahamtang	-10.4339
ulipon	-10.434
▁luna	-10.4346
▁bayran	-10.4346
▁gipaadto	-10.4367
bayad	-10.4371
pos	-10.4382
ngandam	-10.4384
silaob	-10.4384
tagna	-10.4387
▁la	-10.4388
▁bahina	-10.4388
▁plano	-10.4397
▁sayon	-10.4401
▁misugo	-10.4402
▁gitabon	-10.4407
▁ar	-10.4416
▁nagpaka	-10.4422
r	-10.4459
▁nakaingon	-10.446
pon	-10.4461
▁baha	-10.4485
mod	-10.4486
▁pagta	-10.4488
▁manag	-10.4497
▁pagduol	-10.4499
ud	-10.4508
padayon	-10.451
lan	-10.4542
▁agian	-10.4588
hinumdoman	-10.4601
usik	-10.461
su	-10.4623
▁mana	-10.4663
urot	-10.4671
dumili	-10.4689
dugmok	-10.4697
bilanggo	-10.4703
dayag	-10.4717
▁pinasi	-10.4732
▁bantayan	-10.4741
padpad	-10.4743
alirong	-10.4748
▁amalekanhon	-10.4748
▁basket	-10.4748
▁gilgal	-10.4748
▁grego	-10.4748
▁josias	-10.4748
▁kabituonan	-10.4748
▁mapukan	-10.4748
▁nailhan	-10.4748
▁namunoan	-10.4748
▁palmera	-10.4748
▁talagsaon	-10.4748
▁tinugyanan	-10.4748
▁singsing	-10.4748
pakabit	-10.4748
▁unos	-10.4748
▁kinulit	-10.4748
▁gisaligan	-10.4748
▁cain	-10.4748
▁gipamihag	-10.4749
▁espirituhanon	-10.4749
▁puyopuyo	-10.4749
▁dangatan	-10.4749
patuyang	-10.475
▁gihukman	-10.4751
▁mangurog	-10.4751
▁mosinggit	-10.4752
▁gikuptan	-10.4752
▁mamauli	-10.4752
▁gitug	-10.4754
▁buntogon	-10.4758
▁gibadlong	-10.476
▁moyukbo	-10.476
▁antioquia	-10.4764
▁imnon	-10.4764
▁pagpangutana	-10.4764
▁minatay	-10.4764
▁matagbaw	-10.4765
▁giwali	-10.4767
▁mihilak	-10.4768
▁magmando	-10.4769
▁makadaghan	-10.477
▁nagdaugdaog	-10.4774
om	-10.4782
▁pagmata	-10.4783
▁pagbiaybiay	-10.4784
▁pahimangno	-10.4791
▁ngabil	-10.4793
ana	-10.4796
▁giataki	-10.4798
▁nalim	-10.4799
▁sud	-10.4807
sungay	-10.4808
▁etiopia	-10.4819
▁huyang	-10.4821
log	-10.4851
higot	-10.4868
▁dalugdog	-10.4875
ilikay	-10.4878
▁moluwas	-10.4879
▁paa	-10.4893
▁nagsangpit	-10.4899
▁likay	-10.4908
hay	-10.4942
▁pasagdan	-10.4952
▁kasakitan	-10.4967
▁pakig	-10.4991
▁pina	-10.5018
▁inom	-10.5038
▁ingnon	-10.5038
▁22	-10.5065
▁silas	-10.5065
kalipay	-10.5114
tapot	-10.5119
▁malim	-10.5146
nay	-10.5158
▁makaingon	-10.5203
▁pahamtang	-10.5242
giya	-10.5247
dagan	-10.5261
ibot	-10.5273
hat	-10.5274
▁bayad	-10.5278
▁takna	-10.5279
gukod	-10.5285
mot	-10.5287
▁oras	-10.529
▁gibahin	-10.5297
tagbaw	-10.5299
▁libro	-10.5303
▁suborno	-10.5303
inusara	-10.5304
▁cesarea	-10.5304
▁dragon	-10.5304
▁gaza	-10.5304
▁gedalias	-10.5304
▁gerson	-10.5304
▁gomora	-10.5304
▁lumad	-10.5304
▁makapito	-10.5304
▁nagsigi	-10.5304
▁negosyante	-10.5304
▁pamanhonon	-10.5304
▁paralitiko	-10.5304
▁tadyaw	-10.5304
▁kaangayan	-10.5304
▁uhot	-10.5304
▁hibihanon	-10.5304
▁tibod	-10.5304
▁pagpamatay	-10.5304
▁tingtugnaw	-10.5304
▁putlon	-10.5304
▁pagkamaunongon	-10.5304
▁grabi	-10.5304
▁kapahulayan	-10.5304
▁isog	-10.5305
▁kaw	-10.5305
▁suok	-10.5306
▁tugas	-10.5306
▁nagpakiluoy	-10.5307
▁mangawat	-10.5307
▁gipasid	-10.5308
▁giputo	-10.5309
▁pagpakita	-10.5309
▁masuso	-10.5309
dahunog	-10.5309
▁itudlo	-10.5311
▁gidumtan	-10.5316
▁gibati	-10.5318
do	-10.5319
▁maghilak	-10.5319
▁ipaila	-10.5319
▁dinaugdaog	-10.532
▁ikawalo	-10.532
ki	-10.5322
layas	-10.5329
▁kasina	-10.5333
▁pagtagad	-10.5339
▁gipabuhat	-10.534
▁paglubong	-10.5341
▁gibihag	-10.5341
tugtog	-10.5348
▁mamumuno	-10.5349
▁kabangis	-10.535
haw	-10.535
▁pauli	-10.5355
dapit	-10.5366
sinunog	-10.5368
▁pagkapari	-10.5377
▁nagkaon	-10.5379
▁linaw	-10.5384
▁p	-10.5388
▁mitan	-10.5388
ngahas	-10.5395
▁jesua	-10.5397
▁naulipon	-10.5408
▁bali	-10.5408
▁nabihag	-10.541
▁paglapas	-10.5446
▁salig	-10.5453
ac	-10.5453
ligid	-10.546
▁gu	-10.5494
kon	-10.5506
▁lungag	-10.551
▁tal	-10.5514
tambong	-10.5529
hilom	-10.5529
▁nam	-10.5537
▁pahiagom	-10.5554
▁kaulaw	-10.5559
▁patag	-10.5605
lu	-10.5641
hipos	-10.5712
bitay	-10.5715
abuga	-10.5721
kaluy	-10.5728
usap	-10.5856
alsa	-10.5865
▁sem	-10.5868
▁magka	-10.5874
ugilon	-10.5878
▁mota	-10.5879
ap	-10.5881
gad	-10.5884
▁liso	-10.5886
▁init	-10.5888
▁kinat	-10.5889
mikan	-10.5892
▁dagami	-10.5892
▁gibeon	-10.5892
▁gibugalbugalan	-10.5892
▁gininhawa	-10.5892
▁gipasidunggan	-10.5892
▁kalasangan	-10.5892
▁makauulaw	-10.5892
▁merari	-10.5892
▁nagkalisodlisod	-10.5892
▁nagtrabaho	-10.5892
▁perisihanon	-10.5892
▁sinultihan	-10.5892
▁dayandayan	-10.5892
▁alamag	-10.5892
▁kinutaan	-10.5892
▁dagway	-10.5892
▁daugdaogon	-10.5892
▁hikalimtan	-10.5892
hari	-10.5893
▁manglakaw	-10.5893
nagkamang	-10.5893
▁tagdon	-10.5893
wisik	-10.5893
▁dugmokon	-10.5894
▁manimalos	-10.5894
bu	-10.5894
▁nakiggubat	-10.5895
▁gitagan	-10.5895
▁isipa	-10.5896
sal	-10.5897
▁pamihagon	-10.5897
▁magulang	-10.5898
▁sanla	-10.5901
▁ipasabot	-10.5902
▁nagpuasa	-10.5903
▁mulo	-10.5903
▁makadaot	-10.5906
▁ikalipay	-10.5907
▁pinangga	-10.591
▁modangat	-10.591
▁balas	-10.5912
▁mamalik	-10.5914
hanas	-10.5915
▁ipahayag	-10.5916
▁kabantog	-10.5917
▁nangurog	-10.5918
santa	-10.5925
pangomusta	-10.5925
▁gipainom	-10.5927
▁paghilak	-10.5934
▁pagkabat	-10.5935
▁maluibon	-10.594
▁sigi	-10.5941
▁giihaw	-10.5943
▁pangita	-10.5948
libot	-10.5952
▁susa	-10.5953
lisang	-10.5964
▁sobra	-10.597
▁maila	-10.5977
baw	-10.5982
▁tapolan	-10.5983
kahatag	-10.5993
▁tunokon	-10.6027
buot	-10.6027
▁katakos	-10.6034
▁ugsok	-10.6037
12	-10.6038
▁nahiuli	-10.6044
▁silo	-10.605
▁bantay	-10.6056
▁gutomon	-10.6061
bi	-10.6076
▁mapana	-10.6086
▁sarai	-10.6103
agup	-10.6153
▁midian	-10.6163
utang	-10.6195
gpit	-10.6224
▁katabang	-10.6238
▁ham	-10.6266
lit	-10.6279
agmaya	-10.6281
▁modan	-10.6301
uma	-10.6304
▁giguba	-10.6316
aron	-10.6321
liki	-10.6359
▁paadtoa	-10.6371
pahulay	-10.6375
pasigarbo	-10.6397
kabig	-10.6404
balik	-10.6406
▁pananglit	-10.6448
tawo	-10.6473
hoy	-10.6473
▁je	-10.6488
gbugalbugal	-10.6488
▁makapahimu	-10.6498
ipapatay	-10.6511
kadako	-10.6512
▁hilo	-10.6515
▁artaxerxes	-10.6517
▁binordahan	-10.6517
▁ciro	-10.6517
▁festo	-10.6517
▁gigamhan	-10.6517
▁hibaloi	-10.6517
▁maasias	-10.6517
▁mesopotamia	-10.6517
▁zerubabel	-10.6517
▁gitagal	-10.6517
▁gipahimangnoan	-10.6517
▁kamanghoran	-10.6517
▁kawalogan	-10.6517
▁korah	-10.6517
undang	-10.6517
▁prutas	-10.6517
▁puntil	-10.6517
▁isigkakilid	-10.6517
▁jetro	-10.6517
▁kabanha	-10.6517
▁kapuy	-10.6517
▁kaulag	-10.6517
▁magbubuhat	-10.6517
▁anindot	-10.6518
▁bation	-10.6518
handom	-10.6518
▁gitabangan	-10.6518
▁honi	-10.6519
▁pagkawala	-10.6519
itsa	-10.6519
magko	-10.6519
pikaspikas	-10.6521
▁atimanon	-10.6524
▁nagkatigom	-10.6527
▁miyukbo	-10.6527
▁gibuhian	-10.6527
▁gibunal	-10.6527
▁magpadala	-10.6528
▁kangil	-10.6532
▁maulipon	-10.6532
▁gipatindog	-10.6537
▁naghinulsol	-10.6545
▁paghinulsol	-10.6551
▁timbangan	-10.6552
lanog	-10.6552
▁magkaon	-10.6552
▁nagbuot	-10.656
▁paggula	-10.656
ias	-10.6562
▁nabuhi	-10.6568
▁budyong	-10.6568
lipayon	-10.6568
▁hilabti	-10.6572
▁asin	-10.6573
▁nuka	-10.6573
pi	-10.6576
▁misugilon	-10.6576
▁nahiagoman	-10.6577
tu	-10.6585
▁molabay	-10.6588
▁kaguliyang	-10.6598
▁mobangon	-10.6603
▁hubag	-10.6606
▁gipahil	-10.6609
▁hataga	-10.6612
▁bayra	-10.6619
▁60	-10.6635
pundok	-10.6636
▁nagsulat	-10.6651
▁14	-10.6652
samad	-10.6668
▁kalibotana	-10.6678
bunyag	-10.6692
canaan	-10.6695
▁magpaki	-10.6699
▁hunahunaa	-10.6706
akiggubat	-10.6724
aling	-10.6729
alas	-10.6732
▁pataas	-10.6737
▁salin	-10.6745
▁pagkamatinu	-10.6765
ngaliyupo	-10.6771
iyahan	-10.6773
rag	-10.6786
▁ilisan	-10.6788
opan	-10.6788
▁karga	-10.6798
ukot	-10.6801
so	-10.6807
▁ja	-10.6807
ningkamot	-10.6842
daro	-10.6854
isaad	-10.6857
▁gipaka	-10.6865
yad	-10.6869
▁pagpan	-10.6871
▁mila	-10.6873
▁giantos	-10.688
hubas	-10.6881
50	-10.6898
▁supak	-10.6899
▁salabotan	-10.6899
▁silyo	-10.6918
▁mopa	-10.6933
▁nah	-10.6957
▁pagsugo	-10.6975
pot	-10.6979
▁kalimtan	-10.6982
▁pagpauli	-10.6995
pahimutang	-10.7039
▁abi	-10.7048
ahom	-10.7063
si	-10.7063
▁walo	-10.7065
▁gisaysay	-10.7082
abin	-10.7087
kahuman	-10.7097
pasipala	-10.7108
▁10	-10.7117
▁nahiagom	-10.7125
▁magtigom	-10.7125
sudlan	-10.7166
agway	-10.718
▁kinabu	-10.7183
▁sunda	-10.7184
▁balongbalong	-10.7184
▁berseba	-10.7184
▁capernaum	-10.7184
▁eglon	-10.7184
▁gukd	-10.7184
▁hikaplagi	-10.7184
▁ilha	-10.7184
▁magpulos	-10.7184
▁mapintas	-10.7184
▁mapuo	-10.7184
▁miriam	-10.7184
▁nagbagulbol	-10.7184
▁nagkupo	-10.7184
▁palakta	-10.7184
▁planggana	-10.7184
▁sekretaryo	-10.7184
▁sugnod	-10.7184
▁sumusunod	-10.7184
▁gosen	-10.7184
▁ammon	-10.7184
▁maanindot	-10.7184
▁tobias	-10.7184
▁semaias	-10.7184
▁ikog	-10.7184
▁nahor	-10.7184
tukmo	-10.7184
▁nganlan	-10.7184
▁abel	-10.7184
▁pagkabigaon	-10.7184
▁sanlahon	-10.7184
▁ngilit	-10.7185
▁gidak	-10.7185
▁manoa	-10.7185
▁nagpatay	-10.7185
▁laglaga	-10.7188
▁halayo	-10.7189
▁giablihan	-10.719
▁mawala	-10.719
▁milingi	-10.719
▁magpakahilom	-10.719
▁ilogon	-10.7191
▁mapasaylo	-10.7192
▁ikaunom	-10.7193
apas	-10.7194
▁gidihogan	-10.7195
▁pagpuasa	-10.7199
▁pasid	-10.72
▁dungga	-10.72
aton	-10.7201
▁madaot	-10.7201
▁maluya	-10.7202
▁molaban	-10.7203
▁efeso	-10.7204
▁sucot	-10.7204
▁ngitngit	-10.7204
isugo	-10.7205
▁gitanom	-10.7206
▁pagdaugdaog	-10.7207
▁pagbutang	-10.7208
▁magbayad	-10.7208
▁ipatawag	-10.7209
▁matulog	-10.7215
▁pangayo	-10.7237
▁tahoron	-10.7238
▁mopadayon	-10.7244
agad	-10.7245
▁mangaon	-10.727
▁kaibog	-10.7274
tigomanan	-10.728
▁gisusi	-10.7285
▁kaso	-10.7288
ipahimutang	-10.7288
▁giila	-10.729
▁nahuman	-10.7293
moy	-10.7307
uswag	-10.7316
▁pagpasalamat	-10.734
asawa	-10.7347
saway	-10.7352
▁gimbu	-10.7353
pakaulaw	-10.7365
aawit	-10.7366
▁ulahi	-10.7384
▁pailob	-10.7386
isugilon	-10.7389
kalimtan	-10.7389
▁makahimog	-10.7404
hupay	-10.7459
hilak	-10.7463
▁nasakit	-10.7484
▁tigoma	-10.7485
pis	-10.7486
▁gisunod	-10.7508
go	-10.7511
▁magma	-10.7521
▁paadto	-10.7521
▁kahugaw	-10.7521
▁kasilag	-10.7525
▁mita	-10.7542
▁kagikan	-10.7653
pasulti	-10.766
libog	-10.7685
▁gis	-10.7699
saysay	-10.77
▁pagkama	-10.771
▁baki	-10.7713
wa	-10.7742
agkinabuhi	-10.7774
▁lay	-10.7779
biaybiay	-10.7781
dagayday	-10.7786
ali	-10.779
re	-10.7803
kalit	-10.7815
▁pinu	-10.7827
bantay	-10.7828
pahulam	-10.7828
▁maalam	-10.7833
▁pasidungg	-10.7835
▁kabanay	-10.7853
kiha	-10.786
limbong	-10.7866
guba	-10.7871
▁gilay	-10.7874
▁tabang	-10.7881
sibog	-10.7882
▁ilong	-10.7889
pamatigayon	-10.7898
▁gialagaran	-10.7898
▁hiilhi	-10.7898
▁hinalad	-10.7898
▁ikasiyam	-10.7898
▁kabukogan	-10.7898
▁kiliran	-10.7898
▁magmalinawon	-10.7898
▁magsigi	-10.7898
▁mapatay	-10.7898
▁panulondon	-10.7898
▁saduseo	-10.7898
▁tinuyo	-10.7898
▁johanan	-10.7898
▁kagahob	-10.7898
▁napatay	-10.7898
▁andana	-10.7898
▁paimna	-10.7898
▁anino	-10.7898
▁lamparahan	-10.7898
▁magbubunyag	-10.7898
▁dakpon	-10.7898
▁gidangatan	-10.7898
▁halin	-10.7898
lipak	-10.7898
▁kalainan	-10.7898
uuma	-10.7898
▁joas	-10.7899
▁shela	-10.7899
▁mituaw	-10.7899
▁hermon	-10.7899
▁paimnon	-10.7899
▁rahab	-10.79
▁pagminatay	-10.79
▁mapakyas	-10.7905
bahin	-10.7905
▁namalandong	-10.7906
▁makapahulay	-10.7908
▁gipalakaw	-10.7909
▁naglaom	-10.7911
▁nagbutang	-10.7911
▁gikulit	-10.7913
▁pagkabalaan	-10.7913
300	-10.7914
▁gitagoan	-10.7915
▁bihagon	-10.7919
▁dagtom	-10.792
▁eden	-10.792
▁hungog	-10.792
▁malimbongon	-10.792
▁sinulat	-10.792
tikaw	-10.7922
▁dalila	-10.7926
▁unahan	-10.793
▁makausa	-10.7931
▁palibot	-10.7931
biaybiayon	-10.7932
▁re	-10.7935
▁maihap	-10.7937
▁pagsakit	-10.794
▁gidapit	-10.7941
▁pagpanag	-10.7946
▁giulipon	-10.7946
▁butangan	-10.7948
▁pagkahuman	-10.7954
▁gibag	-10.7957
▁jopa	-10.7958
▁naghigda	-10.7958
▁lakis	-10.7964
▁sambingaya	-10.797
▁kuy	-10.7978
▁mira	-10.798
▁abaga	-10.7987
▁duna	-10.7993
▁lu	-10.7994
▁kadato	-10.7995
▁nagsangyaw	-10.7997
▁3	-10.8006
▁pagpanaw	-10.8006
▁dina	-10.8009
▁kaabin	-10.801
▁migikan	-10.8025
patuo	-10.8031
kmiton	-10.8036
▁pagsaksi	-10.8036
lubong	-10.8046
▁lamian	-10.805
lad	-10.805
ako	-10.8053
▁naghiusa	-10.8054
▁piso	-10.806
▁molaglag	-10.8061
▁pagtubag	-10.8061
▁awiti	-10.8062
▁11	-10.8078
▁bunal	-10.8083
imo	-10.8085
▁hinuo	-10.8102
▁panimalos	-10.8107
pat	-10.8108
▁lunop	-10.8114
▁isab	-10.8116
baha	-10.8119
▁tutok	-10.812
2	-10.8128
ibuk	-10.8131
lukat	-10.8144
don	-10.8163
▁giadto	-10.8185
▁se	-10.8192
wak	-10.8224
▁daota	-10.8258
tubo	-10.8278
libotan	-10.8286
▁mam	-10.8302
sulay	-10.8325
▁kina	-10.8364
▁sulo	-10.8378
▁taho	-10.8386
gula	-10.8397
lipod	-10.8413
▁bin	-10.8442
▁nagdan	-10.8455
▁nangagi	-10.8469
▁nagd	-10.8482
▁gituli	-10.8484
ibog	-10.8484
▁12.	-10.85
▁malumo	-10.8504
▁ipasulo	-10.8514
samok	-10.8523
lo	-10.8539
pad	-10.8551
▁zera	-10.8554
▁hilom	-10.8557
bal	-10.8558
▁gantiha	-10.8574
iran	-10.8591
▁magsul	-10.8604
putol	-10.8605
▁mahinumdom	-10.8608
▁maulaw	-10.8614
lupad	-10.8621
iel	-10.8621
▁tuiga	-10.8625
▁pila	-10.8625
ilak	-10.8631
▁habagatang	-10.8638
▁gibug	-10.864
▁nagbu	-10.865
▁naputo	-10.8652
butyag	-10.8654
▁ihawa	-10.8663
▁metro	-10.8664
ahiladman	-10.8667
orma	-10.8667
▁lungsora	-10.8667
▁andres	-10.8667
▁gikalisangan	-10.8667
▁himalatyon	-10.8667
▁hitsura	-10.8667
▁kabalangayan	-10.8667
▁kaulipnan	-10.8667
▁magtrabaho	-10.8667
▁melquisedec	-10.8667
▁nabatasan	-10.8667
▁palakton	-10.8667
▁perez	-10.8667
▁timoteo	-10.8667
hasmag	-10.8667
bitbit	-10.8667
▁pinehas	-10.8667
▁biniyaan	-10.8667
▁sundon	-10.8667
▁lobo	-10.8667
▁nanghapa	-10.8667
▁gramos	-10.8667
pasalaag	-10.8667
upaw	-10.8667
▁gihapina	-10.8667
▁marta	-10.8667
▁gigunitan	-10.8667
▁inigkamatay	-10.8668
▁kuko	-10.8668
▁udto	-10.8668
▁mabalaka	-10.8669
▁nahibalik	-10.8669
▁ibayaw	-10.8669
awhag	-10.867
luib	-10.867
▁nahot	-10.867
▁nangasawa	-10.8671
▁gipatibulaag	-10.8671
▁nakaikyas	-10.8671
▁ipugas	-10.8671
taktak	-10.8672
▁tuohi	-10.8672
▁magpuasa	-10.8674
▁mosanay	-10.8675
▁malaya	-10.8675
dagmal	-10.8675
▁kanhi	-10.8676
▁pagpangayo	-10.8677
▁magbudhi	-10.8678
▁pagpaila	-10.8681
▁nanaka	-10.8681
▁gihigdaan	-10.8682
▁molakaw	-10.8683
▁amos	-10.8685
▁barac	-10.8691
▁impirno	-10.8691
▁alagari	-10.8691
▁mapailubon	-10.8691
uol	-10.8692
▁milawig	-10.8692
▁gihinloan	-10.8695
▁magdumili	-10.8696
dungaw	-10.8697
▁luya	-10.8697
agos	-10.8697
▁maghunahuna	-10.8699
▁taknaa	-10.8702
▁paghinlo	-10.8704
▁bukag	-10.8706
itapi	-10.8707
▁tisa	-10.8712
▁mes	-10.8719
▁haran	-10.872
yayong	-10.8723
▁ulohan	-10.8725
▁nabanhaw	-10.8733
▁roma	-10.8734
▁makalipay	-10.8738
tagad	-10.875
▁patingog	-10.8756
▁mainom	-10.876
▁kagubot	-10.8767
▁mobarog	-10.8767
▁anhi	-10.8773
▁butoy	-10.8773
▁alampoanan	-10.8773
▁maluko	-10.8794
kit	-10.8832
▁motan	-10.8841
tigom	-10.8843
▁sulayan	-10.8854
▁kabang	-10.8854
▁giatiman	-10.886
gil	-10.8881
▁tultol	-10.8891
ngulob	-10.8891
uga	-10.8895
▁magpaka	-10.8909
▁naangkon	-10.8955
samaran	-10.8959
▁pagtin	-10.8969
aghatag	-10.8971
papauli	-10.8984
▁gapos	-10.899
kusog	-10.8994
hapak	-10.8994
▁limpyo	-10.9009
▁puyo	-10.902
lon	-10.9027
▁gibilin	-10.9029
▁pagpang	-10.9045
husay	-10.9051
▁matumba	-10.9056
gmatinumanon	-10.9058
hugaw	-10.9061
▁pamation	-10.9063
▁edad	-10.9065
pan	-10.9098
suginlan	-10.9113
kuhaan	-10.9119
dangat	-10.913
agkinahanglan	-10.9135
kurog	-10.9142
▁kastigo	-10.9164
▁hil	-10.9173
human	-10.9203
▁be	-10.9204
▁4	-10.9236
hubog	-10.9276
dal	-10.9287
▁gigu	-10.9297
▁lami	-10.9324
▁pagpaki	-10.9354
▁in	-10.9355
bugkos	-10.9377
tam	-10.938
papahawa	-10.9417
500	-10.9418
▁kapin	-10.9426
▁gantang	-10.9426
ubo	-10.9427
▁pauban	-10.9432
▁molu	-10.9439
▁naghu	-10.9449
gakos	-10.9453
habol	-10.9466
lawig	-10.9475
▁tul	-10.9477
limod	-10.9498
nindot	-10.9499
kiglantugi	-10.95
tuslob	-10.95
▁asupre	-10.95
▁cornelio	-10.95
▁deborah	-10.95
▁ebanghelyo	-10.95
▁estatuwa	-10.95
▁gikapuyan	-10.95
▁granada	-10.95
▁hageo	-10.95
▁kadungganan	-10.95
▁kahalangdon	-10.95
▁kalanggaman	-10.95
▁katuigan	-10.95
▁kwadrado	-10.95
▁piniyalan	-10.95
▁plasa	-10.95
▁seraias	-10.95
▁tanghaga	-10.95
▁tarsis	-10.95
▁trabahador	-10.95
▁alawiton	-10.95
▁nasayop	-10.95
▁pugson	-10.95
▁hikalimti	-10.95
▁lugas	-10.95
▁nebo	-10.95
▁itamar	-10.95
▁tuboran	-10.95
▁kapildihan	-10.9501
▁paulanan	-10.9501
▁mamakak	-10.9501
▁kaadlawon	-10.9501
▁nangalaya	-10.9502
▁lakang	-10.9502
▁panagna	-10.9502
angulohan	-10.9503
▁bilanggoon	-10.9503
tagaw	-10.9503
▁nangalisang	-10.9503
▁itandi	-10.9504
▁makakuha	-10.9505
▁miturok	-10.9506
▁maminyo	-10.9507
▁gipahayag	-10.9507
▁mauswagon	-10.9509
▁bisita	-10.9509
▁matunaw	-10.9509
▁lawasnon	-10.9513
▁makusog	-10.9514
▁papason	-10.9514
▁mahuman	-10.9514
▁tukbonon	-10.9514
glutos	-10.9516
▁maasawa	-10.9516
▁igos	-10.9519
▁magmatinumanon	-10.952
▁miikyas	-10.952
▁naulawan	-10.9526
▁timna	-10.9526
▁betania	-10.9526
▁gipugas	-10.9531
▁mosangko	-10.9538
▁makatubag	-10.9543
▁molupad	-10.9543
ntala	-10.9545
tar	-10.9545
▁naglupad	-10.9545
hikaw	-10.9549
▁nagdagayday	-10.9549
▁sitro	-10.9554
▁gidugmok	-10.9555
▁palas	-10.9558
▁gidili	-10.9562
▁mobayad	-10.9564
itanan	-10.9565
sakit	-10.9567
▁gatos	-10.9571
patubo	-10.9572
▁gitagbo	-10.9573
▁mosalop	-10.9575
▁malig	-10.9575
▁gibuk	-10.9576
▁nagsubo	-10.9579
▁putla	-10.958
▁maani	-10.9582
▁magsugod	-10.9593
panag	-10.9597
tuis	-10.9599
▁nagha	-10.96
▁al	-10.9605
buang	-10.9612
▁sakay	-10.9618
tol	-10.9628
pukaw	-10.9648
▁gilig	-10.9659
▁purong	-10.9664
▁masukad	-10.9665
▁pagtabok	-10.9665
co	-10.9668
pasanay	-10.9677
▁gipaabot	-10.9685
batonan	-10.9706
▁kabuang	-10.9707
▁trangka	-10.9709
▁s	-10.9709
sabak	-10.9725
tanom	-10.9736
gunit	-10.9751
▁bungol	-10.9756
▁map	-10.9769
suroy	-10.9793
▁ah	-10.9799
▁sab	-10.9827
bad	-10.9835
▁mahadlokon	-10.9854
sangko	-10.9858
tahan	-10.9869
patalinghog	-10.987
15	-10.9876
halok	-10.9882
babag	-10.9895
hadlok	-10.9898
▁ubanan	-10.99
▁tay	-10.9913
kahibalo	-10.9914
6	-10.9916
tambok	-10.9924
ban	-10.9938
pakigsulti	-10.994
mo	-10.9983
▁pala	-10.9994
bati	-10.9996
um	-10.9997
patunhay	-11.0005
he	-11.0019
ibayad	-11.0032
▁pahibalo	-11.004
▁limbong	-11.0053
pu	-11.0064
kanaog	-11.0086
▁uyon	-11.0106
ol	-11.0114
pya	-11.0136
▁tunok	-11.0202
▁di	-11.0211
▁daot	-11.0213
▁pak	-11.0226
▁2	-11.0237
yabo	-11.0252
no	-11.0253
▁put	-11.0267
▁makapauli	-11.0283
▁mah	-11.0288
dunot	-11.0292
▁makatulo	-11.0298
hinulsol	-11.03
▁8	-11.0306
analipod	-11.031
kasilagan	-11.0314
z	-11.0334
bas	-11.0338
kla	-11.0364
tipas	-11.0368
gbudhi	-11.0368
hos	-11.0368
obra	-11.0374
palayo	-11.0381
▁nagputo	-11.0383
lam	-11.0383
▁mouna	-11.0383
dayon	-11.0387
▁dagan	-11.0387
▁mahigugma	-11.0391
▁giabo	-11.0391
▁gisab	-11.0392
ser	-11.0395
busog	-11.0399
patubig	-11.0406
drac	-11.0409
lisudliso	-11.0409
pahimuslan	-11.041
▁abednego	-11.041
▁aroer	-11.041
▁azarias	-11.041
▁ekron	-11.041
▁elisabet	-11.041
▁felix	-11.041
▁gitalikdan	-11.041
▁hazor	-11.041
▁inosente	-11.041
▁iscariote	-11.041
▁joaquin	-11.041
▁kapuloan	-11.041
▁magdalena	-11.041
▁magpakasala	-11.041
▁mangangayam	-11.041
▁manumbaling	-11.041
▁nanapaw	-11.041
▁nebusaradan	-11.041
▁pangaliya	-11.041
▁pinatyanay	-11.041
▁ehud	-11.041
▁mosugot	-11.041
▁tomas	-11.041
▁asia	-11.041
▁esteban	-11.041
▁kasigurohan	-11.041
▁pasudlon	-11.041
▁itlog	-11.041
bungkag	-11.041
▁dinapit	-11.041
▁tukma	-11.041
▁dibon	-11.041
▁kaugmaon	-11.041
▁patibulaaga	-11.041
▁pabayr	-11.041
▁elifas	-11.041
▁seir	-11.041
▁giukanan	-11.041
▁hugasi	-11.041
▁ahaz	-11.041
▁makawang	-11.041
▁anihon	-11.041
▁maantigo	-11.041
▁badlonga	-11.041
▁pagpunay	-11.041
▁panabang	-11.041
▁mahimutang	-11.041
▁toril	-11.0411
▁agripa	-11.0411
▁200	-11.0411
bulit	-11.0411
▁tuaw	-11.0411
▁mensahero	-11.0412
▁kapintas	-11.0412
▁ginhawaan	-11.0412
▁umagad	-11.0412
▁talikdan	-11.0413
udlanan	-11.0414
▁nanghilak	-11.0414
sangil	-11.0415
▁magpakita	-11.0415
▁madato	-11.0415
sudya	-11.0415
▁balili	-11.0418
▁ipadpad	-11.0419
▁pagkahimo	-11.0419
▁magsuroysuroy	-11.042
inday	-11.0421
▁gitipigan	-11.0423
▁pagpugong	-11.0425
▁gipangandoy	-11.0426
▁bani	-11.0428
▁malukat	-11.0428
▁paghago	-11.043
▁sudlana	-11.043
▁gipiyal	-11.043
hulga	-11.0433
banos	-11.0433
▁gipatrabaho	-11.0434
▁pagpanimalos	-11.0436
▁nanginom	-11.0436
▁lungsoranon	-11.0438
▁palahubog	-11.0438
▁rama	-11.0441
▁gilain	-11.0441
▁nagsinggit	-11.0444
pugas	-11.0446
tunob	-11.0448
▁nagkalot	-11.0449
▁pagpadala	-11.045
▁mahumot	-11.0452
▁giputol	-11.0453
▁pagpasaylo	-11.0456
hinog	-11.0457
▁magpakitabang	-11.0458
▁nagtubo	-11.046
▁madala	-11.0462
▁naminyo	-11.0465
▁gipakaon	-11.047
▁mina	-11.0473
▁gihikaw	-11.0475
▁sinago	-11.0479
▁pug	-11.048
▁modaog	-11.0484
▁pangandoy	-11.0484
▁mohigda	-11.0485
▁macedonia	-11.0487
▁nasareo	-11.0487
▁mohimo	-11.0493
tulin	-11.0494
▁koral	-11.0498
▁mokaylap	-11.0502
▁sunogan	-11.051
▁mahinumdoman	-11.051
▁nagtahod	-11.0517
▁nahugaw	-11.0519
▁en	-11.0533
di	-11.0538
▁9	-11.054
pamulong	-11.0548
tutok	-11.0555
▁gihik	-11.0556
▁amang	-11.0557
▁buk	-11.0557
▁ablihan	-11.0563
▁18	-11.0585
▁dunggo	-11.0588
▁itom	-11.0588
▁pagkabata	-11.0594
asuko	-11.0601
▁paggawas	-11.0602
moab	-11.0603
▁bangan	-11.0618
▁paghangyo	-11.0619
ero	-11.0621
▁set	-11.0626
ato	-11.0637
▁media	-11.0639
kawas	-11.0642
▁kinatu	-11.0657
▁sinugdanan	-11.0664
▁balig	-11.0667
▁inubana	-11.067
hinloan	-11.0685
▁pahawa	-11.0689
▁garantiya	-11.0691
nghambog	-11.0697
siguro	-11.071
▁lingkod	-11.072
ron	-11.0736
▁gitapta	-11.075
ghago	-11.0769
puti	-11.0777
▁nasunog	-11.079
lihok	-11.0807
sakmit	-11.0823
galong	-11.0828
kalot	-11.0833
sid	-11.0834
tunga	-11.0839
▁sul	-11.0861
sakay	-11.0873
13	-11.0877
▁natan	-11.0881
nazaret	-11.0883
sirhan	-11.0883
▁magpas	-11.0899
kigbatok	-11.0901
hugasan	-11.092
ul	-11.0923
▁gipamu	-11.0925
pagahi	-11.0927
▁ca	-11.0931
▁bataa	-11.0932
▁husay	-11.0933
▁tungloh	-11.0941
▁palayo	-11.0945
ne	-11.0947
awan	-11.0951
▁buang	-11.0955
buling	-11.0961
num	-11.097
nago	-11.0972
▁nalu	-11.0973
anak	-11.0992
paagas	-11.1002
▁papauli	-11.1008
labaw	-11.1048
kahigayon	-11.1052
▁misana	-11.1054
▁mabihag	-11.1056
▁magduga	-11.1085
gahom	-11.1104
▁har	-11.1107
hid	-11.112
▁haw	-11.1133
sad	-11.1146
▁gisugi	-11.1151
kiglalis	-11.1152
agaw	-11.1172
▁mola	-11.1174
▁mis	-11.1176
uha	-11.1197
tilaw	-11.1235
▁nanag	-11.125
▁nakat	-11.1251
▁nagla	-11.1259
mon	-11.1262
▁gipasaka	-11.1267
lain	-11.1279
▁maglakaw	-11.1281
▁baligya	-11.1293
tud	-11.1305
▁dag	-11.1312
kuyaw	-11.1313
agon	-11.1314
hagdaw	-11.1338
▁pangitaa	-11.134
itan	-11.1352
te	-11.1365
sukaran	-11.1373
ni	-11.1376
9	-11.1384
sangpot	-11.1408
budhian	-11.141
kusokuso	-11.141
wataswatas	-11.141
▁abiram	-11.141
▁aminadab	-11.141
▁ariyos	-11.141
▁besalel	-11.141
▁carmel	-11.141
▁denario	-11.141
▁grecia	-11.141
▁hikaplagan	-11.141
▁importante	-11.141
▁jefone	-11.141
▁kailibgon	-11.141
▁kapasikaran	-11.141
▁kaslonon	-11.141
▁manunubos	-11.141
▁merkado	-11.141
▁mesullam	-11.141
▁rinyon	-11.141
▁samaryanhon	-11.141
▁sebedeo	-11.141
▁japet	-11.141
▁matarog	-11.141
pobre	-11.141
▁kamalig	-11.141
▁uwak	-11.141
▁meriba	-11.141
▁nabalaka	-11.141
▁pagasunogon	-11.141
▁jazer	-11.141
▁nanudlo	-11.141
▁lungib	-11.141
▁rehas	-11.141
▁zalmuna	-11.141
▁binayaw	-11.141
▁pagpangaon	-11.141
▁nagpangidlap	-11.141
▁patik	-11.141
▁jotam	-11.141
▁nadab	-11.141
▁pagpanghinlo	-11.141
▁gaal	-11.141
▁gibunyagan	-11.141
▁padaghanon	-11.141
▁magpatuli	-11.141
▁naglakawlakaw	-11.141
▁eliasib	-11.141
▁uzias	-11.141
▁abihu	-11.141
▁dugaydugay	-11.141
▁adar	-11.141
▁dihogi	-11.141
▁dat	-11.141
▁palabih	-11.141
pahiran	-11.141
▁latoson	-11.141
▁nanubo	-11.1411
▁sabta	-11.1411
▁mamumuo	-11.1411
▁matukib	-11.1412
▁pagkahimugso	-11.1412
▁lingkoranan	-11.1412
▁mahisakop	-11.1412
sidlak	-11.1412
▁nangaguba	-11.1413
▁mapuypoy	-11.1413
▁atay	-11.1414
▁nangatulog	-11.1414
▁ampoanan	-11.1415
▁panghunahuna	-11.1415
▁uhawon	-11.1415
▁ayoha	-11.1415
▁namakak	-11.1415
▁timailhan	-11.1416
▁atimana	-11.1418
▁lud	-11.1419
▁gihagoan	-11.142
sundog	-11.142
▁tamayon	-11.1422
▁bugang	-11.1423
▁mabusog	-11.1424
▁12,000;	-11.1424
ipakaon	-11.1427
▁gihuptan	-11.1429
lamat	-11.143
▁mokuha	-11.143
▁gidulot	-11.1431
▁batasan	-11.1431
▁magpatalinghog	-11.1432
pasaylo	-11.1434
▁bugalbugalan	-11.1434
wali	-11.1434
▁gilista	-11.1439
▁batoha	-11.144
▁lipudlipod	-11.1441
▁hezron	-11.1441
▁gipangasawa	-11.1441
▁ipasi	-11.1442
edad	-11.1446
▁tinam	-11.1447
▁tagoi	-11.1448
▁j	-11.1449
▁zeba	-11.145
▁hugawhugaw	-11.1451
▁magpasipala	-11.1452
▁pagpangasawa	-11.1455
▁milo	-11.1456
▁pagbugalbugal	-11.1456
▁tera	-11.1457
▁oso	-11.1457
▁temploha	-11.1457
▁patingogon	-11.1459
▁paninglan	-11.1465
▁gihu	-11.1465
kan	-11.1471
▁paghusay	-11.1473
▁tinag	-11.1476
▁panimasl	-11.1477
▁magsangyaw	-11.1477
▁lama	-11.148
gmata	-11.1482
▁gipaila	-11.1484
▁malala	-11.1486
▁doble	-11.1487
▁gog	-11.1487
▁iph	-11.1488
▁asdod	-11.1495
▁cipre	-11.1495
▁libna	-11.1495
▁jael	-11.1496
▁langaw	-11.1498
▁kinabuhia	-11.1498
▁kabanayan	-11.1503
▁moulan	-11.1504
▁nangaayo	-11.1505
sudla	-11.1505
▁modagan	-11.1508
▁panalangini	-11.1514
onganan	-11.152
abtan	-11.1523
▁nabahin	-11.1547
▁ulod	-11.1548
▁mabuhat	-11.1549
ingil	-11.1561
aran	-11.1567
▁mihang	-11.1569
pahilayo	-11.1578
▁hur	-11.1582
▁gipuno	-11.1593
▁mananapaw	-11.1594
▁basahona	-11.16
kawat	-11.1605
bul	-11.1625
▁taw	-11.1632
▁nakalipay	-11.1632
kaulaw	-11.1634
▁el	-11.1634
kahugaw	-11.1645
▁nasab	-11.1668
▁saylo	-11.1669
▁paanhi	-11.1682
▁magpail	-11.1687
ripa	-11.1705
▁hayag	-11.1706
▁napili	-11.171
agiw	-11.1719
ina	-11.1721
gripa	-11.173
▁paatubang	-11.1734
gpahinumdom	-11.174
▁kalisangan	-11.1742
▁pabalik	-11.1771
bilin	-11.1777
▁simbolo	-11.1781
w	-11.1805
▁buhii	-11.1809
ulaw	-11.1815
▁ripa	-11.1842
▁bat	-11.1843
▁gitapi	-11.186
▁gihubo	-11.191
▁ig	-11.1912
▁mala	-11.1924
pandong	-11.1945
linog	-11.1981
24	-11.1992
hampak	-11.1994
▁patalinghog	-11.2001
▁masabt	-11.2001
pangutan	-11.2003
11	-11.2009
midian	-11.2013
▁ugaling	-11.2022
dapig	-11.2028
judio	-11.2028
masa	-11.2035
ngalan	-11.2035
bugto	-11.204
kagot	-11.2056
panalangin	-11.2073
▁siyam	-11.2077
gmulo	-11.2094
bakos	-11.2098
▁ada	-11.2101
▁sangko	-11.2103
gpasipala	-11.211
▁makah	-11.2165
uta	-11.2166
▁bunyag	-11.2168
bubo	-11.2168
bang	-11.218
▁gula	-11.2196
kabayo	-11.2203
▁gidayandayan	-11.2226
▁k	-11.223
hulog	-11.2236
em	-11.2257
pahiagom	-11.2269
ahan	-11.2272
laki	-11.2278
▁pasa	-11.2299
banhaw	-11.2315
kay	-11.2323
▁dayag	-11.2382
4	-11.2386
▁makatu	-11.2386
▁jo	-11.2397
▁ana	-11.2404
▁nagp	-11.2409
▁hul	-11.2414
kulang	-11.2416
lupig	-11.2417
api	-11.2418
kinabuhi	-11.2418
sta	-11.2429
sumpay	-11.2429
ikyas	-11.2434
hunonga	-11.2436
▁nagpaki	-11.2443
pugngan	-11.2462
▁hor	-11.2467
hudyaka	-11.2468
alam	-11.2473
▁biy	-11.2485
▁pamaty	-11.2488
▁nati	-11.2488
▁gikawat	-11.2488
▁pam	-11.2495
babayen	-11.2499
bay	-11.2508
▁tungo	-11.2515
▁isugi	-11.2517
▁nagmag	-11.2517
ginhawa	-11.2517
▁higante	-11.2521
himsog	-11.2521
hukmi	-11.2521
tamaktamak	-11.2521
▁ascalon	-11.2521
▁barabas	-11.2521
▁barnea	-11.2521
▁caifas	-11.2521
▁dabir	-11.2521
▁eber	-11.2521
▁hinabang	-11.2521
▁kahanginan	-11.2521
▁kaparian	-11.2521
▁kasapaan	-11.2521
▁kedar	-11.2521
▁kornalina	-11.2521
▁magkatibulaag	-11.2521
▁magtutukod	-11.2521
▁otniel	-11.2521
▁pinalabi	-11.2521
▁plawta	-11.2521
▁sanbalat	-11.2521
▁sinaligan	-11.2521
▁sofonias	-11.2521
▁tripulante	-11.2521
▁binugkos	-11.2521
▁kasaypanan	-11.2521
▁kauhaw	-11.2521
▁maanyag	-11.2521
▁makinaadmanon	-11.2521
▁usbon	-11.2521
▁lukp	-11.2521
▁nazaretnon	-11.2521
▁patukoranan	-11.2521
▁potif	-11.2521
▁gidugayon	-11.2521
▁anatot	-11.2521
▁milca	-11.2521
▁pagpangespiya	-11.2521
▁gilaoman	-11.2521
▁kapatas	-11.2521
▁alagaran	-11.2521
▁gidaoban	-11.2521
▁acsa	-11.2521
▁lira	-11.2521
pusgay	-11.2521
▁alimpulos	-11.2521
▁basura	-11.2521
▁sheba	-11.2521
sinyas	-11.2521
▁altar	-11.2521
▁sinuholan	-11.2521
▁mamre	-11.2521
▁nanubag	-11.2521
▁cristohanon	-11.2521
▁daugdaoga	-11.2521
abtik	-11.2521
▁madaugon	-11.2521
▁tambor	-11.2521
▁kasinatian	-11.2522
hugpa	-11.2522
▁pakaulawi	-11.2522
▁pinadala	-11.2522
▁lagyo	-11.2522
▁pakyason	-11.2522
▁pagkahubo	-11.2522
▁gisangon	-11.2522
▁tumbanan	-11.2523
▁nagmaya	-11.2523
kasad	-11.2523
▁pagpangani	-11.2523
▁nangabusog	-11.2523
tungtong	-11.2523
▁paabota	-11.2523
▁nagsing	-11.2523
▁gawasnon	-11.2524
▁mangalaglag	-11.2524
▁pasur	-11.2525
▁ikasaway	-11.2525
▁panghilak	-11.2525
▁pagkabanhaw	-11.2525
▁bakilid	-11.2526
▁pagpas	-11.2526
▁makalakaw	-11.2528
hikalim	-11.2528
▁magpaubos	-11.2529
ganti	-11.2529
▁pagsinggit	-11.253
▁gigun	-11.2531
▁gipapatay	-11.2531
▁gitukob	-11.2531
▁tighimo	-11.2531
▁nanglabay	-11.2531
▁masalin	-11.2531
▁halas	-11.2532
▁nahiuna	-11.2533
▁matugkad	-11.2533
sang	-11.2534
▁panaglalis	-11.2535
▁lutoa	-11.2537
▁gituohan	-11.2538
▁gibakyaw	-11.254
▁paminawa	-11.254
▁pagpaubos	-11.2542
▁gibato	-11.2543
▁gipapas	-11.2544
▁giagian	-11.2545
▁hutdo	-11.255
▁madaog	-11.2551
▁gisuhol	-11.2552
▁pagpatindog	-11.2554
▁filistia	-11.2556
▁madagayaon	-11.2556
▁refaim	-11.2556
▁kahakog	-11.2556
▁peor	-11.2556
▁pagbudhi	-11.2556
▁pinalit	-11.2556
▁pagpanganak	-11.2559
▁paglutos	-11.2561
lutaw	-11.2563
▁nagtanom	-11.2563
▁husayon	-11.2564
▁nasina	-11.2565
▁nagsakay	-11.2566
pangasawa	-11.2572
▁mopahulay	-11.2572
▁nadato	-11.2576
kom	-11.2577
▁tukora	-11.2579
ahulog	-11.258
▁gipasigarbo	-11.2584
▁makasukol	-11.2585
▁pangitaon	-11.2588
▁paigo	-11.2595
▁gibitay	-11.2597
▁gitunglo	-11.26
▁magla	-11.2601
hagkan	-11.2604
▁puli	-11.2609
amping	-11.2617
▁antuson	-11.262
itanom	-11.2625
▁magha	-11.2632
▁gidugang	-11.2632
▁hawan	-11.2635
▁pagdaot	-11.2639
▁pangaliyupo	-11.264
▁pagsubo	-11.2643
arang	-11.2651
▁gihuro	-11.2667
ipadayon	-11.2679
▁timbang	-11.268
▁tuli	-11.269
▁balaya	-11.2693
▁sugoon	-11.2703
▁harim	-11.2713
tugkad	-11.2713
▁naghin	-11.2728
▁400	-11.2744
▁pas	-11.2762
▁gitam	-11.2767
f	-11.2767
▁tala	-11.2795
3	-11.2808
▁uling	-11.2809
▁miinom	-11.2817
ro	-11.2819
▁masinugtanon	-11.285
▁bung	-11.2876
▁pagsangpit	-11.2885
taas	-11.2889
sot	-11.2903
▁nagtaba	-11.292
▁nahaso	-11.2921
▁nagtam	-11.2936
▁pangutana	-11.2944
▁sulay	-11.2946
unta	-11.2951
▁nakap	-11.2974
▁giku	-11.2974
tro	-11.2975
buhi	-11.2992
30	-11.2993
bag	-11.3001
▁hal	-11.3007
mata	-11.3022
▁sagol	-11.3027
ilo	-11.3081
▁saop	-11.3097
▁pagp	-11.3103
▁gipauna	-11.3106
yab	-11.3121
▁hugasan	-11.3139
▁siguro	-11.3154
▁ita	-11.3161
lista	-11.3161
mahal	-11.3181
▁magpahimu	-11.3202
hag	-11.3225
tambag	-11.323
nuol	-11.3236
▁yaw	-11.324
agbantay	-11.3251
limbongan	-11.3273
gamay	-11.3275
galilea	-11.3275
edomea	-11.3275
suso	-11.3288
tandi	-11.3306
unod	-11.3316
pahubas	-11.3316
mu	-11.3355
▁sira	-11.3357
gamot	-11.3362
▁gil	-11.3374
▁palit	-11.3386
buta	-11.3393
tingog	-11.3405
duyog	-11.3422
▁mosuba	-11.3431
▁luto	-11.3482
ilisan	-11.3485
ikas	-11.3495
▁lisang	-11.3512
pangulo	-11.352
laya	-11.3523
mit	-11.3524
bulahan	-11.3542
lob	-11.3556
▁kum	-11.356
lantaw	-11.3569
pildi	-11.3574
dihog	-11.3591
▁sinunog	-11.3622
ed	-11.3649
pakyas	-11.3652
baskog	-11.3653
▁tab	-11.3661
▁kahibulong	-11.3676
suhol	-11.3687
▁kapait	-11.37
ael	-11.3706
lagot	-11.3706
abol	-11.3707
bok	-11.371
del	-11.3712
▁kabs	-11.3712
imbis	-11.3722
lahutay	-11.3729
patrabaho	-11.3737
▁uy	-11.374
▁palandong	-11.3746
▁pasultiha	-11.3749
▁paghuba	-11.3753
sabot	-11.3755
pasilong	-11.3755
miligro	-11.3758
▁ber	-11.3768
munyag	-11.3769
▁kiriatiarim	-11.3771
disiplina	-11.3771
punsisok	-11.3771
▁abistros	-11.3771
▁beltesasar	-11.3771
▁bitiis	-11.3771
▁edrei	-11.3771
▁engaste	-11.3771
▁gilaraw	-11.3771
▁ginansilyo	-11.3771
▁isigkamagtutuo	-11.3771
▁kahilayan	-11.3771
▁karsunsilyo	-11.3771
▁madaugdaugon	-11.3771
▁magkalisodlisod	-11.3771
▁namaligya	-11.3771
▁nangapukan	-11.3771
▁pagbagulbol	-11.3771
▁pagkakaadlawon	-11.3771
▁palihog	-11.3771
▁ribla	-11.3771
▁selofehad	-11.3771
▁tinuohan	-11.3771
▁tribo	-11.3771
▁enoc	-11.3771
▁gipalabi	-11.3771
▁gitunton	-11.3771
▁inigkagabii	-11.3771
▁kasagaran	-11.3771
▁magtuo	-11.3771
▁natawhan	-11.3771
▁pagsigi	-11.3771
▁efron	-11.3771
▁manlalaban	-11.3771
▁nagsiga	-11.3771
▁pagpanudlo	-11.3771
▁uyoan	-11.3771
▁kenihanon	-11.3771
▁nadakpan	-11.3771
▁plato	-11.3771
▁pagtuaw	-11.3771
▁nagmauswagon	-11.3771
▁bulok	-11.3771
▁eliakim	-11.3771
▁kinawat	-11.3771
▁mangiob	-11.3771
▁papel	-11.3771
▁hagdan	-11.3771
▁herodias	-11.3771
▁hades	-11.3771
▁hilanat	-11.3771
▁sapiro	-11.3771
sumbag	-11.3771
▁jahas	-11.3771
▁kaluha	-11.3771
▁masayop	-11.3771
▁eliezer	-11.3771
▁galingan	-11.3771
▁hunawanan	-11.3771
▁hamor	-11.3771
▁piang	-11.3771
▁salamangka	-11.3771
▁tugkar	-11.3771
▁utanon	-11.3771
aben	-11.3771
▁nanindog	-11.3771
▁dungganan	-11.3771
▁pagkamasupilon	-11.3771
▁tuhod	-11.3771
▁hakog	-11.3771
▁nagmadaugon	-11.3771
hunaw	-11.3771
▁bilha	-11.3772
▁eliab	-11.3772
aghat	-11.3772
ngilngig	-11.3772
▁hawak	-11.3772
▁asaf	-11.3772
▁gigikanan	-11.3772
▁igpapa	-11.3773
▁gitamay	-11.3773
▁ipaubos	-11.3773
▁kabulahanan	-11.3773
▁pagkaugma	-11.3773
▁mokunhod	-11.3774
▁mainitan	-11.3775
▁madagma	-11.3775
▁manghilak	-11.3775
▁nakasulti	-11.3776
▁panaghiusa	-11.3777
▁mahibulong	-11.3777
▁magmalampuson	-11.3777
sabod	-11.3777
angahas	-11.3777
▁hinom	-11.3778
▁ipataas	-11.3778
▁acan	-11.3778
▁mapanunod	-11.3778
▁ilimod	-11.3779
▁magtan	-11.3779
▁atakihon	-11.3782
▁gikaligutgotan	-11.3782
▁paharion	-11.3782
▁er	-11.3783
▁nagmalipayon	-11.3783
▁nahisalaag	-11.3785
▁magminyo	-11.3785
▁ikatubag	-11.3786
▁maghil	-11.3787
▁paantuson	-11.3789
▁nagpaila	-11.3789
▁pangisip	-11.3792
▁aslo	-11.3793
▁magkauyon	-11.3793
▁pagpanglimbong	-11.3794
▁pagkapukan	-11.3795
▁pagtuli	-11.3796
lanit	-11.3797
▁itubag	-11.3802
▁pamatay	-11.3804
gpakahilom	-11.3806
▁mangitngit	-11.3806
▁pagtukaw	-11.3806
ambak	-11.3808
▁malumpag	-11.381
▁guwapo	-11.3811
▁mikurog	-11.3814
▁kaminyoon	-11.3815
▁pagbadlong	-11.3815
▁malaw	-11.3817
iyaha	-11.3818
▁sangpotanan	-11.382
▁makabangon	-11.3823
▁kabug	-11.3828
▁nagpugas	-11.3828
▁paran	-11.3831
▁pagpanalangin	-11.3832
▁nangagu	-11.3834
▁nanguha	-11.3835
▁mosaka	-11.3838
▁gisagol	-11.384
▁pagpugas	-11.3841
▁modagayday	-11.3844
▁mouswag	-11.3847
ib	-11.3848
▁nabali	-11.3853
▁bunyagan	-11.3855
▁pagtubo	-11.3856
▁tambal	-11.3856
▁sayloan	-11.3857
▁nagh	-11.3859
▁paglimbong	-11.3865
▁diosnon	-11.3865
▁gibayad	-11.3865
va	-11.3866
padala	-11.3866
▁kakuyaw	-11.387
▁gikarga	-11.3872
▁mosilaob	-11.3874
▁nagta	-11.3877
▁klaro	-11.3881
▁asera	-11.3881
▁panad	-11.3885
▁mahigugmaon	-11.3885
▁kiskis	-11.3886
▁kanal	-11.39
▁pagpasipala	-11.3906
nanom	-11.391
▁tungas	-11.3915
▁nalibog	-11.3924
▁nanung	-11.3929
▁bil	-11.3931
▁moku	-11.3934
ihikaw	-11.3936
▁giuli	-11.3937
▁pagsupil	-11.3946
▁sadok	-11.3951
▁isopo	-11.3953
▁arabia	-11.3968
▁motabok	-11.3975
▁makatulog	-11.3984
lapason	-11.3995
▁midan	-11.3998
▁makaantos	-11.4023
▁naguba	-11.4029
▁niwang	-11.403
▁hik	-11.4031
uswagon	-11.4042
apait	-11.4056
pangguba	-11.4057
▁bugnaw	-11.406
ulogon	-11.4075
ghinlo	-11.4087
hinloi	-11.4094
▁bangkite	-11.41
▁gisi	-11.4101
▁panapaw	-11.4102
▁naglipay	-11.4108
▁pagpadayon	-11.411
▁andamon	-11.4112
▁mogikan	-11.4124
insulto	-11.4138
▁kalaw	-11.4147
ingnan	-11.4149
▁pagpu	-11.4151
wala	-11.4152
lumos	-11.4153
subang	-11.4159
▁nama	-11.4163
▁sid	-11.4171
▁presyo	-11.4175
butangbutang	-11.4178
▁pu	-11.418
kapalit	-11.4184
namkon	-11.4184
pas	-11.4187
gmasinugtanon	-11.4192
▁kahita	-11.4192
▁gibalita	-11.4192
▁tingpamu	-11.4233
habas	-11.4287
agas	-11.4291
asol	-11.4315
labotan	-11.4371
sim	-11.439
▁hampak	-11.4403
▁jas	-11.4409
h	-11.4411
▁baya	-11.443
ilis	-11.4444
▁gat	-11.4454
▁kawa	-11.4463
pahilom	-11.4477
▁nazaret	-11.448
salin	-11.4483
bon	-11.4485
▁sirhan	-11.449
▁bu	-11.4514
tunaw	-11.4516
af	-11.4531
lingkoran	-11.4549
hutd	-11.4553
▁halok	-11.4559
▁gitu	-11.4599
ubanan	-11.4611
pasilaob	-11.4615
▁mosa	-11.4631
arba	-11.4647
plano	-11.4654
simbolo	-11.4681
pikas	-11.4684
▁uz	-11.4689
dungga	-11.4692
▁tubo	-11.4695
lungag	-11.4698
masakiton	-11.4702
katahom	-11.4703
biyuda	-11.4704
habog	-11.4706
juda	-11.4707
langyaw	-11.4707
butang	-11.4709
ibabaw	-11.4716
▁lubong	-11.4729
▁mos	-11.4729
uk	-11.4751
▁patyonon	-11.4765
yod	-11.4765
▁pagsuba	-11.4796
▁gipana	-11.4796
▁has	-11.4797
▁mat	-11.4814
▁tak	-11.4844
ikod	-11.4845
bali	-11.4872
aso	-11.488
▁bukira	-11.4889
bawi	-11.4907
▁gipas	-11.4917
amot	-11.4925
▁me	-11.4927
▁hubog	-11.4943
▁nagdu	-11.4944
akan	-11.4949
▁15	-11.4949
ita	-11.4969
papanumpa	-11.4973
layo	-11.4983
mulak	-11.4993
▁hipos	-11.4997
pamatuod	-11.5014
laban	-11.5034
angalisang	-11.5036
ayan	-11.5046
dak	-11.5048
simba	-11.5049
▁han	-11.5054
▁gihi	-11.5056
ohon	-11.5069
likayan	-11.5077
pungot	-11.5087
buhaton	-11.5094
badlong	-11.5112
bayloan	-11.5113
hukas	-11.5146
▁nanuo	-11.5151
▁nahum	-11.5153
sugoan	-11.5159
▁nakamat	-11.5163
abiabi	-11.5164
▁puoh	-11.5166
▁hapin	-11.5171
tunobtunoban	-11.5176
▁kiriat	-11.5177
il	-11.5178
enai	-11.5178
balhog	-11.5185
▁gipul	-11.5187
▁masuk	-11.5188
usisa	-11.5188
uyapan	-11.5188
mailhan	-11.519
kutkot	-11.519
mamat	-11.5198
▁oholiba	-11.5198
ordinah	-11.5199
sukitsukit	-11.5199
▁almendras	-11.5199
▁apapangig	-11.5199
▁arioc	-11.5199
▁aspalto	-11.5199
▁belsazar	-11.5199
▁demonyo	-11.5199
▁distrito	-11.5199
▁hasabias	-11.5199
▁haspe	-11.5199
▁hiwi	-11.5199
▁iggugubat	-11.5199
▁isugnod	-11.5199
▁jaboc	-11.5199
▁jezreel	-11.5199
▁kapanganoran	-11.5199
▁kasagbotan	-11.5199
▁konsensya	-11.5199
▁kristal	-11.5199
▁lamec	-11.5199
▁lapyahan	-11.5199
▁lebiatan	-11.5199
▁lirio	-11.5199
▁liyopardo	-11.5199
▁mabudhion	-11.5199
▁maglaraw	-11.5199
▁makahahadlok	-11.5199
▁makatarunganon	-11.5199
▁makeda	-11.5199
▁malquias	-11.5199
▁mangapukan	-11.5199
▁marcos	-11.5199
▁memfis	-11.5199
▁modasdas	-11.5199
▁moloc	-11.5199
▁nagkaguliyang	-11.5199
▁nagmalinawon	-11.5199
▁nanamilit	-11.5199
▁palibutan	-11.5199
▁panglawas	-11.5199
▁perlas	-11.5199
▁prinsesa	-11.5199
▁pukanon	-11.5199
▁rehum	-11.5199
▁shallum	-11.5199
▁tagoangkan	-11.5199
▁vasti	-11.5199
▁zoar	-11.5199
▁dalagita	-11.5199
▁kakabos	-11.5199
▁mamuyo	-11.5199
▁nagpaantaw	-11.5199
▁taksanan	-11.5199
▁talinis	-11.5199
▁ginsakopan	-11.5199
▁makabunga	-11.5199
▁pamutl	-11.5199
▁mapaabot	-11.5199
▁pagkapalong	-11.5199
▁kontra	-11.5199
▁sinina	-11.5199
▁makir	-11.5199
▁gikasab	-11.5199
▁naggilakgilak	-11.5199
▁matanias	-11.5199
▁iddo	-11.5199
▁pagpamakak	-11.5199
▁gitunol	-11.5199
▁hilkias	-11.5199
▁pamaagi	-11.5199
oreb	-11.5199
▁beor	-11.5199
▁dinakpan	-11.5199
▁esc	-11.5199
duhig	-11.5199
▁pisga	-11.5199
▁tebes	-11.5199
▁dakpa	-11.5199
▁amram	-11.5199
kilab	-11.5199
▁tres	-11.52
▁betuel	-11.52
▁namahulay	-11.52
▁gibistihan	-11.52
▁magtatabang	-11.52
▁banog	-11.52
bansay	-11.52
▁oholibama	-11.52
▁600	-11.52
▁jabin	-11.52
▁hananias	-11.52
▁beer	-11.52
▁pagtamay	-11.52
▁kapasayloan	-11.52
▁tabor	-11.52
jamin	-11.5201
libak	-11.5202
▁mapuslanon	-11.5202
▁magpapanaw	-11.5202
▁zin	-11.5203
▁kinut	-11.5203
▁motunhay	-11.5204
▁gipasinaw	-11.5204
▁kagahi	-11.5204
▁huy	-11.5204
▁nakalakaw	-11.5204
▁gililong	-11.5204
▁hulaw	-11.5205
▁cus	-11.5205
pulpog	-11.5206
▁soan	-11.5206
▁gipalagot	-11.5207
▁panghinaot	-11.5207
▁kaligutgot	-11.5207
▁kagiw	-11.5208
▁mabdos	-11.5208
▁mapapas	-11.5208
▁tukon	-11.5208
▁mahimugso	-11.5208
▁matintal	-11.5211
▁makagamot	-11.5213
▁mamiligro	-11.5214
▁madakpan	-11.5215
▁magpabunyag	-11.5215
▁hug	-11.5216
tok	-11.5216
▁makahubog	-11.5217
ran	-11.5218
▁pagkamaayo	-11.5218
▁madunot	-11.522
▁namunga	-11.5223
iw	-11.5226
▁aping	-11.5226
▁nagbaga	-11.5227
▁gipasidaan	-11.5231
▁raba	-11.5232
▁pagpakahilom	-11.5233
▁lukaton	-11.5234
▁pagpanglakaw	-11.5235
▁gihukas	-11.5236
▁mahingpit	-11.5238
▁pagkadaghan	-11.5239
▁paghugas	-11.5239
▁seba	-11.5241
▁pagpasidaan	-11.5245
▁mainiton	-11.5246
▁pangabubho	-11.5246
▁mobati	-11.5246
▁kugihan	-11.5246
▁kuwintas	-11.5246
▁hamtong	-11.5246
▁molahutay	-11.5246
bira	-11.5248
agda	-11.5249
▁momata	-11.525
▁sulatanan	-11.5251
▁gisakmit	-11.5253
▁nagsabot	-11.5254
ito	-11.5256
▁gisamok	-11.5267
▁napanunod	-11.5268
▁gision	-11.5269
▁kalubngan	-11.5272
▁palad	-11.5272
panon	-11.5272
molupyo	-11.5278
▁nagngulob	-11.528
▁adan	-11.528
dumtan	-11.5281
▁mikay	-11.5281
▁nagsamok	-11.5282
gpakamatay	-11.5284
▁pagpahulay	-11.5285
panganak	-11.5286
▁naglimbong	-11.529
▁mohubas	-11.5293
▁makalaglag	-11.5298
▁gihay	-11.53
▁gibali	-11.5303
▁makapahimul	-11.5304
▁nasalin	-11.5306
▁gibalik	-11.5313
▁gidikta	-11.5318
ento	-11.5318
▁pagbunyag	-11.5319
piyal	-11.5321
▁nagkurog	-11.5321
▁gibalaan	-11.5324
▁rehob	-11.5324
▁jair	-11.5325
▁sikreto	-11.5328
panamastamas	-11.533
▁sayaw	-11.533
▁pagsu	-11.5333
pabuhagay	-11.5333
▁mohu	-11.5347
▁kapugngan	-11.5347
▁paminaw	-11.5347
▁gibaylo	-11.5352
▁gilabay	-11.5353
▁kulonon	-11.5356
▁kaputi	-11.5367
▁gitubo	-11.5368
▁horon	-11.5375
▁gisupak	-11.5379
▁gitinguha	-11.5385
▁tun	-11.539
bato	-11.5406
▁tuyoa	-11.5408
▁tipiganan	-11.5415
▁moampo	-11.5416
▁paggapos	-11.5423
isaysay	-11.5431
or	-11.5436
▁salmon	-11.5436
▁makahub	-11.5436
▁pagpaabot	-11.5436
▁naglig	-11.5448
lim	-11.5448
▁naap	-11.5463
▁tai	-11.5472
▁gikapo	-11.5476
sen	-11.5482
▁gisug	-11.5485
▁nags	-11.5488
▁44	-11.5495
▁mapagarbohon	-11.5498
katulog	-11.5509
baho	-11.5511
▁gitan	-11.5516
gsuroysuroy	-11.5529
▁mananapa	-11.5531
pataas	-11.5539
▁kaila	-11.5539
▁nagdal	-11.5561
mauli	-11.5562
▁nagsa	-11.5567
▁pamalandong	-11.5579
▁bakyaw	-11.5586
lingaw	-11.56
angha	-11.5607
▁imoha	-11.5619
kub	-11.562
dasiga	-11.5629
pakurog	-11.5638
ca	-11.5645
▁hitabo	-11.5649
▁pasidungog	-11.5674
▁suka	-11.5676
angatulog	-11.5678
▁kulit	-11.568
▁lim	-11.5692
ihangyo	-11.5697
say	-11.5707
▁hub	-11.5721
katawa	-11.5742
▁tinagoan	-11.5746
gtukaw	-11.5766
▁napug	-11.5782
▁mokuyo	-11.5785
ahilayo	-11.5793
▁kuha	-11.5802
▁pakuyog	-11.5806
▁nalig	-11.5813
giok	-11.5826
▁b	-11.5829
▁kahay	-11.5837
▁gitak	-11.5878
kas	-11.5893
pasibsib	-11.5893
▁padag	-11.5911
yas	-11.5915
ihanon	-11.5919
minyo	-11.5928
▁magbubu	-11.593
yam	-11.5934
▁nagti	-11.5934
har	-11.5935
uel	-11.5941
▁kali	-11.5953
▁makat	-11.5969
▁lung	-11.5969
sulti	-11.5972
▁mali	-11.5972
▁lak	-11.5973
▁babag	-11.6007
tulo	-11.6013
sibsib	-11.6031
▁13	-11.6031
gkauyon	-11.6035
idugang	-11.6036
▁giluko	-11.6038
pabalik	-11.6038
▁nakigdu	-11.6049
saylo	-11.6067
▁nalaglag	-11.6084
sugo	-11.6099
sok	-11.6101
pila	-11.6118
▁masa	-11.6124
hinumdom	-11.6126
▁bagon	-11.6138
▁inigpa	-11.6152
malu	-11.6155
pangutana	-11.6163
▁pagbato	-11.6185
▁6	-11.6185
yukbo	-11.619
angahadlok	-11.6191
kulit	-11.6193
nag	-11.6203
▁katulog	-11.6216
hitabo	-11.6223
▁amon	-11.6229
▁tap	-11.6246
taptap	-11.6251
▁jab	-11.6251
▁pagahi	-11.6257
▁gipasa	-11.6264
▁lukat	-11.6272
pasidaan	-11.6274
kot	-11.6275
pailob	-11.6279
▁miuna	-11.6298
▁tibu	-11.6303
tagay	-11.6319
▁natukod	-11.6322
▁inigpang	-11.6335
presyo	-11.634
ulahi	-11.6343
dia	-11.6343
hilayo	-11.6349
garantiya	-11.635
bungol	-11.6354
lunop	-11.6359
binuang	-11.6366
kadugang	-11.637
▁binuk	-11.637
▁pagawas	-11.6371
daplin	-11.6372
efraim	-11.6372
makalilisang	-11.6372
baal	-11.6372
israel	-11.6374
lambo	-11.6388
▁bahinbahin	-11.6391
atop	-11.6393
ula	-11.6398
▁naani	-11.6402
agian	-11.6409
kataw	-11.6431
pahawa	-11.6436
▁iloga	-11.6443
▁pagkab	-11.6444
▁de	-11.6468
23	-11.6477
▁maisog	-11.6485
▁ak	-11.6491
suka	-11.6493
▁samu	-11.6495
balos	-11.6497
tintal	-11.6498
▁guba	-11.6514
hugas	-11.6541
▁midu	-11.6542
sapi	-11.6548
ses	-11.6549
▁makatug	-11.6561
anad	-11.6588
ilhon	-11.6606
▁gilab	-11.6617
▁minyo	-11.6634
▁buhati	-11.6642
ulob	-11.6647
er	-11.6657
ukon	-11.6667
▁nana	-11.6671
pasaka	-11.6686
ungaw	-11.6701
nhon	-11.6707
tapok	-11.6712
▁mau	-11.6721
ulata	-11.6737
▁masina	-11.6743
sadya	-11.6743
▁tipig	-11.675
▁lib	-11.6755
abati	-11.6758
agak	-11.6761
▁pul	-11.6764
saksih	-11.6773
▁masu	-11.6784
uton	-11.6785
pagarbo	-11.6792
ayaw	-11.6795
apin	-11.6796
▁sangpotan	-11.6806
▁nagpatu	-11.681
may	-11.6814
ura	-11.6816
kuniskunis	-11.6819
dulot	-11.682
lungtad	-11.6828
takda	-11.6829
▁magta	-11.6832
▁pagpaka	-11.6836
sumbalik	-11.6838
▁magsal	-11.6838
▁kuwart	-11.6842
▁midako	-11.6846
ahunog	-11.6848
lhogan	-11.6849
▁bahinon	-11.6851
kakaplag	-11.6854
▁paki	-11.6857
▁paggun	-11.6859
▁tema	-11.6859
▁samoka	-11.6861
▁kasub	-11.6863
▁mamumu	-11.6864
▁tabi	-11.6865
anibsib	-11.6865
▁geba	-11.6866
subli	-11.6866
adulam	-11.6866
ganansya	-11.6866
tesalonica	-11.6866
tuktugaok	-11.6866
▁arfacsad	-11.6866
▁armado	-11.6866
▁bantilis	-11.6866
▁binnui	-11.6866
▁elnatan	-11.6866
▁esmeralda	-11.6866
▁gamaliel	-11.6866
▁girgasihanon	-11.6866
▁heber	-11.6866
▁helmet	-11.6866
▁jarmut	-11.6866
▁jonatan	-11.6866
▁kadagaya	-11.6866
▁kaparyentihan	-11.6866
▁kapasidunggan	-11.6866
▁kiriataim	-11.6866
▁kutsilyo	-11.6866
▁makanunayon	-11.6866
▁malluc	-11.6866
▁mandragora	-11.6866
▁nehemias	-11.6866
▁ofra	-11.6866
▁pagdasdas	-11.6866
▁pagkakilomkilom	-11.6866
▁pagkatinuli	-11.6866
▁pahatmoab	-11.6866
▁peleg	-11.6866
▁piraso	-11.6866
▁relihiyoso	-11.6866
▁rezin	-11.6866
▁saqueo	-11.6866
▁sebanias	-11.6866
▁sefatias	-11.6866
▁sefora	-11.6866
▁serebias	-11.6866
▁sibeon	-11.6866
▁tangke	-11.6866
▁tapanhes	-11.6866
▁tirza	-11.6866
▁tofet	-11.6866
▁zilfa	-11.6866
▁zora	-11.6866
▁fenicia	-11.6866
▁manunukob	-11.6866
▁mateo	-11.6866
▁nagustohan	-11.6866
▁puspos	-11.6866
▁recab	-11.6866
▁jesse	-11.6866
paingna	-11.6866
▁manapaw	-11.6866
▁ohola	-11.6866
▁ebal	-11.6866
▁kadmiel	-11.6866
▁kapito	-11.6866
▁sopar	-11.6866
dinasig	-11.6866
▁elimelec	-11.6866
▁hingkod	-11.6866
▁nagpakilimos	-11.6866
▁gibakakan	-11.6866
▁makapalong	-11.6866
salingsing	-11.6866
▁mesec	-11.6866
▁sotana	-11.6866
▁panday	-11.6866
tikyop	-11.6866
▁obed	-11.6866
sulta	-11.6866
▁kalamposan	-11.6866
▁luyoluyo	-11.6866
▁zebul	-11.6866
▁panadero	-11.6866
▁timog	-11.6866
▁misael	-11.6866
▁pagkagahi	-11.6866
▁tubal	-11.6866
▁linain	-11.6866
▁46	-11.6866
▁5,000	-11.6866
sabwag	-11.6866
▁uziel	-11.6866
▁tagnok	-11.6866
▁sidonihanon	-11.6866
▁luz	-11.6866
▁sinal	-11.6866
▁kaanindot	-11.6866
▁kahigalaan	-11.6866
▁panumbalinga	-11.6866
▁reu	-11.6866
▁karea	-11.6866
▁purim	-11.6866
▁panginabuhi	-11.6867
▁tinai	-11.6867
▁pugngi	-11.6867
▁igsusu	-11.6867
umangkon	-11.6867
▁110	-11.6867
▁pakigbulag	-11.6867
▁tingpugas	-11.6867
▁tigmo	-11.6868
ryo	-11.6868
balibad	-11.6868
▁nangalumos	-11.6868
wahi	-11.6868
▁horma	-11.6868
lagbas	-11.6868
kakaon	-11.6869
▁mibuhagay	-11.6869
▁nanghitabo	-11.6869
▁maglangan	-11.6869
▁guyoron	-11.687
▁papahawaon	-11.687
▁kabahong	-11.687
▁abias	-11.687
▁makamatay	-11.687
▁bungot	-11.687
▁imnan	-11.687
▁120	-11.687
▁nakakuha	-11.687
▁pagkahitabo	-11.6871
▁takob	-11.6871
karap	-11.6871
▁magbakak	-11.6872
mintaha	-11.6872
tigbas	-11.6872
busgon	-11.6873
▁basaha	-11.6873
tagotago	-11.6875
▁pasinggit	-11.6875
▁makatago	-11.6875
▁gipabantay	-11.6875
▁mabugnaw	-11.6876
▁maalaot	-11.6876
▁agag	-11.6877
▁nagpatibulaag	-11.6878
▁sela	-11.6878
▁kabuhatan	-11.6878
hinam	-11.6879
▁gikampohan	-11.6881
kuyapan	-11.6881
▁makasinati	-11.6881
▁magsugo	-11.6881
anim	-11.6881
▁pagkapula	-11.6882
umbanan	-11.6884
takdo	-11.6884
▁moturok	-11.6885
▁nagmalampuson	-11.6886
▁mitago	-11.6886
▁mabahin	-11.6888
▁gipabilanggo	-11.6888
▁bangaw	-11.6888
▁nagtago	-11.6888
▁giumol	-11.6889
▁tingga	-11.6889
▁motago	-11.6892
nalangin	-11.6892
▁panguha	-11.6894
▁mipahawa	-11.6895
hulma	-11.6897
▁mayor	-11.6897
▁makabalik	-11.6899
▁gera	-11.6901
▁manago	-11.6901
▁makabayad	-11.6905
paambit	-11.6905
▁sinak	-11.6907
▁giabiabi	-11.6908
apinan	-11.691
▁pagpamu	-11.6911
▁pagpanumpa	-11.6911
▁gina	-11.6911
▁pagkalaglag	-11.6912
▁paso	-11.6913
rame	-11.6914
▁daroh	-11.6915
▁tasa	-11.6916
▁makatindog	-11.6918
▁sukd	-11.6919
▁pagkalos	-11.6919
▁apostol	-11.6921
▁maguol	-11.6921
▁bozra	-11.6922
▁caldea	-11.6922
▁efrata	-11.6922
▁laodicea	-11.6922
▁magpundok	-11.6922
▁samdan	-11.6923
▁natago	-11.6927
▁iphon	-11.6927
nginlan	-11.6928
▁nagsala	-11.693
▁mosabot	-11.693
▁nagbuhi	-11.693
daugdaog	-11.6931
▁gianak	-11.6931
pamuhat	-11.6934
▁misibog	-11.6935
pagkamatinumanon	-11.6936
▁pagbati	-11.6936
▁manggula	-11.6937
▁makaduha	-11.6938
▁pamata	-11.6939
▁malimpyo	-11.694
▁kaalaot	-11.694
▁pagsag	-11.6941
▁molihok	-11.6941
▁gipanumpaan	-11.6944
▁tumpag	-11.6945
▁pagkatulog	-11.6945
▁aha	-11.6947
▁pagbutangbutang	-11.6948
▁ikauban	-11.6949
▁pahamtangi	-11.695
▁gilikayan	-11.6951
mar	-11.6953
aias	-11.6959
aminaw	-11.6966
▁ilaha	-11.6966
▁nakah	-11.697
▁manggi	-11.6972
▁kasadya	-11.6976
▁pagdumot	-11.6983
▁more	-11.6983
▁gitugon	-11.6987
atagak	-11.6987
▁makasa	-11.6991
katap	-11.6992
▁asur	-11.6993
rang	-11.6997
pakiskis	-11.6999
▁nagpas	-11.7001
▁hanan	-11.7005
et	-11.7011
▁pagkadako	-11.7013
▁gerar	-11.702
▁dedan	-11.7021
▁sakyan	-11.7021
▁mihu	-11.7024
huptan	-11.7028
pakitabang	-11.7036
▁kalagot	-11.7036
▁tinu	-11.7038
pasig	-11.704
myon	-11.7043
▁mahikap	-11.7044
▁kada	-11.7046
panimalos	-11.7051
▁ipan	-11.7056
pahunong	-11.7067
langkat	-11.7068
cor	-11.7076
▁tagoan	-11.7082
upo	-11.7082
sangpita	-11.7088
kdan	-11.709
▁lub	-11.7106
▁creta	-11.7121
▁safan	-11.7129
▁namala	-11.7167
▁buks	-11.7168
▁pagkabutang	-11.7169
▁gipamat	-11.7171
oba	-11.7181
▁suholan	-11.7185
▁madasigon	-11.7187
▁makaga	-11.7192
hikapa	-11.7206
▁kahilom	-11.7209
▁kugos	-11.7223
paningkamot	-11.7234
baylo	-11.7245
utol	-11.7255
bistig	-11.7273
▁naghing	-11.7283
-50	-11.7291
▁nalumpag	-11.7292
▁pagtambo	-11.7296
▁tiyabaw	-11.7329
uyop	-11.7339
▁pagpahimu	-11.7356
nglimbong	-11.7363
▁bulag	-11.7368
▁bus	-11.7368
higdaan	-11.7373
▁langan	-11.7397
▁paghuro	-11.7404
▁lingi	-11.7433
▁elim	-11.7435
lakaw	-11.7453
se	-11.7454
▁pakitabang	-11.7454
▁patungha	-11.7461
▁magmatinu	-11.7464
▁ilis	-11.7466
▁patindog	-11.7476
▁yam	-11.748
arong	-11.7502
uhod	-11.7522
atumpag	-11.7542
aguol	-11.755
lili	-11.7557
▁linog	-11.7559
pilay	-11.7599
masinugtanon	-11.7604
gpahulam	-11.7619
hinlo	-11.7621
maisogon	-11.7621
bus	-11.7626
en	-11.7629
▁duyog	-11.7636
▁katawa	-11.7637
▁suso	-11.7646
silyoh	-11.7683
ugang	-11.7694
▁bubo	-11.7698
▁kaluya	-11.7704
▁pagpadayag	-11.7707
▁bina	-11.7713
pah	-11.7724
lukapa	-11.7758
▁24	-11.7761
▁pandong	-11.7765
tuli	-11.7771
▁dalana	-11.7772
▁kinas	-11.7773
▁80	-11.7827
▁suk	-11.784
pen	-11.7844
nto	-11.7844
idalit	-11.7883
▁gik	-11.7892
▁bulana	-11.7929
patindog	-11.7943
dato	-11.7944
unlod	-11.7945
▁pangan	-11.7977
▁apog	-11.7995
▁suroy	-11.7995
itutok	-11.7995
tumban	-11.8022
tambo	-11.8023
alim	-11.8047
▁uli	-11.8052
luna	-11.8052
▁90	-11.8065
ene	-11.8095
lem	-11.8105
ela	-11.8118
▁ikapa	-11.8123
ado	-11.8131
▁samaran	-11.8143
hayag	-11.8151
2,000	-11.8154
sina	-11.8177
baga	-11.8208
kabay	-11.821
ir	-11.8225
bot	-11.8227
kab	-11.8229
ngawat	-11.8259
sinati	-11.8266
tak	-11.8269
panghambog	-11.828
panapaw	-11.8288
bakyaw	-11.83
bunal	-11.8321
ahanaw	-11.8322
yatakyatakan	-11.8325
buhian	-11.8328
tiyabaw	-11.833
ulay	-11.8339
bangkite	-11.8341
▁hini	-11.8348
maalamon	-11.835
media	-11.8351
hab	-11.8357
dalugdog	-11.8361
trangka	-11.8368
higala	-11.8371
gilead	-11.8371
tumoy	-11.8372
pulong	-11.8372
kahulogan	-11.8374
gusto	-11.8375
anap	-11.8377
ugma	-11.8388
▁lais	-11.8394
paduol	-11.8411
upat	-11.8412
▁mibul	-11.8425
sidon	-11.8443
▁gitaho	-11.8459
▁mibu	-11.8462
kal	-11.8465
kabulahan	-11.847
blig	-11.848
▁salmo	-11.8491
bayran	-11.8494
ndoan	-11.8503
▁naghik	-11.8509
▁pagkabuta	-11.8523
▁kal	-11.856
lugos	-11.8568
▁gipani	-11.8574
gubot	-11.8577
▁motug	-11.8607
ru	-11.8611
nguha	-11.8614
pabunyag	-11.8616
pamalandong	-11.8634
sayran	-11.8642
sunogon	-11.8645
▁tubiga	-11.8646
ral	-11.8674
apan	-11.8687
eh	-11.8697
▁tugtog	-11.8697
sakitan	-11.871
panumpa	-11.8718
▁motu	-11.8728
▁makasuga	-11.8735
himugso	-11.8745
panunod	-11.8756
▁hum	-11.8758
▁mipa	-11.876
kurat	-11.8761
latos	-11.8766
uman	-11.8766
▁jehu	-11.8773
ngurog	-11.8775
▁misu	-11.8784
pugong	-11.8792
▁pagsul	-11.8798
▁nahimu	-11.88
katigulang	-11.8807
gasto	-11.8818
▁dug	-11.8826
amoma	-11.8831
▁giula	-11.8834
▁ur	-11.8835
▁tukbon	-11.8836
kto	-11.8836
▁gipanumpa	-11.8838
hingawa	-11.884
▁pris	-11.8843
itik	-11.8846
babaw	-11.8848
▁bihag	-11.885
▁12,000	-11.8851
kighugoyhugoy	-11.8851
kalingkawas	-11.8854
latigo	-11.8855
▁mitu	-11.8855
▁ze	-11.8856
▁mitug	-11.8859
gsapayan	-11.886
▁sipre	-11.8862
kigbisog	-11.8864
hiwahiwa	-11.8864
▁bilanggoa	-11.8865
anghimaraot	-11.8865
merodac	-11.8866
atenas	-11.8866
maaghop	-11.8866
ordinar	-11.8866
panamilit	-11.8866
simhot	-11.8866
▁alfeo	-11.8866
▁amarias	-11.8866
▁anunugba	-11.8866
▁aquila	-11.8866
▁aristarco	-11.8866
▁astarot	-11.8866
▁ayalon	-11.8866
▁balaora	-11.8866
▁bandihado	-11.8866
▁basimat	-11.8866
▁bebai	-11.8866
▁beelsebul	-11.8866
▁bigvai	-11.8866
▁binalaye	-11.8866
▁bukobuko	-11.8866
▁carmi	-11.8866
▁eleale	-11.8866
▁embahador	-11.8866
▁estaol	-11.8866
▁haserot	-11.8866
▁hashum	-11.8866
▁heneral	-11.8866
▁jeroboam	-11.8866
▁joiarib	-11.8866
▁jonadab	-11.8866
▁katagilungsod	-11.8866
▁kawanangan	-11.8866
▁kinasuokan	-11.8866
▁kriminal	-11.8866
▁kuneho	-11.8866
▁lumalabay	-11.8866
▁mabugalbugalon	-11.8866
▁magkukulon	-11.8866
▁manulti	-11.8866
▁martilyo	-11.8866
▁midasdas	-11.8866
▁migdol	-11.8866
▁mosakd	-11.8866
▁mustasa	-11.8866
▁nagkombira	-11.8866
▁ofir	-11.8866
▁oholiab	-11.8866
▁ordinasyon	-11.8866
▁pagkababaye	-11.8866
▁paglaraw	-11.8866
▁pagpamilok	-11.8866
▁pagpanulti	-11.8866
▁pahilumon	-11.8866
▁pigsanan	-11.8866
▁problema	-11.8866
▁refidim	-11.8866
▁sebna	-11.8866
▁secanias	-11.8866
▁selemias	-11.8866
▁shitim	-11.8866
▁simei	-11.8866
▁tagbalay	-11.8866
▁tinapok	-11.8866
▁tinuoray	-11.8866
▁topasyo	-11.8866
▁ulipnon	-11.8866
▁zabdi	-11.8866
sandurot	-11.8866
▁balabag	-11.8866
▁diladila	-11.8866
▁gisaaran	-11.8866
▁hinagoan	-11.8866
▁kadangpan	-11.8866
▁magsiga	-11.8866
▁masinabuton	-11.8866
▁immer	-11.8866
▁itumon	-11.8866
▁kebar	-11.8866
▁lutoson	-11.8866
▁nagduhaduha	-11.8866
▁pasungan	-11.8866
▁sukoa	-11.8866
tuhop	-11.8866
▁musikero	-11.8866
▁sibma	-11.8866
▁torta	-11.8866
▁magkukulit	-11.8866
shua	-11.8866
▁kimay	-11.8866
▁betsemes	-11.8866
▁jedaias	-11.8866
▁listra	-11.8866
▁pasultihon	-11.8866
▁wasay	-11.8866
▁gisinggitan	-11.8866
▁pahubs	-11.8866
▁etam	-11.8866
▁listahan	-11.8866
araba	-11.8866
nghimasa	-11.8866
▁kasubaan	-11.8866
▁kaanyag	-11.8866
▁gikauyonan	-11.8866
▁66	-11.8866
▁pagpukan	-11.8866
▁madali	-11.8866
▁nanambok	-11.8866
▁linuto	-11.8866
takboy	-11.8866
dulom	-11.8866
▁miguel	-11.8866
danghag	-11.8866
▁nagsayaw	-11.8866
kahinangop	-11.8866
tipak	-11.8866
cirene	-11.8866
hinanok	-11.8866
▁kinatawo	-11.8867
▁mananagat	-11.8867
▁reuel	-11.8867
eva	-11.8867
abangis	-11.8867
▁ikapakita	-11.8867
▁hasar	-11.8867
▁nanibsib	-11.8867
dalidali	-11.8867
▁mapalong	-11.8867
▁urias	-11.8867
▁sirado	-11.8867
▁inilog	-11.8867
▁gibarogan	-11.8867
emuel	-11.8868
▁giuyonan	-11.8868
▁hisabti	-11.8868
▁moabihanon	-11.8868
▁bawion	-11.8868
presen	-11.8869
▁pet	-11.8869
▁magminatay	-11.8869
▁pagtahi	-11.8869
nihon	-11.8869
▁mopakita	-11.8869
▁itoy	-11.8869
▁nanug	-11.8869
▁giribitiha	-11.8869
▁gikoronaha	-11.8869
sugil	-11.887
▁ibanl	-11.887
▁gipasika	-11.887
agpanuko	-11.887
▁hilit	-11.887
langoy	-11.887
▁jairo	-11.887
▁neri	-11.887
sihan	-11.887
▁tinak	-11.887
▁mabuntag	-11.8871
esem	-11.8871
panglakaw	-11.8871
nabok	-11.8871
▁hisayri	-11.8871
▁igsapayan	-11.8871
▁gibanl	-11.8872
▁lawod	-11.8873
asda	-11.8874
▁pangaon	-11.8874
unong	-11.8874
timbangtimbang	-11.8875
▁nangahimo	-11.8875
lulu	-11.8876
▁mabakwi	-11.8876
▁pagkamati	-11.8877
▁makahilo	-11.8877
▁ipabihag	-11.8877
raim	-11.8878
▁pagkahabol	-11.8878
▁giregla	-11.8878
▁patindoga	-11.8879
▁gitimbang	-11.8879
▁mingok	-11.8879
taw	-11.8879
▁itun	-11.888
▁manabok	-11.888
miel	-11.888
▁bela	-11.888
▁mirebelde	-11.8882
▁mokun	-11.8882
▁gipanagsultihan	-11.8883
▁nangasunog	-11.8883
▁pagpangawat	-11.8883
▁gidunggab	-11.8884
▁pagpanglupig	-11.8884
▁pagregla	-11.8884
▁magpakamatay	-11.8885
▁magdula	-11.8885
▁mapungot	-11.8885
▁nagmala	-11.8886
▁gipamaligya	-11.8886
▁angkonon	-11.8887
balibali	-11.8888
▁manglimbong	-11.8888
▁manaad	-11.8889
▁malimbongan	-11.8889
▁katulo	-11.889
tunto	-11.889
▁magpagarbo	-11.8891
▁pagmalipayon	-11.8893
▁gibisibis	-11.8894
agmadaugon	-11.8895
▁maputi	-11.8896
▁matumpag	-11.8896
▁lala	-11.8899
▁gipaulan	-11.89
▁misumbalik	-11.89
kuwentas	-11.8902
▁niebe	-11.8902
▁inigkabati	-11.8903
▁mabutyag	-11.8903
▁ihawanan	-11.8905
▁mananagna	-11.8905
▁makigdaiton	-11.8905
▁magkabayo	-11.8906
▁kalo	-11.8907
▁balhogan	-11.8907
▁panig	-11.8908
gpong	-11.8909
pakpak	-11.8909
tuyhad	-11.891
gsultihanay	-11.8911
▁gitintal	-11.8912
pupu	-11.8913
tulisok	-11.8916
ipahilayo	-11.8918
▁paminawon	-11.8919
▁pabantay	-11.8919
▁nanghila	-11.8921
▁,2	-11.8922
▁mausik	-11.8922
▁pagpanapaw	-11.8922
▁magsamok	-11.8924
ambal	-11.8926
▁pagpagarbo	-11.8931
▁gihulog	-11.8932
▁pagpakaon	-11.8934
▁cilicia	-11.8936
▁guwapa	-11.8936
▁hambugiro	-11.8936
▁sinalikway	-11.8936
▁hapini	-11.8936
▁makiangayon	-11.8936
▁gipandong	-11.8938
kil	-11.894
▁pagpanamastamas	-11.8942
sinaw	-11.8943
▁bistihan	-11.8944
▁napatikan	-11.8946
▁saligi	-11.8947
ungas	-11.8949
▁mula	-11.895
▁gibulit	-11.895
▁makasupak	-11.8953
▁mabalhin	-11.8954
▁pagpamatuod	-11.8955
▁elon	-11.8956
ili	-11.8956
▁gisabak	-11.8958
ampingan	-11.8958
▁palimbong	-11.8958
▁sapaw	-11.8959
kaluwas	-11.896
▁pagbuhi	-11.8961
▁huboa	-11.8962
▁motipas	-11.8964
▁mapalit	-11.8965
▁baliko	-11.8966
admon	-11.8966
▁magsubo	-11.8966
▁paghudyaka	-11.8966
▁ablih	-11.8967
▁nani	-11.8967
luwa	-11.8968
▁nagubot	-11.897
kasayon	-11.8971
▁kinaon	-11.8972
▁mihilom	-11.8973
-100	-11.8974
▁makadala	-11.8975
▁ahira	-11.8977
▁makaihap	-11.8978
▁nakulang	-11.8986
bayaw	-11.8987
▁manlimbong	-11.8988
▁sef	-11.8992
▁nagbaha	-11.8994
▁mausa	-11.8994
itin	-11.8998
▁tumba	-11.9
hikatulog	-11.9001
▁manun	-11.9001
▁paglu	-11.9012
▁naulaw	-11.9012
▁paglupad	-11.9014
▁nagpundok	-11.9015
elaias	-11.9018
▁pagbahin	-11.9019
bel	-11.9027
▁nalaya	-11.9034
sabotsabot	-11.9034
ham	-11.9036
▁paninguha	-11.9038
panghagdaw	-11.9038
▁kabsa	-11.904
nason	-11.9041
▁madanihon	-11.905
laom	-11.9051
▁mida	-11.9052
▁gisakit	-11.9054
▁pangawat	-11.9056
panlimbong	-11.9058
▁lugway	-11.9058
▁betsaida	-11.9058
▁ihawonon	-11.9058
▁makaani	-11.9063
pro	-11.9064
▁awita	-11.9067
▁pinut	-11.9067
▁paghir	-11.907
▁giadtoan	-11.9099
iwali	-11.9103
▁tr	-11.9105
▁pananglitan	-11.9106
anghugas	-11.9107
▁natu	-11.9115
▁anakim	-11.9117
anom	-11.9126
puasa	-11.9127
▁gipuli	-11.9128
▁nagbuk	-11.9137
sion	-11.9138
▁paglumpag	-11.9139
lubngan	-11.9144
iron	-11.9154
▁giba	-11.9156
▁subo	-11.9173
▁motambo	-11.9176
▁misulat	-11.9184
▁sugyot	-11.9185
▁galab	-11.9185
▁baslan	-11.9185
▁teman	-11.9193
▁paros	-11.9204
nda	-11.9207
▁tulis	-11.9224
▁musi	-11.9225
▁enan	-11.9237
nit	-11.9238
▁magbu	-11.9249
▁nahipos	-11.9257
▁giabot	-11.9271
▁lant	-11.9273
loan	-11.9304
▁pagkampo	-11.9305
kuhaa	-11.931
▁17	-11.9315
▁lugit	-11.9315
▁danguyngoy	-11.9317
▁osa	-11.9319
guro	-11.9325
ulang	-11.9326
32	-11.9338
ira	-11.937
saysayan	-11.938
papas	-11.9383
▁sha	-11.939
▁sakayanon	-11.9391
▁papas	-11.9398
efa	-11.9431
▁lugos	-11.9432
adunahan	-11.9437
▁nakabat	-11.9438
▁inigsulo	-11.9444
▁yatakyatakan	-11.9446
▁tu	-11.9462
tipigan	-11.9481
naglalis	-11.9496
ilya	-11.951
▁magsunod	-11.9511
▁34	-11.9513
ahubog	-11.9524
amalandong	-11.9535
▁tapok	-11.9542
▁nahimut	-11.9551
bantog	-11.9577
▁yukbo	-11.9589
le	-11.9599
tuohan	-11.96
▁lawo	-11.9622
has	-11.9633
▁katingala	-11.9651
bugnaw	-11.9655
▁sakmit	-11.9683
▁paghi	-11.9689
▁sung	-11.9699
▁balos	-11.9707
▁pagha	-11.9717
dako	-11.9727
uwad	-11.9734
▁ipatap	-11.9735
sur	-11.9738
akpan	-11.9742
▁tawgo	-11.976
sol	-11.9766
▁magtina	-11.9766
▁nasu	-11.9769
▁mamu	-11.9799
mubo	-11.9802
naad	-11.9812
▁mati	-11.9812
ata	-11.9845
anagna	-11.9849
▁dapiton	-11.9856
ufa	-11.9874
kapasubo	-11.9903
▁palingkor	-11.9904
basol	-11.9953
pasipalah	-11.9954
▁bar	-11.9955
anias	-11.9965
▁kausa	-11.998
ghugyaw	-11.999
pok	-11.9995
▁arba	-12.0003
tong	-12.0038
awag	-12.004
pakiglalis	-12.0045
glaba	-12.0054
▁magbisti	-12.0103
▁buling	-12.0114
nu	-12.012
polis	-12.0139
19	-12.0143
▁lihok	-12.0147
▁pagma	-12.0194
lah	-12.0208
was	-12.0218
▁matinu	-12.0227
daan	-12.0238
lot	-12.025
▁patunhay	-12.0271
min	-12.0297
kahupay	-12.0315
▁paris	-12.0348
anat	-12.0372
lamdag	-12.0373
mas	-12.0389
odias	-12.0389
kuha	-12.0395
hubo	-12.0405
▁gipanga	-12.0411
dugay	-12.0415
napan	-12.0433
ras	-12.046
▁buka	-12.0475
abagan	-12.0518
isuhol	-12.0522
25	-12.0535
uto	-12.0538
landong	-12.0558
gbasol	-12.0565
kut	-12.0573
▁mitunga	-12.058
▁pulonga	-12.0611
▁nangl	-12.0625
▁ih	-12.0625
▁padan	-12.0657
ena	-12.0688
▁paglaba	-12.0695
▁mahimu	-12.0706
eter	-12.0726
alaot	-12.0739
dagkot	-12.0745
danguyngoy	-12.0752
tipig	-12.0781
silo	-12.0801
igihan	-12.0805
lungkab	-12.0805
purong	-12.0814
pus	-12.0817
17	-12.0818
dios	-12.0821
lugit	-12.0824
awas	-12.0829
mapagarbohon	-12.0836
itom	-12.0836
niwang	-12.0842
400	-12.0851
dunggo	-12.0855
60	-12.086
tapol	-12.0866
kahibulongan	-12.087
tiro	-12.0875
kilat	-12.0878
▁mama	-12.0909
kugos	-12.0912
alig	-12.0917
matarong	-12.0917
▁naghul	-12.0922
isim	-12.093
▁puas	-12.0931
mer	-12.0939
hatagan	-12.0942
▁pailh	-12.0944
anda	-12.0958
▁tambo	-12.0962
kigdait	-12.0972
kauyon	-12.0974
ligan	-12.098
▁makahuma	-12.0988
ngaabli	-12.0993
▁nagkata	-12.0998
▁safir	-12.101
danihon	-12.1022
▁gisan	-12.1024
hulam	-12.1025
▁gitun	-12.1047
haz	-12.1054
▁gipatuo	-12.1061
katul	-12.1069
hik	-12.1087
▁lab	-12.1089
sakop	-12.109
taliwa	-12.1094
lingho	-12.1095
18	-12.11
▁modag	-12.1134
21	-12.1146
hibulong	-12.1153
gol	-12.1166
▁paghuno	-12.1176
reho	-12.1176
▁miku	-12.1178
ter	-12.118
▁nagbak	-12.1183
urim	-12.1215
katigom	-12.1222
▁makatag	-12.1227
▁makigsabot	-12.1233
▁bun	-12.1235
▁naghi	-12.1236
tarong	-12.1237
glingkod	-12.1239
▁lun	-12.1246
tir	-12.1246
▁magh	-12.1248
▁ipakasa	-12.1252
io	-12.1255
patikan	-12.1264
▁palingkora	-12.1266
▁kir	-12.1278
▁mitaho	-12.1281
▁tipi	-12.1291
paubos	-12.1292
▁bugalbugal	-12.1301
▁paningl	-12.1303
▁pagbak	-12.1303
eret	-12.1306
dula	-12.1307
▁pahunong	-12.1308
akpak	-12.1311
▁pil	-12.1311
▁makigd	-12.1314
tuktok	-12.1315
kapukan	-12.1315
▁giyah	-12.1317
siya	-12.1317
tiel	-12.1319
parat	-12.1321
▁paghin	-12.1325
▁pagpanu	-12.1326
▁pagpanuko	-12.1326
bisibis	-12.133
▁gisap	-12.133
umol	-12.1331
▁maputo	-12.1338
kob	-12.1341
patanto	-12.1341
▁manuo	-12.1341
▁zeb	-12.1341
▁gitago	-12.1342
dilaab	-12.1345
▁tamay	-12.1347
▁makulang	-12.1349
bakwi	-12.1351
bton	-12.1352
▁baala	-12.1356
gdait	-12.1357
▁makalu	-12.1358
▁uri	-12.1359
▁imna	-12.1359
utbo	-12.1361
ribiti	-12.1362
▁45	-12.1363
▁gihal	-12.1364
lor	-12.1364
▁maala	-12.1365
lalakin	-12.1365
upngan	-12.1365
amahulay	-12.1365
aninggit	-12.1365
nuhol	-12.1365
uwang	-12.1365
eremot	-12.1366
▁edom	-12.1366
▁hidhir	-12.1366
,100	-12.1366
aglimbag	-12.1366
bolibo	-12.1366
corinto	-12.1366
dasmag	-12.1366
hataaba	-12.1366
kabahandianon	-12.1366
lihiyo	-12.1366
lumlom	-12.1366
ngamuyo	-12.1366
olingo	-12.1366
reklamo	-12.1366
▁abinoam	-12.1366
▁acaba	-12.1366
▁adonibezec	-12.1366
▁ahikam	-12.1366
▁alabastro	-12.1366
▁amihud	-12.1366
▁amisadai	-12.1366
▁arfad	-12.1366
▁asasel	-12.1366
▁aseka	-12.1366
▁aspenas	-12.1366
▁atarot	-12.1366
▁badlisbadlis	-12.1366
▁bartolome	-12.1366
▁betjesimot	-12.1366
▁dinihogan	-12.1366
▁doktor	-12.1366
▁elepante	-12.1366
▁espanya	-12.1366
▁eutico	-12.1366
▁ezequiel	-12.1366
▁gabriel	-12.1366
▁gersom	-12.1366
▁gidangpan	-12.1366
▁gipamiyaan	-12.1366
▁gutlo	-12.1366
▁hamedata	-12.1366
▁hassub	-12.1366
▁hattus	-12.1366
▁hegai	-12.1366
▁hinulma	-12.1366
▁iconio	-12.1366
▁ighahalad	-12.1366
▁isigkalalaki	-12.1366
▁italia	-12.1366
▁jozabad	-12.1366
▁kaolibohan	-12.1366
▁kapalaran	-12.1366
▁kapangpangan	-12.1366
▁kasungian	-12.1366
▁kedes	-12.1366
▁kibrot	-12.1366
▁kuwanggol	-12.1366
▁lawalawa	-12.1366
▁macpela	-12.1366
▁magtiniil	-12.1366
▁magustohan	-12.1366
▁mahalalel	-12.1366
▁makatrabaho	-12.1366
▁mananabang	-12.1366
▁medeba	-12.1366
▁megido	-12.1366
▁mirtol	-12.1366
▁naghunghongay	-12.1366
▁naglubog	-12.1366
▁nicodemo	-12.1366
▁nimrod	-12.1366
▁ocran	-12.1366
▁pagkahalangdon	-12.1366
▁pahimusli	-12.1366
▁pampilia	-12.1366
▁peligro	-12.1366
▁platero	-12.1366
▁sedeur	-12.1366
▁sesbasar	-12.1366
▁shinar	-12.1366
▁surisadai	-12.1366
▁taligsik	-12.1366
▁tesorero	-12.1366
▁tigkonsulta	-12.1366
▁timik	-12.1366
▁tiquico	-12.1366
▁tutonlan	-12.1366
▁zacur	-12.1366
▁zatu	-12.1366
▁zohar	-12.1366
▁gibuak	-12.1366
▁klase	-12.1366
▁magduhaduha	-12.1366
▁moliso	-12.1366
▁multo	-12.1366
▁nardo	-12.1366
▁abieser	-12.1366
▁borlas	-12.1366
▁chefira	-12.1366
▁lugar	-12.1366
▁pagkaudto	-12.1366
▁irya	-12.1366
▁nahapla	-12.1366
▁pagduhaduha	-12.1366
▁tinahod	-12.1366
▁tulobagon	-12.1366
▁troso	-12.1366
▁dison	-12.1366
▁prisohan	-12.1366
▁annas	-12.1366
eper	-12.1366
▁hatac	-12.1366
▁hosea	-12.1366
▁mansanas	-12.1366
▁tapua	-12.1366
aramea	-12.1366
▁magpakabana	-12.1366
▁geser	-12.1366
▁habila	-12.1366
▁kapaingnan	-12.1366
▁nadunggan	-12.1366
▁wanang	-12.1366
▁camos	-12.1366
▁panagbingkil	-12.1366
▁sefer	-12.1366
▁75	-12.1366
▁talamayon	-12.1366
▁gibadbaran	-12.1366
▁matatias	-12.1366
▁purongpurong	-12.1366
▁sharon	-12.1366
▁deuel	-12.1366
▁mahigalaon	-12.1366
▁shur	-12.1366
▁azgad	-12.1366
pamunal	-12.1366
▁gilum	-12.1366
▁mosayaw	-12.1366
▁agata	-12.1366
▁libni	-12.1366
ieser	-12.1366
▁esk	-12.1366
▁igtiti	-12.1366
▁gidigo	-12.1366
▁pamunit	-12.1366
boz	-12.1366
gnoran	-12.1366
▁gabon	-12.1366
▁ligdong	-12.1366
▁mangangani	-12.1366
▁nebaiot	-12.1366
▁tunton	-12.1366
ulhos	-12.1366
▁peka	-12.1366
pinugngan	-12.1366
cio	-12.1366
2,2	-12.1366
▁gipaningkamotan	-12.1366
▁nanurok	-12.1366
▁tampi	-12.1366
▁mahlon	-12.1366
▁katagoan	-12.1367
▁berias	-12.1367
▁inagaw	-12.1367
▁pagkaapostol	-12.1367
▁gikasulti	-12.1367
▁tagodtagor	-12.1367
▁gemarias	-12.1367
▁pangibt	-12.1367
▁adin	-12.1367
▁ismaelita	-12.1367
▁zered	-12.1367
▁cos	-12.1367
▁himbis	-12.1367
trol	-12.1367
▁mahumo	-12.1367
▁mangabubho	-12.1367
▁palungon	-12.1367
▁lasaw	-12.1367
▁atsa	-12.1367
▁kagabii	-12.1367
▁tatenai	-12.1367
▁sulab	-12.1367
aghigalaay	-12.1367
tikasan	-12.1367
▁sardis	-12.1367
▁ater	-12.1367
▁ariel	-12.1367
▁gitindogan	-12.1367
▁modali	-12.1368
▁kinasal	-12.1368
▁gikasabotan	-12.1368
ribi	-12.1368
▁pangabaga	-12.1368
▁tinukob	-12.1368
▁pagkalubid	-12.1368
▁sidim	-12.1368
▁nagpunay	-12.1368
▁magpupugas	-12.1368
▁pagpatuli	-12.1368
▁noa	-12.1368
malahutayon	-12.1368
▁abib	-12.1368
▁kangiob	-12.1368
▁gikasal	-12.1368
▁henadad	-12.1369
▁manghulam	-12.1369
▁babayhana	-12.1369
▁bigta	-12.1369
▁kuniskunison	-12.1369
▁inihap	-12.1369
▁tintalon	-12.1369
▁pahiloma	-12.1369
▁gikatagbo	-12.1369
▁pasibsibon	-12.1369
▁hinako	-12.1369
▁kahago	-12.1369
▁isla	-12.1369
▁mogahi	-12.1369
▁gunitanan	-12.137
▁gitulisan	-12.137
▁nangawala	-12.137
omor	-12.137
▁aram	-12.137
▁enos	-12.137
▁kasilotan	-12.1371
▁dam	-12.1371
▁pamakak	-12.1371
▁beerot	-12.1371
▁inani	-12.1371
▁makaagwanta	-12.1371
▁hadlokon	-12.1371
▁libroha	-12.1371
padulngan	-12.1371
riba	-12.1371
▁tola	-12.1371
yokan	-12.1372
▁ibton	-12.1372
▁amomahon	-12.1372
▁gipirmahan	-12.1372
▁puntikpuntikon	-12.1372
▁suar	-12.1372
kamahilawason	-12.1372
▁panghila	-12.1373
▁nagmasupilon	-12.1373
filipos	-12.1374
grab	-12.1374
▁gisalibay	-12.1374
▁betpa	-12.1375
▁magdamgo	-12.1376
▁mahugno	-12.1376
▁kinaiyahan	-12.1376
▁malunod	-12.1376
tor	-12.1376
▁nangabihag	-12.1376
▁mamahawa	-12.1376
▁dangpanan	-12.1377
▁pasabt	-12.1378
gpakapropeta	-12.1378
▁kaisipan	-12.1378
▁arad	-12.1379
▁gipalatos	-12.1379
giyug	-12.1379
▁manghigda	-12.138
▁ikabayad	-12.1381
▁kahatagi	-12.1381
▁gikadenahan	-12.1381
igom	-12.1382
▁matuli	-12.1382
▁gidugo	-12.1383
▁pintas	-12.1384
▁nagmugna	-12.1384
▁ipaagi	-12.1386
▁nahali	-12.1386
▁magluto	-12.1386
▁magabii	-12.1387
▁tinanom	-12.1387
▁ram	-12.1388
▁makapanganak	-12.1388
▁kasab	-12.139
▁pagkaulipon	-12.1392
olda	-12.1392
▁gilaktan	-12.1392
▁gitanyag	-12.1392
▁mahisalin	-12.1392
kutk	-12.1393
abuton	-12.1393
▁makatingog	-12.1393
▁bayani	-12.1394
▁rabi	-12.1395
▁pagpangandam	-12.1395
▁malapason	-12.1395
▁tanlag	-12.1396
▁mabuta	-12.1397
▁layag	-12.1397
gabok	-12.1397
▁ipahi	-12.1398
▁giluto	-12.1399
▁nagsilbi	-12.1399
54	-12.1399
▁hisgotan	-12.14
▁makapasaylo	-12.1401
bor	-12.1404
gansang	-12.1404
▁pagpanton	-12.1405
▁tua	-12.1405
▁sapawi	-12.1405
▁gibordaha	-12.1406
nghupaw	-12.1406
▁pagkahanaw	-12.1407
luyahon	-12.1407
▁sinuka	-12.1407
▁hori	-12.1408
▁bihaga	-12.1409
▁inighi	-12.1409
▁magpailob	-12.1409
alihan	-12.141
▁ikahimuot	-12.141
▁pagkabahinbahin	-12.1411
▁hit	-12.1411
isinggit	-12.1412
▁nagbagu	-12.1413
▁pagluto	-12.1415
▁hitaboa	-12.1416
▁obot	-12.1417
▁maako	-12.1418
yatakan	-12.1418
▁mipasaka	-12.142
▁mangani	-12.142
▁konse	-12.1421
▁makatambong	-12.1423
rec	-12.1424
▁zi	-12.1424
▁72	-12.1425
tina	-12.1427
kabala	-12.1427
▁inigbiya	-12.143
litok	-12.143
▁madasig	-12.143
▁milantaw	-12.143
idagsa	-12.143
▁pabati	-12.1433
sudli	-12.1434
▁namatya	-12.1434
▁lungon	-12.1435
▁mica	-12.1436
▁magkurog	-12.1437
▁palita	-12.1439
▁gilingkoran	-12.1439
▁pua	-12.1439
▁par	-12.144
▁hilabt	-12.1441
▁gipakig	-12.1442
▁maputli	-12.1446
pangahas	-12.1446
ulit	-12.1446
▁katugnaw	-12.1448
▁pasunda	-12.145
▁gibi	-12.145
▁propetaha	-12.1452
▁pagpailob	-12.1456
▁pagminyo	-12.1457
▁pagyukbo	-12.1457
kiri	-12.1458
▁mipahilayo	-12.1458
▁barangan	-12.1458
▁kubkob	-12.1458
▁hapsay	-12.1458
▁tarso	-12.1458
▁hinayhinay	-12.1458
▁kabililhon	-12.1458
▁abarim	-12.1458
▁berea	-12.1458
▁derbe	-12.1458
▁nef	-12.1458
▁ngiwngiw	-12.1458
▁pangatarongan	-12.1458
▁pahinu	-12.1458
▁magpasigarbo	-12.146
▁pagmaisogon	-12.1461
hinatag	-12.1462
pauyon	-12.1464
▁pakigbatok	-12.1469
▁moikyas	-12.1471
▁magdagan	-12.1472
iza	-12.1472
▁taya	-12.1474
taral	-12.1474
▁gihulga	-12.1476
sibsiban	-12.148
▁hilaki	-12.1484
▁matabonan	-12.1485
▁padagayday	-12.1486
▁jehud	-12.1487
▁pagmahal	-12.149
▁magputli	-12.149
▁raam	-12.1493
▁supaka	-12.1495
▁palu	-12.1497
▁pagsumpay	-12.1499
▁pagtanom	-12.1501
▁nakurat	-12.1501
▁pagbanhaw	-12.1501
▁gihuy	-12.1504
▁mahana	-12.1505
abii	-12.1506
▁kasaysayan	-12.1508
▁hup	-12.1509
▁pahibaloon	-12.151
tulis	-12.1513
▁makalig	-12.1514
▁kapaitan	-12.1518
▁kabuhian	-12.1522
▁mara	-12.1527
dlaw	-12.1532
▁pagsuroy	-12.1533
▁gikawatan	-12.1539
▁mamingaw	-12.1547
▁giti	-12.1554
bunda	-12.1559
▁cana	-12.1561
libotlibot	-12.1565
▁magbulag	-12.157
▁paglukat	-12.1573
hisalin	-12.1574
▁est	-12.1575
▁banga	-12.1585
▁mibula	-12.1586
agpa	-12.1587
matyon	-12.1591
▁napakyas	-12.1594
agpataka	-12.1598
▁sulata	-12.16
▁pagkalit	-12.16
puton	-12.1613
▁gipamali	-12.1616
▁mout	-12.1618
▁rimon	-12.162
▁hangol	-12.162
▁mahinangpon	-12.162
▁patigayon	-12.162
▁mahinatagon	-12.162
▁buslot	-12.162
▁ubay	-12.1624
pabor	-12.1627
punggot	-12.1639
anod	-12.1641
▁27	-12.1642
▁liwat	-12.1643
▁mamina	-12.1653
▁para	-12.1659
▁kahubog	-12.166
abay	-12.167
▁bagulbolan	-12.1672
▁kalapa	-12.1673
nos	-12.1673
▁pakighilawas	-12.1677
▁pagbuk	-12.1681
tago	-12.1684
▁nadunot	-12.1684
▁nagbulag	-12.1684
▁nahinlo	-12.1687
pura	-12.1695
,500	-12.1695
▁matago	-12.171
▁tuno	-12.1718
pud	-12.1723
▁unaha	-12.1724
▁pagtuon	-12.1725
▁magtawag	-12.1733
▁pagkausab	-12.1735
yal	-12.1737
tuyok	-12.1738
▁paandam	-12.1746
▁patabang	-12.175
▁gisubay	-12.1755
van	-12.1759
▁miha	-12.176
luto	-12.1764
▁bantayanan	-12.1764
▁kabi	-12.1769
palampos	-12.1777
▁mangata	-12.1778
▁pagdani	-12.1788
▁hamugaway	-12.179
▁banagbanag	-12.1792
▁mabungahon	-12.1794
wal	-12.1795
▁ter	-12.1795
ahias	-12.1798
▁gihapo	-12.1817
▁gisangyawan	-12.1831
▁pagbalhin	-12.1833
masin	-12.1836
palakaw	-12.1852
alot	-12.1895
▁pagbisti	-12.1919
▁adma	-12.1935
▁sulatan	-12.1941
▁igihan	-12.1963
▁lungkab	-12.1964
ida	-12.1988
▁gilikay	-12.2016
▁kora	-12.2018
honan	-12.2019
▁le	-12.2034
▁day	-12.2049
pit	-12.2055
▁mabaw	-12.2059
▁sur	-12.2072
ezer	-12.2083
▁karo	-12.2089
nsa	-12.2093
▁kar	-12.2095
▁she	-12.2097
▁lotan	-12.2113
matinumanon	-12.2139
gpakitambag	-12.2141
▁pagtindog	-12.2143
▁magpaul	-12.2166
hira	-12.2189
▁res	-12.2206
bis	-12.2236
kid	-12.2247
luspad	-12.2252
▁pulih	-12.2253
▁ker	-12.2254
kar	-12.2294
eras	-12.2307
ihidhi	-12.2335
▁asoy	-12.2336
▁uza	-12.2339
ose	-12.2348
▁sun	-12.2355
uko	-12.2371
▁nakabsa	-12.2372
▁dak	-12.2391
▁giinom	-12.24
▁ben	-12.2409
▁mosi	-12.243
ah	-12.2439
▁kump	-12.2451
iha	-12.2506
zar	-12.2515
▁pe	-12.2525
panglimbong	-12.2525
▁kab	-12.253
lalis	-12.2582
▁giawit	-12.261
▁pakitaa	-12.2629
ota	-12.2631
▁nauga	-12.2664
pid	-12.267
minyoon	-12.2675
▁masakit	-12.2706
intal	-12.2724
▁hunahunaon	-12.2729
▁sug	-12.2759
▁maabot	-12.277
salimbong	-12.2816
▁naaman	-12.283
▁gipakataw	-12.2847
▁nagpaul	-12.2848
titi	-12.2854
tagon	-12.2872
niguro	-12.2888
▁gipasun	-12.2927
paniguro	-12.2933
alagara	-12.2961
nuel	-12.2977
palukapa	-12.2993
pauswag	-12.3033
kin	-12.3037
ubag	-12.3038
▁makasu	-12.3038
auban	-12.3039
▁magdu	-12.3046
▁kis	-12.3087
▁gidi	-12.3122
▁gibili	-12.3189
nimalos	-12.3192
amang	-12.3233
▁paduol	-12.3235
▁ipahil	-12.3268
▁nabanto	-12.3298
ua	-12.3314
bac	-12.3351
bukha	-12.3365
▁nagma	-12.3367
▁nahin	-12.3383
▁nagtin	-12.3393
▁mal	-12.3407
pin	-12.3428
65	-12.3429
wan	-12.3435
▁nagda	-12.3437
nanga	-12.3467
▁nakab	-12.3613
arabia	-12.3616
▁az	-12.3632
ikaw	-12.3634
▁hosa	-12.3664
bos	-12.3698
gbutangbutang	-12.3738
gubat	-12.3787
▁mil	-12.3788
▁haya	-12.3819
▁abiha	-12.3826
mos	-12.3881
nitan	-12.3883
20	-12.3886
▁pagku	-12.3891
▁makatamba	-12.3916
▁makabuk	-12.3918
mahawa	-12.3935
▁35	-12.3936
ndak	-12.3955
hubag	-12.3979
▁pagkabuang	-12.3988
labot	-12.3994
nggot	-12.4044
huyang	-12.4072
banagbanag	-12.4085
linaw	-12.4091
gamhanan	-12.4099
den	-12.4102
▁pilia	-12.4103
kero	-12.4123
▁isang	-12.4127
timbang	-12.4127
▁basola	-12.4133
00	-12.4134
kalos	-12.4135
lod	-12.4135
mamina	-12.4135
hamugaway	-12.4138
▁ituy	-12.4141
▁gihuwa	-12.4143
silbi	-12.4143
banay	-12.4148
90	-12.4152
teman	-12.4154
baslan	-12.4155
galab	-12.4157
sugyot	-12.4157
▁nakapahimu	-12.4162
creta	-12.4164
safan	-12.4164
panalipdan	-12.4169
madasigon	-12.4169
bil	-12.417
gdaugdaog	-12.4175
j	-12.4181
isopo	-12.4181
▁hib	-12.4182
▁nanglimb	-12.4183
▁mada	-12.4186
alampoanan	-12.419
kilid	-12.4192
korona	-12.4193
etiopia	-12.4197
betlehem	-12.4199
wat	-12.42
masukad	-12.4202
tawgon	-12.4204
siquem	-12.4205
himaya	-12.4205
napulo	-12.4206
butoy	-12.4206
makasasala	-12.4207
benjamin	-12.4208
kasadpan	-12.4209
ker	-12.4217
hapit	-12.4222
agop	-12.4235
luyo	-12.4251
kobra	-12.4251
▁gilub	-12.4252
paminaw	-12.4257
zer	-12.4261
mabungahon	-12.4268
asoy	-12.4277
ibalos	-12.4284
yatak	-12.4288
tipiganan	-12.4295
aglaba	-12.4296
iso	-12.4301
▁gipadako	-12.4337
sobra	-12.4348
▁palab	-12.436
hap	-12.4363
ablihan	-12.4369
▁duga	-12.4384
sof	-12.4389
kabang	-12.4395
nangag	-12.4401
sangka	-12.4452
▁nagmatu	-12.4455
▁gipasul	-12.4462
▁magdulo	-12.4481
▁gida	-12.4494
▁paghik	-12.4516
▁gipanghi	-12.4539
lumpagon	-12.4544
▁kapasipa	-12.4557
malipayon	-12.4557
bungahon	-12.4558
tolda	-12.4558
▁pagpama	-12.4559
espiya	-12.4562
▁mopas	-12.4564
pakaulawan	-12.4566
imba	-12.4573
haruhay	-12.4581
▁paubana	-12.4585
▁padak	-12.4586
tugnaw	-12.4588
▁gihig	-12.4591
▁baso	-12.4599
pamaligya	-12.4601
udt	-12.4606
▁mohapa	-12.4607
amiya	-12.4611
yubit	-12.4614
▁ken	-12.4617
▁car	-12.462
▁manghil	-12.4625
▁bagulbol	-12.4629
ebe	-12.4633
▁habagat	-12.4636
▁amihan	-12.4636
malampuson	-12.4637
▁kadagko	-12.4637
kaligutgotan	-12.4644
▁esp	-12.4645
dagma	-12.4645
▁ikabutang	-12.4646
sapatos	-12.4646
▁gidali	-12.4649
pahiyom	-12.465
pundo	-12.4653
▁tumo	-12.4657
ambong	-12.466
turok	-12.4662
pino	-12.4664
▁paantus	-12.4665
undok	-12.467
▁barogan	-12.467
rebelde	-12.4671
▁pagpabu	-12.4674
▁magku	-12.4676
isulay	-12.4677
▁mib	-12.4679
nuktok	-12.4682
▁nagsugi	-12.4684
▁pamihag	-12.4685
hugno	-12.4686
puypoy	-12.4687
era	-12.4687
▁miputo	-12.4687
▁ger	-12.4688
lunod	-12.4688
▁gikahi	-12.4692
▁gibak	-12.4692
▁nakatag	-12.4692
,600	-12.4692
▁magtug	-12.4692
▁ome	-12.4693
amgo	-12.4693
▁pasul	-12.4694
idayandayan	-12.4694
igmat	-12.4694
indog	-12.4694
agpas	-12.4695
▁pagbug	-12.4696
▁makasul	-12.4697
panumbaling	-12.4698
▁sum	-12.4698
dibuho	-12.4698
▁gibun	-12.4698
▁pahuk	-12.4698
▁alejandr	-12.4699
lansis	-12.4699
▁perga	-12.4699
iakim	-12.4699
▁kriso	-12.4699
arimatea	-12.4699
baalmeon	-12.4699
diskarga	-12.4699
domingo	-12.4699
galacia	-12.4699
hiwian	-12.4699
ice	-12.4699
ipirma	-12.4699
laphak	-12.4699
moreset	-12.4699
netofa	-12.4699
pamalaye	-12.4699
saagsaag	-12.4699
sekret	-12.4699
togarma	-12.4699
▁acsib	-12.4699
▁afek	-12.4699
▁akrabim	-12.4699
▁amalek	-12.4699
▁amasias	-12.4699
▁amatista	-12.4699
▁aramaico	-12.4699
▁ararat	-12.4699
▁asenat	-12.4699
▁asriel	-12.4699
▁astrologo	-12.4699
▁balsamo	-12.4699
▁betmilo	-12.4699
▁bezai	-12.4699
▁biktima	-12.4699
▁bungtora	-12.4699
▁claud	-12.4699
▁dorcas	-12.4699
▁dulomtanan	-12.4699
▁estanyo	-12.4699
▁gipatongpatong	-12.4699
▁gisugnod	-12.4699
▁goyim	-12.4699
▁hanamel	-12.4699
▁hardinero	-12.4699
▁hefer	-12.4699
▁hibangkaagan	-12.4699
▁hinginli	-12.4699
▁hobab	-12.4699
▁horitihanon	-12.4699
▁horonaim	-12.4699
▁huwes	-12.4699
▁ibzan	-12.4699
▁imbargoh	-12.4699
▁izhar	-12.4699
▁jaquin	-12.4699
▁jehiel	-12.4699
▁jocabed	-12.4699
▁joctan	-12.4699
▁joiada	-12.4699
▁jokneam	-12.4699
▁jozadac	-12.4699
▁kagahapon	-12.4699
▁kakugi	-12.4699
▁kalabera	-12.4699
▁kaldero	-12.4699
▁kapandulan	-12.4699
▁karbungko	-12.4699
▁kasampinitan	-12.4699
▁kasayoran	-12.4699
▁kasuoksuokan	-12.4699
▁kaudtohon	-12.4699
▁kirheres	-12.4699
▁komusta	-12.4699
▁krimen	-12.4699
▁lantugi	-12.4699
▁magpalabi	-12.4699
▁magsisimba	-12.4699
▁mailhi	-12.4699
▁makapandol	-12.4699
▁manalagna	-12.4699
▁manggugubat	-12.4699
▁mangingilog	-12.4699
▁melqui	-12.4699
▁memucan	-12.4699
▁meraiot	-12.4699
▁metusela	-12.4699
▁nagtinagurha	-12.4699
▁nanumbaling	-12.4699
▁nasalaag	-12.4699
▁nuybe	-12.4699
▁onesimo	-12.4699
▁paghuboghubog	-12.4699
▁pagkahinalad	-12.4699
▁pagkatinuod	-12.4699
▁paglinimbongay	-12.4699
▁patriyota	-12.4699
▁pedasur	-12.4699
▁picol	-12.4699
▁pihahirot	-12.4699
▁pleiades	-12.4699
▁propesiya	-12.4699
▁pundasyon	-12.4699
▁quilion	-12.4699
▁relihiyon	-12.4699
▁seguridad	-12.4699
▁senakerib	-12.4699
▁shimron	-12.4699
▁sikomoro	-12.4699
▁simsai	-12.4699
▁teofilo	-12.4699
▁timnatsera	-12.4699
▁tinagurha	-12.4699
▁tingbunga	-12.4699
▁tingpangulag	-12.4699
▁traydor	-12.4699
▁tulunggon	-12.4699
▁zeboim	-12.4699
▁hele	-12.4699
▁lumba	-12.4699
▁nergal	-12.4699
▁talmai	-12.4699
▁arqu	-12.4699
▁daoban	-12.4699
▁galio	-12.4699
▁geder	-12.4699
▁kahabugon	-12.4699
▁kaunoran	-12.4699
▁makasira	-12.4699
▁mokamang	-12.4699
▁palwa	-12.4699
▁sesai	-12.4699
▁sinsilyo	-12.4699
▁ahiman	-12.4699
▁baksi	-12.4699
▁ebedmelec	-12.4699
▁gesurihanon	-12.4699
▁pagkahapon	-12.4699
▁sinamon	-12.4699
gpanglingo	-12.4699
tiatira	-12.4699
▁53,400	-12.4699
▁binuhi	-12.4699
▁mapalabilabihon	-12.4699
▁sihor	-12.4699
pasiugda	-12.4699
silsil	-12.4699
▁hisakp	-12.4699
▁lida	-12.4699
▁pagkamagulang	-12.4699
▁pedaias	-12.4699
▁ribitihi	-12.4699
▁pagkaanindot	-12.4699
▁ambot	-12.4699
▁kapasid	-12.4699
▁nangutlo	-12.4699
▁netanias	-12.4699
▁helon	-12.4699
▁jesaias	-12.4699
▁kandila	-12.4699
▁maquir	-12.4699
▁pamanit	-12.4699
▁tudling	-12.4699
▁aswan	-12.4699
▁holon	-12.4699
▁panyawan	-12.4699
▁serug	-12.4699
bintaha	-12.4699
▁1,2	-12.4699
ambin	-12.4699
▁benaias	-12.4699
badbar	-12.4699
▁hidungg	-12.4699
▁kaligdong	-12.4699
▁kayugot	-12.4699
agtiayon	-12.4699
palapa	-12.4699
▁betpeor	-12.4699
▁eneas	-12.4699
▁gianihan	-12.4699
▁kitim	-12.4699
▁pagalaktan	-12.4699
▁sipor	-12.4699
▁tinumotumo	-12.4699
fia	-12.4699
▁magkombira	-12.4699
▁napiang	-12.4699
▁kapanahonan	-12.4699
▁magmina	-12.4699
▁tumim	-12.4699
▁pasea	-12.4699
▁heli	-12.4699
▁magdali	-12.4699
▁gitambalan	-12.4699
▁patros	-12.4699
▁sanipa	-12.4699
▁gihalaran	-12.4699
animaho	-12.4699
▁madugta	-12.4699
▁57	-12.4699
▁bunni	-12.4699
katagkatag	-12.4699
▁argob	-12.4699
▁asmon	-12.4699
▁hebreohanon	-12.4699
▁kukahadlok	-12.47
▁pagpakabuhi	-12.47
▁diwatahan	-12.47
▁ebed	-12.47
▁epafras	-12.47
▁tiberias	-12.47
▁kalawran	-12.47
▁korn	-12.47
▁sallu	-12.47
▁bethogla	-12.47
▁sobal	-12.47
▁epa	-12.47
3,400	-12.47
▁publi	-12.47
▁pagsayaw	-12.47
▁yaya	-12.47
▁himunga	-12.47
▁baratohon	-12.47
▁tunlon	-12.47
▁gisayloan	-12.47
▁jeru	-12.47
alejandria	-12.47
▁buz	-12.47
▁kadalo	-12.47
▁manggagaod	-12.47
▁,05	-12.47
▁gipaghira	-12.47
▁kenes	-12.47
▁pista	-12.47
▁managhigala	-12.47
▁gipanghimaraot	-12.47
▁modagko	-12.47
▁kalala	-12.47
▁paganganla	-12.47
▁etiopianhon	-12.47
▁hagab	-12.47
▁96	-12.47
▁jeremot	-12.47
▁malungtaron	-12.47
▁teres	-12.47
huslo	-12.47
▁malarag	-12.47
▁pagkamasinahon	-12.47
▁pagkamapailubon	-12.47
▁gipiy	-12.47
▁talmon	-12.47
▁hananel	-12.47
▁dagom	-12.47
▁137	-12.4701
▁pisidia	-12.4701
elasar	-12.4701
▁gipalong	-12.4701
▁hidakp	-12.4701
▁papahulayon	-12.4701
▁kenas	-12.4701
▁damha	-12.4701
▁ziha	-12.4701
▁mangabaho	-12.4701
▁joab	-12.4701
▁kamaayo	-12.4701
▁kaulahian	-12.4701
▁katin	-12.4701
▁samuel	-12.4701
▁pangayam	-12.4701
▁kabatoan	-12.4701
▁gipangulohan	-12.4701
▁het	-12.4701
▁40,500	-12.4701
▁joel	-12.4701
▁magmamando	-12.4701
▁duma	-12.4701
▁nangandak	-12.4701
▁adaias	-12.4701
▁kaparotan	-12.4701
▁magsing	-12.4701
senso	-12.4701
▁pagpanagna	-12.4702
▁kunohay	-12.4702
hininginlan	-12.4702
▁noba	-12.4702
▁bakwion	-12.4702
▁pinatay	-12.4702
taroy	-12.4702
▁ihawan	-12.4702
▁tabita	-12.4702
▁josedec	-12.4702
▁mangabusog	-12.4702
172	-12.4702
▁gituyo	-12.4702
▁naghikay	-12.4702
▁hiwahiwaon	-12.4703
pinasaylo	-12.4703
senaa	-12.4703
▁magkabahinbahin	-12.4703
▁salipdanan	-12.4703
▁magmalig	-12.4703
lipot	-12.4703
▁gipanagna	-12.4703
hulbot	-12.4704
▁disan	-12.4704
cri	-12.4704
▁magminyoay	-12.4704
baladan	-12.4705
▁matinuod	-12.4705
▁igkita	-12.4705
▁ahab	-12.4705
▁gomer	-12.4705
mart	-12.4705
▁pasulong	-12.4705
▁tumbaga	-12.4706
▁malimtan	-12.4706
▁panghitabo	-12.4706
masaligon	-12.4706
adohan	-12.4706
▁nangayam	-12.4706
▁pagpanglista	-12.4706
▁pasilonganan	-12.4707
▁nangaputi	-12.4707
▁bilga	-12.4708
▁gikandadohan	-12.4708
▁manalingsing	-12.4708
▁pumapa	-12.4708
▁gitahi	-12.4708
▁mabana	-12.4708
▁nagkabahinbahin	-12.4708
laktan	-12.4709
kasuk	-12.4709
▁pagtubos	-12.4709
▁molubad	-12.4709
▁mahabilin	-12.4711
▁nagkapu	-12.4711
▁manudlo	-12.4711
atigulang	-12.4712
▁lainlain	-12.4712
▁naason	-12.4712
▁makatukob	-12.4712
punting	-12.4712
▁matulon	-12.4712
▁makamao	-12.4713
tukob	-12.4713
▁betsan	-12.4713
▁magmapaubsanon	-12.4713
gibutangbutangan	-12.4714
noc	-12.4714
▁salatiel	-12.4714
▁nabuka	-12.4714
▁nangadaot	-12.4715
katkat	-12.4715
▁ikalubong	-12.4715
▁bayri	-12.4715
▁pagkabuhi	-12.4715
▁mituy	-12.4715
▁higustohan	-12.4716
▁nanglupad	-12.4716
abhi	-12.4716
▁gilu	-12.4717
hinuktok	-12.4717
▁lakilaki	-12.4718
ilhig	-12.4719
▁hinay	-12.4719
oadias	-12.4719
▁kabog	-12.472
▁bern	-12.472
ililong	-12.4722
▁hutda	-12.4722
▁maluyahon	-12.4722
▁giamuma	-12.4723
▁gibisti	-12.4723
▁latigoh	-12.4723
pugongpugong	-12.4723
pagkamakiangayon	-12.4724
tanyag	-12.4724
▁makighugoyhugoy	-12.4725
▁magasto	-12.4725
450	-12.4725
casia	-12.4726
▁elio	-12.4726
▁nagpahayag	-12.4727
▁tinulis	-12.4727
▁mahayag	-12.4727
▁tanto	-12.4728
siyagit	-12.4728
▁makasapi	-12.4728
▁bit	-12.4729
▁masadya	-12.4731
▁pagpakiluoy	-12.4732
▁maulahi	-12.4732
otal	-12.4733
▁usisah	-12.4734
▁patubigan	-12.4734
▁manguha	-12.4735
▁makigminyo	-12.4735
▁mananag	-12.4735
panton	-12.4736
▁paawita	-12.4736
minyoa	-12.4737
▁makapasilong	-12.4737
▁natumpag	-12.4737
kabingkil	-12.4737
priso	-12.474
▁pagtulis	-12.474
▁timon	-12.4741
▁milagroha	-12.4741
▁miutbo	-12.4741
▁sinapsapan	-12.4743
▁hanani	-12.4743
▁gipahu	-12.4743
ulayo	-12.4744
baot	-12.4744
▁panghupaw	-12.4744
▁kison	-12.4745
nunglo	-12.4745
bugwal	-12.4748
▁magbutang	-12.4749
▁magmaalamon	-12.4749
▁makalihok	-12.475
▁gilupig	-12.475
▁mabugto	-12.475
ble	-12.4751
▁gilitok	-12.4752
▁nakadaog	-12.4754
▁tambali	-12.4754
▁lat	-12.4755
▁yano	-12.4755
▁panghukom	-12.4755
oe	-12.4756
▁micm	-12.4756
▁gipurong	-12.4756
kim	-12.4756
▁gidihog	-12.4756
▁kiriats	-12.4756
▁pagkabalhin	-12.4758
▁nangali	-12.476
▁gipalap	-12.4761
▁patak	-12.4761
▁gidalit	-12.4764
▁magbati	-12.4765
▁nasalipdan	-12.4766
▁ikabaligya	-12.4767
bisyo	-12.4768
▁panimasli	-12.4768
▁makagula	-12.4768
▁matulin	-12.4769
▁gilatos	-12.4769
hukasa	-12.4771
▁baroganan	-12.4775
dakdak	-12.4778
pakigdait	-12.4779
▁tagal	-12.4779
▁mopaingon	-12.4781
▁gipikas	-12.4781
ripahan	-12.4781
▁makatigom	-12.4782
▁gipasig	-12.4784
▁tito	-12.4785
▁miagas	-12.4786
▁magmasinugtanon	-12.4786
▁bitayan	-12.4787
mao	-12.479
▁abunoh	-12.4792
pulan	-12.4794
▁pangos	-12.4796
▁mahilom	-12.4797
▁mokuniskunis	-12.4798
▁gitunobtunoban	-12.48
ipalatos	-12.48
▁pagtak	-12.48
sapnay	-12.4801
▁pagkatigulang	-12.4802
▁giplano	-12.4805
tenai	-12.4808
▁mokatawa	-12.481
▁pagmali	-12.4812
▁magtubo	-12.4813
▁mahagit	-12.4815
▁palandongon	-12.4816
▁kaharuhay	-12.4819
▁meh	-12.482
▁magsu	-12.4821
▁panuol	-12.4823
▁magdumot	-12.4823
▁,0	-12.4825
▁bamot	-12.4825
▁kahuyang	-12.4826
▁gipami	-12.4826
silbihan	-12.4826
til	-12.4826
▁pagpahawa	-12.483
▁gisumpay	-12.4832
▁nakulangan	-12.4832
▁bahandianon	-12.4832
▁magisi	-12.4835
▁mangaayo	-12.4837
▁gituy	-12.4837
panghugas	-12.4841
met	-12.4842
▁orasa	-12.4842
analangin	-12.4842
▁balia	-12.4845
▁mahiku	-12.4846
▁madani	-12.4851
▁ibu	-12.4856
magul	-12.4857
▁magbud	-12.4859
▁pagkahan	-12.4861
▁giabotan	-12.4863
▁kaparat	-12.4866
casi	-12.4867
▁gitambag	-12.4874
▁matat	-12.4874
umon	-12.4874
▁abotanan	-12.4877
▁pahari	-12.4878
▁1.3	-12.4886
▁paglingi	-12.4891
luwasa	-12.4892
▁nahimugso	-12.4899
▁makagawas	-12.4903
panglugos	-12.4904
biyahe	-12.4906
▁gipahulam	-12.4908
▁kahingawa	-12.4914
kalalis	-12.4915
▁makadasig	-12.4915
▁naggakos	-12.4916
▁naglit	-12.492
ipasalig	-12.4922
mispe	-12.4928
▁pur	-12.4928
▁atakih	-12.493
▁mopatuo	-12.4935
akuyaw	-12.4943
▁lagdaa	-12.4945
sanay	-12.4947
▁shem	-12.4951
ipasaka	-12.496
▁kahinam	-12.4962
▁paghabol	-12.4964
▁mobuk	-12.4966
▁nabaho	-12.4968
idulot	-12.497
▁hiusah	-12.4973
▁asn	-12.4977
hai	-12.4978
▁ono	-12.4979
ipangutana	-12.4991
pahisalaag	-12.4993
▁giusik	-12.4994
▁gitagna	-12.4998
▁paglit	-12.4999
▁pagguba	-12.5009
▁pagsibog	-12.5009
▁mohilom	-12.501
▁opis	-12.5011
▁paghika	-12.5011
▁5.	-12.5024
▁liti	-12.5026
panukob	-12.5032
oran	-12.5037
▁subaya	-12.5039
orno	-12.5039
▁gantangan	-12.5043
▁magtinu	-12.5044
▁giduaw	-12.5046
▁mokay	-12.5056
▁kawangon	-12.5056
sar	-12.5056
▁kabaskog	-12.5057
▁pagpasigarbo	-12.506
▁kataas	-12.5071
ret	-12.5077
▁nagtabon	-12.5078
▁ge	-12.5083
ukpok	-12.5091
▁gipabiya	-12.5101
,200	-12.5102
▁giduk	-12.5114
▁subayon	-12.5123
▁misalikway	-12.5124
▁kahugawan	-12.5134
▁magtigoman	-12.5136
ahabilin	-12.5137
kalapas	-12.5147
binu	-12.5149
▁pagdaog	-12.5153
▁mopadulong	-12.5173
katabang	-12.5176
ril	-12.5182
bat	-12.5194
ofim	-12.5198
▁pahi	-12.5208
▁maara	-12.5211
anac	-12.5227
2,7	-12.5227
1,	-12.5233
▁sinul	-12.5235
fira	-12.5236
▁pahulayan	-12.5241
kabalaan	-12.5251
-30	-12.5251
▁katam	-12.5251
kaw	-12.5255
▁ipabat	-12.5258
▁mahibaloi	-12.5261
▁kakuhaan	-12.5267
▁tugon	-12.5271
▁hamon	-12.5278
bak	-12.5287
initan	-12.529
▁makadao	-12.5291
▁ipanglab	-12.5329
▁panumpaan	-12.5355
kuptan	-12.5361
alias	-12.5376
▁mibi	-12.5377
▁pagkupo	-12.5385
ungot	-12.5392
▁gitul	-12.541
agsu	-12.5414
▁atabaya	-12.5435
▁nakali	-12.5482
▁mobasa	-12.5492
mana	-12.5521
kampohan	-12.5526
way	-12.5527
▁paapil	-12.5568
inut	-12.5582
▁kalamo	-12.5616
isangon	-12.562
omer	-12.5639
▁hang	-12.5647
lima	-12.5651
▁magki	-12.5658
▁mamala	-12.567
patungha	-12.5683
▁libota	-12.5689
waton	-12.569
▁haland	-12.5694
40	-12.5705
laran	-12.5714
ukod	-12.572
pakiluoy	-12.5722
▁gipahumo	-12.574
▁nanguyo	-12.5768
bukto	-12.5793
▁nagtak	-12.5817
palambo	-12.5829
▁nangaug	-12.5829
▁makabi	-12.5831
▁makapali	-12.5832
▁pagkagu	-12.5843
itabon	-12.5859
ukton	-12.5909
▁42	-12.5969
dunggab	-12.5995
▁magsus	-12.5999
▁milab	-12.6121
usok	-12.6145
hur	-12.6181
urok	-12.6187
kasinati	-12.6216
kapamatu	-12.6275
akpon	-12.6279
pahayag	-12.631
▁lutoan	-12.631
▁mobula	-12.6332
▁kinaha	-12.6359
▁linala	-12.6389
abaga	-12.6399
▁33	-12.6414
ahat	-12.6457
idangat	-12.6482
ch	-12.6499
▁pama	-12.6571
▁che	-12.6587
kabuang	-12.6596
lumo	-12.6618
▁pagmatinu	-12.666
▁pinugo	-12.6665
angalaya	-12.6692
apolis	-12.67
amunit	-12.6725
▁adam	-12.6733
▁ilamb	-12.6806
▁manglu	-12.6834
kadaghan	-12.6845
mul	-12.6855
atumba	-12.6862
▁masig	-12.6878
arc	-12.6907
ugas	-12.6977
ipahulay	-12.7034
umog	-12.7088
nlag	-12.71
beton	-12.7132
▁hak	-12.7146
nanghi	-12.7197
susa	-12.7229
pakaon	-12.7235
ekod	-12.7245
ubad	-12.7263
gotan	-12.7265
▁magmalu	-12.7279
▁gibulaga	-12.7297
emim	-12.732
pun	-12.7327
sil	-12.7335
tupihan	-12.7409
atid	-12.7413
sufa	-12.7421
37	-12.7425
ipainom	-12.7432
▁ikatag	-12.7434
▁gilin	-12.745
kahadlok	-12.75
wasan	-12.7501
▁galon	-12.7514
tukaw	-12.7563
▁titio	-12.7583
▁namat	-12.7588
uok	-12.7625
gangha	-12.7692
malandong	-12.7711
agtamay	-12.7793
▁nangu	-12.7816
her	-12.7836
▁pagtam	-12.7856
▁gipuk	-12.7871
pamalik	-12.7872
22	-12.7892
lingi	-12.7908
kawan	-12.7912
▁paghil	-12.7923
▁mangat	-12.8067
▁multa	-12.8112
aghago	-12.812
dahan	-12.8198
▁hana	-12.824
▁mangab	-12.8294
liwat	-12.8295
kigbaylo	-12.8306
hisalaag	-12.8306
nuka	-12.8314
▁pahulama	-12.836
paris	-12.8368
uc	-12.8395
mim	-12.8423
suroysuroy	-12.8436
sik	-12.8452
▁magkadug	-12.846
amulak	-12.8465
v	-12.8466
lahi	-12.8476
27	-12.8488
fel	-12.853
aghigugmaay	-12.8612
asin	-12.8615
▁gipun	-12.8623
▁pasud	-12.8629
▁kupt	-12.866
karga	-12.8698
dugo	-12.8702
pakig	-12.8706
▁matin	-12.8712
kiskis	-12.872
▁ipah	-12.8723
▁magpuga	-12.8755
ugdaw	-12.8755
roma	-12.8763
kapahulay	-12.8763
lampos	-12.8789
domo	-12.8814
ipamulong	-12.8822
pamatia	-12.8823
numpa	-12.8858
enan	-12.8861
singgit	-12.8861
kamatay	-12.8871
▁ipasul	-12.8891
borda	-12.8921
▁jes	-12.894
pangita	-12.8955
hub	-12.8976
bisti	-12.898
luho	-12.8992
ubay	-12.9017
kamat	-12.905
akbo	-12.9056
▁gidu	-12.9062
▁matak	-12.908
cana	-12.9091
mapaubsanon	-12.9114
▁nami	-12.9133
▁molipa	-12.9137
patigayon	-12.9143
bagulbolan	-12.9144
mahinangpon	-12.9144
buslot	-12.9144
mahinatagon	-12.9145
rimon	-12.9148
buntag	-12.9155
antuson	-12.9156
hangol	-12.9159
betsaida	-12.916
lugway	-12.916
damgo	-12.9161
laray	-12.9167
▁piya	-12.9167
paros	-12.9167
gerar	-12.917
sakyan	-12.917
dedan	-12.917
rno	-12.9172
hukman	-12.9175
jab	-12.9176
▁tuk	-12.9176
sikreto	-12.9177
jair	-12.9177
horon	-12.9177
siria	-12.9182
klaro	-12.9183
kanal	-12.9185
cipre	-12.9189
libna	-12.9189
asdod	-12.9189
panimasl	-12.9189
jael	-12.9189
doble	-12.9189
macedonia	-12.9191
nasareo	-12.9191
gatos	-12.9195
bohan	-12.9196
jopa	-12.9196
hilabti	-12.9199
inila	-12.92
mamumuno	-12.9201
pagh	-12.9201
pahimangno	-12.9201
maluibon	-12.9202
dok	-12.9203
persia	-12.9204
kabangis	-12.9206
panganay	-12.921
sagol	-12.921
diyutay	-12.9212
levita	-12.9213
kanasoran	-12.9214
ehipto	-12.9214
bulawan	-12.9215
sungkod	-12.9216
lapok	-12.9217
dinhi	-12.9218
arka	-12.9219
ktar	-12.9222
budyong	-12.9245
ilabi	-12.9251
bana	-12.9265
hinumdomi	-12.9286
bakak	-12.9292
inahan	-12.9294
▁nagpahimu	-12.9324
▁gibayra	-12.9326
▁ipali	-12.9328
tubigan	-12.9346
▁mosilo	-12.9352
▁hagk	-12.9354
sunogonon	-12.9358
▁62	-12.9362
▁timba	-12.9364
naglibo	-12.9367
isalig	-12.937
munga	-12.9377
-10	-12.9391
iram	-12.9392
ulat	-12.9395
lahan	-12.9395
galo	-12.9399
▁kun	-12.9403
bantogan	-12.9408
▁itap	-12.9408
▁natum	-12.9415
▁gipata	-12.9427
amo	-12.9435
tigoma	-12.9437
▁balo	-12.9459
naama	-12.946
iro	-12.9467
▁makighi	-12.9482
▁nagluto	-12.9483
sapot	-12.9503
▁manghu	-12.9505
▁nagtik	-12.9507
▁maming	-12.9516
agbay	-12.9517
angko	-12.9522
▁gikas	-12.9523
▁mopali	-12.9526
uho	-12.9532
▁pasund	-12.9534
▁inigpakita	-12.9539
▁ipatu	-12.9541
▁maki	-12.9544
kaguol	-12.9547
▁mosul	-12.9547
fo	-12.9549
kusga	-12.9575
mbahan	-12.9584
salipdan	-12.9585
▁gibuta	-12.9591
bangotan	-12.9598
▁pagpahiu	-12.9605
rehob	-12.9614
▁nagtug	-12.9616
▁pagtug	-12.9617
▁ulin	-12.9618
patibulaag	-12.9621
▁makigdait	-12.9622
regla	-12.9623
abubho	-12.9624
pamatu	-12.9625
lito	-12.9631
tunobtunob	-12.9635
▁gihago	-12.9635
▁kapuslan	-12.9636
▁makahil	-12.9638
kakusgan	-12.9639
▁ihul	-12.9639
▁naggaho	-12.964
ahora	-12.9641
▁gisund	-12.9641
▁matulo	-12.9643
▁mehu	-12.9646
ubid	-12.9647
iyagit	-12.9653
alap	-12.9656
loh	-12.9657
▁nagkaaw	-12.966
▁gibita	-12.966
▁nagluk	-12.966
▁pagmaisog	-12.9662
▁hubar	-12.9663
▁tigh	-12.9663
ipal	-12.9666
leto	-12.9667
irit	-12.9668
amuma	-12.967
▁gabhion	-12.9675
▁kabalak	-12.9676
▁kunhor	-12.968
mihag	-12.9682
▁kahug	-12.9682
▁uhaw	-12.9683
nalingsing	-12.9685
wisi	-12.9685
▁nabuh	-12.9687
agwanta	-12.9687
mbri	-12.9688
▁pagkatig	-12.9688
erias	-12.9688
▁nakasugi	-12.9689
ayeg	-12.9689
kasumpa	-12.9689
▁ese	-12.9689
akapa	-12.969
inabuhi	-12.9691
▁nanghuba	-12.9691
agayday	-12.9691
▁makaman	-12.9692
▁zaba	-12.9693
elet	-12.9693
▁nagkinahangla	-12.9693
iwahiwa	-12.9694
tukib	-12.9694
▁naglimb	-12.9695
panglimb	-12.9695
▁magbula	-12.9695
bigaon	-12.9695
pahimatngon	-12.9695
upilon	-12.9695
▁naglingk	-12.9696
▁makalak	-12.9696
▁mopana	-12.9696
▁sardi	-12.9696
ezi	-12.9697
niho	-12.9697
▁ikasul	-12.9697
inahanglan	-12.9697
▁namuk	-12.9698
▁pagkamain	-12.9698
ayandayan	-12.9698
salamangk	-12.9698
lipdi	-12.9698
agpinatyanay	-12.9698
▁mopahimu	-12.9699
▁makakao	-12.9699
▁pagpatin	-12.9699
▁kuwadra	-12.9699
▁barato	-12.9699
gpakamaalam	-12.9699
amanghoran	-12.9699
▁amra	-12.9699
amagulangan	-12.9699
akyaw	-12.9699
etsem	-12.9699
evi	-12.9699
▁epik	-12.9699
▁ishv	-12.9699
▁lumpong	-12.9699
▁makapamati	-12.9699
▁panggub	-12.9699
▁papaniudtoh	-12.9699
aguwardiyah	-12.9699
atarungan	-12.9699
aubsan	-12.9699
berit	-12.9699
beset	-12.9699
bingkilbingkil	-12.9699
debir	-12.9699
deblataim	-12.9699
diskubr	-12.9699
gbinakakay	-12.9699
geber	-12.9699
ibbolet	-12.9699
kabseel	-12.9699
kontraha	-12.9699
mahersalalhasbas	-12.9699
salingkapaw	-12.9699
yerno	-12.9699
zanoa	-12.9699
▁35,400	-12.9699
▁45,650	-12.9699
▁54,400	-12.9699
▁57,400	-12.9699
▁59,300	-12.9699
▁675	-12.9699
▁abaddon	-12.9699
▁adonikam	-12.9699
▁adonizedec	-12.9699
▁ahitub	-12.9699
▁alingagngag	-12.9699
▁alpombra	-12.9699
▁areopago	-12.9699
▁askenas	-12.9699
▁astarte	-12.9699
▁atalia	-12.9699
▁atarotadar	-12.9699
▁avim	-12.9699
▁azzur	-12.9699
▁bagulbagol	-12.9699
▁baraquias	-12.9699
▁betbara	-12.9699
▁betnimra	-12.9699
▁betzur	-12.9699
▁caftor	-12.9699
▁carkemis	-12.9699
▁cencrea	-12.9699
▁cleo	-12.9699
▁daberat	-12.9699
▁diyamante	-12.9699
▁dungan	-12.9699
▁dyamante	-12.9699
▁enggadi	-12.9699
▁enrogel	-12.9699
▁filadelfia	-12.9699
▁frigia	-12.9699
▁genesaret	-12.9699
▁gikalibgan	-12.9699
▁gikoral	-12.9699
▁gimugna	-12.9699
▁ginatos	-12.9699
▁gipakamithi	-12.9699
▁golgota	-12.9699
▁hadasa	-12.9699
▁hauran	-12.9699
▁helcat	-12.9699
▁herbabuyna	-12.9699
▁hezekias	-12.9699
▁hinunoa	-12.9699
▁hulmigas	-12.9699
▁igsisilyo	-12.9699
▁igsusulti	-12.9699
▁inigkaudto	-12.9699
▁jannai	-12.9699
▁janoa	-12.9699
▁jarib	-12.9699
▁jasub	-12.9699
▁jearim	-12.9699
▁jocsan	-12.9699
▁jotbata	-12.9699
▁julio	-12.9699
▁justo	-12.9699
▁kabalyero	-12.9699
▁kabulakan	-12.9699
▁kadiyot	-12.9699
▁kakaraanan	-12.9699
▁kaliriohan	-12.9699
▁kaprutasan	-12.9699
▁keso	-12.9699
▁ketura	-12.9699
▁kinaugalingon	-12.9699
▁kinuwerdasan	-12.9699
▁kisami	-12.9699
▁kisleb	-12.9699
▁kondisyon	-12.9699
▁kortih	-12.9699
▁kupongkupong	-12.9699
▁kutikuti	-12.9699
▁linupigan	-12.9699
▁linuwas	-12.9699
▁lisias	-12.9699
▁lucas	-12.9699
▁luhit	-12.9699
▁lydia	-12.9699
▁maacatihanon	-12.9699
▁madmen	-12.9699
▁magbabalak	-12.9699
▁maghuboghubog	-12.9699
▁magkaguliyang	-12.9699
▁maglaaglaag	-12.9699
▁maglalaba	-12.9699
▁magpapanit	-12.9699
▁magpasayasaya	-12.9699
▁mahitsura	-12.9699
▁makaeskuyla	-12.9699
▁makugihon	-12.9699
▁mamaligya	-12.9699
▁mangingisda	-12.9699
▁mantikilya	-12.9699
▁matigayon	-12.9699
▁mattanias	-12.9699
▁melea	-12.9699
▁metusael	-12.9699
▁milimetro	-12.9699
▁misrefotmaim	-12.9699
▁mitridates	-12.9699
▁motrabaho	-12.9699
▁muntora	-12.9699
▁nagtiniil	-12.9699
▁nahalal	-12.9699
▁nanulti	-12.9699
▁neptoa	-12.9699
▁nicolaita	-12.9699
▁nimrim	-12.9699
▁pagdinaitay	-12.9699
▁pagdinumtanay	-12.9699
▁pagkaandakan	-12.9699
▁pagkalunhaw	-12.9699
▁pagkamakauulaw	-12.9699
▁pagkatawhanon	-12.9699
▁pagpamiga	-12.9699
▁pahalar	-12.9699
▁pamunoan	-12.9699
▁panimuot	-12.9699
▁parsin	-12.9699
▁payagpayag	-12.9699
▁pelatias	-12.9699
▁pelikano	-12.9699
▁pelusium	-12.9699
▁pentecostes	-12.9699
▁permanente	-12.9699
▁rehoboam	-12.9699
▁rimonperes	-12.9699
▁saalbim	-12.9699
▁sabbetai	-12.9699
▁salome	-12.9699
▁sekel	-12.9699
▁sigurado	-12.9699
▁sinamboga	-12.9699
▁sinumbong	-12.9699
▁smirna	-12.9699
▁tadeo	-12.9699
▁tekoa	-12.9699
▁testamento	-12.9699
▁tigpataliwala	-12.9699
▁tigris	-12.9699
▁tiyanggihan	-12.9699
▁tualya	-12.9699
▁zaca	-12.9699
▁zebadias	-12.9699
▁zilla	-12.9699
palabilabih	-12.9699
▁gidagit	-12.9699
▁ikasuko	-12.9699
▁jehohanan	-12.9699
▁keriot	-12.9699
▁mamatigayon	-12.9699
▁napangos	-12.9699
▁piyangpiyang	-12.9699
▁sukihan	-12.9699
eglaim	-12.9699
embalsama	-12.9699
lukmay	-12.9699
tifa	-12.9699
▁arameanhon	-12.9699
▁areli	-12.9699
▁kahapunon	-12.9699
▁licaonia	-12.9699
▁luyogluyo	-12.9699
▁obadias	-12.9699
▁pagdinal	-12.9699
▁pagsandalyas	-12.9699
▁pallu	-12.9699
▁panghasi	-12.9699
▁sarefat	-12.9699
,630	-12.9699
deias	-12.9699
▁64,	-12.9699
▁74,600	-12.9699
▁eder	-12.9699
▁giunlan	-12.9699
▁ibori	-12.9699
▁jonam	-12.9699
▁pagpaanindot	-12.9699
▁pagsinin	-12.9699
▁saleca	-12.9699
▁tekel	-12.9699
▁telem	-12.9699
▁kabugason	-12.9699
▁metal	-12.9699
▁nagkanayon	-12.9699
▁trif	-12.9699
▁erasto	-12.9699
▁hikaya	-12.9699
▁kaningag	-12.9699
▁serapin	-12.9699
▁tagawtaw	-12.9699
azz	-12.9699
gbinuotan	-12.9699
▁bakho	-12.9699
▁hacalias	-12.9699
▁merom	-12.9699
▁walhon	-12.9699
elmad	-12.9699
▁61	-12.9699
▁lapay	-12.9699
▁paligsan	-12.9699
▁pagkatapolan	-12.9699
▁gilapawa	-12.9699
ikis	-12.9699
ulhog	-12.9699
▁cefa	-12.9699
▁eglat	-12.9699
▁kinaibabwan	-12.9699
▁lemuel	-12.9699
▁nangatawa	-12.9699
▁pagkamadaugon	-12.9699
▁patulon	-12.9699
▁panapion	-12.9699
▁bakbukias	-12.9699
▁gipurongpurong	-12.9699
▁hasabnias	-12.9699
▁kutis	-12.9699
▁magkasinabtanay	-12.9699
▁nagmug	-12.9699
▁gihidhira	-12.9699
▁sopa	-12.9699
▁sareser	-12.9699
apandol	-12.9699
▁helb	-12.9699
▁nagtuaw	-12.9699
▁tinapa	-12.9699
▁hetihanon	-12.9699
▁oseas	-12.9699
▁tinapakan	-12.9699
▁jeptael	-12.9699
▁pagpamarang	-12.9699
▁sandiganan	-12.9699
▁77	-12.9699
▁abdon	-12.9699
▁balibar	-12.9699
▁hermes	-12.9699
▁pagdinaotay	-12.9699
▁pagtinabangay	-12.9699
▁edomihanon	-12.9699
▁tertulo	-12.9699
▁demas	-12.9699
▁tigpamaba	-12.9699
▁magpunay	-12.9699
▁46,500	-12.97
▁balikason	-12.97
▁isigkabinihag	-12.97
▁isigkasulugoon	-12.97
▁pagkabuotan	-12.97
▁semei	-12.97
ngilohan	-12.97
▁nagpama	-12.97
▁mahinulsolon	-12.97
▁pergamo	-12.97
▁samir	-12.97
▁kolaias	-12.97
sublisubli	-12.97
▁enaim	-12.97
▁gipasikaran	-12.97
▁anapog	-12.97
▁patri	-12.97
▁kuwadrado	-12.97
▁nagkagidlay	-12.97
▁prisohon	-12.97
▁troas	-12.97
ukbon	-12.97
▁yamyam	-12.97
▁gigasa	-12.97
▁shetar	-12.97
▁malansison	-12.97
barbas	-12.97
yasyas	-12.97
▁ces	-12.97
▁pabutangi	-12.97
▁paginhawaon	-12.97
hogla	-12.97
▁katre	-12.97
▁133	-12.97
▁pagpinatyanay	-12.97
▁papha	-12.97
▁caln	-12.97
▁bezer	-12.97
▁sele	-12.97
▁tabeel	-12.97
▁joram	-12.97
▁sagpaon	-12.97
▁magkalin	-12.97
▁mapupo	-12.97
▁roda	-12.97
sandig	-12.97
▁magpapatigayon	-12.97
▁nagpakamatarong	-12.97
▁paligir	-12.97
▁mosera	-12.97
▁pagahinloan	-12.97
▁misia	-12.97
▁nadigo	-12.97
▁tigdamgo	-12.97
▁kedemot	-12.97
▁mangadagma	-12.97
▁suwang	-12.97
gutmon	-12.97
▁jebus	-12.97
▁mipatay	-12.97
▁maghahabol	-12.97
▁gitutokan	-12.97
▁inigkabuntag	-12.97
▁fil	-12.9701
▁elise	-12.9701
▁mabug	-12.9701
▁soba	-12.9701
▁gidapigan	-12.9701
▁naghigugmaay	-12.9701
▁masilotan	-12.9701
▁nagpakamaalamon	-12.9701
▁bildo	-12.9701
▁almon	-12.9701
▁pagpanikas	-12.9701
▁suliran	-12.9701
▁adna	-12.9701
▁arida	-12.9701
▁pagpataka	-12.9701
▁panaggubat	-12.9701
▁tigdibuho	-12.9701
▁lehi	-12.9701
kitkit	-12.9701
▁betle	-12.9701
tundag	-12.9701
aseias	-12.9701
▁buho	-12.9701
▁papahulaya	-12.9701
▁paulani	-12.9701
hagwa	-12.9701
zias	-12.9701
▁juta	-12.9701
▁suham	-12.9701
kaparot	-12.9701
▁ipadu	-12.9702
▁kabutangi	-12.9702
▁elif	-12.9702
ataim	-12.9702
▁gipilo	-12.9702
▁tigpatanto	-12.9702
▁gebal	-12.9702
teke	-12.9702
▁maggaling	-12.9702
▁magpadako	-12.9702
▁migdal	-12.9702
far	-12.9702
▁nagduko	-12.9702
▁arni	-12.9702
▁ginneton	-12.9702
▁hamul	-12.9702
▁tampiha	-12.9702
anakmit	-12.9702
▁pagkamakal	-12.9702
▁adram	-12.9702
▁gikabilin	-12.9702
▁pahisalaagon	-12.9703
▁pagpakabuang	-12.9703
▁pantonon	-12.9703
▁kalaay	-12.9703
▁kinapon	-12.9703
▁pagkagarboso	-12.9703
eme	-12.9703
▁ulai	-12.9703
▁kumpay	-12.9703
▁binulan	-12.9703
▁inanay	-12.9703
mutang	-12.9703
273	-12.9703
isihanon	-12.9703
▁makapakurat	-12.9703
▁hadrac	-12.9703
ibgan	-12.9704
▁endor	-12.9704
▁hiwahiwaa	-12.9704
▁pagminyoay	-12.9704
heb	-12.9704
▁130	-12.9704
▁hares	-12.9704
▁panagsayaw	-12.9704
▁mahli	-12.9704
▁inse	-12.9704
▁matagbuan	-12.9704
▁laway	-12.9704
▁mesal	-12.9705
▁pagpakigbisog	-12.9705
▁mese	-12.9705
▁basolon	-12.9705
umim	-12.9705
▁mangayam	-12.9705
otabor	-12.9705
▁labaha	-12.9705
maaca	-12.9705
▁halara	-12.9705
hasor	-12.9705
▁pasibsiba	-12.9705
▁mangaguba	-12.9706
▁namukot	-12.9706
isita	-12.9706
hayahay	-12.9706
▁ibisti	-12.9706
▁inisa	-12.9706
▁paggaling	-12.9706
▁zimri	-12.9706
▁inigkatilaw	-12.9706
palingkawas	-12.9707
▁este	-12.9707
▁naghikog	-12.9707
▁magbakho	-12.9707
▁nangluspad	-12.9707
▁mopati	-12.9707
daklit	-12.9707
▁zabad	-12.9707
▁makalaba	-12.9707
▁601	-12.9707
▁magmalaomon	-12.9708
▁sota	-12.9708
▁pagpanuli	-12.9708
▁besa	-12.9708
▁pagpamunyag	-12.9708
▁kabatid	-12.9708
▁magmapailubon	-12.9708
agpangidlap	-12.9709
▁siloam	-12.9709
▁taakan	-12.9709
tibo	-12.9709
▁pagpalista	-12.9709
▁rek	-12.9709
▁kawata	-12.9709
pelet	-12.9709
▁mangatawo	-12.9709
▁gikabsa	-12.971
kabangian	-12.971
▁sipres	-12.971
▁mangagisi	-12.971
▁gipanglumpag	-12.9711
▁kahimoan	-12.9711
▁timbri	-12.9711
▁kasoha	-12.9711
▁nangabanhaw	-12.9711
▁mitidlom	-12.9711
halol	-12.9711
▁nakatin	-12.9711
▁alamo	-12.9712
▁sarid	-12.9712
▁paagason	-12.9713
jaakan	-12.9713
▁hagi	-12.9713
▁magpatudlo	-12.9713
▁makapaso	-12.9714
▁makapanamkon	-12.9714
▁gastohon	-12.9715
▁aner	-12.9715
▁gialimahan	-12.9715
▁palungtaron	-12.9715
▁pasibugon	-12.9715
▁pagpanghatag	-12.9715
esar	-12.9716
ihaplas	-12.9716
parti	-12.9717
▁hac	-12.9717
gdadaro	-12.9717
1	-13.5607
x	-13.9699
q	-15.2428
