, 58525
▁sa 52024
. 43892
▁the 41562
▁ 32869
<2ceb> 32553
<2eng> 32553
▁ang 28083
▁and 26135
▁ug 23150
▁of 20384
▁nga 19754
ng 18837
mga 16813
▁to 15467
▁you 10570
- 9849
; 9439
▁in 7991
g 7374
▁ako 7223
▁a 7136
▁will 7117
▁he 6680
▁i 6577
▁for 6524
▁ka 6254
▁na 6012
▁is 5858
▁your 5112
▁lord 5022
▁sila 4983
▁his 4982
▁they 4947
▁that 4830
▁si 4721
▁not 4681
▁who 4634
iyang 4631
▁ginoo 4586
▁siya 4507
▁it 4444
▁be 4381
▁with 4337
▁them 4135
▁ko 4079
▁him 3995
an 3950
? 3925
▁wala 3913
▁ni 3819
▁from 3728
▁dios 3695
▁dili 3653
▁kamo 3608
▁have 3531
▁niya 3523
▁on 3523
▁my 3451
▁niini 3431
▁all 3365
▁man 3309
s 3292
▁kini 3284
▁pag 3144
! 3056
▁tanan 3002
▁but 2979
▁me 2961
▁are 2959
y 2954
▁so 2952
▁their 2897
▁was 2891
▁shall 2871
▁tawo 2863
▁as 2816
▁kay 2794
▁apan 2766
ilang 2688
▁may 2674
▁god 2635
▁said 2618
▁imo 2573
▁then 2556
▁nag 2530
▁mo 2514
▁israel 2510
▁unya 2501
▁usa 2372
▁this 2342
▁one 2324
▁aron 2314
▁inyo 2237
on 2166
▁gi 2151
▁mao 2144
ed 2100
▁nila 2088
▁has 2076
ing 2069
▁jesus 2063
▁kon 2050
▁which 1998
▁o 1976
▁katawhan 1927
▁ngadto 1910
▁kaniya 1890
▁when 1874
▁miingon 1864
▁kanako 1863
▁were 1856
▁didto 1830
▁do 1813
▁busa 1810
▁anak 1798
▁by 1788
▁out 1774
▁mi 1763
▁gikan 1750
▁kang 1739
▁pa 1704
▁kanila 1662
▁am 1631
▁sons 1630
a 1622
▁had 1581
▁people 1571
▁sama 1541
▁gayod 1538
▁ninyo 1523
▁diha 1477
▁there 1473
▁up 1456
▁what 1444
▁usab 1431
▁at 1427
▁now 1417
▁land 1392
▁again 1383
▁tungod 1356
▁kaninyo 1353
▁mag 1330
▁hari 1298
▁kanimo 1273
st 1262
alang 1245
▁, 1227
▁her 1214
▁son 1212
: 1208
▁or 1208
▁yuta 1173
▁adlaw 1161
▁like 1152
▁if 1139
▁we 1135
▁no 1129
▁uban 1115
▁also 1096
▁its 1093
▁came 1086
d 1084
▁those 1060
▁because 1059
▁day 1058
▁come 1038
i 1028
▁jerusalem 1010
▁ayaw 1007
▁maoy 997
▁ba 986
ong 985
▁saying 979
▁king 962
▁an 961
▁ingon 960
▁go 943
▁into 918
▁kami 911
▁pinaagi 908
▁these 892
▁bis 889
▁us 883
▁before 882
▁kining 882
▁ma 880
▁house 865
▁did 846
▁our 844
▁over 838
▁hand 803
▁hangtod 790
▁siyudad 784
▁behold 773
▁say 767
▁daotan 756
▁moises 749
▁down 745
▁g 745
▁put 744
▁father 739
▁she 734
▁maayo 728
▁lamang 715
▁maka 713
▁been 709
ingon 705
▁earth 705
▁make 700
▁moses 700
▁karon 690
▁take 685
▁ikaw 680
▁kinahanglan 680
▁let 678
▁babaye 666
▁. 661
▁dapit 661
▁about 658
▁amahan 654
▁men 654
▁things 651
▁halad 650
▁went 650
▁w 649
▁know 648
▁made 644
▁away 641
▁offering 640
▁jacob 632
▁mahimo 629
buok 617
▁pari 615
▁unsa 614
▁place 613
▁give 610
▁days 607
▁ti 602
t 583
▁sala 578
▁bring 575
▁gihatag 574
▁labi 571
▁name 561
▁aaron 560
▁bahin 557
▁person 555
▁nor 554
▁whom 552
▁city 548
▁panahon 542
ould 538
n 533
▁great 532
▁m 532
▁nasod 532
▁banay 529
▁every 528
▁ehipto 526
l 525
▁nakita 525
▁after 524
▁therefore 524
▁see 520
▁niadto 519
▁says 514
▁mitubag 513
ayo 510
▁gibuhat 508
▁kalibotan 508
▁holy 503
▁two 501
▁atubangan 498
▁duha 493
▁kita 489
▁sulod 486
▁balaod 485
atong 481
ly 481
▁way 480
▁word 479
▁brought 476
▁unta 474
▁giingnan 473
▁kinsa 473
▁sumala 471
▁egypt 466
▁heart 466
▁time 465
▁good 464
▁pangulo 464
▁kaugalingon 460
▁lalaki 457
▁kaliwat 452
among 451
▁balay 450
▁kaayo 449
▁templo 448
▁does 445
▁gamhanan 440
▁karnero 439
▁balaan 435
▁fire 434
▁where 434
▁kinabuhi 433
▁through 433
▁took 429
adto 428
▁become 423
▁even 423
▁kaaway 423
▁juda 420
▁butang 418
▁any 415
p 414
▁abraham 413
▁heard 409
▁israelita 409
▁ngalan 407
▁judah 406
▁many 406
▁how 403
▁nations 402
▁unti 398
▁kadto 397
▁langit 397
▁own 397
▁saw 395
▁siyag 392
dad 388
▁eat 388
mtang 387
▁naka 387
▁spirit 387
ave 386
▁mananap 386
▁sent 385
▁judio 384
▁tuig 383
▁words 382
▁fathers 381
▁pagkaon 380
▁live 376
▁according 375
▁igsoon 374
▁life 374
▁water 374
▁mahi 369
▁priest 368
▁set 367
▁than 367
▁gihimo 365
▁upon 363
▁yet 362
▁gipa 361
▁heaven 361
sayod 360
▁matarong 358
▁more 358
▁just 357
▁himself 356
▁ngano 356
▁matag 355
▁anaa 347
▁buhaton 342
▁tubig 342
batok 341
▁each 339
▁law 339
▁gahom 338
▁eyes 337
▁lai 337
▁other 335
▁ra 333
▁called 332
▁evil 331
▁done 330
▁sugo 330
▁sin 326
▁dinhi 325
▁hands 324
▁taga 320
▁dako 319
▁hinuon 319
▁going 318
▁inig 318
▁while 318
▁tinun 317
▁another 316
▁brothers 316
▁spoke 316
▁human 315
▁sea 313
▁death 312
▁kings 312
ever 311
▁blood 310
▁given 310
▁left 310
▁una 310
▁nagpuyo 309
▁diin 308
▁tolda 308
▁speak 307
▁some 306
abot 305
▁halaran 304
▁gidala 303
▁od 302
▁jordan 300
▁laki 300
▁buot 299
▁years 299
▁keep 295
▁voice 295
▁sulugoon 294
ag 292
▁christ 292
▁espiritu 291
▁gold 290
▁seven 289
▁bato 288
▁gawas 288
▁gisulti 288
▁only 288
▁why 286
▁baka 285
▁angay 284
ampo 283
▁first 283
▁gisugo 281
▁burn 280
▁can 278
▁cities 278
▁himoon 278
▁dagha 277
▁declares 277
▁right 277
▁anghel 276
▁hear 276
▁propeta 276
tungod 274
▁around 274
▁back 273
▁bukid 273
▁bulawan 273
▁kamot 272
▁bisag 271
▁drink 271
▁mouth 270
▁namo 270
▁pagka 270
la 269
▁kahoy 269
▁pulong 269
▁diosdios 268
▁giingon 268
▁kanamo 268
▁nahimo 267
▁priests 265
▁sword 265
▁mamatay 264
▁woman 264
se 263
▁ganghaan 263
▁commanded 262
▁ihatag 262
▁listen 262
alagad 260
▁asawa 260
▁together 260
▁altar 259
e 258
▁under 258
▁babilonia 256
usab 255
▁jose 255
▁armies 254
▁adlawa 253
▁righteous 253
▁pan 252
▁work 252
▁kanasoran 251
▁kanunay 251
▁side 251
▁turn 251
▁bisti 250
▁found 250
▁kalayo 249
▁kanato 249
▁righteousness 247
▁daw 246
▁wife 245
▁daghan 244
▁face 243
▁well 243
▁without 243
tuman 242
▁children 240
▁high 240
▁kasabotan 240
▁mas 240
▁patay 240
▁head 239
▁wicked 239
▁coming 238
▁buhat 237
▁night 237
▁ginganla 236
anan 235
ward 235
▁fear 235
▁kadagkoan 235
▁far 234
▁pito 234
▁katigulangan 233
▁tell 233
gan 231
▁buhi 231
▁dugo 231
▁three 231
▁glory 230
▁peace 230
▁turned 230
aw 228
▁tulo 226
▁dagat 225
o 224
▁iya 224
▁lang 224
▁since 224
▁bata 223
▁bread 223
▁lawas 223
▁sight 223
▁niana 222
▁joseph 221
▁tent 221
▁; 220
▁forever 220
▁gani 220
▁covenant 219
▁field 219
▁year 219
sultihan 218
▁old 218
▁yourself 218
▁disciples 217
▁kaniadto 217
▁love 217
▁suba 217
▁inheritance 216
▁long 216
▁david 215
▁flesh 215
▁miabot 215
▁brother 214
▁ania 213
▁bulan 213
▁blessed 212
▁isaac 212
▁kingdom 212
▁moab 212
▁mong 212
▁soul 212
▁ulipon 212
▁cristo 210
▁dead 210
▁gihapon 210
▁kasuko 210
▁servant 210
▁wilderness 210
▁lungsod 209
▁inahan 208
▁nagsulti 208
▁anger 207
▁benjamin 207
▁both 207
▁very 207
▁joshua 206
▁kondili 205
▁daughters 204
▁moingon 204
▁grain 203
▁josue 203
▁midst 203
▁naghimo 203
▁daughter 202
▁gabii 202
▁jews 202
▁patyon 202
▁silver 202
▁spoken 202
▁themselves 202
▁end 201
▁temple 201
▁gusto 200
▁return 200
▁silotan 200
▁gingharian 199
▁gugma 199
▁wine 198
▁kamingawan 197
▁here 196
▁kasingkasing 196
▁nangutana 196
▁kamatayon 195
▁mahitabo 195
▁makita 195
came 194
iya 194
▁servants 194
▁stand 194
▁t 194
▁being 193
▁comes 193
▁ground 193
▁mother 193
▁pablo 193
▁bino 192
▁die 192
▁gate 192
▁rest 192
▁send 192
▁serve 192
▁ulo 192
▁babylon 191
▁look 191
▁gods 189
▁offer 189
▁sundalo 189
▁sunogon 189
▁unclean 189
▁light 188
▁nagbuhat 188
▁off 187
▁pipi 187
ob 186
▁enemies 186
▁walk 186
▁seen 185
▁kasundalohan 184
▁peoples 184
▁bag 183
▁everything 183
▁feet 183
▁kataposan 182
▁longer 182
▁same 182
▁duol 181
▁nothing 181
▁tawhana 181
▁answered 180
▁dalan 180
▁food 180
▁ika 180
▁pagtuo 180
▁sukad 180
▁full 179
▁power 179
▁esau 178
▁gikuha 177
▁show 177
▁yourselves 177
▁everyone 176
▁oil 176
▁pedro 176
▁save 176
▁kahadlok 175
▁enter 174
▁waters 174
▁certainly 173
▁anyone 172
▁juan 172
▁kana 172
▁y 172
▁espada 171
▁pharaoh 171
er 170
▁pultahan 170
▁taken 170
▁known 169
▁magpabilin 168
▁male 168
▁moabot 168
▁paghimo 168
▁tan 168
▁might 167
▁praise 167
▁s 167
▁angel 166
▁still 166
▁young 166
▁gayo 165
▁kalipay 165
▁offerings 165
▁world 165
antos 164
▁cut 164
▁faith 164
▁makakita 164
▁tribe 164
▁canaan 163
▁cannot 163
▁four 163
▁gisaad 163
▁mensahe 163
▁ones 163
▁plata 163
in 162
▁month 162
▁near 162
▁indeed 161
▁opisyal 161
▁living 160
▁nato 160
▁though 160
▁hugaw 159
▁kahangtoran 159
▁mountain 159
▁call 158
▁cubits 158
▁diay 158
▁fruit 158
▁intawon 158
▁isulti 158
▁nimo 158
▁sultih 157
▁thousand 157
uban 156
▁ipa 156
▁pang 156
▁between 155
▁ihalad 155
od 154
▁kabos 154
▁paul 154
▁could 153
▁fall 153
▁h 153
▁labaw 153
▁women 153
▁written 153
▁ila 152
▁joy 152
▁strength 152
m 151
▁kanding 151
▁morning 151
▁kusog 150
▁must 150
▁gubat 149
▁kan 149
▁l 149
▁kaalam 148
▁kabungtoran 148
▁slave 148
▁thing 148
▁tingog 148
▁tree 148
unsay 147
▁aduna 147
▁body 147
▁dayon 147
▁died 147
▁inhabitants 147
▁lana 147
▁langyaw 147
▁magpuyo 147
▁nahitabo 147
▁panimalay 147
▁sakop 147
awon 146
▁masayod 146
▁mata 146
▁kahayopan 145
▁lived 145
▁pagbuhat 145
▁presence 145
▁war 145
away 144
ngadto 144
▁kahayag 144
▁maalamon 144
▁peter 144
▁prophet 144
▁stone 144
tas 143
▁atu 143
▁daniel 143
▁himaya 143
▁nating 143
▁too 143
▁deeds 142
▁east 142
▁n 142
▁pamati 142
▁prophets 142
▁times 142
▁told 142
▁kauban 141
▁levita 141
▁magtutudlo 141
▁tumanon 141
ot 140
▁leave 140
▁wisdom 140
biya 139
▁along 139
▁birth 139
▁destroy 139
▁hatagan 139
▁husto 139
▁pay 139
▁taliwala 139
▁wrath 139
dawat 138
▁speaking 138
▁find 137
▁gilead 137
▁little 137
▁paingon 137
▁simon 137
▁wise 137
kuyog 136
▁command 136
▁descendants 136
▁order 136
▁sound 136
▁within 136
▁camp 135
▁possession 135
▁get 134
▁judge 134
▁standing 134
▁kill 133
▁remember 133
▁sheep 133
▁upat 133
▁country 132
▁ephraim 132
▁naghatag 132
▁should 132
as 131
sunod 131
▁concern 131
▁hundred 131
▁levites 131
▁mankind 131
▁mountains 131
▁poor 131
▁agalon 130
▁families 130
▁metros 130
▁mighty 130
▁new 130
▁paghalad 130
▁please 130
▁pour 130
▁sun 130
▁border 129
▁chief 129
▁job 129
▁mangamatay 129
▁myself 129
▁twenty 129
▁darkness 128
▁heavens 128
▁five 127
▁john 127
▁pass 127
▁stood 127
▁elders 126
▁fell 126
▁gone 126
▁kabukiran 126
▁nation 126
▁north 126
▁sudlanan 126
▁truth 126
▁ways 126
ad 125
hatag 125
▁batan 125
▁mamati 125
▁strong 125
▁today 125
▁e 124
▁mang 124
▁namatay 124
▁paagi 124
al 123
▁afraid 123
▁help 123
▁named 123
▁present 123
▁salapi 123
▁second 123
awa 122
▁bahandi 122
▁entered 122
▁fine 122
▁front 122
▁justice 122
▁makig 122
▁number 122
▁sacrifice 122
▁utlanan 122
ga 121
og 121
▁bana 121
▁hav 121
▁jeremiah 121
▁kasaulogan 121
▁meeting 121
▁seek 121
▁ten 121
▁tinuod 121
▁zion 121
▁amihanan 120
▁balita 120
▁favor 120
▁kasulatan 120
▁ehiptohanon 119
▁moadto 119
▁wrongdoing 119
▁balaam 118
▁guilt 118
▁higala 118
▁hunahuna 118
▁kept 118
▁langgam 118
▁salvation 118
▁tagboanan 118
▁truly 118
▁congregation 117
▁layo 117
▁much 117
▁sion 117
▁whole 117
but 116
sulod 116
▁animals 116
▁lumolupyo 116
▁tiil 116
▁adto 115
▁answer 115
▁anything 115
▁binuhat 115
▁gathered 115
▁lawak 115
▁makahimo 115
▁open 115
▁rejoice 115
▁struck 115
▁third 115
▁walog 115
buntog 114
▁above 114
▁believe 114
▁lot 114
▁miduol 114
▁motuo 114
▁nagdala 114
▁sins 114
▁wall 114
▁works 114
k 113
▁asno 113
▁igpapahulay 113
▁nanga 113
▁never 113
▁valley 113
▁wind 113
▁able 112
▁however 112
▁lay 112
es 111
▁cry 111
▁firstborn 111
▁flock 111
▁levi 111
▁mibiya 111
▁money 111
▁paril 111
▁raised 111
▁statutes 111
▁tabernacle 111
tipon 110
▁bunga 110
▁gather 110
▁gibutang 110
▁hingpit 110
▁judgment 110
▁laban 110
▁looked 110
▁regard 110
▁abram 109
▁alone 109
▁got 109
▁ibabaw 109
▁killed 109
▁sanctuary 109
▁stay 109
▁twelve 109
▁uma 109
▁wood 109
atubang 108
▁hill 108
▁nadungog 108
▁appointed 107
▁evening 107
▁filled 107
▁hangin 107
▁leaders 107
▁places 107
▁ta 107
os 106
wad 106
▁abot 106
▁laglagon 106
▁nakakita 106
▁pagpatay 106
▁panganod 106
ila 105
una 105
▁gad 105
▁hold 105
▁katalagman 105
▁panahona 105
▁sabbath 105
▁sing 105
awit 104
duol 104
▁cast 104
▁dan 104
▁hinumdomi 104
▁makaila 104
▁mount 104
▁spread 104
ance 103
itugyan 103
u 103
▁destroyed 103
▁gipatay 103
▁hapit 103
▁ingna 103
▁kasadpan 103
▁large 103
▁master 103
▁mind 103
▁ord 103
▁pundok 103
▁stones 103
▁ubos 103
▁understanding 103
at 102
▁army 102
▁commandments 102
▁cover 102
▁efraim 102
▁half 102
▁kampo 102
▁reason 102
▁born 101
▁gideon 101
▁gihalad 101
▁heads 101
▁household 101
▁lig 101
▁nahibilin 101
▁receive 101
▁rock 101
▁toro 101
▁trono 101
▁yawa 101
anon 100
buhat 100
▁broken 100
▁doing 100
▁gasa 100
▁ihalas 100
▁kabtangan 100
▁knowledge 100
▁laid 100
▁mercy 100
▁panan 100
▁asa 99
▁bless 99
▁burned 99
▁clean 99
▁hawanan 99
▁lands 99
▁nagpadala 99
▁reach 99
th 98
▁ask 98
▁gipili 98
▁hope 98
▁kangitngit 98
▁throne 98
▁tuo 98
▁butanga 97
▁fat 97
▁hearts 97
▁hustisya 97
▁ikatulo 97
▁nakig 97
▁outside 97
▁paghari 97
▁palasyo 97
▁pasture 97
▁returned 97
▁saved 97
▁south 97
▁woe 97
am 96
law 96
▁belong 96
▁everlasting 96
▁garments 96
▁idols 96
▁immediately 96
▁lain 96
▁lead 96
▁sakit 96
▁bronsi 95
▁buhata 95
▁courtyard 95
▁family 95
▁himoa 95
▁liyon 95
▁pagkakita 95
▁pagsulti 95
▁shame 95
▁tapos 95
▁want 95
▁ark 94
▁daplin 94
▁eleazar 94
▁follow 94
▁insenso 94
▁kalinaw 94
▁ngari 94
▁pagpa 94
▁sky 94
▁tagsa 94
▁understand 94
▁bronze 93
▁faithfulness 93
▁kaliwatan 93
▁makes 93
▁milagro 93
▁mosunod 93
▁paglaom 93
▁pariseo 93
▁trees 93
▁unsaon 93
hunong 92
▁balik 92
▁gisalikway 92
▁nagsugo 92
▁worship 92
ar 91
giving 91
▁break 91
▁buangbuang 91
▁committed 91
▁crowd 91
▁drive 91
▁generations 91
▁haligi 91
▁kabayo 91
▁opened 91
▁samson 91
▁such 91
▁tag 91
ay 90
▁alagad 90
▁gives 90
▁higayona 90
▁kaumahan 90
▁lebanon 90
▁lips 90
▁magbalantay 90
▁manasseh 90
▁nd 90
▁panon 90
▁sidlakan 90
anhi 89
inom 89
tagsa 89
▁accord 89
▁baal 89
▁better 89
▁cloud 89
▁haman 89
▁kabu 89
▁kahulogan 89
▁kamatuoran 89
▁nagtuo 89
▁remain 89
▁tumana 89
▁animal 88
▁destruction 88
▁gipadala 88
▁kuhaon 88
▁lakaw 88
▁maghimo 88
▁sisters 88
▁whether 88
b 87
id 87
r 87
▁consider 87
▁dayg 87
▁feast 87
▁gitugyan 87
▁hain 87
▁lubnganan 87
▁mismo 87
▁officials 87
▁panalanginan 87
▁panit 87
▁perish 87
▁pure 87
▁silot 87
▁tambok 87
c 86
han 86
padayag 86
▁beyond 86
▁compassion 86
▁dapita 86
▁disaster 86
▁dugay 86
▁gitawag 86
▁kaluy 86
▁mobalik 86
▁nakadungog 86
▁pagtuman 86
▁river 86
▁saad 86
▁sunod 86
balita 85
▁agi 85
▁assembly 85
▁built 85
▁entire 85
▁lamb 85
▁makapa 85
▁pieces 85
▁ram 85
▁testimony 85
▁throughout 85
▁trust 85
▁wait 85
ah 84
ahisama 84
ipakita 84
▁arise 84
▁cause 84
▁grace 84
▁habagatan 84
▁hatagi 84
▁kadaot 84
▁labor 84
▁lie 84
▁manases 84
h 83
ha 83
kadungog 83
▁battle 83
▁child 83
▁deep 83
▁dust 83
▁ears 83
▁eye 83
▁luwason 83
▁makalilisang 83
▁makasasala 83
▁matuod 83
▁napulo 83
▁nasuko 83
▁pharisees 83
▁rain 83
▁raise 83
▁seventh 83
ibutang 82
im 82
▁beside 82
▁binuhatan 82
▁curse 82
▁dagko 82
▁forth 82
▁gutom 82
▁happened 82
▁ikaduha 82
▁kayutaan 82
▁led 82
▁libot 82
▁lima 82
▁pagsimba 82
▁produce 82
▁sinai 82
▁sister 82
▁wickedness 82
us 81
▁dali 81
▁damgo 81
▁female 81
▁gamiton 81
▁gates 81
▁giluwas 81
▁judas 81
▁kota 81
▁matang 81
▁mipadayon 81
▁nagkalainlain 81
▁ou 81
▁part 81
▁samaria 81
▁yahweh 81
hi 80
re 80
▁bear 80
▁branches 80
▁diyutay 80
▁except 80
▁houses 80
▁luwasa 80
▁mabuhi 80
▁mokaon 80
▁molungtad 80
▁refuge 80
▁rise 80
▁santo 80
▁silangan 80
▁un 80
kigsulti 79
over 79
▁authority 79
▁bull 79
▁famine 79
▁hate 79
▁honor 79
▁linen 79
▁lives 79
▁pagkuha 79
▁portion 79
▁stranger 79
▁yes 79
▁balak 78
▁build 78
▁dala 78
▁egyptians 78
▁enemy 78
▁ilalom 78
▁isigkatawo 78
▁makabaton 78
▁others 78
▁sat 78
▁sign 78
▁six 78
▁tongue 78
▁trigo 78
en 77
▁baba 77
▁bakak 77
▁deal 77
▁generation 77
▁higayon 77
▁maghalad 77
▁nagpabilin 77
▁pagtulo 77
▁slaves 77
▁ulan 77
op 76
▁account 76
▁bay 76
▁bow 76
▁buntag 76
▁foot 76
▁free 76
▁goes 76
▁guard 76
▁kasamok 76
▁kasugoan 76
▁mahibalo 76
▁nagpa 76
▁neighbor 76
▁next 76
▁pagkadaotan 76
▁sanga 76
himuot 75
is 75
▁angels 75
▁book 75
▁gipangutana 75
▁gisulat 75
▁hinungdan 75
▁hour 75
▁ikapito 75
▁judea 75
▁mibalik 75
▁nabucodonosor 75
▁pagdala 75
▁pamatia 75
▁simeon 75
hikap 74
▁atonement 74
▁beloved 74
▁bulahan 74
▁daygon 74
▁iron 74
▁kalangitan 74
▁kaluoy 74
▁lino 74
▁magdala 74
▁meet 74
▁paghatag 74
▁paraon 74
▁ray 74
▁teaching 74
▁wealth 74
anha 73
ani 73
dan 73
it 73
▁ai 73
▁amorihanon 73
▁asked 73
▁birds 73
▁gentiles 73
▁hair 73
▁husband 73
▁kapungot 73
▁moanhi 73
▁nakasala 73
▁panapton 73
▁passed 73
▁prayer 73
▁tanom 73
nus 72
▁40 72
▁andam 72
▁basahon 72
▁beth 72
▁camped 72
▁d 72
▁declare 72
▁horses 72
▁kalisdanan 72
▁seed 72
▁service 72
▁tribes 72
atiman 71
▁12 71
▁cloth 71
▁gikinahanglan 71
▁harvest 71
▁hidden 71
▁kind 71
▁misulti 71
▁mourning 71
▁pagpakasala 71
▁plunder 71
▁pula 71
▁remove 71
▁ruben 71
▁sacrifices 71
▁sit 71
▁smoke 71
▁teach 71
▁ate 70
▁buluhaton 70
▁bungtod 70
▁carry 70
▁cri 70
▁dato 70
▁edomea 70
▁ever 70
▁gigamit 70
▁gilapdon 70
▁gipanalanginan 70
▁matuman 70
▁names 70
▁touch 70
,000 69
tukod 69
▁blind 69
▁clothes 69
▁eliminate 69
▁goat 69
▁ilimnon 69
▁last 69
▁livestock 69
▁madugay 69
▁once 69
▁perform 69
▁received 69
▁sagbot 69
▁slaughter 69
▁strike 69
▁surround 69
▁act 68
▁agianan 68
▁beginning 68
▁carried 68
▁curtain 68
▁ear 68
▁forty 68
▁galilea 68
▁gihigugma 68
▁gobernador 68
▁hilabihan 68
▁households 68
▁incense 68
▁kapuslanan 68
▁lalawigan 68
▁naglingkod 68
▁nako 68
▁none 68
▁pagkinabuhi 68
▁rebuke 68
▁sinned 68
▁sitting 68
▁someone 68
▁tabil 68
▁umaabot 68
▁west 68
gamit 67
selah 67
▁amen 67
▁ammon 67
▁awit 67
▁continually 67
▁jesu 67
▁nagtigom 67
▁plague 67
▁proclaim 67
▁re 67
▁satisfied 67
▁shout 67
▁simbahan 67
▁tigulang 67
▁trouble 67
▁wives 67
▁write 67
cristo 66
either 66
el 66
halad 66
ta 66
▁? 66
▁angry 66
▁burning 66
▁covered 66
▁dream 66
▁fish 66
▁flee 66
▁gipakita 66
▁igo 66
▁looking 66
▁maluwas 66
▁masayr 66
▁matter 66
▁mine 66
▁mosulod 66
▁nahadlok 66
▁nganhi 66
▁puthaw 66
▁swore 66
▁table 66
▁womb 66
gkampo 65
li 65
puyo 65
tungha 65
▁appeared 65
▁bones 65
▁cross 65
▁desire 65
▁gipamatay 65
▁krus 65
▁lion 65
▁makasabot 65
▁nagsimba 65
▁obey 65
▁p 65
▁pagbalik 65
▁road 65
▁sake 65
▁shekels 65
▁sihon 65
▁suga 65
▁sungay 65
▁thanks 65
▁tumoy 65
▁wash 65
▁yours 65
isip 64
▁appearance 64
▁b 64
▁believed 64
▁biyuda 64
▁dry 64
▁exalted 64
▁halangdon 64
▁karwahi 64
▁kin 64
▁maghuhukom 64
▁nebuchadnezzar 64
▁pagluwas 64
▁pagpakig 64
▁pakigdait 64
▁pamatyon 64
▁prepared 64
▁prison 64
▁reuben 64
▁sir 64
▁something 64
▁yutaa 64
▁! 63
▁alive 63
▁atabay 63
▁beautiful 63
▁followed 63
▁following 63
▁gipu 63
▁harm 63
▁home 63
▁hukmanan 63
▁kadalanan 63
▁kaguol 63
▁kahibalo 63
▁kilid 63
▁nabuhat 63
▁offered 63
▁opposite 63
▁ox 63
▁rich 63
▁sakayan 63
▁signs 63
▁ashamed 62
▁asiria 62
▁defiled 62
▁flocks 62
▁garment 62
▁horns 62
▁katunga 62
▁lambs 62
▁lies 62
▁mohatag 62
▁nahi 62
▁nawong 62
▁pagdayeg 62
▁paglubad 62
▁panalangin 62
▁placed 62
▁pulo 62
▁puno 62
▁rescue 62
▁saksi 62
▁scribes 62
▁thirty 62
▁throw 62
▁vine 62
▁vision 62
f 61
gikan 61
sa 61
sugod 61
▁alaot 61
▁allow 61
▁behind 61
▁gisuginlan 61
▁kaigsoonan 61
▁maghari 61
▁mahadlok 61
▁midian 61
▁parasan 61
▁scattered 61
▁sukaranan 61
▁utter 61
gpadayon 60
ion 60
likay 60
sangpit 60
▁abandon 60
▁apostoles 60
▁attention 60
▁blessing 60
▁judgments 60
▁kabataan 60
▁kalungsoran 60
▁kapatagan 60
▁loved 60
▁seremonyas 60
▁staff 60
▁tabon 60
▁tulomanon 60
onon 59
ra 59
▁abimelech 59
▁bili 59
▁buta 59
▁desolate 59
▁dungog 59
▁gisunog 59
▁harina 59
▁hi 59
▁kasikbit 59
▁katungod 59
▁matahom 59
▁mitindog 59
▁naghunahuna 59
▁nangamatay 59
▁oath 59
▁patubo 59
▁pillars 59
▁tear 59
▁unod 59
lipay 58
luwas 58
or 58
ting 58
▁abimelec 58
▁besides 58
▁diserto 58
▁donkey 58
▁fled 58
▁galilee 58
▁gibeah 58
▁gracious 58
▁guwardiya 58
▁hide 58
▁hinigugma 58
▁ipadala 58
▁laraw 58
▁length 58
▁mahanaw 58
▁mahiagom 58
▁makakaon 58
▁maria 58
▁motuman 58
▁philistines 58
▁pursue 58
▁reign 58
▁tugot 58
▁white 58
▁youth 58
ba 57
dangop 57
gtindog 57
matngon 57
san 57
thrown 57
un 57
▁case 57
▁chaldeans 57
▁distress 57
▁door 57
▁dughan 57
▁eaten 57
▁edge 57
▁entrance 57
▁faithful 57
▁gospel 57
▁kadaghan 57
▁knows 57
▁makadungog 57
▁malipayon 57
▁olibo 57
▁pilato 57
▁property 57
▁rams 57
▁sapa 57
▁speaks 57
▁sungkod 57
▁tali 57
▁tig 57
▁tingali 57
▁true 57
▁trumpeta 57
▁tudlo 57
ation 56
unom 56
▁al 56
▁assyria 56
▁established 56
▁finished 56
▁ginikanan 56
▁instead 56
▁kasakit 56
▁motubag 56
▁panag 56
▁quickly 56
▁sinagoga 56
▁siyudara 56
▁taas 56
▁violence 56
▁wings 56
▁witness 56
baligya 55
laglag 55
ness 55
▁bangis 55
▁de 55
▁en 55
▁faces 55
▁gidaghanon 55
▁greater 55
▁gun 55
▁hayop 55
▁ilhanan 55
▁isipon 55
▁journey 55
▁lift 55
▁loud 55
▁mardoqueo 55
▁migula 55
▁mordecai 55
▁nan 55
▁pana 55
▁possess 55
▁rather 55
▁ruins 55
▁shechem 55
▁sheol 55
▁skin 55
▁top 55
▁watch 55
ab 54
able 54
lapas 54
tan 54
▁already 54
▁aside 54
▁bug 54
▁edom 54
▁fill 54
▁gifts 54
▁grasya 54
▁ha 54
▁isalikway 54
▁mahugaw 54
▁manganak 54
▁mosulti 54
▁naghari 54
▁pinili 54
▁pray 54
▁prepare 54
▁prostitute 54
▁secret 54
▁seeking 54
▁song 54
▁swear 54
apil 53
dumala 53
hiusa 53
ip 53
ri 53
▁afterward 53
▁age 53
▁ato 53
▁bed 53
▁buhok 53
▁cattle 53
▁cursed 53
▁dwell 53
▁dwelling 53
▁enough 53
▁fallen 53
▁filistihanon 53
▁fool 53
▁fourth 53
▁giandam 53
▁gibiyaan 53
▁hebron 53
▁herself 53
▁je 53
▁loves 53
▁mesiyas 53
▁mituo 53
▁paras 53
▁pasayloon 53
▁passover 53
▁read 53
▁responded 53
▁sako 53
▁shut 53
▁sinugo 53
▁tuyo 53
▁used 53
▁vineyard 53
▁weeping 53
▁width 53
hangyo 52
higugma 52
nsang 52
patawag 52
▁acts 52
▁continued 52
▁doorway 52
▁dugang 52
▁ester 52
▁feed 52
▁forget 52
▁healed 52
▁isda 52
▁karne 52
▁leader 52
▁makaon 52
▁makasulod 52
▁mary 52
▁nagbarog 52
▁nangita 52
▁nun 52
▁paghukom 52
▁pulos 52
▁remnant 52
▁removed 52
▁served 52
▁sleep 52
▁sold 52
▁territory 52
▁tunga 52
▁wonders 52
hrew 51
pahibalo 51
w 51
▁bases 51
▁caleb 51
▁choice 51
▁chosen 51
▁dalunggan 51
▁forward 51
▁friend 51
▁fulfilled 51
▁gitudlo 51
▁goats 51
▁lifted 51
▁magpadayon 51
▁makasala 51
▁numbered 51
▁pagbuot 51
▁pagkamatarong 51
▁rejected 51
▁sidon 51
▁tenth 51
itugot 50
sulat 50
tawag 50
▁abominations 50
▁afflicted 50
▁almighty 50
▁bound 50
▁breath 50
▁delight 50
▁divided 50
▁eli 50
▁eternal 50
▁hukom 50
▁kilo 50
▁lit 50
▁lunsay 50
▁manga 50
▁nagdilaab 50
▁naglaraw 50
▁nakedness 50
▁nasayran 50
▁needy 50
▁noah 50
▁oh 50
▁pit 50
▁prophesy 50
▁remained 50
▁restore 50
▁seventy 50
▁silent 50
▁teacher 50
▁villages 50
ful 49
hukom 49
iddle 49
nalipod 49
sukol 49
▁accept 49
▁amorites 49
▁apo 49
▁arm 49
▁attack 49
▁buy 49
▁charge 49
▁esther 49
▁false 49
▁greatly 49
▁hinginlan 49
▁image 49
▁itself 49
▁kalapasan 49
▁kuhaa 49
▁larawan 49
▁lying 49
▁maulawan 49
▁nanumpa 49
▁nasora 49
▁paagiha 49
▁pagpuyo 49
▁persia 49
▁pilate 49
▁plant 49
▁punishment 49
▁raquel 49
▁sedekias 49
▁small 49
▁test 49
▁waste 49
0 48
dayeg 48
kat 48
pa 48
puno 48
wagtang 48
▁binhi 48
▁bowed 48
▁canaanhon 48
▁celebrate 48
▁commandment 48
▁f 48
▁few 48
▁fifty 48
▁foolish 48
▁herodes 48
▁hinimo 48
▁hukman 48
▁humble 48
▁injustice 48
▁jeremias 48
▁jericho 48
▁jerico 48
▁kadaogan 48
▁kahibulongan 48
▁kalisang 48
▁katingalahan 48
▁mangita 48
▁multitude 48
▁otherwise 48
▁rod 48
▁sulti 48
▁tatsa 48
▁tinguha 48
▁tungatunga 48
▁unleavened 48
▁unless 48
▁upright 48
5 47
ers 47
hu 47
ites 47
nha 47
obon 47
▁abandoned 47
▁ahead 47
▁bakakon 47
▁careful 47
▁church 47
▁disgrace 47
▁early 47
▁fight 47
▁flour 47
▁inigka 47
▁kaluwasan 47
▁lea 47
▁magtutuo 47
▁mak 47
▁masakiton 47
▁mixed 47
▁nagmando 47
▁nagtudlo 47
▁ordinances 47
▁remembered 47
▁rule 47
▁sees 47
▁solomon 47
▁testify 47
▁ubas 47
▁use 47
▁walls 47
atbang 46
gpaabot 46
ling 46
lingkod 46
unay 46
▁basket 46
▁bitin 46
▁chariots 46
▁friends 46
▁gift 46
▁gilibot 46
▁gitigom 46
▁grow 46
▁innocent 46
▁isigka 46
▁isulat 46
▁judges 46
▁kaayohan 46
▁kadaotan 46
▁kaha 46
▁kamagulangan 46
▁katarong 46
▁madawat 46
▁milakaw 46
▁moon 46
▁mothers 46
▁nagtukod 46
▁nahisulat 46
▁natawo 46
▁pako 46
▁paryenti 46
▁pride 46
▁saints 46
▁sayop 46
▁siquem 46
▁tanaman 46
▁ting 46
▁torn 46
▁uhay 46
basa 45
▁abog 45
▁bashan 45
▁created 45
▁dawaton 45
▁ends 45
▁ephah 45
▁gikasilagan 45
▁hin 45
▁hinlo 45
▁journeyed 45
▁katungdanan 45
▁kusgan 45
▁magtuman 45
▁makaluwas 45
▁malipay 45
▁masuko 45
▁misinggit 45
▁nagka 45
▁nakapa 45
▁pagkabuntag 45
▁pahumot 45
▁panganay 45
▁plead 45
▁previously 45
▁reported 45
▁shepherd 45
▁sprinkle 45
▁tabok 45
kita 44
ous 44
susi 44
tubag 44
uches 44
▁20 44
▁bituon 44
▁boat 44
▁cup 44
▁gisimba 44
▁grass 44
▁honey 44
▁inner 44
▁knew 44
▁mahalon 44
▁matapos 44
▁nagkuha 44
▁nanganak 44
▁neck 44
▁officers 44
▁pagsaylo 44
▁pagtrabaho 44
▁puti 44
▁ready 44
▁revealed 44
▁rulers 44
▁sagrado 44
▁shepherds 44
▁sick 44
▁sisera 44
▁su 44
▁tabangi 44
▁walked 44
▁zedekiah 44
gahin 43
ihap 43
ma 43
pasidungog 43
sunog 43
usa 43
▁1 43
▁abomination 43
▁abundance 43
▁anoint 43
▁anointed 43
▁arnon 43
▁bird 43
▁care 43
▁escape 43
▁fellow 43
▁garden 43
▁gipahimutang 43
▁kalag 43
▁kamelyo 43
▁mangutana 43
▁mipauli 43
▁nabati 43
▁naomi 43
▁need 43
▁noe 43
▁pagkagamhanan 43
▁paglipay 43
▁pagpapas 43
▁panuigon 43
▁parts 43
▁plan 43
▁provide 43
▁redeem 43
▁replied 43
▁root 43
7 42
dakop 42
dasig 42
during 42
ka 42
sukod 42
tabang 42
ted 42
ut 42
▁amazed 42
▁aroma 42
▁barko 42
▁betel 42
▁buhis 42
▁bungbong 42
▁commit 42
▁crowds 42
▁defile 42
▁desolation 42
▁dihadiha 42
▁eliminated 42
▁gagmay 42
▁galamiton 42
▁garbo 42
▁gilgal 42
▁gisilotan 42
▁gitugot 42
▁hills 42
▁joyful 42
▁lanaw 42
▁listened 42
▁mapahi 42
▁pagsilot 42
▁persons 42
▁pinulongan 42
▁practice 42
▁praises 42
▁puy 42
▁rayna 42
▁rebellious 42
▁redeemed 42
▁reward 42
▁riches 42
▁ruler 42
▁satan 42
▁sulong 42
▁teeth 42
▁tore 42
▁weep 42
▁witnesses 42
▁wrong 42
▁wrongdoings 42
baton 41
hon 41
hulat 41
isa 41
ok 41
othing 41
sukad 41
to 41
tugot 41
tungas 41
▁always 41
▁apostles 41
▁biyai 41
▁boy 41
▁completely 41
▁devour 41
▁donkeys 41
▁flood 41
▁form 41
▁gihangyo 41
▁ginamit 41
▁guilty 41
▁ja 41
▁kalit 41
▁la 41
▁milk 41
▁mopatay 41
▁nagbangotan 41
▁namati 41
▁pasalamat 41
▁patya 41
▁performed 41
▁queen 41
▁rachel 41
▁red 41
▁rings 41
▁rivers 41
▁sinugdan 41
▁strangers 41
▁tiro 41
▁tupad 41
▁wave 41
▁widow 41
po 40
though 40
tinud 40
unsa 40
ver 40
▁apart 40
▁baga 40
▁basan 40
▁behalf 40
▁bethel 40
▁bukog 40
▁consume 40
▁decree 40
▁defect 40
▁demons 40
▁desert 40
▁doors 40
▁eats 40
▁forgiven 40
▁hears 40
▁hezekiah 40
▁isaias 40
▁isangyaw 40
▁james 40
▁kadugo 40
▁kagabhion 40
▁kuwarta 40
▁measured 40
▁mopuyo 40
▁naglakaw 40
▁per 40
▁ran 40
▁sambingay 40
▁sayo 40
▁scarlet 40
▁seir 40
▁spend 40
▁spring 40
▁stars 40
▁suffer 40
▁sure 40
▁synagogue 40
▁terror 40
▁tigumon 40
▁tomb 40
▁tyre 40
▁utensils 40
▁wide 40
▁yield 40
hap 39
luy 39
sugat 39
tapos 39
ugos 39
▁asher 39
▁aso 39
▁baptized 39
▁beast 39
▁bind 39
▁buried 39
▁clouds 39
▁comfort 39
▁consecrate 39
▁dalangpanan 39
▁euphrates 39
▁forgive 39
▁former 39
▁gipang 39
▁glad 39
▁happen 39
▁ikaupat 39
▁kagawasan 39
▁katigayonan 39
▁korah 39
▁kupa 39
▁lamisa 39
▁maghukom 39
▁mahibilin 39
▁means 39
▁mogula 39
▁object 39
▁oo 39
▁pagtabang 39
▁pagtahod 39
▁panabot 39
▁pino 39
▁prince 39
▁punish 39
▁repay 39
▁report 39
▁satanas 39
▁scroll 39
▁streets 39
▁tabla 39
▁tents 39
▁tiilan 39
▁wept 39
▁yelo 39
angkon 38
dala 38
ig 38
lig 38
luoy 38
saad 38
subay 38
te 38
tugyan 38
tuod 38
uli 38
▁approached 38
▁area 38
▁asul 38
▁bet 38
▁buhian 38
▁bukton 38
▁cain 38
▁captured 38
▁clothing 38
▁crown 38
▁daan 38
▁dalaga 38
▁deceit 38
▁departed 38
▁dulon 38
▁elam 38
▁else 38
▁exile 38
▁gabhiona 38
▁gain 38
▁habog 38
▁hard 38
▁magpa 38
▁mando 38
▁messengers 38
▁mihapa 38
▁mourn 38
▁pagsulod 38
▁pamilya 38
▁panalipdan 38
▁pasidunggan 38
▁pharaohs 38
▁pick 38
▁pleased 38
▁proceed 38
▁purple 38
▁putli 38
▁sapot 38
▁sidro 38
▁sodom 38
▁tabangan 38
▁upward 38
▁veil 38
▁violet 38
▁warriors 38
▁worthless 38
ambit 37
had 37
ipahamtang 37
om 37
ti 37
z 37
▁ar 37
▁bad 37
▁broke 37
▁bulls 37
▁camels 37
▁canaanites 37
▁carv 37
▁covering 37
▁dies 37
▁discipline 37
▁eating 37
▁ephod 37
▁foreign 37
▁hagar 37
▁hearing 37
▁horn 37
▁hungry 37
▁hurry 37
▁isaiah 37
▁kasaligan 37
▁katahom 37
▁kingdoms 37
▁labot 37
▁makatabang 37
▁mopauli 37
▁nadawat 37
▁nagsalig 37
▁ordered 37
▁pagbantay 37
▁pagtan 37
▁pagtukod 37
▁papan 37
▁region 37
▁release 37
▁salampati 37
▁santiago 37
▁sara 37
▁saulo 37
▁seat 37
▁sinners 37
▁sodoma 37
▁steps 37
▁suddenly 37
▁tamar 37
▁tax 37
▁terrified 37
▁thorns 37
▁thoughts 37
▁toriyo 37
▁turns 37
andam 36
gpasalamat 36
hanaw 36
hisgot 36
ies 36
kabati 36
kighilawas 36
lugsong 36
ment 36
tabok 36
ught 36
▁50 36
▁adtoa 36
▁amonihanon 36
▁appear 36
▁atop 36
▁circumcised 36
▁close 36
▁consumed 36
▁draw 36
▁endure 36
▁eskina 36
▁establish 36
▁ezequias 36
▁fifth 36
▁foolishness 36
▁forest 36
▁formed 36
▁foundation 36
▁fourteen 36
▁giayo 36
▁gilubong 36
▁governor 36
▁herod 36
▁hid 36
▁higugmaa 36
▁hudno 36
▁igera 36
▁inside 36
▁kadagatan 36
▁kasal 36
▁libo 36
▁litro 36
▁magkuha 36
▁mamunga 36
▁mark 36
▁meat 36
▁mikuha 36
▁milingkod 36
▁nailog 36
▁namauli 36
▁ourselves 36
▁pasagdi 36
▁paths 36
▁presented 36
▁purpose 36
▁relatives 36
▁remains 36
▁robe 36
▁samad 36
▁sell 36
▁silingan 36
▁speech 36
▁storm 36
▁summoned 36
▁susa 36
▁sworn 36
▁tug 36
▁tukor 36
▁tunglo 36
abli 35
ak 35
dor 35
five 35
ne 35
rote 35
saksi 35
salikway 35
▁adultery 35
▁assembled 35
▁astray 35
▁bilanggoan 35
▁caught 35
▁chambers 35
▁commander 35
▁damasco 35
▁detestable 35
▁due 35
▁extend 35
▁felipe 35
▁forgotten 35
▁fought 35
▁gibeon 35
▁gidaugdaog 35
▁gigutom 35
▁giilog 35
▁granted 35
▁gud 35
▁harianon 35
▁hated 35
▁interpretation 35
▁kabaybayonan 35
▁kagulangon 35
▁kahiladman 35
▁karaan 35
▁katarongan 35
▁kutob 35
▁magsulti 35
▁magtagad 35
▁message 35
▁months 35
▁nagpili 35
▁naphtali 35
▁net 35
▁nile 35
▁olive 35
▁pagkagabii 35
▁press 35
▁promise 35
▁recognize 35
▁rose 35
▁ruth 35
▁sarah 35
▁sexual 35
▁slaughtered 35
▁sukod 35
▁taking 35
▁taught 35
▁thought 35
▁vengeance 35
▁wild 35
▁yoke 35
▁zebulun 35
bo 34
dugang 34
gawas 34
gpakitabang 34
kakita 34
pagawas 34
uyon 34
ygon 34
▁30 34
▁agila 34
▁biyaan 34
▁blameless 34
▁boast 34
▁cleansed 34
▁distance 34
▁dragon 34
▁flowing 34
▁fools 34
▁fruitful 34
▁futility 34
▁gidayeg 34
▁gitudloan 34
▁heal 34
▁hebreo 34
▁held 34
▁horse 34
▁jo 34
▁kalaglagan 34
▁kinds 34
▁kombira 34
▁lampstand 34
▁mabuntog 34
▁makighilawas 34
▁mans 34
▁memorial 34
▁moved 34
▁naglibot 34
▁nahibulong 34
▁neftali 34
▁neighbors 34
▁nevertheless 34
▁news 34
▁oppressed 34
▁padulong 34
▁panaw 34
▁precious 34
▁rebecca 34
▁relations 34
▁resurrection 34
▁roar 34
▁room 34
▁salt 34
▁seeing 34
▁shadow 34
▁share 34
▁shed 34
▁sides 34
▁singgit 34
▁sow 34
▁sumbong 34
▁tinub 34
▁tomorrow 34
▁tremble 34
▁tubod 34
agulo 33
angin 33
bangon 33
duha 33
em 33
humot 33
le 33
sangyaw 33
tinguha 33
ug 33
▁abo 33
▁alpa 33
▁ancient 33
▁approach 33
▁argulya 33
▁arrows 33
▁aser 33
▁balhibo 33
▁bore 33
▁count 33
▁crossed 33
▁delana 33
▁exalt 33
▁fields 33
▁fig 33
▁furthermore 33
▁gisugilon 33
▁gitakda 33
▁glorify 33
▁ham 33
▁ibaligya 33
▁ikalima 33
▁ikapulo 33
▁inay 33
▁ishmael 33
▁kahimanan 33
▁kataw 33
▁kerubin 33
▁kindness 33
▁kupo 33
▁langub 33
▁leprosy 33
▁likewise 33
▁lost 33
▁malinawon 33
▁manluluwas 33
▁masupilon 33
▁midagan 33
▁misali 33
▁molampos 33
▁mosimba 33
▁naayo 33
▁nagdumili 33
▁nagkabayo 33
▁nagwali 33
▁nahimutangan 33
▁nakaplagan 33
▁pagbangotan 33
▁paglakaw 33
▁pagpalit 33
▁pain 33
▁panaad 33
▁pangasaw 33
▁perfect 33
▁permanent 33
▁pin 33
▁pleasure 33
▁promised 33
▁provinces 33
▁request 33
▁se 33
▁settled 33
▁shield 33
▁stop 33
▁stopped 33
▁tabunok 33
▁tambag 33
▁tin 33
▁ugma 33
▁waist 33
▁wear 33
▁weary 33
▁worthy 33
8 32
bahinbahin 32
barog 32
bitik 32
daghan 32
itambo 32
iyahon 32
latas 32
na 32
pabilin 32
pakuha 32
palit 32
supak 32
tod 32
▁acted 32
▁ananias 32
▁bars 32
▁bitter 32
▁boas 32
▁branch 32
▁captivity 32
▁conceived 32
▁either 32
▁elias 32
▁exiles 32
▁fast 32
▁gahi 32
▁gidakop 32
▁giyawaan 32
▁greet 32
▁hinumdoman 32
▁hubo 32
▁increase 32
▁judged 32
▁kahimtang 32
▁ligid 32
▁line 32
▁lions 32
▁low 32
▁magmalipayon 32
▁malu 32
▁managsama 32
▁matawo 32
▁merari 32
▁milu 32
▁misamo 32
▁nagbisti 32
▁nahibalo 32
▁ngipon 32
▁pagpamati 32
▁pagpangita 32
▁pagsulong 32
▁philip 32
▁pisi 32
▁punoan 32
▁puohon 32
▁question 32
▁quiet 32
▁salawayon 32
▁silas 32
▁siria 32
▁statute 32
▁sugoa 32
▁trumpet 32
▁udyong 32
▁utang 32
▁wipe 32
▁zabulon 32
ce 31
did 31
he 31
ibubo 31
ilog 31
los 31
naog 31
so 31
tified 31
tingala 31
▁asking 31
▁balangay 31
▁choose 31
▁contend 31
▁counted 31
▁damascus 31
▁dawata 31
▁disciple 31
▁empty 31
▁falls 31
▁follows 31
▁gaza 31
▁gibilanggo 31
▁gitabon 31
▁grant 31
▁greatness 31
▁hesbon 31
▁ikanapulo 31
▁ismael 31
▁kabalaka 31
▁kabalayan 31
▁katubigan 31
▁kawatan 31
▁later 31
▁mahinlo 31
▁makapugong 31
▁makasulti 31
▁moagi 31
▁moinom 31
▁nagtan 31
▁nagun 31
▁nahor 31
▁naninggit 31
▁napulog 31
▁orders 31
▁oxen 31
▁paglaglag 31
▁pagsalig 31
▁palm 31
▁possessions 31
▁receives 31
▁refuse 31
▁sackcloth 31
▁sarai 31
▁silbi 31
▁spent 31
▁spirits 31
▁sulat 31
▁swallow 31
▁timawa 31
▁tindog 31
▁towns 31
▁virgin 31
ac 30
ari 30
balhin 30
hinginlan 30
ingnon 30
kop 30
lansang 30
panuigon 30
pasabot 30
pi 30
pili 30
timan 30
um 30
▁abel 30
▁adversaries 30
▁appoint 30
▁artaxerxes 30
▁beauty 30
▁benefit 30
▁bernabe 30
▁binilanggo 30
▁bodies 30
▁butangi 30
▁calling 30
▁capernaum 30
▁caused 30
▁cherubim 30
▁completed 30
▁dew 30
▁divide 30
▁dug 30
▁gimahal 30
▁gipangayo 30
▁governors 30
▁gub 30
▁hired 30
▁ilubong 30
▁iro 30
▁issachar 30
▁kapitan 30
▁kilat 30
▁kiss 30
▁language 30
▁learn 30
▁lightning 30
▁liog 30
▁magtatambag 30
▁makahatag 30
▁mapuno 30
▁material 30
▁metal 30
▁mosali 30
▁multiply 30
▁ordinance 30
▁planted 30
▁practices 30
▁pronounce 30
▁province 30
▁redemption 30
▁repent 30
▁rescued 30
▁result 30
▁royal 30
▁sail 30
▁shaken 30
▁statement 30
▁thunder 30
▁vineyards 30
▁washed 30
▁wheat 30
▁worshiped 30
agi 29
ahi 29
babilonia 29
bu 29
bulag 29
hiuli 29
kastigo 29
labay 29
mo 29
nggula 29
panalipod 29
salo 29
sangkap 29
sugilon 29
uyog 29
▁add 29
▁altars 29
▁arrived 29
▁awtoridad 29
▁bangon 29
▁betray 29
▁bloodshed 29
▁boards 29
▁captain 29
▁change 29
▁dahon 29
▁dark 29
▁dawn 29
▁defeated 29
▁diri 29
▁drunk 29
▁emperador 29
▁eufrates 29
▁execute 29
▁gamay 29
▁gidawat 29
▁gitamb 29
▁grapes 29
▁hail 29
▁haran 29
▁heshbon 29
▁hinagiban 29
▁hitihanon 29
▁ilo 29
▁inherit 29
▁inila 29
▁instruction 29
▁johanan 29
▁kamatay 29
▁kasubo 29
▁kaulawan 29
▁kulon 29
▁latas 29
▁leah 29
▁leather 29
▁listening 29
▁maghinulsol 29
▁majesty 29
▁malaglag 29
▁mangayo 29
▁married 29
▁masters 29
▁mediteraneo 29
▁midianhon 29
▁mubo 29
▁naghilak 29
▁nahisama 29
▁naked 29
▁naluk 29
▁numerous 29
▁offspring 29
▁outer 29
▁pagkaalaot 29
▁pagpili 29
▁pagsunog 29
▁pagtudlo 29
▁panagway 29
▁parable 29
▁piece 29
▁point 29
▁poles 29
▁prove 29
▁pun 29
▁sampinit 29
▁scatter 29
▁shake 29
▁shouting 29
▁sits 29
▁spoils 29
▁stands 29
▁sweet 29
▁tagda 29
▁tears 29
▁think 29
▁tower 29
▁watching 29
▁zacarias 29
agianan 28
ataki 28
dani 28
drew 28
dungog 28
ene 28
kabat 28
kad 28
kasabot 28
lag 28
malik 28
ngandoy 28
panaw 28
puli 28
silag 28
tahod 28
ul 28
ve 28
▁70 28
▁acasia 28
▁awesome 28
▁bare 28
▁baruc 28
▁base 28
▁batid 28
▁baye 28
▁bililhon 28
▁breasts 28
▁bulak 28
▁carrying 28
▁contrary 28
▁creatures 28
▁crushed 28
▁designate 28
▁despised 28
▁dis 28
▁drank 28
▁dugos 28
▁eden 28
▁eglon 28
▁flow 28
▁furnace 28
▁gigukod 28
▁gikahimu 28
▁guide 28
▁heap 28
▁ho 28
▁inhabited 28
▁j 28
▁k 28
▁kagamhanan 28
▁kastigohon 28
▁limbongan 28
▁luha 28
▁magsoon 28
▁makuha 28
▁mouths 28
▁nagbaligya 28
▁nagkinabuhi 28
▁nagpakita 28
▁nagsunod 28
▁nahibaloan 28
▁nahulog 28
▁nangahadlok 28
▁nanglakaw 28
▁nobles 28
▁pagdawat 28
▁pagpakiggubat 28
▁pagpakitabang 28
▁panalipod 28
▁pangandam 28
▁pasayloa 28
▁pasidaan 28
▁path 28
▁pikas 28
▁plans 28
▁prayed 28
▁prey 28
▁prosperity 28
▁rebuild 28
▁risen 28
▁seized 28
▁shoulder 28
▁simbaha 28
▁square 28
▁start 28
▁stir 28
▁subject 28
▁swarm 28
▁tawgon 28
▁treasure 28
▁trumpets 28
▁tubag 28
▁wages 28
▁wander 28
▁yayongan 28
anam 27
bi 27
gad 27
gapos 27
ibalik 27
lalom 27
less 27
matuod 27
pasagdan 27
ron 27
supil 27
tagbo 27
ya 27
▁abundant 27
▁arrogant 27
▁awake 27
▁bagyo 27
▁bantogan 27
▁binuang 27
▁bond 27
▁cades 27
▁complete 27
▁consecrated 27
▁continual 27
▁crucified 27
▁cush 27
▁demon 27
▁depths 27
▁desires 27
▁devoured 27
▁dila 27
▁double 27
▁dried 27
▁fail 27
▁gisul 27
▁gita 27
▁hangyo 27
▁healing 27
▁herd 27
▁herds 27
▁higugmaon 27
▁hunong 27
▁integrity 27
▁isacar 27
▁jefta 27
▁jew 27
▁jonas 27
▁kahumot 27
▁kiriath 27
▁loaves 27
▁luyo 27
▁mabanhaw 27
▁mahulog 27
▁makapatay 27
▁maluoy 27
▁mamaayo 27
▁mausab 27
▁minasa 27
▁mipaingon 27
▁nahimutang 27
▁nakit 27
▁negeb 27
▁oppress 27
▁owner 27
▁pagwali 27
▁pai 27
▁passes 27
▁preaching 27
▁prinsipe 27
▁public 27
▁rebekah 27
▁redeemer 27
▁reveal 27
▁romanhon 27
▁run 27
▁scribe 27
▁sentimetros 27
▁serpent 27
▁sha 27
▁spot 27
▁straight 27
▁strengthen 27
▁strife 27
▁subay 27
▁taming 27
▁tawhanon 27
▁testimonies 27
▁trembling 27
▁ulay 27
▁vow 27
▁vows 27
do 26
ho 26
hod 26
iah 26
iel 26
ite 26
ko 26
lamay 26
lu 26
ninguha 26
pagula 26
ter 26
▁3 26
▁4 26
▁acacia 26
▁adtoan 26
▁ambush 26
▁assemble 26
▁barnabas 26
▁best 26
▁bethlehem 26
▁bugto 26
▁building 26
▁calf 26
▁chains 26
▁circumcision 26
▁corners 26
▁council 26
▁daily 26
▁deed 26
▁direct 26
▁elijah 26
▁feared 26
▁forefathers 26
▁gihunahuna 26
▁gipakaulawan 26
▁gipanalipdan 26
▁gisulong 26
▁godly 26
▁groom 26
▁heavy 26
▁height 26
▁hermon 26
▁higdaanan 26
▁ikasulti 26
▁infection 26
▁interest 26
▁iuli 26
▁jealous 26
▁jephthah 26
▁jeshua 26
▁justified 26
▁lack 26
▁lag 26
▁less 26
▁lower 26
▁magsimba 26
▁met 26
▁misimba 26
▁mizpah 26
▁mosulong 26
▁nanagan 26
▁often 26
▁oppression 26
▁pagpakighilawas 26
▁pagpang 26
▁panggubatan 26
▁profane 26
▁protect 26
▁reject 26
▁ruin 26
▁salamangkero 26
▁savior 26
▁search 26
▁seas 26
▁seize 26
▁seol 26
▁sixth 26
▁splendor 26
▁stumble 26
▁stumbling 26
▁suhol 26
▁sunogonon 26
▁tablets 26
▁tam 26
▁taste 26
▁taunt 26
▁thanksgiving 26
▁thousands 26
▁tinago 26
▁treasures 26
▁try 26
▁tubagon 26
▁tunglohon 26
▁unable 26
▁uncircumcised 26
▁vain 26
▁wail 26
▁walking 26
▁zechariah 26
angulo 25
basin 25
ch 25
himut 25
ic 25
ihaw 25
kaylap 25
lukso 25
mingaw 25
ngahas 25
ol 25
oth 25
padulong 25
pakanaog 25
ros 25
rove 25
su 25
tribe 25
tultol 25
tumba 25
▁2 25
▁ahasuerus 25
▁ashes 25
▁aton 25
▁awaaw 25
▁ayohon 25
▁banhawon 25
▁batoon 25
▁believes 25
▁certain 25
▁cloak 25
▁comp 25
▁contribution 25
▁crying 25
▁dapig 25
▁devil 25
▁drinking 25
▁el 25
▁esdras 25
▁fierce 25
▁finds 25
▁further 25
▁gipangita 25
▁glorified 25
▁glorious 25
▁hates 25
▁heat 25
▁hor 25
▁ibilin 25
▁ilhon 25
▁joined 25
▁kahadloki 25
▁kamahalan 25
▁kilometro 25
▁kohat 25
▁ku 25
▁landong 25
▁lasang 25
▁letter 25
▁mahibalik 25
▁makakaplag 25
▁makapana 25
▁manumpa 25
▁measure 25
▁minahal 25
▁misulong 25
▁motubo 25
▁nangulo 25
▁negev 25
▁nilo 25
▁pagsulay 25
▁pagtigom 25
▁palace 25
▁panagtigom 25
▁pangayoon 25
▁paningkamot 25
▁pasipa 25
▁patalinghogi 25
▁perez 25
▁praying 25
▁pull 25
▁rahab 25
▁rises 25
▁ropes 25
▁ruined 25
▁sabbaths 25
▁sebada 25
▁separate 25
▁sets 25
▁severe 25
▁ship 25
▁ships 25
▁single 25
▁sixty 25
▁stretched 25
▁surface 25
▁thirsty 25
▁tigpanalipod 25
▁twist 25
▁uncover 25
ai 24
ana 24
ib 24
ir 24
ive 24
likod 24
ngandam 24
si 24
silot 24
tabonan 24
tudlo 24
▁25 24
▁arka 24
▁asia 24
▁baboy 24
▁baruch 24
▁baybayon 24
▁breastpiece 24
▁bright 24
▁canaanite 24
▁captive 24
▁commits 24
▁depart 24
▁di 24
▁ezra 24
▁fact 24
▁finger 24
▁fruits 24
▁gibayaw 24
▁gibubo 24
▁gihisgotan 24
▁gimandoan 24
▁gipasaylo 24
▁giuhaw 24
▁goodness 24
▁hala 24
▁hebrew 24
▁hil 24
▁hilak 24
▁ihawon 24
▁inadlaw 24
▁ipadayag 24
▁itaas 24
▁jealousy 24
▁kadena 24
▁kalimti 24
▁kaparasan 24
▁katilingban 24
▁labihan 24
▁lose 24
▁macedonia 24
▁maglipay 24
▁meal 24
▁miagi 24
▁misaka 24
▁mispa 24
▁mouban 24
▁naglak 24
▁ngil 24
▁orphan 24
▁paa 24
▁padayon 24
▁pagdali 24
▁pagkabihag 24
▁pagkatapos 24
▁pagmando 24
▁pagsabot 24
▁pait 24
▁pakan 24
▁pangpang 24
▁pasibsibanan 24
▁pilion 24
▁pleasant 24
▁precepts 24
▁price 24
▁rebelled 24
▁rejoicing 24
▁repairs 24
▁saul 24
▁sheba 24
▁sibsibanan 24
▁simbahon 24
▁soil 24
▁springs 24
▁st 24
▁streams 24
▁sunoga 24
▁support 24
▁tahor 24
▁tapol 24
▁thick 24
▁tima 24
▁visions 24
▁wanted 24
▁warned 24
abog 23
abugon 23
di 23
duaw 23
est 23
gisi 23
hait 23
igo 23
ingilin 23
kaliwat 23
kinabuhi 23
lan 23
lisod 23
lumpag 23
oban 23
ona 23
pangomusta 23
pasalamat 23
patingog 23
sulayan 23
tabon 23
takos 23
tay 23
▁abi 23
▁alahas 23
▁arms 23
▁aroer 23
▁badlongon 23
▁balod 23
▁bani 23
▁beat 23
▁binihag 23
▁bintana 23
▁buotan 23
▁bury 23
▁carefully 23
▁centurion 23
▁coastlands 23
▁continue 23
▁cubit 23
▁darius 23
▁deceitful 23
▁declared 23
▁delay 23
▁despise 23
▁devise 23
▁discharge 23
▁dumuduong 23
▁ended 23
▁epod 23
▁er 23
▁escaped 23
▁exceedingly 23
▁firmly 23
▁flame 23
▁fresh 23
▁fulfill 23
▁fully 23
▁gikaon 23
▁gipanag 23
▁gisangyaw 23
▁hamat 23
▁hazor 23
▁horsemen 23
▁hurled 23
▁incline 23
▁inom 23
▁inquire 23
▁invited 23
▁isul 23
▁jebusihanon 23
▁kadasig 23
▁kahadlokan 23
▁kalig 23
▁kalisod 23
▁kawang 23
▁korona 23
▁lamp 23
▁lamps 23
▁leaves 23
▁likod 23
▁maangkon 23
▁magbangotan 23
▁mahimayaon 23
▁makaikyas 23
▁makaplagan 23
▁maligo 23
▁managan 23
▁mangasawa 23
▁mitabang 23
▁mitubo 23
▁nagbantay 23
▁nagkatibulaag 23
▁nakapatay 23
▁nakuha 23
▁namuyo 23
▁nawala 23
▁notice 23
▁panaksan 23
▁passing 23
▁patibulaagon 23
▁pillar 23
▁portions 23
▁proclaimed 23
▁profaned 23
▁pukot 23
▁revolt 23
▁roll 23
▁roof 23
▁sandalyas 23
▁scripture 23
▁shine 23
▁souls 23
▁sown 23
▁spare 23
▁spit 23
▁steal 23
▁stirred 23
▁sukdanan 23
▁survivors 23
▁susih 23
▁tago 23
▁thigh 23
▁threshing 23
▁tinunglo 23
▁trabaho 23
▁treacherously 23
▁ugangan 23
▁visit 23
▁weak 23
▁weight 23
▁wheels 23
▁widows 23
▁yugo 23
asingkasing 22
atang 22
balaan 22
ban 22
bantay 22
ble 22
ence 22
gdumot 22
hagit 22
himo 22
hinumdoman 22
hunahuna 22
ikunsa 22
ilalom 22
israelita 22
kod 22
log 22
malit 22
mot 22
oven 22
pat 22
salop 22
tu 22
ulan 22
▁22 22
▁advice 22
▁ahaz 22
▁amihanang 22
▁amo 22
▁bakol 22
▁barley 22
▁bathe 22
▁betlehem 22
▁boaz 22
▁bowl 22
▁cease 22
▁changed 22
▁charges 22
▁chose 22
▁companions 22
▁descended 22
▁dibon 22
▁dispute 22
▁doves 22
▁dread 22
▁duhaduha 22
▁ekron 22
▁espiya 22
▁fifteen 22
▁fountain 22
▁gamita 22
▁gibanhaw 22
▁gibiaybiay 22
▁gihabugon 22
▁gipasipa 22
▁grew 22
▁grief 22
▁gyod 22
▁handomanan 22
▁hang 22
▁hapon 22
▁higot 22
▁hooks 22
▁ilabay 22
▁issued 22
▁joakim 22
▁kabilin 22
▁kaisog 22
▁kakahoyan 22
▁kalan 22
▁kinaiya 22
▁lagda 22
▁lights 22
▁lin 22
▁lisod 22
▁lumpagon 22
▁maker 22
▁makit 22
▁malisang 22
▁mana 22
▁manghod 22
▁matinumanon 22
▁maunsa 22
▁merchandise 22
▁mesopotamia 22
▁milabay 22
▁miriam 22
▁naandan 22
▁nagdamgo 22
▁namiya 22
▁native 22
▁nebo 22
▁ninibe 22
▁ninth 22
▁pagkatawo 22
▁pagmaya 22
▁pagta 22
▁pakaulawan 22
▁panumpa 22
▁perished 22
▁pity 22
▁play 22
▁pledge 22
▁presensya 22
▁prophesied 22
▁refused 22
▁sealed 22
▁separated 22
▁shouted 22
▁siloti 22
▁soldiers 22
▁songs 22
▁stronghold 22
▁subdue 22
▁swords 22
▁synagogues 22
▁trampled 22
▁trap 22
▁treat 22
▁tubaga 22
▁tudloan 22
▁understood 22
▁waves 22
▁yamog 22
▁zeba 22
14 21
3 21
aaron 21
adlaw 21
anay 21
anting 21
arba 21
bal 21
baw 21
dugmok 21
go 21
ias 21
ingnanay 21
inyo 21
ipanumpa 21
las 21
liko 21
luya 21
oy 21
papuy 21
q 21
subo 21
tangtang 21
tulog 21
ud 21
ulog 21
▁14 21
▁9 21
▁across 21
▁ago 21
▁agtang 21
▁ahasuero 21
▁assured 21
▁aware 21
▁bakos 21
▁blow 21
▁breaking 21
▁bride 21
▁chamber 21
▁chooses 21
▁cleanse 21
▁courage 21
▁crawl 21
▁custom 21
▁dario 21
▁deborah 21
▁divorce 21
▁eight 21
▁eighth 21
▁falsely 21
▁foundations 21
▁gamot 21
▁ganti 21
▁giabo 21
▁gika 21
▁gikahadlokan 21
▁gilam 21
▁gip 21
▁gipahamtang 21
▁hezron 21
▁hot 21
▁igdidihog 21
▁im 21
▁indignation 21
▁inhabitant 21
▁ipabuhat 21
▁iyaha 21
▁jehoiakim 21
▁jonah 21
▁josiah 21
▁kabuntagon 21
▁kadaghanan 21
▁kadesh 21
▁kantidad 21
▁katuyoan 21
▁kukaluoy 21
▁labh 21
▁lagsaw 21
▁lahi 21
▁langitnon 21
▁laray 21
▁lazaro 21
▁lazy 21
▁leaving 21
▁linibo 21
▁looks 21
▁lovers 21
▁lunhaw 21
▁mahinungdanon 21
▁mailog 21
▁makadiyot 21
▁makalingkawas 21
▁males 21
▁midali 21
▁midangop 21
▁mikaon 21
▁mini 21
▁miqueas 21
▁miracles 21
▁murder 21
▁nagbati 21
▁nagkinahanglan 21
▁nalisang 21
▁nangayo 21
▁napukan 21
▁occurred 21
▁opening 21
▁pagh 21
▁paghigugma 21
▁pagkama 21
▁pahulay 21
▁pakig 21
▁pakit 21
▁panalipdi 21
▁pangutan 21
▁panihapon 21
▁paubani 21
▁pleases 21
▁plot 21
▁princes 21
▁prisoners 21
▁reap 21
▁rush 21
▁salig 21
▁sand 21
▁sanglit 21
▁seal 21
▁searched 21
▁seeks 21
▁semana 21
▁setting 21
▁siege 21
▁singers 21
▁slain 21
▁tagoanan 21
▁talking 21
▁testified 21
▁thief 21
▁tigom 21
▁tigpak 21
▁tinuli 21
▁tiyan 21
▁tulisan 21
▁uncovered 21
▁zerubbabel 21
2 20
50 20
ant 20
apod 20
ath 20
bihag 20
bitay 20
ca 20
daog 20
dili 20
giya 20
hat 20
hay 20
higda 20
hinaot 20
hugawhugaw 20
ibot 20
init 20
ity 20
layas 20
led 20
mando 20
ngitngit 20
ought 20
pon 20
pos 20
putli 20
saulog 20
tagna 20
tapot 20
tenth 20
▁100 20
▁abiram 20
▁accepted 20
▁agian 20
▁aha 20
▁allot 20
▁allotment 20
▁amorite 20
▁andama 20
▁anymore 20
▁arabah 20
▁ascended 20
▁asleep 20
▁baha 20
▁bahina 20
▁balatian 20
▁bandila 20
▁bangkaw 20
▁bayran 20
▁board 20
▁butangana 20
▁c 20
▁caesar 20
▁carmel 20
▁clear 20
▁commanders 20
▁con 20
▁confidence 20
▁crush 20
▁deny 20
▁dominion 20
▁enters 20
▁examine 20
▁expanse 20
▁extreme 20
▁faint 20
▁felix 20
▁flag 20
▁floor 20
▁gahong 20
▁garboso 20
▁gatas 20
▁gibantayan 20
▁gibasa 20
▁gilimbongan 20
▁gilutos 20
▁gipaadto 20
▁gipaantos 20
▁gipanulti 20
▁gipasabot 20
▁girl 20
▁green 20
▁hamor 20
▁hananiah 20
▁horror 20
▁hurried 20
▁hut 20
▁images 20
▁ingnon 20
▁insight 20
▁instruct 20
▁kagul 20
▁kagutom 20
▁kainit 20
▁kindled 20
▁kobra 20
▁komandante 20
▁kuno 20
▁lamyon 20
▁lapok 20
▁likay 20
▁loathe 20
▁locusts 20
▁luna 20
▁madungog 20
▁magamit 20
▁magmauswagon 20
▁mahal 20
▁makabati 20
▁makahikap 20
▁manag 20
▁mapaubsanon 20
▁march 20
▁masunog 20
▁moment 20
▁nagpaka 20
▁nagpakasala 20
▁nagpanaw 20
▁nagsul 20
▁nahinumdom 20
▁nakahimo 20
▁nakaingon 20
▁obeyed 20
▁offense 20
▁official 20
▁og 20
▁pagduol 20
▁pagkamatay 20
▁panultihon 20
▁pasagdan 20
▁perfume 20
▁pilo 20
▁pina 20
▁plano 20
▁pleasing 20
▁preach 20
▁prostitution 20
▁resting 20
▁ring 20
▁sakripisyo 20
▁sandals 20
▁sayon 20
▁sem 20
▁sharp 20
▁talk 20
▁thinking 20
▁treated 20
▁tungtonganan 20
▁umoy 20
▁violent 20
▁virgins 20
▁wish 20
▁workers 20
▁younger 20
▁yunuko 20
6 19
alas 19
alirong 19
alsa 19
asiria 19
bayad 19
bilanggo 19
ced 19
co 19
daot 19
don 19
dumili 19
eth 19
hingpit 19
ilikay 19
kagiw 19
ki 19
lo 19
mabdos 19
mapahi 19
mon 19
padpad 19
pahamtang 19
pahulam 19
pahulay 19
pakabit 19
pan 19
patuyang 19
ph 19
pula 19
ran 19
ro 19
sumbong 19
tunglo 19
ulipon 19
ulod 19
upper 19
urot 19
usik 19
▁60 19
▁accomplish 19
▁actual 19
▁amalekanhon 19
▁antioquia 19
▁assessment 19
▁band 19
▁bantayan 19
▁basin 19
▁bayad 19
▁belt 19
▁beware 19
▁boundary 19
▁buntogon 19
▁burden 19
▁business 19
▁cedar 19
▁chariot 19
▁condemn 19
▁conduct 19
▁confess 19
▁contempt 19
▁countrymen 19
▁dalugdog 19
▁dangatan 19
▁deceive 19
▁decide 19
▁difficult 19
▁din 19
▁eagle 19
▁espirituhanon 19
▁etiopia 19
▁expect 19
▁foreigners 19
▁gedaliah 19
▁giataki 19
▁gibadlong 19
▁gihukman 19
▁gikuptan 19
▁gipamihag 19
▁gisaligan 19
▁gitug 19
▁giwali 19
▁gog 19
▁grego 19
▁har 19
▁hardened 19
▁heights 19
▁heir 19
▁humiliated 19
▁husbands 19
▁huyang 19
▁imnon 19
▁increased 19
▁insult 19
▁jewish 19
▁join 19
▁josias 19
▁kabituonan 19
▁kasakitan 19
▁kinulit 19
▁knees 19
▁learned 19
▁levite 19
▁locust 19
▁lots 19
▁magka 19
▁magmando 19
▁makadaghan 19
▁makaingon 19
▁malim 19
▁mamauli 19
▁mangurog 19
▁mapukan 19
▁marry 19
▁matagbaw 19
▁media 19
▁messenger 19
▁micah 19
▁mihilak 19
▁minatay 19
▁moluwas 19
▁mosinggit 19
▁move 19
▁moyukbo 19
▁nagdaugdaog 19
▁nagsangpit 19
▁nailhan 19
▁nalim 19
▁namunoan 19
▁ngabil 19
▁offenses 19
▁pagbiaybiay 19
▁pagmata 19
▁pagpangutana 19
▁pahamtang 19
▁pahimangno 19
▁palmera 19
▁pinasi 19
▁planned 19
▁plenty 19
▁provok 19
▁purify 19
▁puyopuyo 19
▁rebuilt 19
▁rejoiced 19
▁satisfy 19
▁secretly 19
▁serving 19
▁singsing 19
▁snare 19
▁sorrow 19
▁split 19
▁stretch 19
▁suborno 19
▁sud 19
▁suginl 19
▁talagsaon 19
▁tinugyanan 19
▁ubanan 19
▁unos 19
▁voices 19
▁voluntar 19
▁windows 19
af 18
ali 18
dahunog 18
ern 18
gpit 18
gukod 18
har 18
higot 18
ilak 18
inusara 18
kahuman 18
kalipay 18
kon 18
lam 18
mod 18
no 18
pasigarbo 18
silaob 18
sungay 18
tagbaw 18
▁8 18
▁adar 18
▁alarm 18
▁amalek 18
▁anguish 18
▁arrogance 18
▁bali 18
▁banquet 18
▁baptism 18
▁bitterness 18
▁boil 18
▁bought 18
▁burial 18
▁cedars 18
▁cesarea 18
▁common 18
▁conceal 18
▁custody 18
▁cyrus 18
▁dinaugdaog 18
▁dispossess 18
▁drawn 18
▁eliab 18
▁exchange 18
▁figs 18
▁firm 18
▁forehead 18
▁frightened 18
▁gantiha 18
▁gedalias 18
▁gerson 18
▁gibahin 18
▁gibati 18
▁gibihag 18
▁gidumtan 18
▁gipabuhat 18
▁gipasid 18
▁giputo 18
▁gomora 18
▁grabi 18
▁grounds 18
▁gu 18
▁helper 18
▁hibihanon 18
▁honored 18
▁ikawalo 18
▁informed 18
▁init 18
▁ipaila 18
▁isog 18
▁itudlo 18
▁jacobs 18
▁jesua 18
▁joyfully 18
▁jubilee 18
▁kaangayan 18
▁kabangis 18
▁kapahulayan 18
▁kasina 18
▁kaulaw 18
▁kaw 18
▁libro 18
▁linaw 18
▁lobe 18
▁lumad 18
▁lungag 18
▁lyre 18
▁maghilak 18
▁makapito 18
▁maluko 18
▁mamumuno 18
▁mangawat 18
▁mapana 18
▁masuso 18
▁mention 18
▁minds 18
▁misery 18
▁misugo 18
▁mitan 18
▁multiplied 18
▁nabihag 18
▁nagkaon 18
▁nagpakiluoy 18
▁nagsigi 18
▁nam 18
▁naulipon 18
▁ne 18
▁negosyante 18
▁obsc 18
▁obtain 18
▁oras 18
▁pagkamaunongon 18
▁pagkapari 18
▁paglapas 18
▁paglubong 18
▁pagpakita 18
▁pagpamatay 18
▁pagpan 18
▁pagtagad 18
▁pahiagom 18
▁pamanhonon 18
▁paralitiko 18
▁past 18
▁patag 18
▁pauli 18
▁plain 18
▁plow 18
▁potter 18
▁powerful 18
▁preached 18
▁proper 18
▁proud 18
▁putlon 18
▁real 18
▁released 18
▁restrain 18
▁revive 18
▁scepter 18
▁scriptures 18
▁self 18
▁shattered 18
▁shekel 18
▁short 18
▁silo 18
▁slow 18
▁spy 18
▁suok 18
▁tadyaw 18
▁takna 18
▁tal 18
▁thirst 18
▁tibod 18
▁timna 18
▁tingtugnaw 18
▁town 18
▁treacherous 18
▁troubled 18
▁tugas 18
▁uhot 18
▁unfaithful 18
▁valleys 18
▁vessels 18
▁wage 18
▁waited 18
▁warrior 18
12 17
abuga 17
ael 17
agmaya 17
akiggubat 17
bati 17
bed 17
dagan 17
dapit 17
et 17
hanas 17
haw 17
hipos 17
hubog 17
hugaw 17
il 17
kadako 17
kaluy 17
libog 17
ligid 17
lit 17
mikan 17
nagkamang 17
ngaliyupo 17
pahimutang 17
pasulti 17
pis 17
ry 17
sal 17
sama 17
samad 17
santa 17
sinunog 17
tugtog 17
ugilon 17
usap 17
wisik 17
▁11 17
▁18 17
▁abihu 17
▁acquire 17
▁affliction 17
▁alamag 17
▁amos 17
▁anhi 17
▁antioch 17
▁arose 17
▁ascend 17
▁astonished 17
▁bake 17
▁balas 17
▁bantay 17
▁begin 17
▁beneath 17
▁big 17
▁bil 17
▁booths 17
▁bribe 17
▁brook 17
▁ca 17
▁captives 17
▁cave 17
▁churches 17
▁cling 17
▁coals 17
▁collect 17
▁comforted 17
▁corrupt 17
▁courtyards 17
▁creature 17
▁dagami 17
▁dagway 17
▁daugdaogon 17
▁dayandayan 17
▁den 17
▁deserted 17
▁destroyer 17
▁determined 17
▁divination 17
▁dreams 17
▁dugmokon 17
▁eber 17
▁fac 17
▁feel 17
▁forces 17
▁fortunes 17
▁fragran 17
▁fury 17
▁gathering 17
▁gibugalbugalan 17
▁giihaw 17
▁gininhawa 17
▁gipainom 17
▁gipasidunggan 17
▁gis 17
▁gitagan 17
▁group 17
▁gutomon 17
▁harim 17
▁haughty 17
▁hikalimtan 17
▁ikalipay 17
▁impurity 17
▁ipahayag 17
▁ipasabot 17
▁isipa 17
▁jazer 17
▁jebusite 17
▁kabantog 17
▁kalasangan 17
▁kalibotana 17
▁katabang 17
▁katakos 17
▁kidneys 17
▁kinsmen 17
▁kinutaan 17
▁liso 17
▁maaseiah 17
▁magma 17
▁magulang 17
▁maila 17
▁makadaot 17
▁makauulaw 17
▁maluibon 17
▁mamalik 17
▁mamre 17
▁manglakaw 17
▁manimalos 17
▁manna 17
▁manoah 17
▁mat 17
▁meditate 17
▁mila 17
▁modangat 17
▁mopa 17
▁mota 17
▁mulo 17
▁mystery 17
▁nagkalisodlisod 17
▁nagpuasa 17
▁nagtrabaho 17
▁nahiuli 17
▁nakiggubat 17
▁nangurog 17
▁nest 17
▁paghilak 17
▁pagkamatinu 17
▁pains 17
▁pamihagon 17
▁pangita 17
▁perisihanon 17
▁personal 17
▁pinangga 17
▁pitch 17
▁pregnant 17
▁prevail 17
▁profit 17
▁pronouncement 17
▁provoke 17
▁r 17
▁repentance 17
▁reside 17
▁resides 17
▁respect 17
▁running 17
▁sanla 17
▁scales 17
▁securely 17
▁shade 17
▁shatter 17
▁sigi 17
▁signet 17
▁sinultihan 17
▁skill 17
▁smooth 17
▁sobra 17
▁star 17
▁store 17
▁stubborn 17
▁supak 17
▁tagdon 17
▁tapolan 17
▁tarshish 17
▁trample 17
▁trusted 17
▁tunokon 17
▁ugsok 17
▁village 17
▁weapons 17
▁winds 17
▁wonderful 17
▁worker 17
▁wrapp 17
▁youngest 17
9 16
agup 16
aling 16
ap 16
apas 16
aron 16
asawa 16
ash 16
buot 16
daro 16
dayag 16
for 16
gbugalbugal 16
ge 16
gpasipala 16
handom 16
hari 16
hoy 16
ier 16
ipapatay 16
itsa 16
iyahan 16
j 16
lanog 16
libot 16
liki 16
magko 16
ngomusta 16
opan 16
ped 16
pikaspikas 16
sulay 16
uk 16
ulo 16
uma 16
undang 16
utang 16
yad 16
▁12. 16
▁acceptable 16
▁accus 16
▁ahikam 16
▁anindot 16
▁aram 16
▁arrest 16
▁article 16
▁asin 16
▁assign 16
▁atimanon 16
▁bation 16
▁bayra 16
▁binordahan 16
▁block 16
▁budyong 16
▁caesarea 16
▁cheerful 16
▁cherub 16
▁ciro 16
▁clothe 16
▁collectors 16
▁court 16
▁crossing 16
▁deaf 16
▁dip 16
▁drop 16
▁dwells 16
▁eliakim 16
▁entering 16
▁evildoers 16
▁festo 16
▁forsaken 16
▁ga 16
▁giantos 16
▁gibuhian 16
▁gibunal 16
▁gigamhan 16
▁giguba 16
▁gipahimangnoan 16
▁gipatindog 16
▁gisaysay 16
▁gitabangan 16
▁gitagal 16
▁grown 16
▁happy 16
▁harp 16
▁hataga 16
▁hibaloi 16
▁hilabti 16
▁hilo 16
▁hittite 16
▁honi 16
▁hubag 16
▁hunahunaa 16
▁hur 16
▁ig 16
▁ilisan 16
▁immorality 16
▁isigkakilid 16
▁jackals 16
▁jael 16
▁jetro 16
▁kabanha 16
▁kaguliyang 16
▁kalimtan 16
▁kamanghoran 16
▁kangil 16
▁kapuy 16
▁karga 16
▁kaulag 16
▁kawalogan 16
▁kedar 16
▁kohath 16
▁laws 16
▁legs 16
▁letters 16
▁likeness 16
▁limp 16
▁maasias 16
▁magbubuhat 16
▁magkaon 16
▁magpadala 16
▁magpaki 16
▁makahimog 16
▁marriage 16
▁maulipon 16
▁mina 16
▁mis 16
▁misugilon 16
▁mita 16
▁miyukbo 16
▁mobangon 16
▁modan 16
▁molabay 16
▁mud 16
▁nabuhi 16
▁nagbuot 16
▁naghinulsol 16
▁nagkatigom 16
▁nagsulat 16
▁nahiagoman 16
▁namely 16
▁nazareth 16
▁ngitngit 16
▁nights 16
▁nuka 16
▁olives 16
▁outrageous 16
▁overflow 16
▁overlay 16
▁overtake 16
▁paadto 16
▁paadtoa 16
▁paggula 16
▁paghinulsol 16
▁pagkawala 16
▁pananglit 16
▁parables 16
▁parents 16
▁partiality 16
▁pataas 16
▁peor 16
▁performing 16
▁permit 16
▁pigs 16
▁pool 16
▁prayers 16
▁priesthood 16
▁prisoner 16
▁proclaiming 16
▁prutas 16
▁puntil 16
▁puyo 16
▁quarrel 16
▁relative 16
▁remote 16
▁require 16
▁sab 16
▁salabotan 16
▁salin 16
▁shallum 16
▁shem 16
▁shiloh 16
▁sickness 16
▁silyo 16
▁sinner 16
▁snow 16
▁soothsayer 16
▁street 16
▁tabang 16
▁talents 16
▁thirteen 16
▁timbangan 16
▁tithe 16
▁treasury 16
▁uncleanness 16
▁urg 16
▁uz 16
▁vessel 16
▁withered 16
▁wool 16
▁wounded 16
▁zerubabel 16
aawit 15
abin 15
agad 15
agway 15
ahom 15
ako 15
ard 15
aton 15
buang 15
canaan 15
dangat 15
drach 15
gmatinumanon 15
growers 15
hilak 15
hilayo 15
hupay 15
ipahimutang 15
ish 15
isugilon 15
isugo 15
kabig 15
kit 15
lad 15
lipayon 15
lisang 15
lukat 15
lupad 15
moab 15
ni 15
ningkamot 15
pakaulaw 15
pakigsulti 15
pundok 15
putol 15
rag 15
samok 15
saway 15
ser 15
shach 15
sudlan 15
suginlan 15
the 15
tigomanan 15
tukmo 15
tutok 15
uga 15
ukot 15
v 15
va 15
wa 15
▁10 15
▁acquired 15
▁adam 15
▁added 15
▁articles 15
▁baki 15
▁bald 15
▁balongbalong 15
▁bar 15
▁below 15
▁berseba 15
▁bodyguard 15
▁bowls 15
▁burst 15
▁cakes 15
▁capture 15
▁ce 15
▁clay 15
▁closed 15
▁condition 15
▁confront 15
▁corner 15
▁countries 15
▁countryman 15
▁crucify 15
▁deceived 15
▁dedan 15
▁demand 15
▁descend 15
▁desired 15
▁dina 15
▁direction 15
▁dish 15
▁dungga 15
▁earthquake 15
▁edrei 15
▁efeso 15
▁exact 15
▁exten 15
▁felt 15
▁forgiveness 15
▁giablihan 15
▁giadto 15
▁gidak 15
▁gidihogan 15
▁giila 15
▁gipahil 15
▁gipaka 15
▁gisunod 15
▁gisusi 15
▁gitanom 15
▁gladness 15
▁gomorrah 15
▁gosen 15
▁groan 15
▁grumble 15
▁gukd 15
▁hades 15
▁halayo 15
▁heber 15
▁heifer 15
▁highest 15
▁hikaplagi 15
▁holiness 15
▁hostility 15
▁hypocrites 15
▁iddo 15
▁ikaunom 15
▁ikog 15
▁ilha 15
▁ilogon 15
▁ilong 15
▁intend 15
▁ipatawag 15
▁jar 15
▁jesse 15
▁kagikan 15
▁kahugaw 15
▁kaibog 15
▁kaso 15
▁kastigo 15
▁kina 15
▁kinabu 15
▁lachish 15
▁lacking 15
▁laglaga 15
▁lazarus 15
▁leaven 15
▁loss 15
▁maanindot 15
▁madaot 15
▁magbayad 15
▁magpakahilom 15
▁magpulos 15
▁magtigom 15
▁maluya 15
▁mangaon 15
▁manoa 15
▁mapasaylo 15
▁mapintas 15
▁mapuo 15
▁matulog 15
▁mawala 15
▁measur 15
▁measurements 15
▁milingi 15
▁molaban 15
▁mopadayon 15
▁mortal 15
▁nagbagulbol 15
▁nagd 15
▁nagkupo 15
▁nagpatay 15
▁nahiagom 15
▁nahuman 15
▁nanag 15
▁nasakit 15
▁nets 15
▁nganlan 15
▁ngilit 15
▁nineveh 15
▁obligation 15
▁office 15
▁pagbutang 15
▁pagdaugdaog 15
▁pagkabat 15
▁pagkabigaon 15
▁pagpasalamat 15
▁pagpauli 15
▁pagpuasa 15
▁pagsugo 15
▁pailob 15
▁palakta 15
▁pangayo 15
▁pasid 15
▁pauban 15
▁pe 15
▁persecute 15
▁perseverance 15
▁perverse 15
▁pierced 15
▁pinu 15
▁plains 15
▁planggana 15
▁plants 15
▁prevailed 15
▁rabbi 15
▁reed 15
▁rehum 15
▁restitution 15
▁restored 15
▁salmon 15
▁sanlahon 15
▁seem 15
▁sekretaryo 15
▁semaias 15
▁shave 15
▁shelter 15
▁shemaiah 15
▁sleeps 15
▁smash 15
▁statue 15
▁straw 15
▁stream 15
▁sucot 15
▁sugnod 15
▁sumusunod 15
▁sunda 15
▁survivor 15
▁swept 15
▁taho 15
▁tahoron 15
▁terrors 15
▁tigoma 15
▁tobiah 15
▁tobias 15
▁trade 15
▁troops 15
▁tunic 15
▁turban 15
▁twilight 15
▁ulahi 15
▁unwilling 15
▁vari 15
▁view 15
▁walo 15
▁warm 15
▁working 15
▁wound 15
▁z 15
▁zeal 15
▁zin 15
▁zoar 15
300 14
age 14
agon 14
ahan 14
ate 14
bag 14
bas 14
bel 14
biaybiay 14
biaybiayon 14
bugkos 14
bul 14
bunyag 14
dagayday 14
dal 14
dia 14
eh 14
hilom 14
hinloan 14
hubas 14
ibuk 14
if 14
ina 14
isaad 14
kalimtan 14
kalit 14
kiha 14
kmiton 14
laid 14
latter 14
limbong 14
lipak 14
lipod 14
moy 14
nego 14
pamatigayon 14
patuo 14
red 14
saysay 14
servant 14
sibog 14
stretched 14
tambong 14
tawo 14
tikaw 14
two 14
ur 14
uswag 14
uuma 14
wak 14
▁13 14
▁abaga 14
▁accomplished 14
▁acknowledge 14
▁admonish 14
▁alike 14
▁anakim 14
▁andana 14
▁anino 14
▁approaching 14
▁attitude 14
▁awiti 14
▁bank 14
▁bath 14
▁beersheba 14
▁beings 14
▁bent 14
▁beor 14
▁bihagon 14
▁bin 14
▁bondage 14
▁borders 14
▁breast 14
▁bunal 14
▁center 14
▁chaff 14
▁chase 14
▁co 14
▁conceive 14
▁concubine 14
▁condemned 14
▁confirm 14
▁consult 14
▁course 14
▁crooked 14
▁curses 14
▁dagtom 14
▁dakpon 14
▁dalila 14
▁defense 14
▁dishonor 14
▁dismayed 14
▁distan 14
▁drinks 14
▁duna 14
▁dung 14
▁egyptian 14
▁eleven 14
▁eliashib 14
▁eliezer 14
▁enjoy 14
▁entrails 14
▁eunuchs 14
▁explain 14
▁festus 14
▁flies 14
▁flower 14
▁foreigner 14
▁frankincense 14
▁fullness 14
▁gapos 14
▁gatekeepers 14
▁gathers 14
▁gialagaran 14
▁gibag 14
▁gidangatan 14
▁gidapit 14
▁gikulit 14
▁gilay 14
▁gimbu 14
▁gipalakaw 14
▁gitagoan 14
▁giulipon 14
▁goshen 14
▁grave 14
▁greeks 14
▁habagatang 14
▁halin 14
▁hammer 14
▁han 14
▁hanan 14
▁hanging 14
▁hat 14
▁hatred 14
▁hebrews 14
▁hell 14
▁helmet 14
▁hiilhi 14
▁hilom 14
▁hinalad 14
▁humanity 14
▁hunger 14
▁hungog 14
▁ikasiyam 14
▁inflict 14
▁inscription 14
▁instructed 14
▁inter 14
▁jab 14
▁jabin 14
▁jezreel 14
▁joas 14
▁jopa 14
▁kaabin 14
▁kabanay 14
▁kabukogan 14
▁kadato 14
▁kadmiel 14
▁kagahob 14
▁kalainan 14
▁kiliran 14
▁kuy 14
▁lakis 14
▁lamian 14
▁lamparahan 14
▁lend 14
▁load 14
▁loose 14
▁lu 14
▁lunop 14
▁luya 14
▁luz 14
▁maalam 14
▁magbubunyag 14
▁magmalinawon 14
▁magpaka 14
▁magsigi 14
▁maihap 14
▁maintain 14
▁makapahulay 14
▁makausa 14
▁malimbongon 14
▁mapakyas 14
▁mapatay 14
▁mean 14
▁melt 14
▁migikan 14
▁mira 14
▁mituaw 14
▁molaglag 14
▁nagbutang 14
▁nagdan 14
▁naghigda 14
▁naghiusa 14
▁naglaom 14
▁nagsangyaw 14
▁namalandong 14
▁napatay 14
▁obtained 14
▁opens 14
▁overcome 14
▁pagkabalaan 14
▁pagkahuman 14
▁pagminatay 14
▁pagpanag 14
▁pagpanaw 14
▁pagsakit 14
▁pagsaksi 14
▁pagtubag 14
▁pahibalo 14
▁paimna 14
▁paimnon 14
▁palibot 14
▁panimalos 14
▁panulondon 14
▁paran 14
▁pasidungg 14
▁patingog 14
▁piso 14
▁plundered 14
▁porches 14
▁possible 14
▁post 14
▁poverty 14
▁prophesying 14
▁prostitutes 14
▁provided 14
▁rebel 14
▁repeatedly 14
▁responsibility 14
▁retribution 14
▁rising 14
▁roads 14
▁rocks 14
▁row 14
▁sacrificed 14
▁saduseo 14
▁sambingaya 14
▁saop 14
▁seems 14
▁settle 14
▁shela 14
▁shelah 14
▁sinulat 14
▁slavery 14
▁snares 14
▁snatch 14
▁sole 14
▁sour 14
▁spi 14
▁spies 14
▁spreading 14
▁sprout 14
▁strange 14
▁strengthened 14
▁striv 14
▁succoth 14
▁sulayan 14
▁summer 14
▁tabor 14
▁ter 14
▁tested 14
▁threshold 14
▁tinuyo 14
▁tithes 14
▁tombs 14
▁tongues 14
▁torment 14
▁tribulation 14
▁tribute 14
▁tried 14
▁tubal 14
▁tuiga 14
▁tultol 14
▁turtledove 14
▁tutok 14
▁unahan 14
▁unpunished 14
▁useless 14
▁valiant 14
▁vegetation 14
▁watches 14
▁weighed 14
▁withers 14
▁wounds 14
,500 13
agkinahanglan 13
agos 13
ahiladman 13
awan 13
awhag 13
bad 13
baha 13
bahin 13
balik 13
bang 13
bay 13
bitbit 13
butyag 13
by 13
dagmal 13
dungaw 13
ehold 13
ghago 13
guba 13
gunit 13
hag 13
ham 13
hapak 13
hasmag 13
hinog 13
hos 13
husay 13
ibog 13
ice 13
imo 13
iran 13
itapi 13
iw 13
kahatag 13
kanaog 13
kasilagan 13
kuhaan 13
kuyaw 13
lawig 13
lim 13
lon 13
lubong 13
luib 13
mas 13
mu 13
ngulob 13
num 13
orma 13
ors 13
pad 13
papahawa 13
pasalaag 13
patubo 13
pot 13
pu 13
suroy 13
tagad 13
taktak 13
tanom 13
tar 13
tical 13
tol 13
uol 13
upaw 13
yayong 13
▁120 13
▁addition 13
▁advantage 13
▁alagari 13
▁alampoanan 13
▁alert 13
▁aloud 13
▁amram 13
▁andres 13
▁andrew 13
▁announce 13
▁arabia 13
▁argue 13
▁azariah 13
▁baligya 13
▁bands 13
▁baptist 13
▁barac 13
▁baskets 13
▁bat 13
▁beaten 13
▁beating 13
▁beer 13
▁beg 13
▁behavior 13
▁ben 13
▁biniyaan 13
▁binnui 13
▁black 13
▁ble 13
▁bone 13
▁bu 13
▁bukag 13
▁bush 13
▁butoy 13
▁caus 13
▁cleansing 13
▁colt 13
▁commission 13
▁compare 13
▁compassionate 13
▁complain 13
▁complaint 13
▁copy 13
▁cords 13
▁counsel 13
▁credited 13
▁cruel 13
▁debir 13
▁deception 13
▁delightful 13
▁delivered 13
▁denie 13
▁destin 13
▁different 13
▁dig 13
▁diligently 13
▁diseases 13
▁divisions 13
▁dogs 13
▁dough 13
▁dut 13
▁eagerly 13
▁eastward 13
▁edad 13
▁entrusted 13
▁equal 13
▁everywhere 13
▁excellent 13
▁exposed 13
▁failed 13
▁fasting 13
▁finish 13
▁force 13
▁giatiman 13
▁gibilin 13
▁gibug 13
▁gigunitan 13
▁gihapina 13
▁gihigdaan 13
▁gihinloan 13
▁gikalisangan 13
▁gipatibulaag 13
▁gituli 13
▁gnash 13
▁godless 13
▁gramos 13
▁grieved 13
▁groaning 13
▁hamath 13
▁himalatyon 13
▁hitsura 13
▁hoof 13
▁humbled 13
▁hurl 13
▁husay 13
▁ibayaw 13
▁ihawa 13
▁immer 13
▁impirno 13
▁includ 13
▁increasing 13
▁inigkamatay 13
▁ipasulo 13
▁ipugas 13
▁isab 13
▁jerubbaal 13
▁joppa 13
▁kabalangayan 13
▁kabang 13
▁kagubot 13
▁kanhi 13
▁kasilag 13
▁kaulipnan 13
▁kinat 13
▁kinatu 13
▁kuko 13
▁labored 13
▁labors 13
▁laodicea 13
▁late 13
▁leaf 13
▁leap 13
▁limpyo 13
▁lingkod 13
▁lo 13
▁lobo 13
▁lungsora 13
▁mabalaka 13
▁machir 13
▁magbudhi 13
▁magdumili 13
▁maghunahuna 13
▁magpail 13
▁magpuasa 13
▁magsul 13
▁magtrabaho 13
▁mah 13
▁mahinumdom 13
▁mainom 13
▁makalipay 13
▁makapahimul 13
▁malaya 13
▁malchijah 13
▁mam 13
▁map 13
▁mapailubon 13
▁marta 13
▁martha 13
▁matumba 13
▁maulaw 13
▁melquisedec 13
▁merchants 13
▁mes 13
▁metro 13
▁milawig 13
▁minister 13
▁ministers 13
▁mobarog 13
▁mola 13
▁molakaw 13
▁mosanay 13
▁motan 13
▁murderer 13
▁naangkon 13
▁nabanhaw 13
▁nabatasan 13
▁nagha 13
▁nagtaba 13
▁nahibalik 13
▁nahot 13
▁nakaikyas 13
▁nanaka 13
▁nangagi 13
▁nangasawa 13
▁nanghapa 13
▁naputo 13
▁neglect 13
▁noise 13
▁nurs 13
▁oak 13
▁ordain 13
▁outcry 13
▁paghinlo 13
▁pagpaila 13
▁pagpangayo 13
▁pagtin 13
▁pala 13
▁palakton 13
▁pamation 13
▁paralyzed 13
▁persuaded 13
▁phinehas 13
▁pil 13
▁pila 13
▁pinehas 13
▁pleading 13
▁porch 13
▁position 13
▁pot 13
▁praised 13
▁proportion 13
▁proverb 13
▁provisions 13
▁purchased 13
▁rage 13
▁reclining 13
▁record 13
▁reply 13
▁rescues 13
▁respond 13
▁robes 13
▁roma 13
▁sadducees 13
▁sakay 13
▁sanctif 13
▁sanctified 13
▁satraps 13
▁season 13
▁secure 13
▁shackles 13
▁site 13
▁skillful 13
▁solemn 13
▁sp 13
▁spices 13
▁staying 13
▁stick 13
▁stoned 13
▁strip 13
▁successful 13
▁sul 13
▁sulo 13
▁sundon 13
▁tail 13
▁taknaa 13
▁tana 13
▁tay 13
▁terah 13
▁terrify 13
▁tie 13
▁timoteo 13
▁tisa 13
▁towers 13
▁tuohi 13
▁udto 13
▁ulohan 13
▁unintentionally 13
▁urge 13
▁uyon 13
▁vines 13
▁vowed 13
▁wedding 13
▁withhold 13
▁worked 13
▁worn 13
▁writing 13
▁zera 13
▁zerah 13
500 12
ach 12
ahulog 12
angulohan 12
aries 12
batonan 12
coming 12
dak 12
dding 12
del 12
gakos 12
gged 12
gil 12
glutos 12
gmulo 12
gpahinumdom 12
habol 12
hand 12
handed 12
hikaw 12
itanan 12
kaulaw 12
kiglantugi 12
kurog 12
kusog 12
limod 12
lista 12
nghambog 12
nindot 12
ntala 12
one 12
papauli 12
pasanay 12
pugas 12
pukaw 12
puti 12
ripa 12
sabak 12
samaran 12
sang 12
sen 12
siguro 12
ster 12
sukaran 12
tagaw 12
tahan 12
tam 12
tently 12
tro 12
tuis 12
tunga 12
tuslob 12
ubo 12
▁6 12
▁abundantly 12
▁advanc 12
▁afar 12
▁ah 12
▁alawiton 12
▁amon 12
▁appalled 12
▁armed 12
▁arrested 12
▁asupre 12
▁attendants 12
▁avenger 12
▁axe 12
▁balsam 12
▁barak 12
▁belly 12
▁belonging 12
▁betania 12
▁bilanggoon 12
▁bisita 12
▁blemish 12
▁blessings 12
▁broad 12
▁buk 12
▁bungol 12
▁butangan 12
▁carrie 12
▁citadel 12
▁confined 12
▁confusion 12
▁control 12
▁cornelio 12
▁dagan 12
▁daot 12
▁darkened 12
▁delights 12
▁deliver 12
▁devot 12
▁dim 12
▁disobedient 12
▁disperse 12
▁display 12
▁doble 12
▁dressed 12
▁ebal 12
▁ebanghelyo 12
▁ebed 12
▁elim 12
▁endured 12
▁ephesus 12
▁estatuwa 12
▁fever 12
▁fighting 12
▁finding 12
▁fingers 12
▁flam 12
▁flatter 12
▁fortress 12
▁gantang 12
▁gatos 12
▁geba 12
▁gerar 12
▁gershon 12
▁gibuk 12
▁gidili 12
▁gidugmok 12
▁gigu 12
▁gikapuyan 12
▁giku 12
▁gilig 12
▁gipaabot 12
▁gipahayag 12
▁gipugas 12
▁girls 12
▁gitagbo 12
▁gitam 12
▁gitapta 12
▁gloom 12
▁granada 12
▁hageo 12
▁hanged 12
▁helped 12
▁helpless 12
▁herodias 12
▁hikalimti 12
▁hinuo 12
▁hivite 12
▁idol 12
▁igos 12
▁intent 12
▁itamar 12
▁itandi 12
▁jair 12
▁kaadlawon 12
▁kabuang 12
▁kadungganan 12
▁kahalangdon 12
▁kalanggaman 12
▁kapildihan 12
▁kapin 12
▁kareah 12
▁katuigan 12
▁kwadrado 12
▁laborious 12
▁lakang 12
▁lami 12
▁laugh 12
▁lawasnon 12
▁le 12
▁lean 12
▁libnah 12
▁limbong 12
▁lugas 12
▁maani 12
▁maasawa 12
▁magdalene 12
▁magduga 12
▁magmatinumanon 12
▁magsugod 12
▁mahadlokon 12
▁mahuman 12
▁makakuha 12
▁makatubag 12
▁makusog 12
▁mal 12
▁malig 12
▁malumo 12
▁mamakak 12
▁maminyo 12
▁masukad 12
▁matunaw 12
▁mauswagon 12
▁mere 12
▁meriba 12
▁meshullam 12
▁miikyas 12
▁mislead 12
▁miturok 12
▁mobayad 12
▁molu 12
▁molupad 12
▁mosalop 12
▁mosangko 12
▁myrrh 12
▁nagbu 12
▁nagdagayday 12
▁naghu 12
▁naglupad 12
▁nagsubo 12
▁nah 12
▁nangalaya 12
▁nangalisang 12
▁nasayop 12
▁naulawan 12
▁nebu 12
▁necessary 12
▁noble 12
▁obstinate 12
▁opportunity 12
▁oppressor 12
▁overseer 12
▁overthrow 12
▁pagpaki 12
▁pagtabok 12
▁pair 12
▁pak 12
▁palas 12
▁pam 12
▁panagna 12
▁papason 12
▁pas 12
▁paulanan 12
▁peleg 12
▁period 12
▁piniyalan 12
▁plagues 12
▁plasa 12
▁pomegranates 12
▁pre 12
▁proclamation 12
▁pugson 12
▁purong 12
▁putla 12
▁ramah 12
▁receiv 12
▁rehob 12
▁rejoices 12
▁renew 12
▁res 12
▁resident 12
▁reu 12
▁reuel 12
▁rezin 12
▁ride 12
▁sack 12
▁safety 12
▁sang 12
▁scale 12
▁security 12
▁sentence 12
▁seraias 12
▁shealtiel 12
▁sitro 12
▁sleeping 12
▁slept 12
▁space 12
▁stomach 12
▁stumbled 12
▁sustain 12
▁swift 12
▁tables 12
▁talked 12
▁tanghaga 12
▁tarsis 12
▁testifies 12
▁thoroughly 12
▁thread 12
▁thrones 12
▁tired 12
▁total 12
▁trabahador 12
▁trangka 12
▁tread 12
▁tuboran 12
▁tukbonon 12
▁tul 12
▁tungloh 12
▁twice 12
▁unit 12
▁uproar 12
▁violated 12
▁vomit 12
▁watchmen 12
▁weeks 12
▁welcome 12
▁westward 12
▁wickedly 12
▁wither 12
▁zalmunna 12
▁ze 12
▁zebul 12
1 11
15 11
4 11
abtan 11
agaw 11
asuko 11
ated 11
ato 11
babag 11
banos 11
blaz 11
bulit 11
bungkag 11
busog 11
drac 11
dunot 11
ently 11
ero 11
esh 11
ezer 11
galong 11
gbudhi 11
hadlok 11
hagdaw 11
halok 11
hid 11
hinulsol 11
hulga 11
hunonga 11
ibayad 11
ilis 11
inday 11
ith 11
kahibalo 11
kahigayon 11
kalot 11
kawas 11
ke 11
kigbatok 11
kla 11
lah 11
lisudliso 11
lupig 11
mata 11
nadab 11
nago 11
nah 11
namkon 11
nay 11
obra 11
oops 11
paagas 11
pahilayo 11
pahimuslan 11
palayo 11
pamulong 11
patalinghog 11
patubig 11
patunhay 11
pya 11
rang 11
sakit 11
sangil 11
sangko 11
scribe 11
sid 11
sina 11
special 11
sudya 11
tago 11
tambok 11
tigom 11
tilaw 11
tipas 11
tubo 11
tulin 11
tunob 11
udlanan 11
uel 11
yabo 11
zarad 11
zer 11
▁1,2 11
▁200 11
▁abednego 11
▁ablihan 11
▁abound 11
▁agripa 11
▁amang 11
▁anathoth 11
▁anihon 11
▁appears 11
▁apportion 11
▁assault 11
▁az 11
▁azarias 11
▁backs 11
▁badlonga 11
▁balig 11
▁balili 11
▁bangan 11
▁barabbas 11
▁bataa 11
▁beard 11
▁bears 11
▁blossoms 11
▁blows 11
▁br 11
▁buang 11
▁canals 11
▁carcass 11
▁carmi 11
▁ceased 11
▁che 11
▁chew 11
▁chiefs 11
▁cilicia 11
▁closely 11
▁cold 11
▁commands 11
▁committ 11
▁companion 11
▁concealed 11
▁confirmed 11
▁cord 11
▁correct 11
▁craftsmen 11
▁creation 11
▁crie 11
▁cultivate 11
▁decay 11
▁decision 11
▁deprive 11
▁destroying 11
▁devastation 11
▁differ 11
▁dinapit 11
▁discover 11
▁dishon 11
▁distinguish 11
▁distressed 11
▁divine 11
▁dove 11
▁drip 11
▁dunggo 11
▁duty 11
▁ease 11
▁ehud 11
▁eighteen 11
▁elifas 11
▁eliphaz 11
▁elisabet 11
▁encourage 11
▁encouraged 11
▁esteban 11
▁evidence 11
▁exhausted 11
▁faced 11
▁feasts 11
▁festival 11
▁flashing 11
▁fragrance 11
▁frighten 11
▁gamaliel 11
▁garantiya 11
▁gazelle 11
▁gidayandayan 11
▁gihik 11
▁gihikaw 11
▁gilain 11
▁ginhawaan 11
▁gipakaon 11
▁gipamu 11
▁gipangandoy 11
▁gipasaka 11
▁gipatrabaho 11
▁gipiyal 11
▁giputol 11
▁gisab 11
▁gisugi 11
▁gitalikdan 11
▁gitipigan 11
▁giukanan 11
▁glean 11
▁grasp 11
▁gray 11
▁greatest 11
▁greek 11
▁greetings 11
▁grows 11
▁haggai 11
▁harden 11
▁hardship 11
▁haw 11
▁heirs 11
▁horeb 11
▁hugasi 11
▁hugawhugaw 11
▁hunt 11
▁hutdo 11
▁hyssop 11
▁imprisonment 11
▁increases 11
▁inform 11
▁inosente 11
▁inquired 11
▁install 11
▁intoxicat 11
▁inubana 11
▁invite 11
▁ipadpad 11
▁iscariot 11
▁iscariote 11
▁ithamar 11
▁itlog 11
▁itom 11
▁jethro 11
▁joaquin 11
▁joash 11
▁jubilant 11
▁kapintas 11
▁kapuloan 11
▁kasigurohan 11
▁kaugmaon 11
▁kinabuhia 11
▁kindly 11
▁koral 11
▁languages 11
▁liver 11
▁loft 11
▁lowland 11
▁lungsoranon 11
▁maantigo 11
▁mabihag 11
▁madala 11
▁madato 11
▁magdalena 11
▁maglakaw 11
▁magpakasala 11
▁magpakita 11
▁magpakitabang 11
▁magpas 11
▁magsuroysuroy 11
▁mahigugma 11
▁mahimutang 11
▁mahinumdoman 11
▁mahumot 11
▁makapauli 11
▁makatulo 11
▁makawang 11
▁malukat 11
▁mangangayam 11
▁manslaughter 11
▁manumbaling 11
▁mensahero 11
▁milcah 11
▁ministry 11
▁misana 11
▁mock 11
▁modaog 11
▁mohigda 11
▁mohimo 11
▁mokaylap 11
▁mosugot 11
▁mouna 11
▁nagkalot 11
▁nagla 11
▁nagputo 11
▁nagsinggit 11
▁nagtahod 11
▁nagtubo 11
▁nahaso 11
▁nahugaw 11
▁nakat 11
▁naminyo 11
▁nanapaw 11
▁nanghilak 11
▁nanginom 11
▁nasareo 11
▁nasunog 11
▁natan 11
▁nazirite 11
▁nebusaradan 11
▁needs 11
▁nethaniah 11
▁obed 11
▁observe 11
▁observed 11
▁oven 11
▁ow 11
▁owl 11
▁pabayr 11
▁paggawas 11
▁paghago 11
▁paghangyo 11
▁pagkahimo 11
▁pagpadala 11
▁pagpanimalos 11
▁pagpasaylo 11
▁pagpugong 11
▁pagpunay 11
▁pahawa 11
▁palaces 11
▁palahubog 11
▁palayo 11
▁panabang 11
▁pangaliya 11
▁pangandoy 11
▁papauli 11
▁pashhur 11
▁pasudlon 11
▁patibulaaga 11
▁patience 11
▁perizzite 11
▁persecuted 11
▁pinatyanay 11
▁poison 11
▁possessed 11
▁prudent 11
▁pu 11
▁pug 11
▁purim 11
▁rama 11
▁ransom 11
▁realm 11
▁recline 11
▁refined 11
▁remainder 11
▁riding 11
▁roman 11
▁roo 11
▁ruthless 11
▁safely 11
▁sagol 11
▁scorched 11
▁selected 11
▁sense 11
▁serpents 11
▁sh 11
▁shinar 11
▁sid 11
▁siguro 11
▁silence 11
▁sinago 11
▁sinugdanan 11
▁slander 11
▁smashed 11
▁spear 11
▁spears 11
▁stern 11
▁stripped 11
▁stubbornness 11
▁stupid 11
▁succeed 11
▁sudlana 11
▁summon 11
▁sunogan 11
▁suppo 11
▁sweep 11
▁talikdan 11
▁task 11
▁tema 11
▁teman 11
▁tempted 11
▁thin 11
▁timnah 11
▁tomas 11
▁toril 11
▁traders 11
▁translated 11
▁tuaw 11
▁tukma 11
▁tuli 11
▁tunok 11
▁twelfth 11
▁ulod 11
▁umagad 11
▁uncle 11
▁understands 11
▁unrighteousness 11
▁valid 11
▁value 11
▁wailing 11
▁warn 11
▁warning 11
▁weaver 11
▁weeds 11
▁wineskins 11
▁wing 11
▁winter 11
▁withheld 11
▁zadok 11
▁zebedee 11
,500. 10
13 10
30 10
agiw 10
alam 10
anak 10
aran 10
arang 10
baal 10
bon 10
bubo 10
budhian 10
buling 10
butangbutang 10
con 10
dayon 10
dihog 10
edad 10
eph 10
fertile 10
gahom 10
ganti 10
gilead 10
gmata 10
gula 10
hugasan 10
ihanon 10
ilhon 10
ill 10
ingil 10
ipakaon 10
ita 10
jamin 10
jearim 10
kan 10
kawat 10
kiglalis 10
kusokuso 10
labaw 10
lamat 10
lantaw 10
libotan 10
lihok 10
man 10
me 10
mit 10
nazaret 10
nd 10
ngalan 10
nu 10
old 10
onganan 10
padayon 10
pagahi 10
pahilom 10
pahiran 10
pahubas 10
pasaylo 10
pasilong 10
pildi 10
pobre 10
possessed 10
ru 10
sakmit 10
salig 10
sangpot 10
sidlak 10
sirhan 10
some 10
sot 10
sudla 10
sundog 10
tened 10
tud 10
tungtong 10
ura 10
urim 10
vo 10
wali 10
wataswatas 10
yam 10
yed 10
▁110 10
▁12,000; 10
▁abib 10
▁accompani 10
▁accuser 10
▁adversity 10
▁agrippa 10
▁ahi 10
▁aminadab 10
▁ampoanan 10
▁ana 10
▁anah 10
▁appeal 10
▁ariyos 10
▁asdod 10
▁ashdod 10
▁associate 10
▁atay 10
▁atimana 10
▁awe 10
▁awoke 10
▁ayoha 10
▁baals 10
▁balaya 10
▁basahona 10
▁batasan 10
▁batoha 10
▁bebai 10
▁bela 10
▁bend 10
▁besalel 10
▁binayaw 10
▁bitterly 10
▁blossom 10
▁boldly 10
▁bolt 10
▁books 10
▁boys 10
▁brimstone 10
▁bugalbugalan 10
▁bugang 10
▁buhii 10
▁bulb 10
▁bunyag 10
▁calm 10
▁car 10
▁cipre 10
▁cistern 10
▁collapse 10
▁company 10
▁conscience 10
▁corpses 10
▁correctly 10
▁correspond 10
▁counselors 10
▁courageous 10
▁cows 10
▁create 10
▁cu 10
▁cups 10
▁customs 10
▁dag 10
▁dare 10
▁dat 10
▁dathan 10
▁dayag 10
▁dedicat 10
▁defeat 10
▁denario 10
▁depth 10
▁dihogi 10
▁dinner 10
▁disgust 10
▁disturb 10
▁diviners 10
▁doom 10
▁dugaydugay 10
▁eager 10
▁eighty 10
▁eleventh 10
▁eliasib 10
▁elon 10
▁entiles 10
▁exist 10
▁farther 10
▁fashion 10
▁fearing 10
▁figure 10
▁fitting 10
▁flint 10
▁flute 10
▁fly 10
▁founded 10
▁freedom 10
▁frogs 10
▁future 10
▁gaal 10
▁gat 10
▁generous 10
▁gibaylo 10
▁gibunyagan 10
▁gidulot 10
▁gihagoan 10
▁gihu 10
▁gihubo 10
▁gihuptan 10
▁gilista 10
▁gipaila 10
▁gipangasawa 10
▁gipuno 10
▁gitapi 10
▁grecia 10
▁grind 10
▁gula 10
▁gush 10
▁happens 10
▁hayag 10
▁hazar 10
▁heth 10
▁higher 10
▁hikaplagan 10
▁hip 10
▁hostil 10
▁hug 10
▁humility 10
▁hung 10
▁importante 10
▁infidelity 10
▁instruments 10
▁interpret 10
▁investigate 10
▁ipasi 10
▁iph 10
▁japet 10
▁jedaiah 10
▁jefone 10
▁jephunneh 10
▁jotam 10
▁jotham 10
▁juniper 10
▁kabanayan 10
▁kailibgon 10
▁kalisangan 10
▁kamalig 10
▁kapasikaran 10
▁kaslonon 10
▁laborers 10
▁lacks 10
▁langaw 10
▁latoson 10
▁libna 10
▁lingkoranan 10
▁lipudlipod 10
▁lud 10
▁lungib 10
▁mabuhat 10
▁mabusog 10
▁magpasipala 10
▁magpatalinghog 10
▁magpatuli 10
▁magsangyaw 10
▁mahisakop 10
▁mala 10
▁malala 10
▁malice 10
▁mamumuo 10
▁mananapaw 10
▁manunubos 10
▁mapuypoy 10
▁masabt 10
▁matarog 10
▁matters 10
▁matukib 10
▁merkado 10
▁mesullam 10
▁midnight 10
▁migdol 10
▁mihang 10
▁milo 10
▁ministering 10
▁modagan 10
▁mokuha 10
▁moth 10
▁moulan 10
▁nabahin 10
▁nabalaka 10
▁nadab 10
▁naglakawlakaw 10
▁nagpangidlap 10
▁nagtam 10
▁nakalipay 10
▁namakak 10
▁nangaayo 10
▁nangaguba 10
▁nangatulog 10
▁nanubo 10
▁nanudlo 10
▁nanung 10
▁napili 10
▁nasab 10
▁nature 10
▁nazarene 10
▁nine 10
▁noon 10
▁northward 10
▁nurse 10
▁oaks 10
▁obedience 10
▁obedient 10
▁ordination 10
▁oso 10
▁overpower 10
▁paanhi 10
▁paatubang 10
▁pabalik 10
▁padaghanon 10
▁pagasunogon 10
▁pagbugalbugal 10
▁paghusay 10
▁pagkabata 10
▁pagkahimugso 10
▁pagpangaon 10
▁pagpangasawa 10
▁pagpanghinlo 10
▁pagsubo 10
▁palabih 10
▁palit 10
▁panalangini 10
▁panghunahuna 10
▁pangitaa 10
▁panimasl 10
▁paninglan 10
▁pasa 10
▁pastures 10
▁patalinghog 10
▁patik 10
▁patingogon 10
▁pegs 10
▁perceive 10
▁pile 10
▁plaster 10
▁prevent 10
▁pro 10
▁prolong 10
▁promises 10
▁prosper 10
▁puli 10
▁punished 10
▁pur 10
▁purification 10
▁quiver 10
▁rebels 10
▁rebukes 10
▁rec 10
▁records 10
▁rehas 10
▁reminder 10
▁repaired 10
▁rephaim 10
▁returns 10
▁revere 10
▁reverence 10
▁riddle 10
▁rightly 10
▁rinyon 10
▁ripa 10
▁roast 10
▁robbery 10
▁rods 10
▁ru 10
▁sabta 10
▁sacks 10
▁sad 10
▁sale 10
▁samaryanhon 10
▁sanballat 10
▁sanctifie 10
▁sangko 10
▁saylo 10
▁seashore 10
▁seba 10
▁sebedeo 10
▁settings 10
▁shone 10
▁shoots 10
▁shoulders 10
▁sickle 10
▁simbolo 10
▁simpl 10
▁sinful 10
▁siyam 10
▁skins 10
▁sounded 10
▁spared 10
▁spiritual 10
▁state 10
▁station 10
▁stubble 10
▁suffering 10
▁sugoon 10
▁supply 10
▁tab 10
▁tagoi 10
▁tall 10
▁tamayon 10
▁taw 10
▁temploha 10
▁tera 10
▁terms 10
▁thomas 10
▁thorn 10
▁tied 10
▁timailhan 10
▁timothy 10
▁tinag 10
▁tinam 10
▁troubles 10
▁trustworthy 10
▁tungas 10
▁tunics 10
▁ugaling 10
▁uhawon 10
▁ur 10
▁ut 10
▁uwak 10
▁uzias 10
▁vindicate 10
▁waits 10
▁watchman 10
▁wealthy 10
▁week 10
▁wheel 10
▁withdraw 10
▁wrap 10
▁wrongful 10
▁zabdi 10
▁zalmuna 10
,100 9
11 9
24 9
54 9
60 9
abtik 9
amping 9
and 9
angha 9
anim 9
api 9
aram 9
ayan 9
az 9
babayen 9
bakos 9
banhaw 9
barnea 9
baylo 9
bilin 9
bugto 9
bus 9
cy 9
dapig 9
drawn 9
ehud 9
emuel 9
ena 9
ent 9
four 9
ginhawa 9
giok 9
gkauyon 9
habas 9
hagkan 9
hampak 9
her 9
hikalim 9
himsog 9
hinloi 9
horon 9
hudyaka 9
hugpa 9
hukmi 9
human 9
ikas 9
ikyas 9
ile 9
insulto 9
ipadayon 9
itan 9
itanom 9
judio 9
kabayo 9
kagot 9
kaluwas 9
kapalit 9
kasad 9
kom 9
kot 9
ks 9
kulang 9
kutkot 9
lain 9
likayan 9
linog 9
lumos 9
lutaw 9
mag 9
masa 9
men 9
midian 9
mulak 9
nalangin 9
out 9
padala 9
pahiagom 9
pamatuod 9
panag 9
panalangin 9
pandong 9
panganak 9
pangasawa 9
pangutan 9
pasilaob 9
pugngan 9
pusgay 9
rah 9
rance 9
rely 9
sabod 9
say 9
scent 9
scribed 9
servants 9
she 9
sinyas 9
sok 9
sta 9
sufficient 9
sumpay 9
tamaktamak 9
til 9
tingog 9
took 9
tugkad 9
uha 9
uko 9
ure 9
uta 9
ved 9
yab 9
▁15 9
▁250 9
▁400 9
▁abroad 9
▁abyss 9
▁acsa 9
▁ada 9
▁adulteress 9
▁adversary 9
▁alagaran 9
▁alimpulos 9
▁almond 9
▁amount 9
▁anatot 9
▁antuson 9
▁apply 9
▁approve 9
▁aquila 9
▁ariel 9
▁arises 9
▁armor 9
▁asaph 9
▁ascalon 9
▁ashkelon 9
▁attentive 9
▁authorities 9
▁awaken 9
▁baggage 9
▁bakilid 9
▁barabas 9
▁barnea 9
▁basura 9
▁belteshazzar 9
▁bethany 9
▁bethuel 9
▁betrayed 9
▁betrothed 9
▁binugkos 9
▁biy 9
▁blasphemed 9
▁blast 9
▁bows 9
▁briar 9
▁bricks 9
▁brightness 9
▁builders 9
▁bung 9
▁caifas 9
▁camps 9
▁carcasses 9
▁catch 9
▁census 9
▁citizens 9
▁cl 9
▁clasps 9
▁clearly 9
▁cloaks 9
▁compel 9
▁condemnation 9
▁consecration 9
▁construct 9
▁consum 9
▁contains 9
▁contingent 9
▁cornerstone 9
▁cos 9
▁cr 9
▁craftsman 9
▁cristohanon 9
▁cupbearer 9
▁cyprus 9
▁dabir 9
▁daugdaoga 9
▁denarius 9
▁deserv 9
▁destroys 9
▁deuel 9
▁devastated 9
▁devours 9
▁devout 9
▁difficulty 9
▁disappear 9
▁discern 9
▁dishonored 9
▁distinction 9
▁dog 9
▁doubt 9
▁drag 9
▁dragg 9
▁driv 9
▁dwellings 9
▁embrace 9
▁encircl 9
▁enlarge 9
▁enoch 9
▁enslave 9
▁entirely 9
▁envy 9
▁erected 9
▁eunuch 9
▁events 9
▁executed 9
▁express 9
▁falsehood 9
▁fame 9
▁fatal 9
▁fault 9
▁filistia 9
▁flashes 9
▁flax 9
▁fleeing 9
▁flourish 9
▁fold 9
▁footstool 9
▁forgot 9
▁freely 9
▁gardens 9
▁gawasnon 9
▁giagian 9
▁gibakyaw 9
▁gibato 9
▁gibitay 9
▁gidaoban 9
▁gidugang 9
▁gidugayon 9
▁gigun 9
▁gihuro 9
▁gikawat 9
▁gilab 9
▁gilaoman 9
▁gipapas 9
▁gipapatay 9
▁gipasigarbo 9
▁gipauna 9
▁gisangon 9
▁gisi 9
▁gisuhol 9
▁gitu 9
▁gitukob 9
▁gitunglo 9
▁gituohan 9
▁govern 9
▁graciousness 9
▁grape 9
▁graze 9
▁greedy 9
▁hailstones 9
▁halas 9
▁hashum 9
▁hawan 9
▁heaps 9
▁herdsmen 9
▁higante 9
▁hinabang 9
▁homer 9
▁homes 9
▁honest 9
▁hugasan 9
▁hul 9
▁husayon 9
▁ikasaway 9
▁impossible 9
▁insolent 9
▁ipan 9
▁island 9
▁isugi 9
▁ita 9
▁jehud 9
▁jonathan 9
▁jozabad 9
▁jubilation 9
▁kabug 9
▁kahakog 9
▁kahanginan 9
▁kaparian 9
▁kapatas 9
▁kasapaan 9
▁kasaypanan 9
▁kasinatian 9
▁kauhaw 9
▁kedesh 9
▁kir 9
▁kornalina 9
▁lagyo 9
▁lake 9
▁lama 9
▁lamech 9
▁ledge 9
▁level 9
▁lioness 9
▁lira 9
▁lisang 9
▁log 9
▁lowly 9
▁lukp 9
▁lung 9
▁lutoa 9
▁maanyag 9
▁madagayaon 9
▁madaog 9
▁madaugon 9
▁magha 9
▁magkatibulaag 9
▁magla 9
▁magpaubos 9
▁magtutukod 9
▁mahalalel 9
▁majestic 9
▁makah 9
▁makalakaw 9
▁makasukol 9
▁makatu 9
▁makinaadmanon 9
▁mangalaglag 9
▁marvelous 9
▁masalin 9
▁masinugtanon 9
▁mass 9
▁matugkad 9
▁meant 9
▁measurement 9
▁miinom 9
▁milca 9
▁mopahulay 9
▁mosa 9
▁moves 9
▁music 9
▁nadato 9
▁nagdu 9
▁naghin 9
▁nagmag 9
▁nagmaya 9
▁nagpaki 9
▁nagsakay 9
▁nagsing 9
▁nagtanom 9
▁nahiuna 9
▁nahum 9
▁naive 9
▁nama 9
▁nangabusog 9
▁nanglabay 9
▁nanubag 9
▁nasina 9
▁nati 9
▁nazaretnon 9
▁nearby 9
▁necks 9
▁ninety 9
▁nose 9
▁objects 9
▁oholiab 9
▁onyx 9
▁otniel 9
▁overnight 9
▁paabota 9
▁paddan 9
▁pagbudhi 9
▁pagdaot 9
▁pagkab 9
▁pagkabanhaw 9
▁pagkahubo 9
▁paglutos 9
▁pagp 9
▁pagpanganak 9
▁pagpangani 9
▁pagpangespiya 9
▁pagpas 9
▁pagpatindog 9
▁pagpaubos 9
▁pagsangpit 9
▁pagsinggit 9
▁paigo 9
▁pakaulawi 9
▁pakyason 9
▁pamaty 9
▁paminawa 9
▁panaglalis 9
▁pangaliyupo 9
▁panghilak 9
▁pangitaon 9
▁pangutana 9
▁parched 9
▁pardon 9
▁pasidungog 9
▁pasur 9
▁patukoranan 9
▁pharisee 9
▁pierce 9
▁pinadala 9
▁pinalabi 9
▁pinalit 9
▁plainly 9
▁plawta 9
▁potif 9
▁prais 9
▁produces 9
▁prophecy 9
▁protection 9
▁publicly 9
▁purified 9
▁pursuing 9
▁quaked 9
▁rais 9
▁rash 9
▁ravines 9
▁rebellion 9
▁refaim 9
▁regions 9
▁reigns 9
▁repai 9
▁required 9
▁resist 9
▁restrained 9
▁revel 9
▁rid 9
▁rights 9
▁samu 9
▁sanbalat 9
▁sandal 9
▁saves 9
▁schemes 9
▁scoffer 9
▁selling 9
▁seraiah 9
▁serves 9
▁shaft 9
▁shap 9
▁shaphan 9
▁sharon 9
▁shelemiah 9
▁shields 9
▁shoot 9
▁showers 9
▁sinaligan 9
▁sinuholan 9
▁sinunog 9
▁skillfully 9
▁sofonias 9
▁sorcerers 9
▁southward 9
▁ste 9
▁stray 9
▁striking 9
▁string 9
▁stronger 9
▁strongholds 9
▁suffered 9
▁sulay 9
▁survived 9
▁tala 9
▁tambor 9
▁taunting 9
▁teache 9
▁tend 9
▁thumb 9
▁tighimo 9
▁timbang 9
▁tops 9
▁torches 9
▁trembled 9
▁tripulante 9
▁triumph 9
▁tu 9
▁tukora 9
▁tumbanan 9
▁tungo 9
▁uling 9
▁undergarment 9
▁unjust 9
▁untie 9
▁uri 9
▁usbon 9
▁uzziah 9
▁ven 9
▁victory 9
▁vigor 9
▁violently 9
▁vo 9
▁weigh 9
▁welfare 9
▁wonder 9
▁wondrous 9
▁worm 9
▁wrongdoers 9
▁yeast 9
▁zelophehad 9
45 8
65 8
aben 8
abol 8
aghat 8
agian 8
ahath 8
aias 8
akan 8
ake 8
akku 8
all 8
ambak 8
angalisang 8
angatulog 8
ans 8
apait 8
ary 8
azz 8
bak 8
balos 8
baskog 8
bato 8
bawi 8
biah 8
bok 8
buhaton 8
buhi 8
buta 8
cal 8
day 8
disiplina 8
dulot 8
duyog 8
edomea 8
enan 8
ered 8
galilea 8
gamay 8
gamot 8
ged 8
glaba 8
gmasinugtanon 8
gpakahilom 8
greed 8
gsuroysuroy 8
gtukaw 8
hira 8
hubo 8
hulma 8
hulog 8
hunaw 8
ied 8
ihikaw 8
ilisan 8
ilo 8
imbis 8
ingnan 8
ius 8
iyaha 8
ize 8
jah 8
katulog 8
ker 8
kiah 8
kub 8
kulit 8
laban 8
lagot 8
lahutay 8
laki 8
lanit 8
lapason 8
lapped 8
laya 8
lem 8
lili 8
limbongan 8
lob 8
mahal 8
mar 8
miligro 8
minyo 8
munyag 8
nag 8
ner 8
ngilngig 8
nine 8
nt 8
nuol 8
ordina 8
pabalik 8
pakurog 8
pakyas 8
pangguba 8
pangulo 8
papanumpa 8
pasipala 8
patrabaho 8
pe 8
peor 8
pit 8
polis 8
punsisok 8
pus 8
raim 8
raw 8
rs 8
rtificat 8
sad 8
shai 8
shua 8
sim 8
six 8
suhol 8
sumbag 8
suso 8
taas 8
tandi 8
throne 8
tindog 8
tunaw 8
ty 8
ugang 8
ulogon 8
unod 8
unta 8
uswagon 8
x 8
yas 8
yod 8
▁46 8
▁ab 8
▁abaddon 8
▁abarim 8
▁abinoam 8
▁abistros 8
▁acan 8
▁accompan 8
▁accurate 8
▁action 8
▁adah 8
▁adoni 8
▁ak 8
▁altogether 8
▁amalekites 8
▁amminadab 8
▁andamon 8
▁appetite 8
▁arad 8
▁arrow 8
▁asaf 8
▁asera 8
▁aslo 8
▁assume 8
▁atakihon 8
▁attain 8
▁attend 8
▁avoid 8
▁babag 8
▁bahinbahin 8
▁bahinon 8
▁baker 8
▁bangkite 8
▁baptize 8
▁baptizing 8
▁basi 8
▁baya 8
▁beasts 8
▁beds 8
▁begun 8
▁belshazzar 8
▁beltesasar 8
▁ber 8
▁bilha 8
▁binuk 8
▁bit 8
▁bitiis 8
▁blesse 8
▁bo 8
▁boasts 8
▁bugnaw 8
▁bukira 8
▁bulok 8
▁bunyagan 8
▁bushes 8
▁caiaphas 8
▁camel 8
▁cana 8
▁cart 8
▁censer 8
▁charit 8
▁colleagues 8
▁colorful 8
▁concubines 8
▁confessed 8
▁conquer 8
▁convocation 8
▁corruptly 8
▁covet 8
▁crop 8
▁crowns 8
▁dance 8
▁dancing 8
▁debts 8
▁declaration 8
▁demonstrate 8
▁derbe 8
▁deserts 8
▁deserves 8
▁despair 8
▁despi 8
▁devised 8
▁diosnon 8
▁discerning 8
▁discour 8
▁discovered 8
▁disobedience 8
▁distort 8
▁distribute 8
▁doorposts 8
▁dr 8
▁dungganan 8
▁earthenware 8
▁edict 8
▁efron 8
▁elizabeth 8
▁enan 8
▁endures 8
▁engaste 8
▁engrave 8
▁enoc 8
▁ephron 8
▁equipment 8
▁existed 8
▁extra 8
▁fasten 8
▁fatness 8
▁fears 8
▁feasting 8
▁filigree 8
▁fl 8
▁flying 8
▁foreheads 8
▁gained 8
▁galingan 8
▁gallows 8
▁game 8
▁gera 8
▁gibalita 8
▁gibayad 8
▁gigikanan 8
▁gihi 8
▁gikaligutgotan 8
▁gikarga 8
▁gilaraw 8
▁ginansilyo 8
▁gipalabi 8
▁gipas 8
▁gisagol 8
▁gitamay 8
▁gitunton 8
▁giuli 8
▁gnaw 8
▁guardrooms 8
▁guwapo 8
▁hagdan 8
▁hakog 8
▁halok 8
▁hampak 8
▁happening 8
▁hashabiah 8
▁hawak 8
▁helon 8
▁henadad 8
▁hilanat 8
▁hini 8
▁hinom 8
▁hipos 8
▁honors 8
▁hoofs 8
▁horrified 8
▁hubog 8
▁hunawanan 8
▁hurt 8
▁hypocrisy 8
▁igpapa 8
▁ikatubag 8
▁ilimod 8
▁ill 8
▁imp 8
▁impairment 8
▁incit 8
▁indignant 8
▁infertile 8
▁inhabit 8
▁inigkagabii 8
▁inigpa 8
▁insane 8
▁insignificant 8
▁intended 8
▁inward 8
▁ipataas 8
▁ipaubos 8
▁isigkamagtutuo 8
▁isopo 8
▁itubag 8
▁izhar 8
▁jahas 8
▁jas 8
▁jaws 8
▁jebusites 8
▁jewelry 8
▁jewels 8
▁joiada 8
▁ju 8
▁kabs 8
▁kabulahanan 8
▁kagiw 8
▁kahibulong 8
▁kahilayan 8
▁kahita 8
▁kaila 8
▁kakuyaw 8
▁kalaw 8
▁kaluha 8
▁kaminyoon 8
▁kanal 8
▁kapait 8
▁karsunsilyo 8
▁kasagaran 8
▁kawa 8
▁kenihanon 8
▁kenite 8
▁kinawat 8
▁kiriatiarim 8
▁kiskis 8
▁klaro 8
▁kum 8
▁laughter 8
▁leavened 8
▁lib 8
▁lilies 8
▁lock 8
▁locked 8
▁lotan 8
▁loudly 8
▁lubong 8
▁lusts 8
▁luto 8
▁mabdos 8
▁madagma 8
▁madaugdaugon 8
▁maghil 8
▁magkalisodlisod 8
▁magkauyon 8
▁magmalampuson 8
▁magminyo 8
▁magta 8
▁magtan 8
▁magtuo 8
▁mahibulong 8
▁mahigugmaon 8
▁mahlon 8
▁mainitan 8
▁makaantos 8
▁makabangon 8
▁makatulog 8
▁makkedah 8
▁malaw 8
▁malicious 8
▁malumpag 8
▁mananapa 8
▁manghilak 8
▁mangiob 8
▁mangitngit 8
▁manlalaban 8
▁manun 8
▁mapanunod 8
▁masa 8
▁masayop 8
▁mattaniah 8
▁mau 8
▁measures 8
▁medeba 8
▁melted 8
▁memor 8
▁memphis 8
▁merciful 8
▁messiah 8
▁midan 8
▁mikurog 8
▁misfortune 8
▁moampo 8
▁modagayday 8
▁mogikan 8
▁mohu 8
▁moku 8
▁mokunhod 8
▁molding 8
▁mos 8
▁mosilaob 8
▁motabok 8
▁mourns 8
▁mouswag 8
▁naaman 8
▁nabali 8
▁nadakpan 8
▁naglipay 8
▁nagmadaugon 8
▁nagmalipayon 8
▁nagmauswagon 8
▁nagpaila 8
▁nagpugas 8
▁nagsa 8
▁nagsiga 8
▁naguba 8
▁nahisalaag 8
▁nahshon 8
▁nakap 8
▁nakasulti 8
▁nalibog 8
▁nalig 8
▁namaligya 8
▁nangagu 8
▁nangapukan 8
▁nanguha 8
▁nanindog 8
▁napug 8
▁natawhan 8
▁natural 8
▁nazaret 8
▁nehemiah 8
▁neriah 8
▁nethanel 8
▁niwang 8
▁nostrils 8
▁occur 8
▁orphans 8
▁outcome 8
▁overcomes 8
▁overflowing 8
▁owned 8
▁paantuson 8
▁pagawas 8
▁pagbadlong 8
▁pagbagulbol 8
▁paghuba 8
▁pagkakaadlawon 8
▁pagkamasupilon 8
▁pagkapukan 8
▁pagkaugma 8
▁paglimbong 8
▁pagpadayon 8
▁pagpanalangin 8
▁pagpanglimbong 8
▁pagpanudlo 8
▁pagpasipala 8
▁pagpu 8
▁pagpugas 8
▁pagsigi 8
▁pagsuba 8
▁pagsupil 8
▁pagtambo 8
▁pagtuaw 8
▁pagtubo 8
▁pagtukaw 8
▁pagtuli 8
▁paharion 8
▁palandong 8
▁pale 8
▁palihog 8
▁pamatay 8
▁panad 8
▁panaghiusa 8
▁panapaw 8
▁pangisip 8
▁papel 8
▁par 8
▁pasultiha 8
▁patyonon 8
▁pearls 8
▁perishes 8
▁perishing 8
▁permission 8
▁pervert 8
▁philistia 8
▁pi 8
▁piang 8
▁pisgah 8
▁plato 8
▁po 8
▁powers 8
▁practiced 8
▁preacher 8
▁presyo 8
▁pretend 8
▁privately 8
▁product 8
▁prominent 8
▁purchase 8
▁push 8
▁rabshakeh 8
▁raven 8
▁realiz 8
▁reeds 8
▁refrain 8
▁refresh 8
▁refuses 8
▁regain 8
▁regular 8
▁relent 8
▁remaining 8
▁rememb 8
▁reproach 8
▁requested 8
▁restless 8
▁restraints 8
▁reubenites 8
▁revoke 8
▁ribla 8
▁ridicule 8
▁rimmon 8
▁robb 8
▁robbers 8
▁rome 8
▁rooms 8
▁rot 8
▁runs 8
▁sacr 8
▁sadok 8
▁safe 8
▁salamangka 8
▁sangpotanan 8
▁sapiro 8
▁sayloan 8
▁scatters 8
▁sela 8
▁selofehad 8
▁sensible 8
▁settlement 8
▁shakes 8
▁shameful 8
▁sharpened 8
▁sheaf 8
▁sheaves 8
▁shimron 8
▁shook 8
▁shur 8
▁sidonians 8
▁sira 8
▁sirhan 8
▁sla 8
▁slanderer 8
▁slip 8
▁slopes 8
▁smell 8
▁solomons 8
▁sowed 8
▁sows 8
▁speckled 8
▁squares 8
▁staffs 8
▁steadfast 8
▁stephen 8
▁stolen 8
▁storehouses 8
▁strap 8
▁sum 8
▁sung 8
▁sunrise 8
▁tak 8
▁tambal 8
▁teachers 8
▁temptation 8
▁tender 8
▁terrible 8
▁thank 8
▁throat 8
▁thrust 8
▁tingpamu 8
▁tinuohan 8
▁tola 8
▁tooth 8
▁topaz 8
▁tormented 8
▁tradition 8
▁travel 8
▁trib 8
▁tribo 8
▁tubo 8
▁tugkar 8
▁tuhod 8
▁tun 8
▁u 8
▁unbelief 8
▁unrighteous 8
▁uphold 8
▁uproot 8
▁uriah 8
▁utanon 8
▁uy 8
▁uyoan 8
▁valuable 8
▁vashti 8
▁vipers 8
▁washing 8
▁weari 8
▁whirlwind 8
▁window 8
▁wolves 8
▁woof 8
▁wormwood 8
▁worry 8
▁wretche 8
▁yaw 8
▁zephaniah 8
▁zered 8
▁zi 8
▁zohar 8
,400. 7
17 7
2; 7
3; 7
abba 7
abiabi 7
agak 7
agas 7
agda 7
alim 7
ampingan 7
anad 7
angahadlok 7
anom 7
apin 7
apinan 7
arrow 7
badlong 7
baho 7
balhog 7
bali 7
bansay 7
bantog 7
basol 7
be 7
bira 7
biyuda 7
bulahan 7
butang 7
da 7
dasiga 7
dato 7
den 7
duhig 7
dumtan 7
dungga 7
ea 7
eals 7
eight 7
ekod 7
ela 7
elt 7
ema 7
enai 7
ento 7
fourth 7
ghinlo 7
gpakamatay 7
gpong 7
gripa 7
gubot 7
habog 7
hoglah 7
hukas 7
hur 7
ial 7
ibabaw 7
ible 7
ikod 7
ili 7
iness 7
isaysay 7
itik 7
ito 7
juda 7
katahom 7
kay 7
kilab 7
kob 7
labotan 7
langyaw 7
libak 7
licious 7
lingaw 7
lingkoran 7
lish 7
luna 7
lungag 7
luwa 7
mah 7
mailhan 7
mamat 7
masakiton 7
mauli 7
min 7
molupyo 7
myon 7
ngawat 7
nit 7
ohon 7
ordinah 7
oreb 7
pabuhagay 7
pah 7
panamastamas 7
panon 7
pasibsib 7
pasipalah 7
pataas 7
pikas 7
piyal 7
plano 7
pplied 7
pulpog 7
pungot 7
ral 7
rea 7
rib 7
sabot 7
sakay 7
saksih 7
salin 7
sar 7
ses 7
shemesh 7
simba 7
simbolo 7
sion 7
stern 7
sugoan 7
sukitsukit 7
tak 7
tambag 7
tina 7
tok 7
tong 7
tunobtunoban 7
ulata 7
ungaw 7
unlod 7
unt 7
usisa 7
uth 7
uyapan 7
uyop 7
van 7
ving 7
vious 7
wala 7
yatak 7
year 7
yubit 7
zur 7
▁43 7
▁44 7
▁600 7
▁accusation 7
▁accuse 7
▁adan 7
▁adorn 7
▁adulterers 7
▁advisers 7
▁almendras 7
▁almo 7
▁anothers 7
▁answers 7
▁anxiety 7
▁anxious 7
▁apapangig 7
▁aping 7
▁apple 7
▁areas 7
▁arioc 7
▁arioch 7
▁arrogantly 7
▁ashtaroth 7
▁aspalto 7
▁assyrians 7
▁backward 7
▁badly 7
▁bagon 7
▁bakyaw 7
▁banog 7
▁beelzebul 7
▁begging 7
▁believer 7
▁believing 7
▁belsazar 7
▁berea 7
▁besieg 7
▁bestow 7
▁bethsaida 7
▁betuel 7
▁bezalel 7
▁blaspheme 7
▁boats 7
▁boils 7
▁bridle 7
▁buhati 7
▁bulag 7
▁calves 7
▁cargo 7
▁catastrophe 7
▁caves 7
▁channel 7
▁childbirth 7
▁circumcise 7
▁circumstances 7
▁claim 7
▁clap 7
▁clings 7
▁closer 7
▁clubs 7
▁clusters 7
▁cohort 7
▁comprehend 7
▁confused 7
▁consent 7
▁constantly 7
▁contributions 7
▁convinc 7
▁cost 7
▁counselor 7
▁cre 7
▁crops 7
▁cus 7
▁dakpa 7
▁dalagita 7
▁dapiton 7
▁darling 7
▁deceased 7
▁decrease 7
▁deer 7
▁defend 7
▁delilah 7
▁demonyo 7
▁denarii 7
▁desirable 7
▁desolated 7
▁dinah 7
▁dinakpan 7
▁disciplines 7
▁discouraged 7
▁discuss 7
▁discussing 7
▁disease 7
▁district 7
▁distrito 7
▁division 7
▁doctrine 7
▁doorkeeper 7
▁drie 7
▁easier 7
▁eggs 7
▁elect 7
▁embroiderer 7
▁endurance 7
▁enraged 7
▁error 7
▁esc 7
▁evident 7
▁ex 7
▁example 7
▁excluded 7
▁exercise 7
▁experience 7
▁eyelids 7
▁faithfully 7
▁fatherless 7
▁favorably 7
▁finally 7
▁fit 7
▁flash 7
▁fleece 7
▁flees 7
▁furnishings 7
▁futile 7
▁gabriel 7
▁gadites 7
▁gershonites 7
▁gibalaan 7
▁gibali 7
▁gibalik 7
▁gibistihan 7
▁gidikta 7
▁gihay 7
▁gihukas 7
▁gikapo 7
▁gikasab 7
▁gil 7
▁gilabay 7
▁gililong 7
▁giluko 7
▁ginsakopan 7
▁gipalagot 7
▁gipana 7
▁gipani 7
▁gipasidaan 7
▁gipasinaw 7
▁gipul 7
▁gisakmit 7
▁gisamok 7
▁gision 7
▁gisupak 7
▁gitak 7
▁gitan 7
▁gitinguha 7
▁gitubo 7
▁gitunol 7
▁goods 7
▁grandchildren 7
▁grumblings 7
▁guarantor 7
▁guba 7
▁guests 7
▁hamtong 7
▁hanani 7
▁hananias 7
▁handful 7
▁hapin 7
▁hasabias 7
▁haspe 7
▁highway 7
▁hilkias 7
▁hitabo 7
▁hiwi 7
▁hori 7
▁horon 7
▁hub 7
▁hulaw 7
▁humiliation 7
▁huy 7
▁iggugubat 7
▁ikapa 7
▁imoha 7
▁imprisoned 7
▁infants 7
▁insanity 7
▁isugnod 7
▁ivory 7
▁jabbok 7
▁jaboc 7
▁jahaz 7
▁jeh 7
▁jehu 7
▁joel 7
▁jump 7
▁justif 7
▁kagahi 7
▁kahay 7
▁kakabos 7
▁kali 7
▁kalubngan 7
▁kapanganoran 7
▁kapasayloan 7
▁kapugngan 7
▁kaputi 7
▁kasagbotan 7
▁katulog 7
▁keeper 7
▁kindle 7
▁kinut 7
▁kiriat 7
▁kn 7
▁knead 7
▁kneel 7
▁konsensya 7
▁kontra 7
▁kristal 7
▁kugihan 7
▁kulit 7
▁kulonon 7
▁kuwintas 7
▁lamec 7
▁lampstands 7
▁langan 7
▁lap 7
▁lapyahan 7
▁laughs 7
▁layman 7
▁lebiatan 7
▁lebo 7
▁lepro 7
▁lim 7
▁linog 7
▁lirio 7
▁liyopardo 7
▁longing 7
▁lub 7
▁lukat 7
▁lukaton 7
▁mabudhion 7
▁madakpan 7
▁madunot 7
▁magbubu 7
▁magistrates 7
▁maglaraw 7
▁magmatinu 7
▁magpabunyag 7
▁magpahimu 7
▁magpapanaw 7
▁magtatabang 7
▁magtina 7
▁mahimugso 7
▁mahingpit 7
▁mainiton 7
▁makabunga 7
▁makagamot 7
▁makahahadlok 7
▁makahub 7
▁makahubog 7
▁makalaglag 7
▁makatarunganon 7
▁makeda 7
▁makir 7
▁malquias 7
▁mamiligro 7
▁mamuyo 7
▁mangapukan 7
▁mapaabot 7
▁mapagarbohon 7
▁mapapas 7
▁mapuslanon 7
▁marcos 7
▁masuk 7
▁matanias 7
▁matintal 7
▁member 7
▁memfis 7
▁menstrua 7
▁meribah 7
▁meshech 7
▁mica 7
▁midianites 7
▁mikay 7
▁minas 7
▁mipa 7
▁mobati 7
▁mockery 7
▁mocking 7
▁modasdas 7
▁mohubas 7
▁molahutay 7
▁moloc 7
▁momata 7
▁mortar 7
▁mosaka 7
▁motambo 7
▁motu 7
▁motunhay 7
▁mounted 7
▁naani 7
▁naap 7
▁nagbaga 7
▁nagdal 7
▁naggilakgilak 7
▁nagkaguliyang 7
▁nagkurog 7
▁naglig 7
▁naglimbong 7
▁nagma 7
▁nagmalinawon 7
▁nagngulob 7
▁nagpaantaw 7
▁nags 7
▁nagsabot 7
▁nagsamok 7
▁nagta 7
▁nagtago 7
▁nagti 7
▁nakalakaw 7
▁nakamat 7
▁nakigdu 7
▁nalaglag 7
▁namahulay 7
▁namunga 7
▁nana 7
▁nanamilit 7
▁nanuo 7
▁napanunod 7
▁nasalin 7
▁nathan 7
▁natu 7
▁natukod 7
▁neri 7
▁obligated 7
▁offend 7
▁oholiba 7
▁oholibama 7
▁oholibamah 7
▁overthrown 7
▁owns 7
▁padag 7
▁pagahi 7
▁pagbunyag 7
▁paggapos 7
▁paghugas 7
▁pagkadaghan 7
▁pagkamaayo 7
▁pagkapalong 7
▁pagma 7
▁pagpaabot 7
▁pagpahulay 7
▁pagpakahilom 7
▁pagpamakak 7
▁pagpanglakaw 7
▁pagpasidaan 7
▁pagsu 7
▁pagtamay 7
▁pakuyog 7
▁palad 7
▁palibutan 7
▁pallet 7
▁pallu 7
▁pamaagi 7
▁pamalandong 7
▁paminaw 7
▁pamutl 7
▁pangabubho 7
▁panghinaot 7
▁panglawas 7
▁panic 7
▁penalty 7
▁perfected 7
▁perizzites 7
▁perlas 7
▁persecuting 7
▁persecution 7
▁persist 7
▁pisga 7
▁pleas 7
▁pleasures 7
▁pomegranate 7
▁population 7
▁praetorium 7
▁pri 7
▁prinsesa 7
▁prophesies 7
▁prophetess 7
▁prosperous 7
▁prun 7
▁pukanon 7
▁puoh 7
▁pursuers 7
▁quarrels 7
▁questions 7
▁quick 7
▁raba 7
▁rabbah 7
▁razor 7
▁reading 7
▁reapers 7
▁reddish 7
▁reduce 7
▁relat 7
▁relief 7
▁remembers 7
▁render 7
▁reprimand 7
▁resembl 7
▁response 7
▁riblah 7
▁rider 7
▁righteously 7
▁ripe 7
▁rob 7
▁rottenness 7
▁round 7
▁ruled 7
▁rules 7
▁sailors 7
▁samaritans 7
▁sardis 7
▁sayaw 7
▁scorch 7
▁secrets 7
▁seeds 7
▁serug 7
▁shamefully 7
▁shaved 7
▁sheath 7
▁sheepfolds 7
▁shephatiah 7
▁sighing 7
▁signal 7
▁sikreto 7
▁singing 7
▁sinina 7
▁slumber 7
▁soan 7
▁sounds 7
▁sower 7
▁span 7
▁speechless 7
▁sprouts 7
▁stagger 7
▁stature 7
▁stoop 7
▁striped 7
▁suka 7
▁sulatanan 7
▁surrender 7
▁swelling 7
▁syria 7
▁tagoangkan 7
▁tai 7
▁taksanan 7
▁talinis 7
▁tebes 7
▁temples 7
▁tendons 7
▁testing 7
▁tetrarch 7
▁thicket 7
▁timber 7
▁tinagoan 7
▁tinu 7
▁tipiganan 7
▁tonight 7
▁transfer 7
▁traveling 7
▁treasured 7
▁treasuries 7
▁tres 7
▁trial 7
▁tukon 7
▁tuyoa 7
▁uli 7
▁unfaithfully 7
▁unholy 7
▁unloved 7
▁uns 7
▁uprightness 7
▁uttered 7
▁vasti 7
▁vat 7
▁venture 7
▁vicinity 7
▁violate 7
▁virginity 7
▁visible 7
▁wafer 7
▁wasteland 7
▁weapon 7
▁web 7
▁whisper 7
▁wield 7
▁winnow 7
▁wisely 7
▁wishes 7
▁worse 7
▁youths 7
▁zoan 7
▁zorah 7
,200 6
-50 6
23 6
32 6
5; 6
90 6
abies 6
act 6
admon 6
adulam 6
aguol 6
ahunog 6
aim 6
amalandong 6
ambal 6
aminaw 6
amoma 6
amot 6
ams 6
anah 6
anap 6
anghugas 6
anibsib 6
arong 6
asaph 6
aso 6
asol 6
atagak 6
atop 6
atumpag 6
awag 6
ayaw 6
baga 6
balibad 6
ber 6
binuang 6
born 6
bot 6
bugnaw 6
bungol 6
busgon 6
cor 6
cu 6
danguyngoy 6
danihon 6
daplin 6
dinasig 6
dula 6
eep 6
eeping 6
efa 6
efraim 6
elah 6
ely 6
enched 6
ermo 6
ery 6
ez 6
gai 6
gal 6
ganansya 6
garantiya 6
gasto 6
ghugyaw 6
gusto 6
hamath 6
has 6
here 6
higdaan 6
hikapa 6
hinam 6
hinlo 6
hinnom 6
hinumdom 6
hip 6
hitabo 6
holah 6
huptan 6
hutd 6
iha 6
israel 6
iza 6
kabulahan 6
kakaon 6
kakaplag 6
karap 6
kas 6
katap 6
kataw 6
katawa 6
katul 6
kdan 6
king 6
kto 6
kuhaa 6
kuniskunis 6
kuyapan 6
lagbas 6
lakaw 6
lambo 6
land 6
langkat 6
laom 6
lhogan 6
lingho 6
loan 6
lulu 6
lumi 6
lungtad 6
lunop 6
maisogon 6
makalilisang 6
mariah 6
may 6
med 6
melech 6
meon 6
mination 6
mintaha 6
muel 6
naad 6
nanga 6
nanom 6
nda 6
nginlan 6
nglimbong 6
nguha 6
nhon 6
niah 6
nim 6
ns 6
ntil 6
oba 6
ort 6
ow 6
ows 6
ozadak 6
pabunyag 6
pagarbo 6
pagkamatinumanon 6
pailob 6
paingna 6
pakiskis 6
pamuhat 6
panghambog 6
pangutana 6
panimalos 6
paningkamot 6
pas 6
pasaka 6
pasidaan 6
pasig 6
patanto 6
per 6
pila 6
pilay 6
presyo 6
pro 6
rame 6
rian 6
ripped 6
rumbling 6
ryo 6
sabwag 6
sadya 6
salingsing 6
sangpita 6
sapi 6
saylo 6
sayran 6
scription 6
sha 6
shan 6
sibsib 6
side 6
siya 6
son 6
sses 6
subang 6
subli 6
sugo 6
suka 6
sulta 6
sumbalik 6
tagay 6
tagotago 6
takda 6
takdo 6
tapok 6
teen 6
tes 6
tesalonica 6
tha 6
tigbas 6
tikyop 6
tintal 6
tion 6
tuktok 6
tuktugaok 6
tuli 6
tulo 6
tuyok 6
uck 6
ula 6
ulahi 6
ular 6
ulaw 6
ulob 6
umangkon 6
umbanan 6
ung 6
unong 6
ush 6
ute 6
utol 6
uton 6
vai 6
wahi 6
was 6
way 6
we 6
wood 6
yukbo 6
zar 6
▁24 6
▁5,000 6
▁62 6
▁72 6
▁74 6
▁80 6
▁90 6
▁abias 6
▁ability 6
▁achan 6
▁achieve 6
▁achs 6
▁acquaintances 6
▁acqui 6
▁adopt 6
▁adulterous 6
▁afflictions 6
▁agag 6
▁agree 6
▁ahab 6
▁air 6
▁alarmed 6
▁amoz 6
▁annul 6
▁apog 6
▁apostle 6
▁apostol 6
▁arfacsad 6
▁argob 6
▁arguments 6
▁armado 6
▁arpachshad 6
▁asriel 6
▁assess 6
▁assur 6
▁asur 6
▁ataroth 6
▁attempt 6
▁aveng 6
▁bangaw 6
▁banks 6
▁bantilis 6
▁barracks 6
▁basaha 6
▁behave 6
▁benaiah 6
▁bihag 6
▁bilhah 6
▁birthright 6
▁bite 6
▁blasphem 6
▁blowing 6
▁blown 6
▁boastful 6
▁bottom 6
▁bozra 6
▁breathed 6
▁bubo 6
▁buckler 6
▁buks 6
▁bulana 6
▁bulbs 6
▁bungot 6
▁bunni 6
▁burdens 6
▁bus 6
▁caesars 6
▁cake 6
▁calculate 6
▁caldea 6
▁cap 6
▁chal 6
▁char 6
▁chest 6
▁childless 6
▁choke 6
▁citadels 6
▁cleft 6
▁collector 6
▁complie 6
▁confine 6
▁consolation 6
▁cornelius 6
▁couch 6
▁creator 6
▁creta 6
▁crows 6
▁crystal 6
▁cubs 6
▁curds 6
▁cursing 6
▁dalana 6
▁damage 6
▁daroh 6
▁depend 6
▁detriment 6
▁dictation 6
▁diligence 6
▁dirt 6
▁disc 6
▁discretion 6
▁drowned 6
▁drunkenness 6
▁duyog 6
▁earlie 6
▁earnestly 6
▁efrata 6
▁elimelec 6
▁elnatan 6
▁emerald 6
▁encompass 6
▁encouragement 6
▁endow 6
▁enduring 6
▁eng 6
▁entice 6
▁eshcol 6
▁esmeralda 6
▁esteemed 6
▁eternity 6
▁excuse 6
▁extinguished 6
▁faithless 6
▁fearful 6
▁fenicia 6
▁fier 6
▁filthy 6
▁fishermen 6
▁fitt 6
▁flogged 6
▁forem 6
▁freed 6
▁frost 6
▁fugitives 6
▁fulfillment 6
▁gateway 6
▁geder 6
▁gentleness 6
▁gezer 6
▁giabiabi 6
▁giabot 6
▁gianak 6
▁giba 6
▁gibakakan 6
▁gikampohan 6
▁gileadite 6
▁gilikayan 6
▁gina 6
▁gipabantay 6
▁gipabilanggo 6
▁gipamat 6
▁gipanumpaan 6
▁gipasa 6
▁girgasihanon 6
▁gisakit 6
▁gisug 6
▁gitugon 6
▁giumol 6
▁gleaming 6
▁gnats 6
▁gomer 6
▁graciously 6
▁graft 6
▁grating 6
▁graz 6
▁greeting 6
▁grudg 6
▁guardhouse 6
▁guyoron 6
▁gypt 6
▁habit 6
▁habitually 6
▁hal 6
▁halt 6
▁hamon 6
▁hananel 6
▁handle 6
▁harsh 6
▁headband 6
▁health 6
▁hepher 6
▁hides 6
▁hingkod 6
▁hips 6
▁hittites 6
▁holder 6
▁holes 6
▁hollow 6
▁hometown 6
▁honorable 6
▁horma 6
▁hormah 6
▁hosea 6
▁housetops 6
▁howl 6
▁hup 6
▁hush 6
▁igsusu 6
▁ikauban 6
▁ilaha 6
▁ilis 6
▁imnan 6
▁impatient 6
▁impurities 6
▁included 6
▁incurable 6
▁indecen 6
▁inigpang 6
▁injunction 6
▁injure 6
▁intercede 6
▁iphon 6
▁islands 6
▁isolate 6
▁israelite 6
▁issue 6
▁japheth 6
▁jarmut 6
▁jarmuth 6
▁jasper 6
▁jehiel 6
▁jehohanan 6
▁joint 6
▁jokneam 6
▁jonatan 6
▁journeys 6
▁judg 6
▁kaalaot 6
▁kaanindot 6
▁kabahong 6
▁kabuhatan 6
▁kada 6
▁kadagaya 6
▁kahigalaan 6
▁kahilom 6
▁kal 6
▁kalagot 6
▁kalamposan 6
▁kaligutgot 6
▁kaluya 6
▁kaparyentihan 6
▁kapasidunggan 6
▁kapito 6
▁karea 6
▁kasadya 6
▁kasub 6
▁katawa 6
▁ke 6
▁kenaz 6
▁key 6
▁kinas 6
▁kiriataim 6
▁knives 6
▁kohathites 6
▁kugos 6
▁kuha 6
▁kutsilyo 6
▁kuwart 6
▁lattice 6
▁laughingstock 6
▁lengthen 6
▁leviathan 6
▁liar 6
▁libni 6
▁lifetime 6
▁limb 6
▁limbs 6
▁limit 6
▁limping 6
▁linain 6
▁lingi 6
▁loads 6
▁loan 6
▁loins 6
▁loyalty 6
▁lurk 6
▁lust 6
▁lusted 6
▁luxuri 6
▁luyoluyo 6
▁maa 6
▁maalaot 6
▁mabahin 6
▁mabugnaw 6
▁madasigon 6
▁magbakak 6
▁maggot 6
▁maglangan 6
▁magpundok 6
▁magsal 6
▁magsugo 6
▁maguol 6
▁mahikap 6
▁main 6
▁maisog 6
▁makabalik 6
▁makabayad 6
▁makaduha 6
▁makaga 6
▁makamatay 6
▁makanunayon 6
▁makapalong 6
▁makasa 6
▁makasinati 6
▁makat 6
▁makatago 6
▁makatindog 6
▁makatug 6
▁makulang 6
▁mali 6
▁malimpyo 6
▁malluc 6
▁mama 6
▁mamu 6
▁mamumu 6
▁manager 6
▁manago 6
▁manapaw 6
▁mandragora 6
▁manggi 6
▁manggula 6
▁manunukob 6
▁mar 6
▁marketplace 6
▁marketplaces 6
▁marrie 6
▁masina 6
▁mateo 6
▁mayor 6
▁medes 6
▁melchizedek 6
▁memucan 6
▁merchant 6
▁mercies 6
▁meremoth 6
▁mesec 6
▁methuselah 6
▁mibu 6
▁mibuhagay 6
▁michael 6
▁midako 6
▁midu 6
▁midwives 6
▁mihu 6
▁mil 6
▁millstone 6
▁minyo 6
▁mipahawa 6
▁misael 6
▁mishael 6
▁misibog 6
▁mistreat 6
▁mistress 6
▁misu 6
▁mitago 6
▁miuna 6
▁moabites 6
▁molihok 6
▁mosabot 6
▁mosuba 6
▁motago 6
▁motion 6
▁moturok 6
▁mourned 6
▁multitudes 6
▁nagbuhi 6
▁nagbuk 6
▁nagh 6
▁naghing 6
▁nagmalampuson 6
▁nagp 6
▁nagpakilimos 6
▁nagpatibulaag 6
▁nagsala 6
▁nagustohan 6
▁nails 6
▁nakah 6
▁nakakuha 6
▁nalumpag 6
▁namala 6
▁nangalumos 6
▁nanghitabo 6
▁natago 6
▁necklace 6
▁neglected 6
▁nehemias 6
▁nimrod 6
▁numbers 6
▁ocean 6
▁ofra 6
▁ohola 6
▁oholibah 6
▁omer 6
▁onward 6
▁ophrah 6
▁opposed 6
▁oppressors 6
▁oreb 6
▁overjoyed 6
▁overwhelm 6
▁owe 6
▁pagbati 6
▁pagbato 6
▁pagbutangbutang 6
▁pagdasdas 6
▁pagdumot 6
▁paggun 6
▁paghuro 6
▁pagkabutang 6
▁pagkadako 6
▁pagkagahi 6
▁pagkahitabo 6
▁pagkakilomkilom 6
▁pagkalaglag 6
▁pagkalos 6
▁pagkapula 6
▁pagkatinuli 6
▁pagkatulog 6
▁paglu 6
▁pagpadayag 6
▁pagpaka 6
▁pagpamu 6
▁pagpanumpa 6
▁pagsag 6
▁pahamtangi 6
▁pahatmoab 6
▁painful 6
▁pairs 6
▁paki 6
▁pakigbulag 6
▁pakitabang 6
▁pamata 6
▁panadero 6
▁panday 6
▁pandong 6
▁pangan 6
▁panginabuhi 6
▁panguha 6
▁panumbalinga 6
▁papahawaon 6
▁papas 6
▁partner 6
▁pasinggit 6
▁paso 6
▁pastur 6
▁pathway 6
▁patindog 6
▁patungha 6
▁peg 6
▁perga 6
▁pertain 6
▁philippi 6
▁piraso 6
▁pitchers 6
▁planting 6
▁plat 6
▁plentiful 6
▁polished 6
▁pots 6
▁pottery 6
▁prefer 6
▁previous 6
▁proverbs 6
▁provocation 6
▁pugngi 6
▁pul 6
▁puspos 6
▁quake 6
▁quakes 6
▁raam 6
▁raging 6
▁reache 6
▁recab 6
▁refer 6
▁regulation 6
▁relented 6
▁relihiyoso 6
▁remind 6
▁repented 6
▁representati 6
▁reserved 6
▁resid 6
▁resol 6
▁retain 6
▁returning 6
▁riders 6
▁risk 6
▁roam 6
▁roars 6
▁romans 6
▁rows 6
▁rushes 6
▁sacrifici 6
▁safan 6
▁sakyan 6
▁samaran 6
▁samdan 6
▁samoka 6
▁sangpotan 6
▁sank 6
▁sapphire 6
▁saqueo 6
▁sash 6
▁scorn 6
▁seasons 6
▁sebanias 6
▁section 6
▁sefatias 6
▁sefora 6
▁select 6
▁selfish 6
▁serebias 6
▁sever 6
▁severely 6
▁shaul 6
▁sheet 6
▁shimei 6
▁shines 6
▁shrines 6
▁sibeon 6
▁sidonihanon 6
▁sinak 6
▁sinal 6
▁skies 6
▁snake 6
▁sopar 6
▁sorry 6
▁sotana 6
▁splend 6
▁sprouted 6
▁srael 6
▁stretche 6
▁stricken 6
▁struggle 6
▁subo 6
▁success 6
▁sufferings 6
▁suholan 6
▁suit 6
▁sukd 6
▁summ 6
▁sunk 6
▁sunset 6
▁suroy 6
▁suso 6
▁tabi 6
▁tablet 6
▁tagnok 6
▁tagoan 6
▁tahpanhes 6
▁tails 6
▁takob 6
▁talent 6
▁talmai 6
▁tambourine 6
▁tangke 6
▁tap 6
▁tapanhes 6
▁tasa 6
▁taskmasters 6
▁temanite 6
▁tenons 6
▁thieves 6
▁thinks 6
▁tiberias 6
▁tigmo 6
▁timog 6
▁tinai 6
▁tingga 6
▁tingpugas 6
▁tipig 6
▁tirza 6
▁tirzah 6
▁tiyabaw 6
▁tofet 6
▁tolera 6
▁tool 6
▁topheth 6
▁totter 6
▁tr 6
▁trained 6
▁trembles 6
▁trials 6
▁trim 6
▁tubiga 6
▁tugtog 6
▁tumba 6
▁tumpag 6
▁twins 6
▁ugl 6
▁unbelieving 6
▁uncircumcision 6
▁underfoot 6
▁undergo 6
▁underneath 6
▁unjustly 6
▁unsuspecting 6
▁uprooted 6
▁upstairs 6
▁uziel 6
▁uzziel 6
▁vicious 6
▁violation 6
▁vulture 6
▁wadi 6
▁weaned 6
▁weights 6
▁whip 6
▁whirl 6
▁whitewash 6
▁wolf 6
▁workmanship 6
▁worried 6
▁worth 6
▁wrappings 6
▁yam 6
▁zeb 6
▁zibeon 6
▁zilfa 6
▁zora 6
,700 5
-100 5
18 5
2,000 5
abangis 5
abb 5
access 5
acle 5
adah 5
ado 5
adunahan 5
agmadaugon 5
agop 5
agpanuko 5
akpan 5
althy 5
ambong 5
anat 5
anghimaraot 5
anod 5
apan 5
aph 5
araba 5
asda 5
atenas 5
atha 5
aven 5
ax 5
babaw 5
bakyaw 5
baladan 5
balibali 5
banagbanag 5
bangkite 5
bayaw 5
bayran 5
bis 5
blig 5
bos 5
bow 5
boz 5
broth 5
buhian 5
bukha 5
bunal 5
cirene 5
cluded 5
course 5
daan 5
dalidali 5
dalugdog 5
danghag 5
daugdaog 5
dden 5
ders 5
diah 5
din 5
dios 5
dulom 5
ects 5
elaias 5
elet 5
esem 5
ess 5
ether 5
eva 5
fearing 5
gate 5
gbasol 5
geber 5
gle 5
glingkod 5
gon 5
gpakitambag 5
gsapayan 5
gsultihanay 5
guro 5
hab 5
hall 5
hattaavah 5
hayag 5
higala 5
hik 5
hikatulog 5
himugso 5
hinanok 5
hingawa 5
hiwahiwa 5
hugas 5
hum 5
ians 5
ida 5
idalit 5
ilya 5
initan 5
ipahilayo 5
ira 5
iron 5
itin 5
its 5
iwali 5
jaakan 5
kabala 5
kabay 5
kadugang 5
kahinangop 5
kahulogan 5
kalingkawas 5
kapasubo 5
kasayon 5
katigom 5
katigulang 5
kawan 5
kigbisog 5
kighugoyhugoy 5
kin 5
kurat 5
kut 5
kuwentas 5
langoy 5
latigo 5
latos 5
lia 5
ligan 5
lly 5
lot 5
lubngan 5
lugos 5
lukapa 5
luspad 5
maaghop 5
maalamon 5
mad 5
malu 5
masin 5
masinugtanon 5
media 5
mentary 5
ments 5
mer 5
merodac 5
miel 5
minded 5
miss 5
mission 5
mos 5
mposed 5
ms 5
mul 5
nabok 5
naglalis 5
nason 5
ndoan 5
ngaabli 5
nghimasa 5
ngurog 5
niel 5
nihon 5
nto 5
nunglo 5
odias 5
ordinar 5
ose 5
ost 5
paambit 5
pahawa 5
pahiyom 5
pakiglalis 5
pakiluoy 5
pakpak 5
pamalandong 5
pamaligya 5
pamalik 5
panamilit 5
panapaw 5
pangahas 5
panghagdaw 5
panglakaw 5
panlimbong 5
panunod 5
papas 5
patindog 5
pauyon 5
pelet 5
pen 5
pid 5
pirit 5
presen 5
puasa 5
pud 5
pugong 5
pulong 5
pupu 5
ras 5
rink 5
rno 5
roi 5
sabotsabot 5
sai 5
sandurot 5
sapatos 5
serah 5
sidon 5
sihan 5
silbi 5
silyoh 5
simhot 5
sinati 5
sinaw 5
snared 5
ssed 5
stand 5
sugil 5
sunogon 5
sur 5
sure 5
takboy 5
taptap 5
tarong 5
tempered 5
that 5
they 5
timbangtimbang 5
tip 5
tipak 5
tipigan 5
tiyabaw 5
trangka 5
tuhop 5
tukob 5
tulisok 5
tumban 5
tumoy 5
tunto 5
tuohan 5
tuyhad 5
ubanan 5
uch 5
ugma 5
uhod 5
ukpok 5
ulang 5
ulay 5
ulf 5
ulous 5
uman 5
umog 5
upat 5
upha 5
upngan 5
upo 5
yatakyatakan 5
zah 5
zed 5
ziah 5
▁,2 5
▁,400. 5
▁12,000 5
▁17 5
▁32 5
▁34 5
▁66 5
▁96 5
▁abijah 5
▁ablih 5
▁abominable 5
▁absen 5
▁abusive 5
▁accordingly 5
▁accursed 5
▁achor 5
▁actions 5
▁activity 5
▁address 5
▁advance 5
▁af 5
▁agagite 5
▁agony 5
▁ahira 5
▁aijalon 5
▁ala 5
▁alfeo 5
▁almon 5
▁alphaeus 5
▁amarias 5
▁amend 5
▁ammonite 5
▁ancestors 5
▁angkonon 5
▁anna 5
▁annually 5
▁anunugba 5
▁approaches 5
▁approval 5
▁arab 5
▁aramean 5
▁arba 5
▁aristarchus 5
▁aristarco 5
▁arrange 5
▁arranged 5
▁artemis 5
▁arts 5
▁asherim 5
▁asshur 5
▁assyrian 5
▁astarot 5
▁attached 5
▁attained 5
▁avenge 5
▁await 5
▁awita 5
▁ayalon 5
▁baby 5
▁balabag 5
▁balaora 5
▁balhogan 5
▁baliko 5
▁balos 5
▁bandihado 5
▁barefoot 5
▁basemath 5
▁basimat 5
▁baslan 5
▁batter 5
▁bawion 5
▁beach 5
▁beelsebul 5
▁beeroth 5
▁bene 5
▁bereave 5
▁berechiah 5
▁besiege 5
▁betsaida 5
▁betsemes 5
▁bigvai 5
▁bilanggoa 5
▁bilga 5
▁bina 5
▁binalaye 5
▁bistihan 5
▁blasphemies 5
▁blaspheming 5
▁boasting 5
▁bold 5
▁borrow 5
▁bracelets 5
▁breach 5
▁breastplate 5
▁bukobuko 5
▁buling 5
▁bundle 5
▁buz 5
▁caps 5
▁carefree 5
▁cares 5
▁censers 5
▁chaldea 5
▁charm 5
▁chebar 5
▁cheek 5
▁cheeks 5
▁chephir 5
▁chi 5
▁chop 5
▁circl 5
▁cleared 5
▁climb 5
▁coast 5
▁coat 5
▁collapsed 5
▁compensat 5
▁compulsion 5
▁confident 5
▁conflict 5
▁conform 5
▁confuse 5
▁consist 5
▁consistent 5
▁conspiracy 5
▁contain 5
▁containers 5
▁cook 5
▁countryside 5
▁counts 5
▁creditor 5
▁crete 5
▁crumble 5
▁cunning 5
▁cyrene 5
▁da 5
▁danguyngoy 5
▁debate 5
▁debt 5
▁deceitfully 5
▁decepti 5
▁decorations 5
▁definite 5
▁delaiah 5
▁delayed 5
▁delicacies 5
▁delicate 5
▁delighted 5
▁deliverance 5
▁demanded 5
▁deport 5
▁deposit 5
▁describ 5
▁destitute 5
▁developed 5
▁devote 5
▁diamond 5
▁dignit 5
▁diladila 5
▁disciplined 5
▁displeas 5
▁dissension 5
▁distresses 5
▁dor 5
▁dorcas 5
▁drives 5
▁drought 5
▁dull 5
▁dungeon 5
▁dwelt 5
▁earrings 5
▁earthly 5
▁edges 5
▁effect 5
▁effort 5
▁eleale 5
▁elimelech 5
▁embahador 5
▁emptied 5
▁encircle 5
▁engraving 5
▁enlighten 5
▁enosh 5
▁entertain 5
▁entrust 5
▁ephrath 5
▁erect 5
▁eshtaol 5
▁estaol 5
▁etam 5
▁ewe 5
▁ewes 5
▁excessive 5
▁exhortation 5
▁expecting 5
▁expert 5
▁explore 5
▁extinguish 5
▁fairly 5
▁fam 5
▁fate 5
▁fee 5
▁feeble 5
▁fellowship 5
▁fiftie 5
▁fil 5
▁firepans 5
▁flog 5
▁folded 5
▁foliage 5
▁followers 5
▁foreskin 5
▁fortresses 5
▁foxes 5
▁frustrate 5
▁fuel 5
▁fun 5
▁furrows 5
▁galab 5
▁galileans 5
▁galler 5
▁gath 5
▁ge 5
▁giadtoan 5
▁gibanl 5
▁gibarogan 5
▁gibisibis 5
▁gibulit 5
▁gidu 5
▁gidunggab 5
▁gihulog 5
▁gik 5
▁gikauyonan 5
▁gikoronaha 5
▁gilub 5
▁gilupig 5
▁gipakataw 5
▁gipamaligya 5
▁gipanagsultihan 5
▁gipandong 5
▁gipanga 5
▁gipanumpa 5
▁gipasika 5
▁gipaulan 5
▁gipuli 5
▁giregla 5
▁girgashite 5
▁giribitiha 5
▁gisaaran 5
▁gisabak 5
▁gisan 5
▁gisinggitan 5
▁gitaho 5
▁gitimbang 5
▁gitintal 5
▁giula 5
▁giuyonan 5
▁giyah 5
▁goldsmith 5
▁graves 5
▁greed 5
▁grieving 5
▁growth 5
▁guides 5
▁guwapa 5
▁hagab 5
▁hak 5
▁hambugiro 5
▁hapini 5
▁harass 5
▁harbor 5
▁harem 5
▁harness 5
▁harps 5
▁hasar 5
▁haserot 5
▁hazeroth 5
▁hearth 5
▁heel 5
▁heels 5
▁heneral 5
▁hilit 5
▁hinagoan 5
▁hinder 5
▁hire 5
▁hisabti 5
▁hisayri 5
▁hissing 5
▁hivites 5
▁hoba 5
▁holon 5
▁hordes 5
▁horites 5
▁horonaim 5
▁hosanna 5
▁huboa 5
▁hum 5
▁hurrying 5
▁ibanl 5
▁igsapayan 5
▁ihawanan 5
▁ihawonon 5
▁ikapakita 5
▁illness 5
▁iloga 5
▁immoral 5
▁implore 5
▁infant 5
▁inflicted 5
▁inigkabati 5
▁inilog 5
▁injury 5
▁instructions 5
▁intelligent 5
▁invade 5
▁invent 5
▁ipabihag 5
▁ishmaelites 5
▁israelites 5
▁itoy 5
▁itumon 5
▁itun 5
▁jachin 5
▁jairo 5
▁jamin 5
▁jars 5
▁javan 5
▁jaw 5
▁jedaias 5
▁jeroboam 5
▁joiarib 5
▁jonadab 5
▁jozadak 5
▁kaanyag 5
▁kabsa 5
▁kadangpan 5
▁kalo 5
▁kar 5
▁kasubaan 5
▁katagilungsod 5
▁katingala 5
▁katulo 5
▁kausa 5
▁kawanangan 5
▁kebar 5
▁ken 5
▁ki 5
▁kimay 5
▁kinaon 5
▁kinasuokan 5
▁kinatawo 5
▁kiriathaim 5
▁knee 5
▁knife 5
▁kriminal 5
▁kuneho 5
▁lais 5
▁laish 5
▁lak 5
▁lala 5
▁landowner 5
▁lawlessness 5
▁lawo 5
▁lawod 5
▁layer 5
▁leopard 5
▁lied 5
▁lihok 5
▁linuto 5
▁listahan 5
▁listra 5
▁lugit 5
▁lugos 5
▁lugway 5
▁lumalabay 5
▁lutoson 5
▁lystra 5
▁mabakwi 5
▁mabalhin 5
▁mabugalbugalon 5
▁mabuntag 5
▁mabutyag 5
▁machpelah 5
▁mada 5
▁madali 5
▁madanihon 5
▁magbisti 5
▁magdu 5
▁magdula 5
▁magkabayo 5
▁magkukulit 5
▁magkukulon 5
▁magminatay 5
▁magnificent 5
▁magpagarbo 5
▁magpakamatay 5
▁magsamok 5
▁magsiga 5
▁magsubo 5
▁magsunod 5
▁mahl 5
▁mahli 5
▁makaani 5
▁makadala 5
▁makadao 5
▁makahilo 5
▁makaihap 5
▁makasuga 5
▁makasupak 5
▁makatamba 5
▁makiangayon 5
▁makigdaiton 5
▁malimbongan 5
▁manaad 5
▁manabok 5
▁mananagat 5
▁mananagna 5
▁mandrakes 5
▁manglimbong 5
▁manlimbong 5
▁manulti 5
▁mapalit 5
▁mapalong 5
▁mapungot 5
▁maputi 5
▁mara 5
▁marah 5
▁marker 5
▁marsh 5
▁martilyo 5
▁masinabuton 5
▁masu 5
▁mati 5
▁matthew 5
▁matumpag 5
▁mausa 5
▁mausik 5
▁meaning 5
▁meditation 5
▁megiddo 5
▁mentioned 5
▁mer 5
▁mida 5
▁midasdas 5
▁midianite 5
▁miguel 5
▁mihilom 5
▁mill 5
▁min 5
▁mingok 5
▁mirebelde 5
▁miscarri 5
▁misulat 5
▁misumbalik 5
▁mitu 5
▁mitug 5
▁moabihanon 5
▁moabitess 5
▁mob 5
▁mocked 5
▁mokun 5
▁mol 5
▁molech 5
▁mopakita 5
▁mosakd 5
▁motipas 5
▁motives 5
▁motug 5
▁mula 5
▁musi 5
▁musikero 5
▁mustasa 5
▁myriads 5
▁myrtle 5
▁nagbaha 5
▁nagbak 5
▁nagduhaduha 5
▁naghi 5
▁naghik 5
▁nagkombira 5
▁nagmala 5
▁nagpas 5
▁nagpatu 5
▁nagpundok 5
▁nagsayaw 5
▁nagubot 5
▁nahimu 5
▁nahimut 5
▁nahipos 5
▁nakulang 5
▁nalaya 5
▁nanambok 5
▁nangahimo 5
▁nangasunog 5
▁nanghila 5
▁nani 5
▁nanibsib 5
▁nanug 5
▁napatikan 5
▁nasu 5
▁naulaw 5
▁needed 5
▁nicodemus 5
▁niebe 5
▁noblemen 5
▁nursed 5
▁obst 5
▁occurs 5
▁ofir 5
▁ophir 5
▁oppose 5
▁ordinasyon 5
▁origin 5
▁osa 5
▁ostriches 5
▁overlook 5
▁overturn 5
▁owed 5
▁pabantay 5
▁pagbahin 5
▁pagbisti 5
▁pagbuhi 5
▁pagha 5
▁paghi 5
▁paghir 5
▁paghudyaka 5
▁pagkababaye 5
▁pagkabuta 5
▁pagkahabol 5
▁pagkamati 5
▁pagkampo 5
▁paglaraw 5
▁paglumpag 5
▁paglupad 5
▁pagmalipayon 5
▁pagpagarbo 5
▁pagpahimu 5
▁pagpakaon 5
▁pagpamatuod 5
▁pagpamilok 5
▁pagpanamastamas 5
▁pagpanapaw 5
▁pagpangawat 5
▁pagpanglupig 5
▁pagpanulti 5
▁pagpukan 5
▁pagregla 5
▁pagsul 5
▁pagtahi 5
▁pahilumon 5
▁pahubs 5
▁pahulayan 5
▁palab 5
▁palimbong 5
▁palingkor 5
▁palu 5
▁paminawon 5
▁pananglitan 5
▁pangaon 5
▁pangawat 5
▁panig 5
▁paninguha 5
▁pant 5
▁paros 5
▁parosh 5
▁partakers 5
▁passage 5
▁pasultihon 5
▁pasungan 5
▁patindoga 5
▁patrol 5
▁patunhay 5
▁pavement 5
▁payment 5
▁pelican 5
▁penuel 5
▁periods 5
▁permissi 5
▁perplexed 5
▁perversion 5
▁perverted 5
▁pet 5
▁physician 5
▁pigsanan 5
▁pinut 5
▁pits 5
▁plac 5
▁planks 5
▁planning 5
▁plate 5
▁pleadings 5
▁pleiades 5
▁plott 5
▁plum 5
▁poll 5
▁pound 5
▁predestined 5
▁preparation 5
▁pris 5
▁problema 5
▁prolonged 5
▁properly 5
▁prow 5
▁pulonga 5
▁rab 5
▁radiance 5
▁rains 5
▁raped 5
▁recover 5
▁reel 5
▁refidim 5
▁refine 5
▁refute 5
▁relation 5
▁relied 5
▁relieve 5
▁religion 5
▁renown 5
▁repair 5
▁rephidim 5
▁revenge 5
▁revert 5
▁rim 5
▁roared 5
▁saddle 5
▁sakayanon 5
▁sakmit 5
▁saligi 5
▁sallu 5
▁salmo 5
▁samaritan 5
▁sapaw 5
▁sashes 5
▁satisf 5
▁scarc 5
▁scoffers 5
▁seals 5
▁sebna 5
▁secanias 5
▁sect 5
▁sef 5
▁selemias 5
▁sen 5
▁senseless 5
▁seth 5
▁seventeen 5
▁severity 5
▁sharpen 5
▁shear 5
▁shebna 5
▁shecaniah 5
▁shedeur 5
▁shethar 5
▁shi 5
▁shining 5
▁shitim 5
▁shittim 5
▁sho 5
▁shovel 5
▁sibma 5
▁sigh 5
▁signed 5
▁silenced 5
▁simei 5
▁similar 5
▁sinalikway 5
▁sink 5
▁sinning 5
▁sipre 5
▁sirado 5
▁skirt 5
▁slope 5
▁socket 5
▁somewhere 5
▁sore 5
▁sort 5
▁speck 5
▁spice 5
▁stag 5
▁stairway 5
▁stated 5
▁stepp 5
▁stirring 5
▁ston 5
▁stork 5
▁story 5
▁strive 5
▁stump 5
▁sub 5
▁subjection 5
▁sudden 5
▁sugyot 5
▁suk 5
▁sukoa 5
▁surviv 5
▁sw 5
▁swell 5
▁tagbalay 5
▁tambourines 5
▁tapok 5
▁tarsus 5
▁teachings 5
▁tel 5
▁tempest 5
▁thessalonica 5
▁thighs 5
▁thistles 5
▁thoughtless 5
▁thr 5
▁thummim 5
▁tinak 5
▁tinapok 5
▁tinuoray 5
▁topasyo 5
▁torch 5
▁torrent 5
▁torta 5
▁tra 5
▁train 5
▁trick 5
▁truthful 5
▁tukbon 5
▁tulis 5
▁turmoil 5
▁twent 5
▁tyrants 5
▁ulipnon 5
▁undergarments 5
▁ungodly 5
▁units 5
▁unsearchable 5
▁unt 5
▁urias 5
▁valiantly 5
▁vanish 5
▁verdict 5
▁vi 5
▁vil 5
▁violator 5
▁viper 5
▁wars 5
▁wasay 5
▁willingly 5
▁wink 5
▁wiser 5
▁wished 5
▁wrestl 5
▁yatakyatakan 5
▁yukbo 5
▁zaccur 5
▁zeeb 5
▁zilpah 5
▁zippor 5
▁zuar 5
▁zurishaddai 5
,600 4
00. 4
05 4
19 4
2,2 4
21 4
22; 4
25 4
400 4
72 4
73 4
abagan 4
abay 4
abii 4
abuton 4
action 4
addar 4
adohan 4
aghigalaay 4
aglimbag 4
agpa 4
agpataka 4
ahias 4
aiah 4
akpak 4
alagara 4
alah 4
alaot 4
alig 4
alihan 4
alot 4
amahulay 4
amathite 4
amgo 4
anagna 4
anath 4
anda 4
anias 4
aninggit 4
arah 4
aramea 4
aris 4
ata 4
atch 4
attenai 4
auban 4
awas 4
bakak 4
bakwi 4
bana 4
bayloan 4
bbling 4
being 4
bil 4
bim 4
bisibis 4
bolibo 4
bor 4
bozenai 4
braham 4
bton 4
bunda 4
buntag 4
cation 4
ces 4
cia 4
cio 4
color 4
comm 4
controlled 4
corinto 4
cri 4
cum 4
cut 4
dagkot 4
dako 4
dasmag 4
dilaab 4
dlaw 4
dunggo 4
earned 4
ebai 4
ebe 4
ecause 4
ection 4
elaiah 4
elu 4
enath 4
ened 4
eni 4
eper 4
era 4
eremot 4
eret 4
eri 4
ering 4
esar 4
ession 4
eter 4
even 4
ew 4
far 4
fected 4
fel 4
fifth 4
filipos 4
form 4
fter 4
gabok 4
gansang 4
gdait 4
gdaugdaog 4
giyug 4
gnoran 4
godliness 4
gol 4
gpakapropeta 4
grab 4
hataaba 4
hatagan 4
haz 4
hearted 4
hibulong 4
himaya 4
hinatag 4
hisalaag 4
hisalin 4
histle 4
honan 4
how 4
hulam 4
idagsa 4
idugang 4
ieser 4
ified 4
ight 4
ightly 4
igihan 4
igom 4
ihangyo 4
ihidhi 4
ikaw 4
ikla 4
imus 4
intal 4
inu 4
io 4
ions 4
iro 4
isim 4
isinggit 4
iso 4
isuhol 4
ities 4
itom 4
ized 4
jair 4
jeshimoth 4
kab 4
kabahandianon 4
kabuang 4
kah 4
kahibulongan 4
kahugaw 4
kahupay 4
kakusgan 4
kaligutgotan 4
kam 4
kamahilawason 4
kapukan 4
kar 4
kaw 4
kid 4
kigdait 4
kil 4
kilat 4
kiri 4
kugos 4
kutk 4
labot 4
lalakin 4
lamdag 4
landong 4
laray 4
layo 4
lessness 4
leto 4
libotlibot 4
lie 4
lihiyo 4
lima 4
lita 4
litok 4
looking 4
lor 4
lugit 4
lumlom 4
lungkab 4
luto 4
luyahon 4
malahutayon 4
malipayon 4
mapagarbohon 4
mapaubsanon 4
marry 4
matarong 4
matyon 4
met 4
minyoon 4
mish 4
mubo 4
namel 4
napan 4
ngamuyo 4
nghupaw 4
niwang 4
nos 4
nsa 4
nuel 4
nuhol 4
oday 4
oenai 4
oke 4
olda 4
olingo 4
ome 4
omed 4
omor 4
oran 4
ory 4
ota 4
oz 4
pabor 4
padulngan 4
paduol 4
pahimatngon 4
pahunong 4
pakaon 4
palakaw 4
palampos 4
palukapa 4
pamunal 4
pangita 4
panglimbong 4
paniguro 4
panumpa 4
parat 4
patikan 4
patungha 4
paubos 4
pauswag 4
phar 4
phas 4
phel 4
pin 4
pinugngan 4
pipe 4
ple 4
pok 4
pun 4
punggot 4
pura 4
purong 4
puton 4
rated 4
rec 4
reho 4
reklamo 4
riba 4
ribi 4
ribiti 4
ries 4
rimmon 4
ring 4
ripe 4
rishathaim 4
rity 4
rope 4
rough 4
sagol 4
sakop 4
sangka 4
saysayan 4
sepher 4
seven 4
shore 4
sia 4
sibsiban 4
sik 4
sil 4
silo 4
sol 4
ssing 4
steps 4
sudli 4
taliwa 4
tambo 4
tapol 4
taral 4
taw 4
tax 4
ten 4
tested 4
three 4
tic 4
tiel 4
tikasan 4
timate 4
tipig 4
tir 4
tiro 4
tle 4
tly 4
tor 4
trol 4
ttah 4
tulis 4
tuous 4
udt 4
ufa 4
ugas 4
ukon 4
ulhos 4
ulit 4
umol 4
ump 4
up 4
ured 4
utbo 4
uto 4
uwang 4
vial 4
wal 4
wan 4
wat 4
white 4
worthy 4
yal 4
yatakan 4
yokan 4
yrus 4
zai 4
▁,600 4
▁27 4
▁45 4
▁75 4
▁abid 4
▁abieser 4
▁abuse 4
▁abused 4
▁acaba 4
▁achaia 4
▁adaiah 4
▁adin 4
▁adma 4
▁adonibezec 4
▁adram 4
▁afflict 4
▁aflame 4
▁agata 4
▁aged 4
▁agreement 4
▁aground 4
▁alabaster 4
▁alabastro 4
▁allowance 4
▁aloes 4
▁amaze 4
▁ambition 4
▁amihud 4
▁amisadai 4
▁ammihud 4
▁amomahon 4
▁amra 4
▁annas 4
▁answering 4
▁anywhere 4
▁app 4
▁apparel 4
▁appropriate 4
▁aramaic 4
▁archer 4
▁areli 4
▁arfad 4
▁arguing 4
▁argument 4
▁arida 4
▁arimathea 4
▁arrive 4
▁asasel 4
▁aseka 4
▁ash 4
▁asoy 4
▁aspenas 4
▁atarot 4
▁ater 4
▁athens 4
▁atsa 4
▁attire 4
▁awakened 4
▁awakens 4
▁azekah 4
▁azgad 4
▁azzur 4
▁baala 4
▁baalah 4
▁baana 4
▁babayhana 4
▁badlisbadlis 4
▁bagulbolan 4
▁balance 4
▁balances 4
▁banagbanag 4
▁banga 4
▁banners 4
▁bantayanan 4
▁barangan 4
▁barn 4
▁barns 4
▁bartholomew 4
▁bartolome 4
▁barzillai 4
▁basola 4
▁bayani 4
▁beerot 4
▁beheaded 4
▁bell 4
▁berias 4
▁betjesimot 4
▁betpa 4
▁bigta 4
▁bihaga 4
▁blinded 4
▁blindness 4
▁blocks 4
▁bodi 4
▁borlas 4
▁bother 4
▁box 4
▁bozrah 4
▁bribes 4
▁brief 4
▁bruise 4
▁bugalbugal 4
▁bun 4
▁buslot 4
▁buyer 4
▁bystanders 4
▁camos 4
▁canceled 4
▁capital 4
▁caravan 4
▁carri 4
▁certainty 4
▁ch 4
▁chain 4
▁chedorlaomer 4
▁chefira 4
▁chemosh 4
▁ches 4
▁chinnereth 4
▁cho 4
▁chronicles 4
▁cisterns 4
▁cliff 4
▁cliffs 4
▁cluster 4
▁coastland 4
▁colors 4
▁column 4
▁complacen 4
▁confer 4
▁confesses 4
▁confession 4
▁consequen 4
▁conspir 4
▁cont 4
▁content 4
▁contention 4
▁contrite 4
▁convict 4
▁copper 4
▁corpse 4
▁counsels 4
▁courts 4
▁crack 4
▁credit 4
▁crime 4
▁criminal 4
▁criminals 4
▁crowed 4
▁crushes 4
▁cult 4
▁cumin 4
▁cured 4
▁dak 4
▁dam 4
▁dangpanan 4
▁danites 4
▁daota 4
▁darken 4
▁daybreak 4
▁dealings 4
▁debtors 4
▁decisions 4
▁declar 4
▁decorate 4
▁decreed 4
▁defi 4
▁demas 4
▁deported 4
▁deride 4
▁derision 4
▁descendant 4
▁despaired 4
▁detest 4
▁dignitaries 4
▁diligent 4
▁dinihogan 4
▁directions 4
▁disagree 4
▁discernment 4
▁disclosed 4
▁discussion 4
▁disheartened 4
▁dison 4
▁displeased 4
▁disturbed 4
▁doktor 4
▁domineer 4
▁downward 4
▁drachmas 4
▁drain 4
▁dress 4
▁dripping 4
▁dwindle 4
▁dying 4
▁earnings 4
▁educated 4
▁ele 4
▁elepante 4
▁elishama 4
▁embittered 4
▁emptiness 4
▁enaim 4
▁encamp 4
▁enlightened 4
▁enos 4
▁epa 4
▁escapes 4
▁esk 4
▁espanya 4
▁est 4
▁ethiopian 4
▁eutico 4
▁evildoer 4
▁excess 4
▁exiled 4
▁exploit 4
▁expose 4
▁expression 4
▁extortion 4
▁ezequiel 4
▁fade 4
▁fails 4
▁farm 4
▁farmers 4
▁farthe 4
▁fasted 4
▁fe 4
▁fence 4
▁festiv 4
▁fists 4
▁fixed 4
▁flew 4
▁flourishes 4
▁flowers 4
▁foam 4
▁forbid 4
▁foremen 4
▁forfeit 4
▁fortune 4
▁fugitive 4
▁furious 4
▁furnish 4
▁gabon 4
▁gale 4
▁galilean 4
▁galli 4
▁gap 4
▁garland 4
▁gebal 4
▁gemariah 4
▁gemarias 4
▁genealogy 4
▁gentle 4
▁gerahs 4
▁gersom 4
▁geser 4
▁gesh 4
▁geshurites 4
▁giawit 4
▁gibadbaran 4
▁gibi 4
▁gibordaha 4
▁gibuak 4
▁gid 4
▁gidangpan 4
▁gidigo 4
▁gidugo 4
▁gihal 4
▁gihulga 4
▁gihuwa 4
▁gihuy 4
▁giinom 4
▁gikadenahan 4
▁gikahi 4
▁gikasabotan 4
▁gikasal 4
▁gikasulti 4
▁gikatagbo 4
▁gikawatan 4
▁gilaktan 4
▁gilikay 4
▁gilingkoran 4
▁gilum 4
▁giluto 4
▁gipahumo 4
▁gipakig 4
▁gipalatos 4
▁gipamali 4
▁gipamiyaan 4
▁gipaningkamotan 4
▁gipasun 4
▁gipatuo 4
▁gipirmahan 4
▁gisalibay 4
▁gisangyawan 4
▁gisap 4
▁gisubay 4
▁gitago 4
▁gitanyag 4
▁giti 4
▁gitindogan 4
▁gitulisan 4
▁gitum 4
▁gitun 4
▁glass 4
▁gleam 4
▁gleaned 4
▁gleanings 4
▁gloomy 4
▁glow 4
▁grandson 4
▁grasped 4
▁grasshopper 4
▁greece 4
▁grieve 4
▁groves 4
▁growl 4
▁guardian 4
▁guest 4
▁guidance 4
▁gunitanan 4
▁gutlo 4
▁habila 4
▁habitation 4
▁hadad 4
▁hadlokon 4
▁hakkoz 4
▁hamedata 4
▁hammedatha 4
▁hamugaway 4
▁handled 4
▁hangol 4
▁hanoch 4
▁happiness 4
▁hapsay 4
▁hasshub 4
▁hassub 4
▁hatac 4
▁hattus 4
▁hauran 4
▁havilah 4
▁heated 4
▁heavi 4
▁hegai 4
▁helb 4
▁heritage 4
▁hidhir 4
▁hik 4
▁hilabt 4
▁hilaki 4
▁himbis 4
▁hinako 4
▁hinayhinay 4
▁hinulma 4
▁hisgotan 4
▁hit 4
▁hitaboa 4
▁hole 4
▁holiday 4
▁homage 4
▁honesty 4
▁hop 4
▁housetop 4
▁hubar 4
▁humiliate 4
▁hunahunaon 4
▁hurrie 4
▁hymn 4
▁ibton 4
▁iconio 4
▁iconium 4
▁idle 4
▁idolatr 4
▁ighahalad 4
▁igihan 4
▁ignorance 4
▁ignore 4
▁igtiti 4
▁ih 4
▁ikabayad 4
▁ikahimuot 4
▁illuminate 4
▁imitat 4
▁imna 4
▁implor 4
▁important 4
▁imprison 4
▁inagaw 4
▁inani 4
▁inigbiya 4
▁inighi 4
▁inigsulo 4
▁inihap 4
▁injur 4
▁insert 4
▁inspection 4
▁instantly 4
▁interv 4
▁inwardly 4
▁ipaagi 4
▁ipahil 4
▁ipakasa 4
▁ipanglab 4
▁irya 4
▁ishv 4
▁isigkalalaki 4
▁isla 4
▁ismaelita 4
▁italia 4
▁italy 4
▁jared 4
▁jehoiachin 4
▁jeshurun 4
▁joia 4
▁joiakim 4
▁jug 4
▁justly 4
▁kabi 4
▁kabililhon 4
▁kabuhian 4
▁kagabii 4
▁kahago 4
▁kahatagi 4
▁kahubog 4
▁kaisipan 4
▁kalapa 4
▁kangiob 4
▁kaolibohan 4
▁kapaingnan 4
▁kapaitan 4
▁kapalaran 4
▁kapangpangan 4
▁kasab 4
▁kasaysayan 4
▁kasilotan 4
▁kasungian 4
▁katagoan 4
▁katugnaw 4
▁kedes 4
▁kenan 4
▁kenizzite 4
▁ker 4
▁kibrot 4
▁kinaha 4
▁kinaiyahan 4
▁kinasal 4
▁kis 4
▁kishon 4
▁kit 4
▁klase 4
▁knocking 4
▁konse 4
▁kora 4
▁kubkob 4
▁kump 4
▁kunhor 4
▁kuniskunison 4
▁kuwanggol 4
▁lab 4
▁labans 4
▁languish 4
▁laps 4
▁lasaw 4
▁laughed 4
▁lavish 4
▁lawalawa 4
▁lawyers 4
▁layag 4
▁learning 4
▁legion 4
▁lehi 4
▁li 4
▁libroha 4
▁lifeblood 4
▁ligdong 4
▁lime 4
▁liwat 4
▁lod 4
▁lodging 4
▁looted 4
▁lovely 4
▁lowe 4
▁lugar 4
▁lun 4
▁lungkab 4
▁lungon 4
▁lustful 4
▁lydia 4
▁maabot 4
▁maako 4
▁maala 4
▁mabungahon 4
▁mabuta 4
▁macpela 4
▁madasig 4
▁madmen 4
▁magabii 4
▁magbu 4
▁magbulag 4
▁magdagan 4
▁magdamgo 4
▁magduhaduha 4
▁magh 4
▁magic 4
▁magkurog 4
▁magluto 4
▁magpailob 4
▁magpakabana 4
▁magpasigarbo 4
▁magpaul 4
▁magpupugas 4
▁magputli 4
▁magtawag 4
▁magtiniil 4
▁magustohan 4
▁mahana 4
▁mahigalaon 4
▁mahimu 4
▁mahinangpon 4
▁mahinatagon 4
▁mahisalin 4
▁mahugno 4
▁mahumo 4
▁major 4
▁makaagwanta 4
▁makabi 4
▁makahuma 4
▁makalig 4
▁makalu 4
▁makapanganak 4
▁makapasaylo 4
▁makatag 4
▁makatambong 4
▁makatingog 4
▁makatrabaho 4
▁maki 4
▁makigd 4
▁makigsabot 4
▁malapason 4
▁malluch 4
▁malunod 4
▁mamahawa 4
▁mamina 4
▁mamingaw 4
▁mananabang 4
▁mangabubho 4
▁mangangani 4
▁mangani 4
▁mangat 4
▁mangata 4
▁manger 4
▁manghigda 4
▁manghulam 4
▁mansanas 4
▁manuo 4
▁maputli 4
▁maputo 4
▁market 4
▁marrying 4
▁marvel 4
▁masakit 4
▁matabonan 4
▁matago 4
▁matatias 4
▁matt 4
▁matuli 4
▁mature 4
▁meanwhile 4
▁mediator 4
▁medium 4
▁megido 4
▁menstruation 4
▁mib 4
▁mibul 4
▁mid 4
▁midday 4
▁miha 4
▁miku 4
▁milantaw 4
▁millstones 4
▁mipahilayo 4
▁mipasaka 4
▁mirtol 4
▁miserable 4
▁misled 4
▁missing 4
▁mist 4
▁mitaho 4
▁mitunga 4
▁mix 4
▁miz 4
▁mizpeh 4
▁moabite 4
▁moan 4
▁modag 4
▁modali 4
▁mogahi 4
▁moikyas 4
▁mokuyo 4
▁moliso 4
▁monster 4
▁moons 4
▁morsel 4
▁mosayaw 4
▁mosi 4
▁mout 4
▁mudd 4
▁mules 4
▁multa 4
▁multi 4
▁multiplie 4
▁multo 4
▁murders 4
▁nadunggan 4
▁nadunot 4
▁nagbagu 4
▁nagbulag 4
▁naghul 4
▁naghunghongay 4
▁nagkata 4
▁naglubog 4
▁nagmasupilon 4
▁nagmugna 4
▁nagpaul 4
▁nagpunay 4
▁nagsilbi 4
▁nahalal 4
▁nahali 4
▁nahapla 4
▁nakabsa 4
▁nakurat 4
▁namatya 4
▁nangabihag 4
▁nangawala 4
▁nangl 4
▁nanurok 4
▁napakyas 4
▁nard 4
▁nardo 4
▁nauga 4
▁nebaiot 4
▁nebaioth 4
▁nef 4
▁nests 4
▁ngiwngiw 4
▁nicodemo 4
▁noa 4
▁obot 4
▁oboth 4
▁occup 4
▁ocran 4
▁offensive 4
▁oly 4
▁oneself 4
▁openly 4
▁opposition 4
▁oppresse 4
▁oth 4
▁outburst 4
▁overseers 4
▁overshadow 4
▁owners 4
▁paandam 4
▁pabati 4
▁padagayday 4
▁padan 4
▁paduol 4
▁pagbak 4
▁pagbalhin 4
▁pagbanhaw 4
▁pagbuk 4
▁pagdani 4
▁pagduhaduha 4
▁paghin 4
▁pagkaapostol 4
▁pagkabahinbahin 4
▁pagkabuang 4
▁pagkagu 4
▁pagkahalangdon 4
▁pagkahanaw 4
▁pagkalit 4
▁pagkalubid 4
▁pagkaudto 4
▁pagkaulipon 4
▁pagkausab 4
▁pagku 4
▁paglukat 4
▁pagluto 4
▁pagmahal 4
▁pagmaisogon 4
▁pagminyo 4
▁pagpailob 4
▁pagpangandam 4
▁pagpanton 4
▁pagpanu 4
▁pagpanuko 4
▁pagpatuli 4
▁pagsumpay 4
▁pagsuroy 4
▁pagtanom 4
▁pagtindog 4
▁pagtuon 4
▁pagyukbo 4
▁pahi 4
▁pahibaloon 4
▁pahiloma 4
▁pahimusli 4
▁pahinu 4
▁pahunong 4
▁pakigbatok 4
▁pakighilawas 4
▁pakitaa 4
▁palingkora 4
▁palita 4
▁palungon 4
▁pamakak 4
▁pamphylia 4
▁pampilia 4
▁pamunit 4
▁panagbingkil 4
▁panel 4
▁pangabaga 4
▁pangatarongan 4
▁panghila 4
▁pangibt 4
▁paningl 4
▁pap 4
▁para 4
▁partial 4
▁pasabt 4
▁pasibsibon 4
▁pasunda 4
▁patabang 4
▁pathros 4
▁patient 4
▁patiently 4
▁patigayon 4
▁pattern 4
▁peaks 4
▁pedaiah 4
▁peka 4
▁peligro 4
▁perceived 4
▁permanently 4
▁physicians 4
▁pinions 4
▁pintas 4
▁platero 4
▁platter 4
▁plotting 4
▁ponder 4
▁pont 4
▁posts 4
▁prefects 4
▁presses 4
▁presumptuously 4
▁principle 4
▁prisohan 4
▁proconsul 4
▁profan 4
▁promote 4
▁propetaha 4
▁proposal 4
▁protected 4
▁psalms 4
▁pua 4
▁puas 4
▁pulih 4
▁puntikpuntikon 4
▁purged 4
▁purongpurong 4
▁purposes 4
▁quail 4
▁quarantine 4
▁qui 4
▁rabi 4
▁race 4
▁radiant 4
▁ration 4
▁ravine 4
▁rechab 4
▁reck 4
▁reclined 4
▁recogniz 4
▁reconciled 4
▁referr 4
▁reflect 4
▁refu 4
▁register 4
▁registered 4
▁rehoboam 4
▁remaliah 4
▁repeat 4
▁represent 4
▁representatives 4
▁reputation 4
▁requirement 4
▁resided 4
▁respected 4
▁respects 4
▁restraint 4
▁results 4
▁retained 4
▁revered 4
▁rewarded 4
▁rimon 4
▁rite 4
▁ruling 4
▁rumor 4
▁safir 4
▁sakes 4
▁salem 4
▁salome 4
▁sanctuaries 4
▁sapawi 4
▁sarid 4
▁sc 4
▁scoff 4
▁scorpions 4
▁scrap 4
▁script 4
▁seacoast 4
▁searche 4
▁sec 4
▁sedeur 4
▁sefer 4
▁seller 4
▁sesbasar 4
▁shar 4
▁sheshbazzar 4
▁shim 4
▁shortened 4
▁shortly 4
▁shrivel 4
▁shudder 4
▁shuhite 4
▁sidim 4
▁simons 4
▁sinuka 4
▁skip 4
▁skull 4
▁slipped 4
▁smelt 4
▁snatche 4
▁soldier 4
▁sorceries 4
▁sores 4
▁sovereignty 4
▁sowing 4
▁spacious 4
▁sparrows 4
▁speed 4
▁spitting 4
▁spots 4
▁stadia 4
▁staggering 4
▁stallions 4
▁stench 4
▁step 4
▁stiff 4
▁sto 4
▁stops 4
▁stories 4
▁stormy 4
▁str 4
▁straighten 4
▁stretcher 4
▁strict 4
▁strings 4
▁structure 4
▁stumbles 4
▁suar 4
▁suck 4
▁sug 4
▁sulab 4
▁sulata 4
▁sulatan 4
▁supaka 4
▁supported 4
▁sur 4
▁surisadai 4
▁surpasse 4
▁survive 4
▁sustenance 4
▁swim 4
▁swing 4
▁swoop 4
▁taanach 4
▁tabeel 4
▁tagodtagor 4
▁talamayon 4
▁taligsik 4
▁tamay 4
▁tambo 4
▁tampi 4
▁tanlag 4
▁tappuah 4
▁tapua 4
▁tar 4
▁tarso 4
▁tassel 4
▁tatenai 4
▁tawgo 4
▁taxes 4
▁taya 4
▁te 4
▁tekoa 4
▁tens 4
▁tesorero 4
▁thebes 4
▁thickness 4
▁thirsts 4
▁threaten 4
▁thresh 4
▁thyatira 4
▁tigkonsulta 4
▁tigris 4
▁timik 4
▁tinahod 4
▁tinanom 4
▁tintalon 4
▁tinukob 4
▁tipi 4
▁tiquico 4
▁tongs 4
▁torrents 4
▁trac 4
▁trampl 4
▁trans 4
▁traveler 4
▁travelers 4
▁trivial 4
▁tro 4
▁troas 4
▁troso 4
▁trough 4
▁tua 4
▁tulobagon 4
▁tuno 4
▁tunton 4
▁tutonlan 4
▁tychicus 4
▁ubay 4
▁ulai 4
▁unaha 4
▁unaware 4
▁unfaithfulness 4
▁unity 4
▁upheld 4
▁uzzi 4
▁va 4
▁vegetables 4
▁veils 4
▁vindicated 4
▁vindication 4
▁vinegar 4
▁violat 4
▁wagons 4
▁wanang 4
▁wanderer 4
▁wasted 4
▁weakness 4
▁worshipers 4
▁wrathful 4
▁writhe 4
▁wronged 4
▁zaccheus 4
▁zacur 4
▁zanoah 4
▁zattu 4
▁zatu 4
▁zealot 4
▁zealous 4
▁zerahites 4
▁zimri 4
▁ziph 4
▁zoph 4
▁zur 4
-30 3
1, 3
172 3
2,200 3
2,7 3
20 3
3,400 3
450 3
6; 3
730 3
775 3
abhi 3
ability 3
ablihan 3
abubho 3
ache 3
ade 3
adiah 3
agog 3
agpas 3
agsu 3
agtiayon 3
ahabilin 3
ahat 3
akpon 3
alampoanan 3
alejandria 3
alias 3
allai 3
almon 3
amang 3
ambin 3
amgar 3
ammi 3
anac 3
angalaya 3
animaho 3
anna 3
apolis 3
arabah 3
arabia 3
arc 3
arden 3
arimatea 3
asoy 3
ather 3
atid 3
atigulang 3
ature 3
audi 3
avelin 3
avid 3
azaniah 3
baalmeon 3
bac 3
badbar 3
banay 3
baot 3
baslan 3
benjamin 3
berith 3
betlehem 3
bezek 3
bintaha 3
binu 3
bistig 3
bisyo 3
biyahe 3
bone 3
borda 3
bugwal 3
bukto 3
bungahon 3
butoy 3
cable 3
casi 3
casia 3
char 3
ched 3
cing 3
cloth 3
coal 3
col 3
control 3
creta 3
dagma 3
dakdak 3
debt 3
diblathaim 3
dibuho 3
dict 3
diskarga 3
disturbed 3
domingo 3
dugay 3
dugo 3
dunggab 3
eel 3
ei 3
elasar 3
ellow 3
eme 3
ements 3
ench 3
enter 3
espiya 3
etiopia 3
ezi 3
fection 3
feri 3
fia 3
ficial 3
ficient 3
fira 3
fits 3
flame 3
foot 3
fully 3
galab 3
galacia 3
gamhanan 3
gannim 3
gel 3
gibutangbutangan 3
gotan 3
gotten 3
gpanglingo 3
gress 3
gubat 3
hahiroth 3
hai 3
hamugaway 3
haph 3
hapit 3
haruhay 3
hen 3
herefore 3
him 3
hininginlan 3
hinuktok 3
hiwian 3
hood 3
hubag 3
hugno 3
hukasa 3
hulbot 3
huslo 3
huyang 3
iakim 3
ibalos 3
ibza 3
ically 3
icated 3
idal 3
idayandayan 3
ide 3
idulot 3
igdal 3
igmat 3
ilhig 3
ililong 3
ily 3
imba 3
inahan 3
indog 3
intel 3
intellig 3
inut 3
ipainom 3
ipalatos 3
ipangutana 3
ipasaka 3
ipasalig 3
ipirma 3
isangon 3
ished 3
isopo 3
ister 3
iving 3
kabalaan 3
kabang 3
kabingkil 3
kadaghan 3
kahadlok 3
kal 3
kalalis 3
kalos 3
kampohan 3
kapahulay 3
kapamatu 3
karga 3
kasadpan 3
kasinati 3
kasuk 3
katagkatag 3
katkat 3
kem 3
kero 3
kilid 3
kim 3
kobra 3
korona 3
kuha 3
kuptan 3
laktan 3
lalis 3
lansis 3
laphak 3
laran 3
lashes 3
lect 3
lets 3
light 3
linaw 3
liness 3
lipot 3
llegi 3
lod 3
loyal 3
lud 3
luhi 3
lumo 3
lumpagon 3
lunod 3
luwasa 3
luyo 3
mabungahon 3
madasigon 3
magul 3
mahawa 3
makasasala 3
malampuson 3
mamina 3
mana 3
mao 3
mart 3
masaligon 3
masukad 3
metic 3
milit 3
millo 3
mim 3
minal 3
minyoa 3
mispe 3
mmanuel 3
mmed 3
moral 3
more 3
moreset 3
morr 3
mounted 3
mpulsi 3
nangag 3
nanghi 3
napulo 3
ndak 3
nding 3
netofa 3
nggot 3
nia 3
niguro 3
niho 3
nimalos 3
nlag 3
noc 3
not 3
nuktok 3
oadias 3
occupied 3
oe 3
ofim 3
omer 3
ook 3
orno 3
otal 3
own 3
pagkamakiangayon 3
pahayag 3
pahisalaag 3
pakaulawan 3
pakig 3
pakigdait 3
pakitabang 3
palambo 3
palapa 3
pamalaye 3
paminaw 3
panalipdan 3
panghugas 3
panglugos 3
panton 3
panukob 3
panumbaling 3
pasiugda 3
phath 3
phi 3
pinasaylo 3
pino 3
priso 3
pugongpugong 3
pulan 3
pundo 3
punting 3
puypoy 3
quir 3
rabbim 3
rained 3
ram 3
rap 3
rebelde 3
resses 3
ret 3
ril 3
rim 3
ripahan 3
riph 3
room 3
roth 3
routed 3
runner 3
saagsaag 3
safan 3
sakitan 3
salimbong 3
sapnay 3
secrate 3
sekret 3
senaa 3
senaah 3
senso 3
serted 3
sheth 3
sight 3
silbihan 3
silsil 3
singgit 3
siquem 3
siyagit 3
skirt 3
sobra 3
sof 3
solve 3
stain 3
stairs 3
stitute 3
sufa 3
sugyot 3
sulti 3
tagon 3
tai 3
tanyag 3
taroy 3
tawgon 3
tell 3
teman 3
tenai 3
than 3
then 3
this 3
tiatira 3
timbang 3
tipiganan 3
titi 3
togarma 3
togarmah 3
tolda 3
tub 3
tugnaw 3
tupihan 3
ture 3
turok 3
tus 3
tych 3
ua 3
ubag 3
uc 3
uci 3
uda 3
udent 3
uho 3
ukton 3
ulayo 3
ulent 3
ull 3
umon 3
unc 3
undok 3
ungas 3
unge 3
ungot 3
upp 3
ural 3
urok 3
use 3
usok 3
usual 3
uwad 3
vah 3
vil 3
wasan 3
waton 3
wed 3
what 3
who 3
wife 3
will 3
work 3
works 3
ye 3
you 3
zabad 3
zaniah 3
zaphan 3
zi 3
zion 3
▁,0 3
▁,05 3
▁,3 3
▁1,0 3
▁1.3 3
▁128 3
▁137 3
▁144,000 3
▁33 3
▁35 3
▁40,500 3
▁42 3
▁5. 3
▁53,400 3
▁57 3
▁64 3
▁76 3
▁abdo 3
▁abhorren 3
▁abiezrites 3
▁abiha 3
▁abihail 3
▁aboard 3
▁abotanan 3
▁abunoh 3
▁achzib 3
▁acsib 3
▁adaias 3
▁admah 3
▁administrat 3
▁administrators 3
▁adullam 3
▁adullamite 3
▁adulterer 3
▁advise 3
▁advised 3
▁afek 3
▁afford 3
▁ahiman 3
▁akrabim 3
▁alejandr 3
▁alexand 3
▁alexander 3
▁allegiance 3
▁alliance 3
▁alpha 3
▁alter 3
▁amasias 3
▁amatista 3
▁ambassador 3
▁ambot 3
▁amethyst 3
▁amihan 3
▁ammonites 3
▁amounts 3
▁amulets 3
▁ancestr 3
▁anchor 3
▁anchors 3
▁annihilat 3
▁annihilate 3
▁apollos 3
▁apostas 3
▁appease 3
▁apples 3
▁applie 3
▁aramaico 3
▁arameans 3
▁ararat 3
▁aris 3
▁arisen 3
▁arod 3
▁arpad 3
▁arqu 3
▁arrangement 3
▁arrival 3
▁artist 3
▁arvad 3
▁asenat 3
▁asmon 3
▁asn 3
▁assert 3
▁associates 3
▁astonishment 3
▁astrologo 3
▁aswan 3
▁atabaya 3
▁atakih 3
▁autumn 3
▁avvi 3
▁azar 3
▁azmon 3
▁babylonians 3
▁bagulbol 3
▁bahandianon 3
▁baksi 3
▁bakwion 3
▁balia 3
▁balsamo 3
▁bamot 3
▁bamoth 3
▁banished 3
▁banne 3
▁baratohon 3
▁barogan 3
▁baroganan 3
▁barri 3
▁baso 3
▁bayri 3
▁bearer 3
▁belts 3
▁benaias 3
▁beneficial 3
▁benjaminite 3
▁bereaved 3
▁beriah 3
▁bern 3
▁bernice 3
▁beryl 3
▁bethogla 3
▁bethphage 3
▁betmilo 3
▁betpeor 3
▁betsan 3
▁bewildered 3
▁bezai 3
▁biktima 3
▁binuhi 3
▁bitayan 3
▁blunt 3
▁boiled 3
▁boldness 3
▁borrower 3
▁bounty 3
▁bramble 3
▁brazier 3
▁breached 3
▁breaches 3
▁breathe 3
▁breathing 3
▁brick 3
▁brighter 3
▁brokenhearted 3
▁bucket 3
▁bud 3
▁budd 3
▁buildings 3
▁buka 3
▁bungtora 3
▁burdened 3
▁buying 3
▁canal 3
▁canopy 3
▁caphtor 3
▁captains 3
▁captors 3
▁careless 3
▁cassia 3
▁celebrating 3
▁cha 3
▁chaldean 3
▁charg 3
▁check 3
▁cherishes 3
▁chests 3
▁childhood 3
▁chilion 3
▁cinnamon 3
▁circle 3
▁citizen 3
▁claud 3
▁clo 3
▁coats 3
▁cobra 3
▁coin 3
▁coins 3
▁col 3
▁collar 3
▁comforters 3
▁commendable 3
▁commotion 3
▁companies 3
▁compar 3
▁comparison 3
▁complet 3
▁composed 3
▁conclud 3
▁condemns 3
▁confidently 3
▁constant 3
▁container 3
▁contemp 3
▁contemptible 3
▁contentio 3
▁continues 3
▁continuing 3
▁contribut 3
▁contributed 3
▁controvers 3
▁convened 3
▁convert 3
▁convocations 3
▁convulsions 3
▁coral 3
▁corinth 3
▁corruption 3
▁cow 3
▁cower 3
▁craftsmanship 3
▁cramped 3
▁crave 3
▁craving 3
▁creat 3
▁crouch 3
▁cucumber 3
▁cur 3
▁customer 3
▁cymbals 3
▁dagom 3
▁damha 3
▁danger 3
▁daoban 3
▁date 3
▁daytime 3
▁debris 3
▁deceiver 3
▁dedicate 3
▁defraud 3
▁delivery 3
▁demo 3
▁dens 3
▁departs 3
▁departure 3
▁descent 3
▁describe 3
▁deserve 3
▁designs 3
▁detail 3
▁determine 3
▁determines 3
▁devastate 3
▁devo 3
▁dimon 3
▁disa 3
▁disab 3
▁disan 3
▁disclose 3
▁disguise 3
▁dishan 3
▁disowned 3
▁displace 3
▁disposal 3
▁disrespectful 3
▁disrespectfully 3
▁distracted 3
▁divid 3
▁diwatahan 3
▁document 3
▁doorpost 3
▁downfall 3
▁dreadful 3
▁dregs 3
▁drifter 3
▁drinker 3
▁drunken 3
▁duga 3
▁dulomtanan 3
▁duma 3
▁eagles 3
▁earns 3
▁easi 3
▁ebedmelec 3
▁elapse 3
▁elder 3
▁elealeh 3
▁elio 3
▁embalm 3
▁eminen 3
▁encounter 3
▁encourag 3
▁eneas 3
▁engage 3
▁engaged 3
▁engedi 3
▁enlarged 3
▁enroll 3
▁enticed 3
▁ep 3
▁epafras 3
▁epaphr 3
▁ephesians 3
▁equipped 3
▁err 3
▁esp 3
▁establishes 3
▁estanyo 3
▁estate 3
▁etham 3
▁ethiopia 3
▁ethiopians 3
▁etiopianhon 3
▁eu 3
▁examin 3
▁exc 3
▁excellence 3
▁exclusive 3
▁exists 3
▁exits 3
▁expens 3
▁expertise 3
▁explanation 3
▁exterminate 3
▁extort 3
▁ezer 3
▁fa 3
▁faded 3
▁failing 3
▁fainthearted 3
▁farmer 3
▁farms 3
▁feeling 3
▁fervent 3
▁fester 3
▁festivals 3
▁filth 3
▁filthiness 3
▁fin 3
▁fist 3
▁flames 3
▁fleeting 3
▁fleshly 3
▁flight 3
▁fo 3
▁folds 3
▁foolishly 3
▁forbidden 3
▁forcefully 3
▁formation 3
▁forti 3
▁fortifications 3
▁fraud 3
▁fringe 3
▁futilities 3
▁gaius 3
▁galio 3
▁galloping 3
▁gantangan 3
▁gaze 3
▁genealogi 3
▁gennesaret 3
▁ger 3
▁gerizim 3
▁gershom 3
▁gesurihanon 3
▁ghost 3
▁giabotan 3
▁giamuma 3
▁gianihan 3
▁gibak 3
▁gibili 3
▁gibisti 3
▁gibulaga 3
▁gibun 3
▁gida 3
▁gidali 3
▁gidalit 3
▁gideoni 3
▁gidi 3
▁gidihog 3
▁giduaw 3
▁giduk 3
▁gihalaran 3
▁gihapo 3
▁gihig 3
▁gikandadohan 3
▁gilatos 3
▁gileadites 3
▁gilitok 3
▁gilu 3
▁ginnetho 3
▁gipabiya 3
▁gipadako 3
▁gipaghira 3
▁gipahu 3
▁gipahulam 3
▁gipalap 3
▁gipalong 3
▁gipami 3
▁gipanagna 3
▁gipanghi 3
▁gipanghimaraot 3
▁gipangulohan 3
▁gipasig 3
▁gipasul 3
▁gipatongpatong 3
▁gipikas 3
▁gipiy 3
▁giplano 3
▁gipun 3
▁gipurong 3
▁gisayloan 3
▁gisugnod 3
▁gisumpay 3
▁gitagna 3
▁gitahi 3
▁gitambag 3
▁gitambalan 3
▁gitul 3
▁gitunobtunoban 3
▁gituy 3
▁gituyo 3
▁giusik 3
▁gleaning 3
▁goiim 3
▁goldsmiths 3
▁goyim 3
▁granddaughter 3
▁grandsons 3
▁gratitude 3
▁griddle 3
▁grumbling 3
▁guiltless 3
▁hab 3
▁habagat 3
▁haland 3
▁hamm 3
▁hammers 3
▁hana 3
▁hanamel 3
▁hardinero 3
▁harshly 3
▁hatch 3
▁hawk 3
▁haya 3
▁haza 3
▁headwaiter 3
▁hebreohanon 3
▁hedgehog 3
▁hefer 3
▁hele 3
▁helek 3
▁heli 3
▁herbs 3
▁herodians 3
▁hesitat 3
▁het 3
▁hibangkaagan 3
▁hidakp 3
▁hidungg 3
▁higustohan 3
▁himunga 3
▁hinay 3
▁hinginli 3
▁hinnom 3
▁hisakp 3
▁hiusah 3
▁hiwahiwaon 3
▁hobab 3
▁honeycomb 3
▁hook 3
▁horitihanon 3
▁horonite 3
▁horribl 3
▁hosa 3
▁hoshaiah 3
▁hoshea 3
▁hunter 3
▁hutda 3
▁huwes 3
▁hy 3
▁hyrax 3
▁ibu 3
▁ibzan 3
▁igkita 3
▁ignorant 3
▁ignored 3
▁ihawan 3
▁ihul 3
▁ikabaligya 3
▁ikabutang 3
▁ikalubong 3
▁ilamb 3
▁illumin 3
▁illuminated 3
▁imagination 3
▁imbargoh 3
▁imm 3
▁impair 3
▁impart 3
▁impe 3
▁impl 3
▁implications 3
▁impose 3
▁impur 3
▁income 3
▁incur 3
▁indicate 3
▁indict 3
▁individually 3
▁indulg 3
▁infl 3
▁inquir 3
▁insensitive 3
▁intelligence 3
▁intention 3
▁intermi 3
▁interrogat 3
▁intimately 3
▁invisible 3
▁involve 3
▁ipatap 3
▁isang 3
▁ituy 3
▁jacinth 3
▁jaddua 3
▁jaquin 3
▁jashub 3
▁jer 3
▁jeremot 3
▁jeru 3
▁jesaias 3
▁jeshaiah 3
▁joab 3
▁jobab 3
▁jocabed 3
▁joctan 3
▁jog 3
▁jok 3
▁joktan 3
▁josedec 3
▁joses 3
▁joyously 3
▁jozadac 3
▁jurisdiction 3
▁kab 3
▁kabaskog 3
▁kabatoan 3
▁kabog 3
▁kadagko 3
▁kadalo 3
▁kagahapon 3
▁kahabugon 3
▁kaharuhay 3
▁kahinam 3
▁kahingawa 3
▁kahugawan 3
▁kahuyang 3
▁kakugi 3
▁kakuhaan 3
▁kalabera 3
▁kalala 3
▁kalamo 3
▁kalawran 3
▁kaldero 3
▁kaligdong 3
▁kamaayo 3
▁kandila 3
▁kapanahonan 3
▁kapandulan 3
▁kaparat 3
▁kaparotan 3
▁kapasid 3
▁kapasipa 3
▁karbungko 3
▁karo 3
▁kasampinitan 3
▁kasayoran 3
▁kasuoksuokan 3
▁kataas 3
▁katam 3
▁katin 3
▁kaudtohon 3
▁kaulahian 3
▁kaunoran 3
▁kawangon 3
▁kayugot 3
▁kedemoth 3
▁kenas 3
▁kenes 3
▁kerioth 3
▁kindred 3
▁kirheres 3
▁kiriats 3
▁kison 3
▁kisse 3
▁kite 3
▁kitim 3
▁kittim 3
▁kneeling 3
▁knock 3
▁knocks 3
▁komusta 3
▁kor 3
▁korn 3
▁krimen 3
▁kriso 3
▁kukahadlok 3
▁kunohay 3
▁laborer 3
▁lagdaa 3
▁lainlain 3
▁lakilaki 3
▁lament 3
▁languishes 3
▁lant 3
▁lantugi 3
▁lat 3
▁latigoh 3
▁laughing 3
▁lawless 3
▁lawyer 3
▁lazuli 3
▁leaks 3
▁leb 3
▁lends 3
▁liars 3
▁libota 3
▁lick 3
▁lida 3
▁liken 3
▁lily 3
▁linala 3
▁literat 3
▁liti 3
▁loath 3
▁loving 3
▁luke 3
▁lumba 3
▁lutoan 3
▁luxuriously 3
▁lydda 3
▁lye 3
▁maacathites 3
▁maara 3
▁mabana 3
▁mabaw 3
▁mabugto 3
▁mad 3
▁madani 3
▁madugta 3
▁magasto 3
▁magbati 3
▁magbud 3
▁magbutang 3
▁magdali 3
▁magdulo 3
▁magdumot 3
▁magi 3
▁magisi 3
▁magkabahinbahin 3
▁magkadug 3
▁magki 3
▁magkombira 3
▁magku 3
▁magmaalamon 3
▁magmalig 3
▁magmamando 3
▁magmapaubsanon 3
▁magmasinugtanon 3
▁magmina 3
▁magminyoay 3
▁magpalabi 3
▁magsing 3
▁magsisimba 3
▁magsu 3
▁magsus 3
▁magtigoman 3
▁magtinu 3
▁magtubo 3
▁magtug 3
▁mahabilin 3
▁mahagit 3
▁mahanaim 3
▁mahayag 3
▁mahibaloi 3
▁mahiku 3
▁mahilom 3
▁mailhi 3
▁maimed 3
▁maintained 3
▁makabuk 3
▁makadasig 3
▁makagawas 3
▁makagula 3
▁makalihok 3
▁makamao 3
▁makapali 3
▁makapandol 3
▁makapasilong 3
▁makasapi 3
▁makasira 3
▁makasu 3
▁makasul 3
▁makatigom 3
▁makatukob 3
▁makighugoyhugoy 3
▁makigminyo 3
▁malarag 3
▁malchiel 3
▁malimtan 3
▁malungtaron 3
▁maluyahon 3
▁mamala 3
▁management 3
▁managhigala 3
▁manalagna 3
▁manalingsing 3
▁mananag 3
▁mangaayo 3
▁mangabaho 3
▁mangabusog 3
▁manggagaod 3
▁manggugubat 3
▁manghil 3
▁mangingilog 3
▁manglu 3
▁manguha 3
▁manudlo 3
▁mapalabilabihon 3
▁maquir 3
▁marrow 3
▁masadya 3
▁masig 3
▁massah 3
▁matat 3
▁mate 3
▁matinuod 3
▁mattath 3
▁mattenai 3
▁matulin 3
▁matulon 3
▁maulahi 3
▁meh 3
▁melody 3
▁melqui 3
▁mephaath 3
▁merai 3
▁meraiot 3
▁meshezabel 3
▁metusela 3
▁miagas 3
▁mibi 3
▁micaiah 3
▁micm 3
▁midheaven 3
▁migrat 3
▁milab 3
▁milagroha 3
▁miputo 3
▁mirac 3
▁misalikway 3
▁miscarry 3
▁mistake 3
▁mistaken 3
▁mituy 3
▁miutbo 3
▁mixture 3
▁mobasa 3
▁mobuk 3
▁modagko 3
▁mohapa 3
▁mohilom 3
▁mokamang 3
▁mokatawa 3
▁mokay 3
▁mokuniskunis 3
▁molubad 3
▁mopadulong 3
▁mopaingon 3
▁mopas 3
▁mopatuo 3
▁moresheth 3
▁mourners 3
▁mov 3
▁murdered 3
▁murderers 3
▁mushi 3
▁muster 3
▁mysteri 3
▁naason 3
▁nabaho 3
▁nabuka 3
▁nagda 3
▁naggakos 3
▁naghikay 3
▁nagkabahinbahin 3
▁nagkapu 3
▁naglit 3
▁nagmatu 3
▁nagpahayag 3
▁nagsugi 3
▁nagtabon 3
▁nagtak 3
▁nagtin 3
▁nagtinagurha 3
▁nahimugso 3
▁nahinlo 3
▁nakab 3
▁nakadaog 3
▁nakali 3
▁nakatag 3
▁nakulangan 3
▁nalu 3
▁nangadaot 3
▁nangali 3
▁nangandak 3
▁nangaputi 3
▁nangaug 3
▁nangayam 3
▁nanglimb 3
▁nanglupad 3
▁nangutlo 3
▁nanguyo 3
▁nanumbaling 3
▁napiang 3
▁nasalaag 3
▁nasalipdan 3
▁natumpag 3
▁necess 3
▁needle 3
▁neigh 3
▁nemuel 3
▁nephilim 3
▁ner 3
▁nergal 3
▁netanias 3
▁nob 3
▁noba 3
▁non 3
▁nourishe 3
▁nullif 3
▁nurture 3
▁nuybe 3
▁obligations 3
▁observ 3
▁occ 3
▁occupation 3
▁ochran 3
▁officer 3
▁olivet 3
▁ome 3
▁omens 3
▁onesimo 3
▁ono 3
▁openings 3
▁opis 3
▁opponent 3
▁orasa 3
▁originat 3
▁orion 3
▁ostrich 3
▁outcasts 3
▁overflows 3
▁paantus 3
▁paapil 3
▁paawita 3
▁padak 3
▁pagalaktan 3
▁paganganla 3
▁pagbug 3
▁pagdaog 3
▁pagguba 3
▁paghabol 3
▁paghik 3
▁paghika 3
▁paghuboghubog 3
▁paghuno 3
▁pagkaanindot 3
▁pagkabalhin 3
▁pagkabuhi 3
▁pagkahan 3
▁pagkahapon 3
▁pagkahinalad 3
▁pagkamagulang 3
▁pagkamapailubon 3
▁pagkamasinahon 3
▁pagkatigulang 3
▁pagkatinuod 3
▁pagkupo 3
▁paglaba 3
▁paglingi 3
▁paglinimbongay 3
▁paglit 3
▁pagmali 3
▁pagmatinu 3
▁pagpabu 3
▁pagpahawa 3
▁pagpakabuhi 3
▁pagpakiluoy 3
▁pagpama 3
▁pagpanagna 3
▁pagpanglista 3
▁pagpasigarbo 3
▁pagsayaw 3
▁pagsibog 3
▁pagtak 3
▁pagtubos 3
▁pagtulis 3
▁pahari 3
▁pahuk 3
▁palandongon 3
▁palate 3
▁palms 3
▁palwa 3
▁pamanit 3
▁pamihag 3
▁pangayam 3
▁panghitabo 3
▁panghukom 3
▁panghupaw 3
▁pangos 3
▁panimasli 3
▁panumpaan 3
▁panuol 3
▁panyawan 3
▁papahulayon 3
▁paris 3
▁partic 3
▁participat 3
▁pasea 3
▁paseah 3
▁pasilonganan 3
▁passions 3
▁pasul 3
▁pasulong 3
▁patak 3
▁patch 3
▁patriarch 3
▁patriyota 3
▁patros 3
▁patubigan 3
▁paubana 3
▁peaceful 3
▁pedahzur 3
▁pedaias 3
▁pedasur 3
▁pelatiah 3
▁perceiv 3
▁perfection 3
▁perfumer 3
▁perpet 3
▁persecutors 3
▁persian 3
▁persians 3
▁persuade 3
▁pethahiah 3
▁phil 3
▁phoenicia 3
▁picol 3
▁pihahirot 3
▁pilia 3
▁pillage 3
▁pinatay 3
▁pirathon 3
▁pisidia 3
▁pista 3
▁pitcher 3
▁pl 3
▁plea 3
▁plowshares 3
▁pluck 3
▁pocket 3
▁pools 3
▁poplar 3
▁populate 3
▁por 3
▁portico 3
▁potiphera 3
▁powder 3
▁practic 3
▁preeminen 3
▁preparations 3
▁priscilla 3
▁procession 3
▁profusely 3
▁project 3
▁prompt 3
▁proof 3
▁propesiya 3
▁prospers 3
▁prostrat 3
▁provid 3
▁provision 3
▁prudence 3
▁psalm 3
▁psaltery 3
▁publi 3
▁pumapa 3
▁pundasyon 3
▁purchaser 3
▁pursuit 3
▁quantity 3
▁quart 3
▁quench 3
▁quenched 3
▁quilion 3
▁quota 3
▁quote 3
▁raamah 3
▁rameses 3
▁ramp 3
▁ramps 3
▁rank 3
▁rap 3
▁ravens 3
▁realize 3
▁reaps 3
▁reasonable 3
▁rebuk 3
▁rechabites 3
▁reconcile 3
▁recovered 3
▁refin 3
▁reform 3
▁reg 3
▁rehoboth 3
▁relate 3
▁relenting 3
▁relihiyon 3
▁remark 3
▁remov 3
▁repe 3
▁repents 3
▁replace 3
▁replaster 3
▁reports 3
▁reptile 3
▁repudiate 3
▁repute 3
▁rescu 3
▁reserve 3
▁responsib 3
▁restor 3
▁revived 3
▁rib 3
▁ribitihi 3
▁riddles 3
▁ridge 3
▁ripen 3
▁ro 3
▁rope 3
▁rouse 3
▁rub 3
▁rudder 3
▁sacrific 3
▁sal 3
▁salatiel 3
▁salipdanan 3
▁sam 3
▁samuel 3
▁sanipa 3
▁sapphires 3
▁sar 3
▁sav 3
▁scab 3
▁scapegoat 3
▁schem 3
▁screamed 3
▁seasoned 3
▁seguridad 3
▁senakerib 3
▁senir 3
▁senses 3
▁serious 3
▁sesai 3
▁shamed 3
▁shamir 3
▁shawl 3
▁shelomi 3
▁shemida 3
▁sheph 3
▁shobal 3
▁shrewd 3
▁shrewdly 3
▁shua 3
▁shun 3
▁sibmah 3
▁sickly 3
▁sicknesses 3
▁siddim 3
▁sihor 3
▁sikomoro 3
▁sil 3
▁silk 3
▁silversmith 3
▁simeonites 3
▁simsai 3
▁sinamon 3
▁sinapsapan 3
▁sinsilyo 3
▁sinul 3
▁sipor 3
▁size 3
▁slanderous 3
▁sledge 3
▁sling 3
▁slippery 3
▁smalle 3
▁smoking 3
▁snort 3
▁sobal 3
▁soft 3
▁soot 3
▁soothsayers 3
▁sparing 3
▁sparkl 3
▁spectacle 3
▁spells 3
▁spiritists 3
▁spoil 3
▁sponge 3
▁spurn 3
▁stack 3
▁stalks 3
▁stammer 3
▁stank 3
▁stocks 3
▁stole 3
▁storehouse 3
▁straps 3
▁stroke 3
▁subaya 3
▁subayon 3
▁submit 3
▁subsequent 3
▁subsided 3
▁subsides 3
▁suet 3
▁sup 3
▁superior 3
▁supervis 3
▁supper 3
▁supplied 3
▁supplies 3
▁surpass 3
▁sways 3
▁swiftly 3
▁sycamore 3
▁sym 3
▁sympathy 3
▁tabita 3
▁tagal 3
▁talmon 3
▁tambali 3
▁tanner 3
▁tanto 3
▁target 3
▁team 3
▁temper 3
▁tempt 3
▁tendon 3
▁teofilo 3
▁teres 3
▁terribly 3
▁territories 3
▁thefts 3
▁threat 3
▁threatening 3
▁thresholds 3
▁thunders 3
▁tibu 3
▁tigh 3
▁tim 3
▁timnatsera 3
▁timon 3
▁tinagurha 3
▁tingbunga 3
▁tingpangulag 3
▁tinulis 3
▁tinumotumo 3
▁titio 3
▁tito 3
▁titus 3
▁trance 3
▁transform 3
▁trappe 3
▁traydor 3
▁trays 3
▁treacher 3
▁treasurers 3
▁tri 3
▁tribulations 3
▁tribunal 3
▁trustworth 3
▁tudling 3
▁tugon 3
▁tuk 3
▁tulunggon 3
▁tumbaga 3
▁tumim 3
▁tumo 3
▁tunlon 3
▁turquoise 3
▁unceasing 3
▁uncultivated 3
▁undefiled 3
▁undertake 3
▁undertakings 3
▁undone 3
▁unfathomable 3
▁unfortunate 3
▁unique 3
▁unnoticed 3
▁unsh 3
▁untr 3
▁unw 3
▁upset 3
▁usisah 3
▁uza 3
▁valuables 3
▁vapor 3
▁vehemently 3
▁ver 3
▁victim 3
▁volunteer 3
▁wadis 3
▁wag 3
▁waists 3
▁watcher 3
▁waterpot 3
▁wayside 3
▁weighs 3
▁wick 3
▁wielded 3
▁witchcraft 3
▁won 3
▁workmen 3
▁worries 3
▁worshiper 3
▁wr 3
▁wrists 3
▁writhes 3
▁yano 3
▁yaya 3
▁zaanan 3
▁zare 3
▁zeboiim 3
▁zeboim 3
▁zebulunite 3
▁ziha 3
▁zillah 3
▁zipporah 3
,400 2
,630 2
-10 2
00 2
22 2
27 2
273 2
337 2
37 2
40 2
47 2
52 2
53 2
930 2
abaga 2
abarim 2
acc 2
ace 2
acob 2
addon 2
aeus 2
agayday 2
agbay 2
aghigugmaay 2
agpangidlap 2
agpinatyanay 2
agtamay 2
aguwardiyah 2
agwanta 2
ahora 2
ailed 2
akapa 2
akbo 2
aked 2
akyaw 2
alak 2
alap 2
aliah 2
alled 2
ally 2
alyze 2
amagulangan 2
amanghoran 2
amo 2
amon 2
amps 2
amuma 2
amunit 2
anakmit 2
ananiah 2
ander 2
angko 2
anites 2
antly 2
antuson 2
apandol 2
appoint 2
approval 2
arat 2
arded 2
ark 2
arka 2
aruma 2
asdod 2
aseias 2
asin 2
assed 2
astus 2
ataim 2
atarungan 2
ately 2
aubsan 2
augu 2
authori 2
ayandayan 2
ayeg 2
babel 2
back 2
bagulbolan 2
bangotan 2
bantogan 2
barbas 2
bat 2
baz 2
bbing 2
bearing 2
because 2
beha 2
berit 2
beset 2
beton 2
betsaida 2
bigaon 2
bijah 2
bility 2
bingkilbingkil 2
bisti 2
blemish 2
blished 2
board 2
bohan 2
bol 2
bolt 2
bowl 2
budyong 2
bulawan 2
buslot 2
cain 2
cam 2
cana 2
ccording 2
ception 2
certain 2
cher 2
chereth 2
cipre 2
cles 2
closed 2
clusion 2
commend 2
condemned 2
corrupti 2
count 2
crow 2
dahan 2
daklit 2
damgo 2
dded 2
debir 2
deblataim 2
dedan 2
deiah 2
deias 2
destructi 2
detected 2
dew 2
dies 2
dinhi 2
diskubr 2
diyutay 2
doble 2
dok 2
domo 2
doubt 2
drachma 2
droom 2
duced 2
eans 2
easant 2
egation 2
eglaim 2
ehipto 2
ejected 2
ejoice 2
elchizedek 2
elem 2
elmad 2
eluded 2
embalsama 2
emek 2
emim 2
emon 2
ended 2
eopard 2
eras 2
erech 2
etsem 2
etur 2
evi 2
ext 2
ezib 2
fact 2
fields 2
figure 2
firm 2
first 2
fluent 2
fo 2
fork 2
forward 2
fruitful 2
galo 2
gates 2
gathering 2
gatos 2
gbinakakay 2
gbinuotan 2
gdadaro 2
gerar 2
gging 2
gnified 2
gog 2
gpakamaalam 2
grown 2
growth 2
guard 2
gutmon 2
haara 2
hage 2
haggidgad 2
hagoyim 2
hagwa 2
haiah 2
haired 2
halol 2
hangol 2
happy 2
hash 2
hasor 2
hayahay 2
hazz 2
head 2
heb 2
hilabti 2
hinumdomi 2
his 2
hogla 2
hoz 2
hub 2
hukman 2
hul 2
huphamites 2
ibbolet 2
ibboleth 2
ibgan 2
icket 2
idian 2
ighten 2
ihaplas 2
ikis 2
ilabi 2
ilities 2
ilize 2
immed 2
inabuhi 2
inahanglan 2
inciden 2
indulg 2
inila 2
ink 2
ior 2
ipal 2
ipamulong 2
ipha 2
iram 2
irit 2
isalig 2
isihanon 2
isita 2
isted 2
ists 2
itabon 2
itting 2
iwahiwa 2
iyagit 2
jab 2
jael 2
jopa 2
kabangian 2
kabangis 2
kabseel 2
kabzeel 2
kadesh 2
kaguol 2
kamat 2
kamatay 2
kanal 2
kanasoran 2
kaparot 2
kasumpa 2
kauyon 2
keeper 2
kigbaylo 2
killed 2
kiskis 2
kitkit 2
kl 2
klaro 2
known 2
kontraha 2
ktar 2
kusga 2
ladder 2
lahi 2
lampos 2
lank 2
lapok 2
lax 2
leased 2
lene 2
let 2
levita 2
liberati 2
libna 2
lice 2
lifted 2
like 2
lines 2
lingi 2
lipdi 2
lito 2
liwat 2
lled 2
llowed 2
located 2
loh 2
loth 2
lugway 2
luho 2
lukmay 2
maaca 2
macedonia 2
made 2
mahersalalhasbas 2
mahinangpon 2
mahinatagon 2
maim 2
main 2
makers 2
maluibon 2
mamumuno 2
marks 2
mation 2
mbahan 2
mbri 2
merodach 2
mes 2
mic 2
mihag 2
minated 2
mpha 2
munga 2
mus 2
mutang 2
my 2
naama 2
nacle 2
naglibo 2
nalingsing 2
nasareo 2
nated 2
neel 2
net 2
ngilohan 2
nite 2
nounce 2
ntage 2
nuka 2
numpa 2
oboam 2
ocated 2
olad 2
ool 2
oses 2
otabor 2
ounded 2
ously 2
outs 2
pagh 2
pahimangno 2
palabilabih 2
palingkawas 2
pamatia 2
pamatu 2
panganay 2
panglimb 2
panimasl 2
paris 2
paros 2
parti 2
patibulaag 2
patigayon 2
perez 2
persia 2
phan 2
post 2
posts 2
pour 2
pulsi 2
purity 2
quee 2
quench 2
quiet 2
rachel 2
razin 2
regard 2
regla 2
rehob 2
repare 2
rimon 2
riot 2
rip 2
rmor 2
roduc 2
rom 2
roma 2
roph 2
runk 2
saac 2
sakyan 2
salamangk 2
salingkapaw 2
salipdan 2
sanay 2
sandig 2
sannah 2
sapot 2
scr 2
second 2
sense 2
sent 2
sequence 2
setting 2
seventh 2
shal 2
shearers 2
sho 2
sick 2
significant 2
sikreto 2
siria 2
sition 2
skins 2
sopher 2
specting 2
spense 2
standing 2
stead 2
steady 2
stic 2
still 2
stricted 2
sublisubli 2
sungkod 2
sunogonon 2
susa 2
tabor 2
tah 2
tain 2
tained 2
tality 2
tamar 2
teke 2
tered 2
therwise 2
thful 2
third 2
tibo 2
tifa 2
tigoma 2
time 2
times 2
tracted 2
trator 2
treat 2
tri 2
tubigan 2
tukib 2
tundag 2
tunobtunob 2
ually 2
ubad 2
ubay 2
ubid 2
udah 2
ugdaw 2
ukbon 2
ukod 2
ulat 2
ule 2
ulhog 2
umim 2
ummim 2
unites 2
uok 2
upilon 2
upon 2
ursed 2
uzza 2
vows 2
vvah 2
water 2
wel 2
well 2
went 2
west 2
wise 2
wisi 2
without 2
wns 2
workers 2
xion 2
yasyas 2
yerno 2
yself 2
zan 2
zanoa 2
zedek 2
zephon 2
zias 2
zum 2
zzar 2
▁123 2
▁130 2
▁133 2
▁2,81 2
▁35,400 2
▁41 2
▁45,650 2
▁46,500 2
▁5 2
▁52 2
▁54,400 2
▁57,400 2
▁59 2
▁59,300 2
▁601 2
▁61 2
▁64, 2
▁642 2
▁652 2
▁675 2
▁74,600 2
▁77 2
▁83 2
▁91 2
▁abdomen 2
▁abdon 2
▁abhorre 2
▁abiezer 2
▁abihud 2
▁ablaze 2
▁abolish 2
▁absolutely 2
▁acceptance 2
▁accomplishment 2
▁achbor 2
▁achim 2
▁acquaint 2
▁active 2
▁adna 2
▁adonikam 2
▁adonizedec 2
▁adulteries 2
▁aeneas 2
▁affairs 2
▁agitat 2
▁agitation 2
▁ahitub 2
▁alamo 2
▁alingagngag 2
▁aloof 2
▁alpombra 2
▁alternat 2
▁alush 2
▁ammishaddai 2
▁anapog 2
▁anath 2
▁aner 2
▁anew 2
▁ankle 2
▁ankles 2
▁annoyed 2
▁antelope 2
▁antipa 2
▁aphek 2
▁apostasy 2
▁appeased 2
▁appetites 2
▁arabs 2
▁arameanhon 2
▁archippus 2
▁archite 2
▁areopago 2
▁areopagus 2
▁arni 2
▁arti 2
▁ashdodite 2
▁ashpenaz 2
▁askenas 2
▁assari 2
▁asserted 2
▁assist 2
▁assistance 2
▁asso 2
▁astarte 2
▁atalia 2
▁atarotadar 2
▁attach 2
▁attribute 2
▁august 2
▁avail 2
▁aven 2
▁avert 2
▁avim 2
▁awl 2
▁azm 2
▁azor 2
▁azri 2
▁bagulbagol 2
▁bakbuk 2
▁bakbukiah 2
▁bakbukias 2
▁bakho 2
▁balibar 2
▁balikason 2
▁balm 2
▁balo 2
▁bandage 2
▁banish 2
▁banner 2
▁baraquias 2
▁barato 2
▁bared 2
▁bargain 2
▁bark 2
▁barren 2
▁basolon 2
▁battlement 2
▁bazl 2
▁bdellium 2
▁beads 2
▁beak 2
▁beggar 2
▁besa 2
▁betbara 2
▁betle 2
▁betnimra 2
▁betroth 2
▁betzur 2
▁bezek 2
▁bezer 2
▁bigger 2
▁bigtha 2
▁bildo 2
▁binulan 2
▁biz 2
▁blade 2
▁blame 2
▁blanket 2
▁blindfold 2
▁bloo 2
▁bochim 2
▁bottle 2
▁bowstring 2
▁brandish 2
▁breakfast 2
▁breed 2
▁bri 2
▁briers 2
▁broth 2
▁bruises 2
▁buho 2
▁builder 2
▁bukki 2
▁bulge 2
▁bulrush 2
▁burdensome 2
▁burie 2
▁buzite 2
▁caftor 2
▁calah 2
▁calculated 2
▁caln 2
▁calneh 2
▁caphtorim 2
▁carc 2
▁caretaker 2
▁carkemis 2
▁carousing 2
▁carpenters 2
▁carve 2
▁casiphia 2
▁catche 2
▁cefa 2
▁cell 2
▁cencrea 2
▁ces 2
▁chair 2
▁champion 2
▁charity 2
▁charmer 2
▁cheat 2
▁cheerfulness 2
▁cherethites 2
▁cherish 2
▁chim 2
▁chinner 2
▁chislev 2
▁chislo 2
▁choirs 2
▁chronic 2
▁chryso 2
▁circulate 2
▁clamor 2
▁cle 2
▁cleo 2
▁clever 2
▁club 2
▁coal 2
▁coastline 2
▁cobras 2
▁coffin 2
▁collection 2
▁colon 2
▁com 2
▁comforter 2
▁compass 2
▁compe 2
▁compl 2
▁conceit 2
▁condu 2
▁congratulate 2
▁conjurers 2
▁conscious 2
▁consented 2
▁consol 2
▁conspire 2
▁constellations 2
▁consumption 2
▁conversi 2
▁convulsion 2
▁cori 2
▁corro 2
▁cou 2
▁couriers 2
▁cozbi 2
▁crafti 2
▁crane 2
▁cret 2
▁crimes 2
▁crimson 2
▁cro 2
▁cru 2
▁crumbs 2
▁cub 2
▁cultivat 2
▁cure 2
▁curren 2
▁cushi 2
▁customers 2
▁cypr 2
▁daberat 2
▁damaged 2
▁dances 2
▁dar 2
▁daylight 2
▁deba 2
▁debtor 2
▁decapolis 2
▁deceiv 2
▁deck 2
▁defame 2
▁defiantly 2
▁defil 2
▁defilement 2
▁del 2
▁demetrius 2
▁depraved 2
▁deserved 2
▁desir 2
▁desp 2
▁despis 2
▁desponden 2
▁devastat 2
▁devi 2
▁device 2
▁devis 2
▁discourag 2
▁dislocated 2
▁dismay 2
▁disorder 2
▁dispersion 2
▁dissensions 2
▁distinguishe 2
▁diyamante 2
▁dreamer 2
▁dreamers 2
▁drift 2
▁dripped 2
▁du 2
▁dungan 2
▁dyamante 2
▁earring 2
▁eas 2
▁eder 2
▁edification 2
▁edomihanon 2
▁edomites 2
▁egla 2
▁eglat 2
▁eldad 2
▁elevat 2
▁elif 2
▁eliph 2
▁elise 2
▁elishah 2
▁eliud 2
▁elk 2
▁ellasar 2
▁elm 2
▁elnathan 2
▁eloquent 2
▁elteke 2
▁emasculate 2
▁embar 2
▁embracing 2
▁emer 2
▁emim 2
▁emperor 2
▁enact 2
▁encampment 2
▁encampments 2
▁encountered 2
▁endor 2
▁enggadi 2
▁engraver 2
▁enjoyment 2
▁enrich 2
▁enrogel 2
▁epaphroditus 2
▁ephrathah 2
▁epik 2
▁equally 2
▁erasto 2
▁ese 2
▁eshtemo 2
▁este 2
▁esteem 2
▁estimation 2
▁evangelist 2
▁evaporate 2
▁eve 2
▁evi 2
▁evict 2
▁excel 2
▁exclude 2
▁execution 2
▁executioner 2
▁exert 2
▁exertion 2
▁exhort 2
▁expel 2
▁expend 2
▁expense 2
▁extensi 2
▁extremity 2
▁eze 2
▁fabric 2
▁fair 2
▁fairness 2
▁falcon 2
▁famili 2
▁favoritism 2
▁fertili 2
▁fiercely 2
▁filadelfia 2
▁final 2
▁flat 2
▁flogging 2
▁footprints 2
▁forefather 2
▁foretold 2
▁forewarn 2
▁forfeited 2
▁fou 2
▁fowl 2
▁fowler 2
▁fox 2
▁fracture 2
▁fragile 2
▁fragments 2
▁frail 2
▁framework 2
▁frigia 2
▁frontier 2
▁frustrated 2
▁gabba 2
▁gabhion 2
▁gaddi 2
▁galatian 2
▁galeed 2
▁gall 2
▁galon 2
▁gastohon 2
▁gaunt 2
▁gazite 2
▁genealogies 2
▁genesaret 2
▁genital 2
▁gerasenes 2
▁gethsemane 2
▁gialimahan 2
▁gibayra 2
▁gibbethon 2
▁gibita 2
▁gibuta 2
▁gidagit 2
▁gidapigan 2
▁gigasa 2
▁gihago 2
▁gihidhira 2
▁gikabilin 2
▁gikabsa 2
▁gikalibgan 2
▁gikas 2
▁gikoral 2
▁gilapawa 2
▁gilin 2
▁gimugna 2
▁ginatos 2
▁ginneton 2
▁gipakamithi 2
▁gipanglumpag 2
▁gipasikaran 2
▁gipata 2
▁gipilo 2
▁gipuk 2
▁gipurongpurong 2
▁gisund 2
▁gitutokan 2
▁giunlan 2
▁gloat 2
▁glutton 2
▁gluttons 2
▁goads 2
▁godliness 2
▁golgota 2
▁golgotha 2
▁goodwill 2
▁goring 2
▁gossip 2
▁gossiper 2
▁gossips 2
▁gouge 2
▁gravel 2
▁greedi 2
▁grinder 2
▁guarantee 2
▁guardians 2
▁guardroom 2
▁gudgodah 2
▁gushe 2
▁hac 2
▁hacaliah 2
▁hacalias 2
▁hadasa 2
▁hadrac 2
▁hagg 2
▁haggi 2
▁hagi 2
▁hagk 2
▁halara 2
▁hamstr 2
▁hamul 2
▁harbona 2
▁hares 2
▁harmon 2
▁hasabnias 2
▁hashabneiah 2
▁hateful 2
▁hattush 2
▁haughti 2
▁haughtily 2
▁haul 2
▁headlong 2
▁healer 2
▁hedge 2
▁hedges 2
▁helcat 2
▁helkath 2
▁herb 2
▁herbabuyna 2
▁hermes 2
▁hethlon 2
▁hetihanon 2
▁hezekias 2
▁hikaya 2
▁hinunoa 2
▁hirah 2
▁hiwahiwaa 2
▁hoarded 2
▁homelessness 2
▁hoopoe 2
▁horde 2
▁hospitality 2
▁hulmigas 2
▁humbl 2
▁hunters 2
▁hypocrite 2
▁ibisti 2
▁ibori 2
▁idolater 2
▁igsisilyo 2
▁igsusulti 2
▁ikasuko 2
▁ikasul 2
▁ikatag 2
▁illusion 2
▁immovable 2
▁import 2
▁impoverished 2
▁impress 2
▁inanay 2
▁incite 2
▁inclin 2
▁infantry 2
▁infe 2
▁infuriated 2
▁inigkabuntag 2
▁inigkatilaw 2
▁inigkaudto 2
▁inigpakita 2
▁inisa 2
▁innocence 2
▁inse 2
▁insistent 2
▁insisting 2
▁inspir 2
▁instant 2
▁instinct 2
▁intensely 2
▁interc 2
▁interrogate 2
▁invalidat 2
▁investigating 2
▁investigation 2
▁ipabat 2
▁ipadu 2
▁ipah 2
▁ipali 2
▁ipasul 2
▁ipatu 2
▁iphtahel 2
▁irad 2
▁irijah 2
▁irreparable 2
▁irritating 2
▁isigkabinihag 2
▁isigkasulugoon 2
▁isolated 2
▁itap 2
▁jaala 2
▁jahzeel 2
▁jairus 2
▁jannai 2
▁janoa 2
▁janoah 2
▁japhia 2
▁jareb 2
▁jarib 2
▁jasub 2
▁jattir 2
▁jearim 2
▁jebus 2
▁jehoshaphat 2
▁jeptael 2
▁jerah 2
▁jeremoth 2
▁jes 2
▁jezer 2
▁jocsan 2
▁joking 2
▁jokshan 2
▁jonam 2
▁joram 2
▁jotbata 2
▁jotbathah 2
▁judaism 2
▁julio 2
▁julius 2
▁justifies 2
▁justo 2
▁justus 2
▁juta 2
▁juttah 2
▁kabalak 2
▁kabalyero 2
▁kabatid 2
▁kabugason 2
▁kabulakan 2
▁kabutangi 2
▁kadiyot 2
▁kahapunon 2
▁kahimoan 2
▁kahug 2
▁kain 2
▁kakaraanan 2
▁kalaay 2
▁kaliriohan 2
▁kaningag 2
▁kaprutasan 2
▁kapuslan 2
▁kark 2
▁karta 2
▁kasoha 2
▁katre 2
▁kawata 2
▁kedemot 2
▁kehelathah 2
▁keilah 2
▁keriot 2
▁keso 2
▁ketura 2
▁kick 2
▁kidnap 2
▁kil 2
▁kinaibabwan 2
▁kinapon 2
▁kinaugalingon 2
▁kinuwerdasan 2
▁kisami 2
▁kish 2
▁kishion 2
▁kisleb 2
▁kohathite 2
▁kolaiah 2
▁kolaias 2
▁kondisyon 2
▁kortih 2
▁kumpay 2
▁kun 2
▁kupongkupong 2
▁kupt 2
▁kutikuti 2
▁kutis 2
▁kuwadra 2
▁kuwadrado 2
▁labaha 2
▁lame 2
▁lapay 2
▁launderer 2
▁laway 2
▁lawgiver 2
▁lawsuit 2
▁laz 2
▁leadership 2
▁leans 2
▁leg 2
▁lemuel 2
▁lender 2
▁lent 2
▁lentil 2
▁leopards 2
▁lept 2
▁lewdness 2
▁libya 2
▁licaonia 2
▁lighten 2
▁limits 2
▁linupigan 2
▁linuwas 2
▁liqu 2
▁liquor 2
▁lisias 2
▁listeners 2
▁lizard 2
▁localit 2
▁logs 2
▁lonely 2
▁loo 2
▁lookout 2
▁loom 2
▁loosen 2
▁loosened 2
▁louder 2
▁lover 2
▁lucas 2
▁luhit 2
▁lumpong 2
▁luxury 2
▁luyogluyo 2
▁lycaonia 2
▁lysias 2
▁maacatihanon 2
▁mabug 2
▁magbabalak 2
▁magbakho 2
▁magbula 2
▁maggaling 2
▁maghahabol 2
▁maghuboghubog 2
▁magician 2
▁magkaguliyang 2
▁magkalin 2
▁magkasinabtanay 2
▁maglaaglaag 2
▁maglalaba 2
▁magmalaomon 2
▁magmalu 2
▁magmapailubon 2
▁magnified 2
▁magpadako 2
▁magpapanit 2
▁magpapatigayon 2
▁magpasayasaya 2
▁magpatudlo 2
▁magpuga 2
▁magpunay 2
▁mahan 2
▁mahinulsolon 2
▁mahitsura 2
▁mail 2
▁makaeskuyla 2
▁makahil 2
▁makakao 2
▁makalaba 2
▁makalak 2
▁makaman 2
▁makapakurat 2
▁makapamati 2
▁makapanamkon 2
▁makapaso 2
▁makigdait 2
▁makighi 2
▁makugihon 2
▁malansison 2
▁malignancy 2
▁mamaligya 2
▁mamatigayon 2
▁maming 2
▁mangab 2
▁mangadagma 2
▁mangagisi 2
▁mangaguba 2
▁mangatawo 2
▁mangayam 2
▁manghu 2
▁mangingisda 2
▁mantikilya 2
▁mapupo 2
▁marche 2
▁masilotan 2
▁mason 2
▁mast 2
▁matagbuan 2
▁matak 2
▁matigayon 2
▁matinu 2
▁mattanah 2
▁mattanias 2
▁matthan 2
▁matulo 2
▁maturity 2
▁meadow 2
▁meager 2
▁meaningless 2
▁medad 2
▁mehu 2
▁mehujael 2
▁melchi 2
▁melea 2
▁merom 2
▁mesal 2
▁mese 2
▁methushael 2
▁metusael 2
▁michmas 2
▁migdal 2
▁mightily 2
▁miletus 2
▁milimetro 2
▁mint 2
▁mipatay 2
▁miracle 2
▁mirror 2
▁mischie 2
▁miseries 2
▁misgivings 2
▁mishal 2
▁misia 2
▁misrefotmaim 2
▁miss 2
▁mithkah 2
▁mithredath 2
▁mitidlom 2
▁mitridates 2
▁mockers 2
▁moisture 2
▁mole 2
▁molipa 2
▁mopahimu 2
▁mopali 2
▁mopana 2
▁mopati 2
▁moreh 2
▁mosera 2
▁mosilo 2
▁mosul 2
▁motrabaho 2
▁mottled 2
▁mule 2
▁muntora 2
▁mus 2
▁mutter 2
▁mysterious 2
▁nabuh 2
▁nadigo 2
▁nagduko 2
▁naggaho 2
▁naghigugmaay 2
▁naghikog 2
▁nagkaaw 2
▁nagkagidlay 2
▁nagkanayon 2
▁nagkinahangla 2
▁naglimb 2
▁naglingk 2
▁nagluk 2
▁nagluto 2
▁nagmug 2
▁nagpahimu 2
▁nagpakamaalamon 2
▁nagpakamatarong 2
▁nagpama 2
▁nagtik 2
▁nagtiniil 2
▁nagtuaw 2
▁nagtug 2
▁naha 2
▁nahaliel 2
▁nakasugi 2
▁nakatin 2
▁namat 2
▁nami 2
▁namuk 2
▁namukot 2
▁nangabanhaw 2
▁nangatawa 2
▁nanghuba 2
▁nangluspad 2
▁nangu 2
▁nanulti 2
▁napangos 2
▁naph 2
▁natum 2
▁negligent 2
▁nephew 2
▁nephtoah 2
▁neptoa 2
▁netopha 2
▁netophathite 2
▁nicolaita 2
▁nicolaitans 2
▁nimr 2
▁nimrim 2
▁nineteen 2
▁noonday 2
▁nullifie 2
▁nullified 2
▁oars 2
▁obadiah 2
▁obadias 2
▁ointment 2
▁opinion 2
▁opponents 2
▁opportun 2
▁orpah 2
▁oseas 2
▁oseph 2
▁outwardly 2
▁oversee 2
▁ozni 2
▁paagason 2
▁pabutangi 2
▁pact 2
▁pagahinloan 2
▁pagdinaitay 2
▁pagdinal 2
▁pagdinaotay 2
▁pagdinumtanay 2
▁paggaling 2
▁paghil 2
▁paginhawaon 2
▁pagkaandakan 2
▁pagkabuotan 2
▁pagkagarboso 2
▁pagkalunhaw 2
▁pagkamadaugon 2
▁pagkamain 2
▁pagkamakal 2
▁pagkamakauulaw 2
▁pagkatapolan 2
▁pagkatawhanon 2
▁pagkatig 2
▁pagmaisog 2
▁pagminyoay 2
▁pagpaanindot 2
▁pagpahiu 2
▁pagpakabuang 2
▁pagpakigbisog 2
▁pagpalista 2
▁pagpamarang 2
▁pagpamiga 2
▁pagpamunyag 2
▁pagpanghatag 2
▁pagpanikas 2
▁pagpanuli 2
▁pagpataka 2
▁pagpatin 2
▁pagpinatyanay 2
▁pagsandalyas 2
▁pagsinin 2
▁pagtinabangay 2
▁pagtug 2
▁pahalar 2
▁pahisalaagon 2
▁pahulama 2
▁pails 2
▁paligir 2
▁paligsan 2
▁palti 2
▁palungtaron 2
▁pama 2
▁pamunoan 2
▁panaggubat 2
▁panagsayaw 2
▁panapion 2
▁panggub 2
▁panghasi 2
▁panimuot 2
▁pantonon 2
▁papahulaya 2
▁papaniudtoh 2
▁papha 2
▁paphos 2
▁paradise 2
▁parcel 2
▁parm 2
▁parsin 2
▁pasibsiba 2
▁pasibugon 2
▁passion 2
▁pasud 2
▁pasund 2
▁pat 2
▁patched 2
▁patri 2
▁patulon 2
▁paulani 2
▁paws 2
▁payagpayag 2
▁pearl 2
▁pedestal 2
▁pelatias 2
▁pelikano 2
▁pelusium 2
▁pentecost 2
▁pentecostes 2
▁perfumers 2
▁pergamo 2
▁pergamum 2
▁permanente 2
▁perpetual 2
▁perpetually 2
▁perplexity 2
▁persever 2
▁persuasive 2
▁phi 2
▁philadelphia 2
▁philosoph 2
▁phrygia 2
▁physical 2
▁pigeon 2
▁pinugo 2
▁piya 2
▁piyangpiyang 2
▁plateau 2
▁plucked 2
▁plumage 2
▁plunderers 2
▁pole 2
▁ponders 2
▁ponds 2
▁populated 2
▁porticoes 2
▁possessor 2
▁possessors 2
▁possibl 2
▁pr 2
▁prematurely 2
▁preparing 2
▁pret 2
▁preten 2
▁prisohon 2
▁private 2
▁problems 2
▁procedure 2
▁produc 2
▁prof 2
▁profound 2
▁propose 2
▁proposed 2
▁proselyte 2
▁proselytes 2
▁prospered 2
▁prostrate 2
▁prote 2
▁proudly 2
▁puah 2
▁publius 2
▁pulverize 2
▁punon 2
▁purge 2
▁pursuits 2
▁qualif 2
▁quarter 2
▁rabbit 2
▁rabboni 2
▁rafter 2
▁rai 2
▁raisin 2
▁rakk 2
▁rampart 2
▁ramparts 2
▁ransomed 2
▁rape 2
▁ratified 2
▁rations 2
▁rattling 2
▁ravages 2
▁reaper 2
▁rece 2
▁reconciliation 2
▁recovery 2
▁reef 2
▁refreshe 2
▁refreshed 2
▁refugees 2
▁registration 2
▁rek 2
▁reliable 2
▁religious 2
▁remarking 2
▁reme 2
▁remedy 2
▁repayment 2
▁representative 2
▁reservoir 2
▁responding 2
▁retract 2
▁revelers 2
▁revenue 2
▁revile 2
▁reviv 2
▁rhod 2
▁richly 2
▁ridden 2
▁ridicul 2
▁rimonperes 2
▁rims 2
▁rissah 2
▁rithmah 2
▁roadway 2
▁roda 2
▁rogue 2
▁rom 2
▁rott 2
▁rotten 2
▁rowers 2
▁royalty 2
▁rubb 2
▁rubbish 2
▁rubble 2
▁rubies 2
▁saalbim 2
▁sabbetai 2
▁sabt 2
▁safekeeping 2
▁sagpaon 2
▁saleca 2
▁salecah 2
▁saliva 2
▁salu 2
▁samir 2
▁sandiganan 2
▁sardi 2
▁sardius 2
▁sarefat 2
▁sareser 2
▁sata 2
▁scare 2
▁scaveng 2
▁scent 2
▁scheme 2
▁schemer 2
▁sco 2
▁scorpion 2
▁scream 2
▁screen 2
▁seduce 2
▁seers 2
▁seizure 2
▁sekel 2
▁sele 2
▁semei 2
▁sepharvaim 2
▁serapin 2
▁shaal 2
▁shabbethai 2
▁shal 2
▁sham 2
▁shammua 2
▁shema 2
▁shemariah 2
▁shepham 2
▁shepher 2
▁shetar 2
▁shift 2
▁shihor 2
▁shillem 2
▁shilo 2
▁shiph 2
▁shoba 2
▁shrine 2
▁shuhamites 2
▁shulammite 2
▁shuni 2
▁sift 2
▁sigurado 2
▁silently 2
▁siloam 2
▁sinamboga 2
▁sincere 2
▁sinking 2
▁sinumbong 2
▁sipres 2
▁situat 2
▁situated 2
▁sli 2
▁slingstones 2
▁slips 2
▁smear 2
▁smelter 2
▁smirna 2
▁smith 2
▁smolder 2
▁smyrna 2
▁sn 2
▁sna 2
▁snakes 2
▁sneer 2
▁soap 2
▁soba 2
▁soften 2
▁sopa 2
▁sorcerer 2
▁sorceress 2
▁sota 2
▁spark 2
▁spatter 2
▁specific 2
▁spelt 2
▁sprinkl 2
▁spun 2
▁squa 2
▁squander 2
▁stalk 2
▁stamp 2
▁stare 2
▁stat 2
▁statut 2
▁stew 2
▁stings 2
▁stor 2
▁stout 2
▁stra 2
▁straggler 2
▁straightened 2
▁strictly 2
▁stud 2
▁stylus 2
▁substance 2
▁successive 2
▁suham 2
▁sukihan 2
▁suliran 2
▁super 2
▁surg 2
▁surge 2
▁surplus 2
▁suwang 2
▁swea 2
▁swindler 2
▁swirl 2
▁syene 2
▁syr 2
▁taakan 2
▁taber 2
▁tabitha 2
▁tadeo 2
▁tagawtaw 2
▁tahath 2
▁tampiha 2
▁taskmaster 2
▁tekel 2
▁telem 2
▁temporary 2
▁tertullus 2
▁tertulo 2
▁testamento 2
▁th 2
▁thaddaeus 2
▁thankful 2
▁thebez 2
▁theophilus 2
▁tigdamgo 2
▁tigdibuho 2
▁tigpamaba 2
▁tigpataliwala 2
▁tigpatanto 2
▁timba 2
▁timbri 2
▁tinapa 2
▁tinapakan 2
▁tir 2
▁tires 2
▁tiyanggihan 2
▁torture 2
▁track 2
▁tracks 2
▁traditions 2
▁tranquil 2
▁translat 2
▁treasurer 2
▁trif 2
▁triumphant 2
▁triumphs 2
▁troop 2
▁troubl 2
▁trousers 2
▁truthfully 2
▁tryph 2
▁tualya 2
▁tumult 2
▁twig 2
▁twigs 2
▁tyrant 2
▁uhaw 2
▁ulin 2
▁undef 2
▁undo 2
▁unfastened 2
▁unfeeling 2
▁unintentional 2
▁union 2
▁unload 2
▁unpleasant 2
▁unproductive 2
▁unrestrained 2
▁unstable 2
▁uphaz 2
▁urgent 2
▁uzal 2
▁vanishes 2
▁vault 2
▁victorious 2
▁vinedressers 2
▁voluntarily 2
▁walhon 2
▁wares 2
▁washings 2
▁watchtower 2
▁waver 2
▁wavering 2
▁waving 2
▁wholeheartedly 2
▁wil 2
▁wo 2
▁worrying 2
▁wove 2
▁wrongdoer 2
▁yamyam 2
▁zaba 2
▁zabad 2
▁zabbai 2
▁zaca 2
▁zacc 2
▁zalmon 2
▁zalmonah 2
▁zaphon 2
▁zebadiah 2
▁zebadias 2
▁zemar 2
▁zena 2
▁zephon 2
▁zerahiah 2
▁zere 2
▁zeresh 2
▁zichri 2
▁zilla 2
82 1
95 1
ahiah 1
believers 1
efore 1
gaz 1
gbutangbutang 1
gpahulam 1
guided 1
hindered 1
iasaph 1
itutok 1
katabang 1
lk 1
malandong 1
matinumanon 1
mitted 1
mur 1
nitan 1
oreover 1
pressed 1
rive 1
rolled 1
shed 1
suroysuroy 1
ther 1
tter 1
tukaw 1
ushim 1
▁accu 1
▁approv 1
▁assum 1
▁broo 1
▁depriv 1
▁distribut 1
▁ent 1
▁envi 1
▁exchang 1
▁guid 1
▁hib 1
▁ipahi 1
▁lan 1
▁lowli 1
▁matin 1
▁mibula 1
▁mobula 1
▁nabanto 1
▁nahin 1
▁nakapahimu 1
▁pailh 1
▁princess 1
▁prov 1
▁secu 1
madeupword0000 0
madeupword0001 0
madeupword0002 0
