, 139285
▁sa 94445
. 84447
▁the 84120
▁ 67509
<2eng> 66606
▁ang 59719
▁and 52754
ng 52163
▁of 41327
mga 38697
▁ng 34202
<2tgl> 34053
<2ceb> 32553
▁to 31193
▁na 29662
▁at 28663
; 23525
▁ug 23203
▁you 21391
▁nga 20058
▁ay 16897
▁in 16175
- 15442
▁will 14686
▁a 14528
▁i 13986
▁he 13518
▁for 13224
y 13058
▁is 11834
▁ako 10938
g 10700
▁your 10420
' 10386
▁lord 10223
▁his 10106
▁they 10042
▁that 9718
▁not 9505
▁who 9407
▁kanya 9278
▁ni 9224
▁ka 9219
▁it 9020
▁be 8906
▁siya 8777
▁with 8749
▁them 8310
? 8303
▁him 8050
▁sila 7952
▁from 7631
▁si 7535
▁ko 7362
▁on 7168
▁have 7159
s 7125
▁kanila 7094
▁my 7021
▁niya 6944
an 6878
▁all 6858
▁mo 6742
▁me 6123
▁but 5994
▁are 5991
▁their 5950
▁may 5877
▁shall 5820
▁so 5795
▁was 5788
▁as 5721
▁iyo 5678
▁israel 5396
▁panginoon 5367
! 5327
▁inyo 5317
▁god 5305
▁anak 5222
▁said 5219
▁then 5116
t 5025
▁man 4961
▁pag 4843
ing 4825
▁one 4758
▁this 4698
iyang 4647
▁ginoo 4611
▁kay 4580
▁hindi 4312
▁wala 4294
aking 4280
▁has 4257
▁o 4251
▁ito 4215
▁which 4001
ed 3977
▁nag 3958
▁when 3818
on 3756
▁were 3727
▁dios 3703
▁do 3690
▁dili 3656
▁by 3636
▁pa 3610
▁kamo 3608
▁ninyo 3566
▁out 3566
▁jesus 3538
▁niini 3431
▁nila 3405
▁isang 3346
▁am 3321
▁kini 3318
▁sons 3289
▁people 3186
▁had 3177
▁diyos 3157
▁nang 3121
▁sapagkat 3120
▁ilang 3042
▁there 3006
▁up 2967
▁lahat 2965
▁what 2896
▁ma 2870
▁tawo 2863
▁now 2823
▁again 2818
▁land 2811
▁gi 2785
▁apan 2766
a 2740
▁sinabi 2715
▁mag 2679
▁hari 2635
▁kayo 2616
▁imo 2580
st 2546
▁her 2539
▁, 2502
▁unya 2501
▁upang 2490
l 2468
: 2461
▁or 2433
▁son 2429
▁usa 2404
ong 2396
d 2387
▁like 2358
▁no 2320
▁aron 2314
▁if 2300
▁day 2268
▁we 2258
▁its 2216
▁also 2182
▁because 2178
▁came 2161
▁those 2145
▁mao 2144
▁come 2134
▁mula 2126
▁mi 2107
▁kang 2104
▁kon 2063
▁ba 2054
i 2031
▁araw 2011
kung 1972
▁jerusalem 1965
▁saying 1960
▁an 1957
▁king 1940
▁go 1929
▁katawhan 1927
▁ngadto 1910
▁kaniya 1894
▁lalaki 1875
▁miingon 1864
▁kanako 1863
▁into 1844
▁didto 1830
in 1820
▁ngunit 1820
▁busa 1811
▁before 1803
▁ikaw 1797
▁these 1794
▁us 1785
▁akin 1762
▁gikan 1753
▁house 1750
▁over 1715
▁our 1684
▁did 1679
▁hand 1621
▁tao 1587
▁sama 1580
▁kami 1579
▁behold 1574
▁lupain 1557
▁say 1551
▁gayod 1538
▁tana 1527
▁down 1522
▁put 1505
▁tanan 1490
▁diha 1477
▁g 1475
▁walang 1475
▁she 1463
▁father 1459
▁moises 1459
▁been 1448
▁make 1447
▁usab 1431
▁earth 1411
▁kaya 1405
▁moses 1405
▁take 1399
▁let 1389
▁iyon 1374
▁tungod 1356
▁. 1354
▁kaninyo 1353
▁men 1351
▁para 1338
▁away 1328
▁alang 1326
▁know 1324
▁about 1318
▁offering 1305
▁nasa 1304
▁made 1303
▁w 1303
▁things 1293
▁jacob 1290
▁went 1287
▁huwag 1274
▁bayan 1273
▁kanimo 1273
▁pari 1252
▁days 1243
▁place 1241
▁give 1232
▁gaya 1175
▁bring 1174
▁yuta 1173
▁maka 1170
▁adlaw 1161
▁laban 1155
▁name 1144
▁uban 1143
▁aaron 1130
▁nor 1125
▁person 1116
▁whom 1113
▁city 1109
▁kamay 1101
ould 1095
n 1086
▁ayaw 1085
▁lamang 1079
▁therefore 1069
▁says 1062
▁great 1060
▁bagay 1057
▁every 1057
itan 1051
▁after 1049
▁isa 1049
▁hangga 1048
▁see 1047
sa 1043
▁panahon 1037
▁holy 1028
▁ehipto 1010
▁maoy 997
▁two 979
▁pamamag 974
▁heart 973
▁word 972
▁brought 969
▁way 969
▁nakita 968
▁ingon 960
▁egypt 952
▁good 945
▁mong 937
▁time 936
▁lupa 925
▁kasama 911
ly 908
▁bis 908
▁pinaagi 908
u 904
▁does 903
▁through 903
▁become 897
e 888
▁buong 888
▁langit 884
▁fire 883
▁kining 882
▁dako 876
▁tubig 872
▁babae 865
▁siyang 864
▁even 860
▁taong 860
▁where 856
▁took 852
▁sinasabi 845
▁bahay 840
▁any 835
▁handog 835
▁how 833
▁juda 832
▁judah 822
▁heard 820
▁own 815
▁bawa 814
▁many 812
▁abraham 811
▁unti 804
▁dahil 803
▁nations 803
▁sarili 802
k 800
▁magiging 798
▁sent 798
▁saw 796
▁hangtod 790
▁siyudad 784
▁ti 783
▁words 782
▁life 774
▁spirit 774
▁fathers 773
▁eat 772
▁kita 770
▁live 762
ave 761
▁water 761
▁unsa 759
▁according 756
▁daotan 756
▁silang 755
ha 753
▁upon 751
▁set 748
▁priest 743
▁kapag 741
▁yet 740
▁maayo 735
▁sabi 735
▁ginawa 733
▁just 733
▁kaaway 729
▁than 727
▁sin 724
ingon 722
▁una 722
▁himself 721
▁salita 717
▁heaven 712
▁more 711
▁ama 708
▁nito 706
▁harapan 703
▁pangalan 700
ma 699
▁dumating 694
▁m 692
▁other 692
▁karon 690
▁eyes 685
▁each 683
▁espiritu 682
▁kinahanglan 680
▁law 678
o 675
▁hands 671
▁dapit 670
▁evil 670
▁called 667
▁babaye 666
▁done 662
ayo 657
r 656
▁while 656
▁amahan 654
p 652
▁pagkatapos 651
▁halad 650
▁ini 649
▁going 645
▁taga 640
▁death 638
▁kapatid 638
▁pagka 637
▁pang 636
la 634
▁asawa 634
▁judio 632
▁sea 632
▁another 631
▁mahimo 631
ever 629
▁sala 628
▁spoke 628
▁brothers 627
▁kings 627
▁years 627
▁left 625
▁speak 625
▁templo 623
▁given 620
▁blood 619
▁some 618
buok 617
▁keep 613
▁od 612
▁lunsod 606
ga 602
▁magi 600
▁tolda 600
▁gipa 599
▁declares 597
▁ano 596
▁christ 593
▁gold 593
▁bilang 592
▁seven 591
▁puso 590
▁baka 589
▁jordan 589
▁pina 588
▁voice 585
▁naka 584
▁pito 581
▁only 580
▁around 579
▁first 578
▁labing 577
er 576
▁burn 575
▁gihatag 574
▁why 574
▁cities 573
▁propeta 572
▁sword 568
b 566
▁bato 565
▁mata 564
▁bahin 563
▁subalit 563
▁hear 561
▁can 559
▁dugo 558
▁tungko 557
▁right 555
▁back 553
▁mouth 552
▁kasamaan 551
▁drink 546
▁parang 546
▁dagat 545
han 544
▁pinuno 541
ba 538
▁mahi 533
▁woman 533
▁banay 532
▁ganito 532
▁nasod 532
▁kundi 531
▁bata 530
▁commanded 530
▁together 530
se 527
▁masama 526
▁kalibotan 525
ra 523
▁priests 523
▁niyon 522
▁armies 520
▁listen 520
▁niadto 519
▁turn 519
▁mabuti 517
▁naging 517
▁side 517
▁work 517
▁mitubag 513
▁altar 509
▁marami 509
▁gibuhat 508
▁under 507
▁wicked 506
▁banal 505
▁without 505
aming 504
▁righteous 501
▁atubangan 498
▁found 498
▁anghel 496
▁head 495
▁high 495
ward 494
▁duha 493
▁ibabaw 493
▁righteousness 493
▁doon 490
▁ulo 489
▁children 488
▁sulod 486
▁balaod 485
▁face 483
▁jose 483
▁well 483
▁fear 481
▁sumala 481
▁wife 480
▁night 478
▁coming 476
▁peace 476
aw 475
▁far 475
▁gitna 474
▁unta 474
▁giingnan 473
▁kinsa 473
▁pangulo 471
▁nilang 470
▁tell 470
▁moab 467
▁babilonia 466
▁glory 466
▁old 463
▁balay 460
▁kaugalingon 460
▁since 460
▁ngayon 459
▁turned 459
among 458
▁bread 457
▁sight 457
▁three 456
▁year 456
gan 455
hi 454
▁bansa 454
▁cristo 452
▁kaliwat 452
▁daan 451
▁tent 451
▁buhay 449
▁kaayo 449
ag 448
▁makita 448
▁love 447
ta 445
▁; 444
▁anuman 444
▁covenant 444
▁field 444
▁kinabuhi 444
▁wilderness 444
▁yourself 444
▁dalawang 443
▁mas 443
▁forever 442
▁israelita 442
▁long 442
adto 441
▁inheritance 441
pa 440
▁brother 440
▁gamhanan 440
as 439
▁flesh 439
▁joseph 439
▁karnero 439
▁balaan 438
▁anger 435
▁david 435
▁disciples 434
▁blessed 433
▁ipa 432
▁patay 431
▁butang 430
h 429
▁dead 429
▁grain 426
▁isaac 426
▁muli 426
▁midst 425
▁ibinigay 422
▁kingdom 421
▁gawa 420
▁both 419
▁daughter 418
▁taon 418
▁benjamin 417
▁soul 417
▁themselves 417
m 416
▁ngalan 414
▁wine 414
▁t 413
im 412
▁end 412
▁daughters 411
▁silver 410
▁very 409
▁apoy 408
▁sambahayan 408
▁babylon 407
▁jews 406
▁return 406
▁servant 406
▁bundok 405
▁human 405
▁stand 405
▁mananap 404
▁sugo 402
▁mamatay 401
▁joshua 399
▁spoken 398
▁josue 397
▁kadto 397
▁rest 397
▁sina 397
▁tuig 397
▁die 396
▁temple 396
▁gate 395
utos 394
▁pan 394
▁send 392
▁siyag 392
▁tayo 392
▁comes 391
al 389
el 389
li 389
▁bukid 389
▁gods 389
▁here 389
▁look 388
▁narito 388
▁rin 388
da 387
mtang 387
▁being 387
▁offer 387
▁mother 386
▁off 384
▁unclean 384
▁ground 383
▁sabihin 383
lu 382
▁enemies 381
▁pagkaon 380
ti 379
▁walk 379
▁zion 379
▁bahagi 378
▁gagawin 377
▁servants 377
▁seen 376
▁serve 376
▁feet 375
▁hukbo 375
▁igsoon 374
▁longer 374
▁kahoy 373
came 372
▁peoples 372
▁silag 372
▁ina 371
▁esau 370
▁matuwid 369
▁show 369
▁food 367
▁pintuan 367
▁same 366
▁gihimo 365
▁hayop 365
▁light 365
▁nothing 365
▁matag 364
▁answered 363
▁save 363
ya 362
▁ra 362
▁loob 361
▁male 361
sayod 360
▁everything 360
▁yourselves 360
abot 358
▁everyone 358
▁matarong 358
▁gayo 357
▁gayon 357
▁ngano 356
▁full 355
▁power 355
▁waters 355
▁certainly 354
▁nawa 354
▁sabbath 351
▁taken 350
▁young 350
▁offerings 349
▁anyone 348
▁oil 348
▁pharaoh 348
▁sino 348
un 347
▁anaa 347
▁lai 347
ri 346
z 346
▁enter 345
▁paano 345
re 344
▁kautusan 344
▁lingkod 344
▁y 344
▁buhaton 342
▁bunga 341
▁s 341
▁known 340
▁month 340
▁praise 340
▁gumawa 339
anan 338
▁gahom 338
▁pablo 338
▁though 338
▁mang 337
▁might 337
▁still 337
tu 336
▁faith 334
▁indeed 334
▁lima 331
▁living 331
▁ones 331
bi 329
▁four 329
▁baba 328
▁cut 328
▁mountain 327
es 326
▁dinhi 325
▁near 325
▁alagad 324
▁kasalanan 323
▁dad 322
▁fruit 322
▁tinun 322
▁world 322
▁angel 321
▁cannot 321
▁din 321
▁tribe 320
▁hinuon 319
▁pedro 319
▁cubits 318
▁haba 318
▁pagpa 318
▁tabak 318
▁thousand 318
▁tinig 318
to 317
▁canaan 317
▁buhat 315
▁must 315
▁ta 314
▁batok 313
▁between 313
▁could 312
▁joy 312
▁ika 311
▁k 311
▁women 311
ampo 310
▁inig 310
ka 309
▁diin 309
▁nagpuyo 309
▁paul 309
▁juan 307
▁bakit 306
▁fall 306
▁magkagayo 306
▁levita 305
▁namatay 305
▁halaran 304
▁written 304
▁gidala 303
▁tupa 303
▁strength 302
▁tinapay 302
▁morning 301
▁tree 301
▁body 300
▁buot 299
▁l 298
▁thing 298
▁died 297
▁tulo 297
▁daniel 296
▁slave 296
▁presence 295
▁stone 295
▁sulugoon 294
is 293
▁bibig 293
▁east 293
▁ipina 293
▁ginto 292
▁inhabitants 292
▁kana 292
▁nagsalita 292
▁paa 292
▁iba 291
▁roon 291
it 289
▁nagpa 289
▁descendants 288
▁gawas 288
▁gisulti 288
▁dinala 287
▁kaharian 287
▁concern 286
▁lived 286
▁prophet 286
▁times 286
▁along 285
▁destroy 285
▁gilead 285
▁peter 285
▁tapat 285
▁wrath 285
hu 284
▁deeds 284
▁libo 284
▁prophets 284
▁war 283
▁wise 283
c 281
▁amin 281
▁dambana 281
▁gisugo 281
▁tatlo 281
▁wisdom 281
ob 280
▁angay 280
▁alipin 279
ot 278
▁himoon 278
▁naman 278
▁sound 278
▁birth 277
▁dagha 277
▁speaking 277
am 276
law 276
na 276
▁find 276
▁little 276
▁order 276
▁too 276
▁get 275
▁leave 275
▁mountains 275
▁pulong 275
tungod 274
▁bulawan 273
▁five 273
▁kamot 272
▁sinuma 272
▁told 272
▁bisag 271
▁call 271
▁elders 271
▁poor 271
▁families 270
▁namo 270
▁standing 270
▁within 270
en 269
▁camp 269
▁namin 269
▁diosdios 268
▁giingon 268
▁kanamo 268
▁lipi 267
▁nagsasabi 267
▁nahimo 267
▁remember 267
▁should 267
▁sumagot 267
▁possession 266
▁strong 266
▁heavens 265
▁judge 265
▁malaki 265
▁sasabihin 265
lakip 264
▁simon 264
▁ganghaan 263
▁magpa 263
▁mankind 263
▁new 263
▁harap 262
▁ihatag 262
▁kill 262
▁pass 262
▁pour 262
▁twenty 262
f 261
▁higit 261
▁palibot 261
▁umalis 261
▁ways 261
alagad 260
ang 260
▁chief 260
▁di 260
▁levites 260
▁please 260
usab 259
▁ephraim 259
▁mighty 259
▁nation 259
▁ten 259
▁pinag 258
▁puno 258
▁darkness 257
▁john 257
▁sheep 257
ita 256
▁myself 256
▁nalalaman 256
▁bisti 255
▁border 255
▁hundred 255
hin 254
us 254
▁country 254
▁meeting 254
▁utos 254
▁adlawa 253
▁fell 253
▁north 253
▁pumunta 253
▁su 253
▁afraid 252
▁angkan 252
▁fine 252
▁gone 252
▁kanasoran 251
▁kanunay 251
▁lumabas 251
▁sun 251
▁laman 250
▁gabi 249
▁ibibigay 249
▁kalayo 249
▁kanato 249
▁mayroon 249
▁stood 249
▁truth 249
bu 248
▁hav 248
▁sacrifice 248
▁entered 247
▁justice 247
▁today 247
▁daw 246
▁help 246
▁magpakailanman 246
▁named 246
▁present 246
lo 245
▁bag 245
▁congregation 245
▁galit 245
▁kapangyarihan 245
▁ninuno 245
ad 244
ay 244
dapat 244
iya 244
si 244
▁daghan 244
▁naninirahan 244
▁salvation 244
▁jeremiah 243
▁lang 243
▁number 243
▁anything 242
▁favor 242
▁guilt 242
▁n 242
▁second 242
▁seek 242
▁buhi 241
▁hangin 241
▁rejoice 241
sama 240
▁e 240
▁kasabotan 240
▁sins 240
▁wind 240
▁believe 239
▁dito 239
▁gawin 238
▁bago 237
▁buwan 237
▁front 237
▁h 237
▁haligi 237
▁pumasok 237
▁balaam 236
▁ginganla 236
▁kept 236
▁open 236
▁truly 236
▁wrongdoing 236
▁job 235
▁kadagkoan 235
▁p 235
▁whole 235
at 234
▁animals 234
▁gathered 234
▁lot 234
▁struck 234
▁dakila 233
▁katigulangan 233
▁killed 233
▁much 232
▁answer 231
▁gayundin 231
▁iya 231
karoon 230
▁levi 230
▁silangan 230
▁above 229
▁third 229
▁wall 229
▁works 229
so 228
▁cry 228
▁ibang 228
▁twelve 228
▁faraon 227
▁never 227
▁toro 227
sultihan 226
▁asno 226
▁efraim 226
▁sanctuary 226
▁judgment 225
▁gather 224
▁inilagay 224
▁places 224
▁raised 224
bo 223
▁however 223
▁lawas 223
▁looked 223
▁mana 223
▁valley 223
ibig 222
▁able 222
▁command 222
▁gani 222
▁niana 222
▁pagkain 222
▁regard 222
▁kina 220
▁salapi 220
▁alone 219
▁bulan 219
▁evening 219
▁filled 219
▁firstborn 219
▁flock 219
▁kampo 219
▁money 219
▁nating 219
▁tabernacle 219
▁appointed 218
▁got 218
▁stay 218
▁cast 217
▁dan 217
▁gad 217
▁kaniadto 217
▁suba 217
▁bless 216
▁hin 216
▁kaluwalhatian 216
▁leaders 216
su 215
▁miabot 215
▁ania 213
▁bang 213
▁fat 213
▁trono 213
▁born 212
▁darating 212
▁family 212
▁ord 212
▁statutes 212
▁ulipon 212
ance 211
▁gusto 211
▁mind 211
▁paningin 211
▁wood 211
tas 210
▁gihapon 210
▁hold 210
▁kasuko 210
▁patyon 210
▁tabi 210
▁understanding 210
tan 209
▁army 209
▁destroyed 209
▁lay 209
▁lungsod 209
▁pilak 209
▁half 208
▁inahan 208
▁nagsulti 208
▁stones 208
go 207
▁broken 207
▁kaluluwa 207
▁master 207
▁atin 206
▁commandments 206
▁katuwiran 206
▁langis 206
▁mount 206
▁outside 206
▁sing 206
▁spread 206
▁abram 205
▁clean 205
▁household 205
▁kondili 205
▁makakita 205
▁makapangyarihan 205
▁rock 205
▁tinawag 205
una 204
▁gumagawa 204
▁kawan 204
▁moingon 204
▁hearts 203
▁naghimo 203
yo 202
▁gabii 202
▁hill 202
▁knowledge 202
▁shame 202
▁lands 201
▁mukha 201
▁receive 201
wa 200
▁ha 200
▁hope 200
▁makes 200
▁nakakita 200
▁silotan 200
▁garments 199
▁gingharian 199
▁gugma 199
▁idols 199
▁ilalim 199
▁pay 199
▁reason 199
▁throne 199
▁woe 199
▁kapwa 198
▁lugar 198
▁mercy 198
▁sinusunog 198
▁kamingawan 197
▁laid 197
▁saved 197
os 196
▁alak 196
▁doing 196
▁eleazar 196
▁kasingkasing 196
▁nangutana 196
▁reach 196
od 195
▁ask 195
▁kabayo 195
▁kamatayon 195
▁mahitabo 195
▁pasture 195
▁burned 194
▁courtyard 194
▁heads 194
▁immediately 194
▁malakas 194
▁pati 194
▁returned 194
▁south 194
▁want 194
bayan 193
th 193
▁follow 193
▁lips 193
▁malapit 193
▁patungo 193
▁understand 193
lig 192
▁balita 192
▁bino 192
▁nagsugo 192
▁nagbuhat 190
tulad 189
▁haman 189
▁katotohanan 189
▁lumapit 189
▁sundalo 189
▁sunogon 189
▁everlasting 188
▁ginagawa 188
▁large 188
▁lead 188
▁apat 187
▁ark 187
▁break 187
▁drive 187
▁magkakaroon 187
▁pipila 187
▁tan 187
og 186
▁c 186
▁dalan 186
▁generations 186
▁opened 186
▁tipan 186
ar 185
ulo 185
▁gayunma 185
▁siko 185
▁such 185
▁binhi 184
▁damit 184
▁kasundalohan 184
▁pagtuo 184
▁worship 184
giving 183
▁baal 183
▁bronze 183
▁destruction 183
▁gives 183
▁sakit 183
▁tingnan 183
▁trees 183
▁animal 182
▁gideon 182
▁gubat 182
▁kataposan 182
▁disaster 181
▁duol 181
▁kasulatan 181
▁narinig 181
▁tawhana 181
ro 180
uban 180
▁better 180
▁crowd 180
▁faithfulness 180
▁ilog 180
▁sanga 180
▁sky 180
▁sukad 180
ab 179
away 179
▁cloud 179
▁manasseh 179
▁perish 179
▁uma 179
▁accord 178
▁balak 178
▁kinuha 178
▁marumi 178
▁nd 178
▁committed 177
▁edom 177
▁gikuha 177
▁insenso 177
▁lamb 177
▁pananampalataya 177
▁ram 177
▁rise 177
▁testimony 177
▁whether 177
▁curse 176
▁dust 176
▁espada 175
▁feast 175
▁kahadlok 175
▁labor 175
▁lebanon 175
▁officials 175
▁raise 175
▁samantala 175
ul 174
▁ila 174
▁itaas 174
▁kamatayan 174
▁lie 174
▁throughout 174
no 173
um 173
▁pieces 173
antos 172
ho 172
ug 172
▁entire 172
▁hayaan 172
▁kabila 172
▁manases 172
▁natin 172
▁remain 172
▁river 172
▁trust 172
▁wait 172
mo 171
over 171
▁ammon 171
▁arise 171
▁beyond 171
▁eye 171
▁happened 171
▁la 171
▁pakinggan 171
▁pure 171
▁sisters 171
tuman 170
▁beside 170
▁houses 170
▁plata 170
▁pultahan 170
▁trigo 170
ko 169
▁gates 169
▁kapulungan 169
▁part 169
▁un 169
ila 168
tipon 168
▁assembly 168
▁battle 168
▁built 168
▁compassion 168
▁magpabilin 168
▁mensahe 168
▁moabot 168
▁paghimo 168
▁sinuman 168
or 167
▁ears 167
▁nagdala 167
▁poot 167
▁sheol 167
ah 166
op 166
▁crie 166
▁jeremias 166
▁nagsabi 166
▁rain 166
▁wickedness 166
▁bear 165
▁cause 165
▁famine 165
▁forth 165
▁hangganan 165
▁kalipay 165
▁mordecai 165
▁seventh 165
▁bull 164
▁child 164
▁dala 164
▁grace 164
▁nagsasalita 164
▁sister 164
▁tina 164
▁tunay 164
inom 163
▁egyptians 163
▁gisaad 163
▁samson 163
ias 162
ig 162
▁authority 162
▁honor 162
▁j 162
▁kayamanan 162
▁led 162
▁refuge 162
▁six 162
awa 161
▁buhy 161
▁dalawampu 161
▁enemy 161
▁except 161
▁lino 161
▁lives 161
▁opisyal 161
▁sat 161
▁sign 161
le 160
▁cover 160
▁hate 160
▁hi 160
▁linen 160
▁nato 160
▁next 160
▁samaria 160
▁sinugo 160
▁ulan 160
▁bumalik 159
▁female 159
▁foot 159
▁hugaw 159
▁judea 159
▁kahangtoran 159
▁neighbor 159
▁simeon 159
▁diay 158
▁ikapito 158
▁intawon 158
▁isulti 158
▁nimo 158
▁ou 158
▁sinai 158
▁stranger 158
▁mai 157
▁others 157
▁portion 157
▁sakop 157
▁sultih 157
po 156
▁atonement 156
▁deal 156
▁goes 156
▁lana 156
▁ngayo 156
▁pun 156
▁santo 156
kita 155
ua 155
▁humayo 155
▁ihalad 155
▁kordero 155
▁pamati 155
▁panganay 155
▁pharisees 155
▁service 155
▁account 154
▁branches 154
▁generation 154
▁kabos 154
▁kan 154
▁karunungan 154
▁maaari 154
▁meet 154
▁mourning 154
▁pader 154
▁tongue 154
aya 153
mu 153
ok 153
▁build 153
▁horses 153
▁labaw 153
▁matatanda 153
▁nanga 153
▁guard 152
▁katawan 152
▁saksi 152
▁tuntunin 152
▁yes 152
awon 151
▁angels 151
▁bagaman 151
▁kanding 151
▁lakad 151
▁pagbuhat 151
▁slaves 151
▁sumunod 151
hon 150
ion 150
▁aduna 150
▁beloved 150
▁book 150
▁esther 150
▁ever 150
▁free 150
▁iron 150
▁kapayapaan 150
▁kusog 150
▁last 150
▁midian 150
▁nakatayo 150
▁noon 150
▁tanda 150
▁tumayo 150
asa 149
ni 149
▁cloth 149
▁husband 149
▁teaching 149
dan 148
▁ai 148
▁hair 148
▁husto 148
▁kaalam 148
▁kabungtoran 148
▁oo 148
▁prayer 148
▁sit 148
▁tingog 148
▁wealth 148
▁bet 147
▁bow 147
▁dadalhin 147
▁dayon 147
▁dayuhan 147
▁hour 147
▁langyaw 147
▁magpuyo 147
▁mismo 147
▁nahitabo 147
▁panimalay 147
▁pula 147
▁received 147
▁sacrifices 147
▁tribes 147
alang 146
kuyog 146
▁je 146
▁masayod 146
▁passed 146
▁teach 146
em 145
▁kahayopan 145
▁rebuke 145
▁smoke 145
habag 144
ligtas 144
ngadto 144
▁carry 144
▁flee 144
▁kahayag 144
▁libis 144
▁maalamon 144
▁names 144
▁ruben 144
▁shekels 144
▁someone 144
▁wives 144
▁asked 143
▁deep 143
▁gagawa 143
▁himaya 143
▁kambing 143
▁remove 143
▁strike 143
▁tag 143
▁beth 142
▁carried 142
▁jesu 142
▁judas 142
▁plunder 142
bag 141
cristo 141
▁alam 141
▁blind 141
▁declare 141
▁forty 141
▁goat 141
▁kabuluhan 141
▁kauban 141
▁ku 141
▁magtutudlo 141
▁masasama 141
▁offered 141
▁once 141
▁perform 141
▁pinatay 141
▁sungay 141
▁touch 141
▁tumanon 141
▁camped 140
▁clothes 140
▁ear 140
▁incense 140
▁magsalita 140
▁mamamatay 140
▁seed 140
▁beginning 139
▁birds 139
▁dukha 139
▁hatagan 139
▁labas 139
▁lambs 139
▁none 139
▁sitting 139
▁taliwala 139
▁ubas 139
dawat 138
hunong 138
mpung 138
ut 138
▁? 138
▁gentiles 138
▁harvest 138
▁hidden 138
▁ipinag 138
▁kind 138
▁mapa 138
▁nan 138
▁plague 138
▁proclaim 138
id 137
▁amen 137
▁ate 137
▁cross 137
▁eliminate 137
▁makapa 137
▁nagka 137
▁paingon 137
▁sanlibutan 137
ak 136
do 136
either 136
▁butil 136
▁livestock 136
▁nagpadala 136
▁palasyo 136
▁punungkahoy 136
▁slaughter 136
▁west 136
buhat 135
san 135
w 135
▁kabataan 135
▁labi 135
▁satisfied 135
▁trouble 135
selah 134
▁batas 134
▁gulang 134
▁obey 134
▁sinned 134
loob 133
▁act 133
▁burning 133
▁dumarating 133
▁hilaga 133
▁nalabi 133
▁sihon 133
▁something 133
▁upat 133
▁yaman 133
0 132
awit 132
usap 132
▁bumangon 132
▁consider 132
▁continually 132
▁covered 132
▁households 132
▁kagalakan 132
▁matter 132
▁naghatag 132
▁rich 132
▁womb 132
gkampo 131
▁angry 131
▁dream 131
▁dry 131
▁kumain 131
▁lion 131
▁makahimo 131
▁salitang 131
▁sana 131
▁table 131
▁write 131
ulan 130
▁agalon 130
▁believed 130
▁desire 130
▁kabukiran 130
▁kahit 130
▁looking 130
▁metros 130
▁paghalad 130
▁produce 130
▁shout 130
▁tiyak 130
baba 129
▁appeared 129
▁bones 129
▁lalawigan 129
▁mangamatay 129
▁natagpuan 129
▁nebuchadnezzar 129
▁salinlahi 129
▁thanks 129
hatag 128
wi 128
▁alay 128
▁alive 128
▁krus 128
▁larawan 128
▁marinig 128
▁pagpatay 128
▁thirty 128
▁vine 128
▁wash 128
te 127
▁appearance 127
▁bantay 127
▁exalted 127
▁fish 127
▁harm 127
▁home 127
▁magdala 127
▁mamati 127
▁ox 127
▁sake 127
▁swore 127
▁tipanan 127
▁balat 126
▁beautiful 126
▁bukod 126
▁followed 126
▁following 126
▁hangal 126
▁hukom 126
▁mine 126
▁noo 126
▁pinili 126
▁sudlanan 126
▁throw 126
▁utter 126
▁vision 126
▁yours 126
di 125
il 125
isip 125
om 125
▁! 125
▁ashamed 125
▁bahandi 125
▁batan 125
▁defiled 125
▁reuben 125
▁ulap 125
ani 124
▁binuhat 124
▁bumaba 124
▁flocks 124
▁galilea 124
▁ilalagay 124
▁layo 124
▁loved 124
▁paagi 124
▁prepared 124
▁scribes 124
▁signs 124
▁youth 124
lad 123
▁binigyan 123
▁en 123
▁garment 123
▁kadiliman 123
▁malayo 123
▁nangyari 123
▁papatayin 123
▁rescue 123
▁trumpeta 123
▁attention 122
▁awit 122
▁bana 122
▁bethel 122
▁blessing 122
▁bu 122
▁gawain 122
▁horns 122
▁hunahuna 122
▁opposite 122
▁placed 122
▁scattered 122
▁takot 122
▁utlanan 122
▁allow 121
▁chaldeans 121
▁desolate 121
▁eaten 121
▁judgments 121
▁kalangitan 121
▁kasaulogan 121
▁lies 121
▁lift 121
▁road 121
▁sinagoga 121
▁tinuod 121
anon 120
ation 120
lan 120
▁amihanan 120
▁behind 120
▁belong 120
▁langgam 120
▁length 120
▁liwanag 120
▁lubos 120
▁pillars 120
▁prison 120
▁rams 120
▁rather 120
▁remnant 120
▁sum 120
pi 119
umuha 119
▁abot 119
▁bulwagan 119
▁ehiptohanon 119
▁entrance 119
▁gutom 119
▁makaka 119
▁moadto 119
2 118
aari 118
atubang 118
ca 118
ki 118
lak 118
▁case 118
▁d 118
▁dalhin 118
▁higala 118
▁panan 118
▁pursue 118
▁rito 118
▁staff 118
▁tagboanan 118
anha 117
isa 117
▁abandon 117
▁assyria 117
▁edge 117
▁fallen 117
▁galilee 117
▁hu 117
▁lawak 117
▁makig 117
▁nakaupo 117
▁panalangin 117
▁quickly 117
▁sion 117
▁sleep 117
▁tear 117
▁tinatawag 117
▁white 117
5 116
anhi 116
ites 116
sulod 116
▁biyaya 116
▁fled 116
▁gospel 116
▁hide 116
▁isina 116
▁kailangan 116
▁knows 116
▁lumolupyo 116
▁makinig 116
▁malalaman 116
▁malaman 116
▁manga 116
▁numbered 116
▁oath 116
▁reign 116
▁restore 116
▁tiil 116
▁adto 115
▁asiria 115
▁door 115
▁katarungan 115
▁nagpapa 115
▁paril 115
▁santuwaryo 115
▁walog 115
anak 114
buntog 114
▁daang 114
▁dila 114
▁established 114
▁gracious 114
▁harina 114
▁isandaan 114
▁miduol 114
▁motuo 114
▁property 114
▁purihin 114
▁sidon 114
▁skin 114
▁speaks 114
▁tabing 114
▁umahon 114
▁wings 114
▁witness 114
▁abimelech 113
▁batong 113
▁igpapahulay 113
▁instead 113
▁lakas 113
▁nagkasala 113
▁nakikita 113
▁philistines 113
▁se 113
▁violence 113
duol 112
puno 112
▁abimelec 112
▁b 112
▁besides 112
▁distress 112
▁donkey 112
▁maria 112
▁nahi 112
▁oras 112
▁shechem 112
▁song 112
▁bigyan 111
▁dwell 111
▁faithful 111
▁fool 111
▁ikatlo 111
▁mibiya 111
▁pit 111
▁ruins 111
▁true 111
▁width 111
gis 110
thrown 110
▁apatnapu 110
▁aside 110
▁bed 110
▁finished 110
▁gibutang 110
▁greater 110
▁hingpit 110
▁kahihiyan 110
▁labindalawa 110
▁magulang 110
▁nakapa 110
▁pana 110
▁pilato 110
▁possess 110
▁secret 110
▁swear 110
▁top 110
▁tuyo 110
ness 109
ting 109
▁disgrace 109
▁faces 109
▁goats 109
▁iligtas 109
▁loud 109
▁malinis 109
▁prepare 109
▁prostitute 109
▁seeking 109
hrew 108
lang 108
▁already 108
▁dwelling 108
▁eternal 108
▁forget 108
▁gifts 108
▁huma 108
▁ja 108
▁journey 108
▁lifted 108
▁lig 108
▁luma 108
▁nadungog 108
▁oh 108
▁pangkasalanan 108
▁read 108
able 107
balita 107
▁afterward 107
▁cursed 107
▁forward 107
▁herself 107
▁ikalawa 107
▁kaalaman 107
▁kalahati 107
▁makaila 107
▁matakot 107
▁naglingkod 107
▁pray 107
▁punong 107
▁tatlumpu 107
▁territory 107
▁asa 106
▁breath 106
▁dalaga 106
▁dalawa 106
▁delight 106
▁ibon 106
▁kasuotan 106
▁laglagon 106
▁leader 106
▁panganod 106
▁punishment 106
▁used 106
basa 105
ful 105
▁doorway 105
▁enough 105
▁false 105
▁fourth 105
▁hebron 105
▁katalagman 105
▁mary 105
▁olibo 105
▁pagkakita 105
▁panahona 105
▁prophesy 105
▁silent 105
▁ubos 105
▁villages 105
tak 104
▁12 104
▁anyo 104
▁bound 104
▁cattle 104
▁dulo 104
▁fill 104
▁gobernador 104
▁greatly 104
▁healed 104
▁hinumdomi 104
▁isda 104
▁loves 104
▁maliban 104
▁napakarami 104
▁patayin 104
▁tapos 104
▁tenth 104
▁tuma 104
▁wonders 104
itugyan 103
laglag 103
lili 103
mi 103
▁accept 103
▁buy 103
▁divided 103
▁f 103
▁fifty 103
▁gipatay 103
▁hapit 103
▁ibigay 103
▁ingna 103
▁ipinanganak 103
▁kasadpan 103
▁lain 103
▁makikita 103
▁passover 103
▁pu 103
▁pundok 103
▁removed 103
biya 102
ipakita 102
sunod 102
taas 102
▁abominations 102
▁feed 102
▁hain 102
▁lahi 102
▁laki 102
▁rejected 102
▁served 102
▁seventy 102
▁vineyard 102
▁waste 102
▁weeping 102
ers 101
▁acts 101
▁ar 101
▁arm 101
▁early 101
▁few 101
▁friend 101
▁fulfilled 101
▁gihalad 101
▁limampu 101
▁nahibilin 101
▁pilate 101
▁plant 101
▁shut 101
▁tig 101
▁tuo 101
▁yawa 101
pit 100
uk 100
▁ahead 100
▁almighty 100
▁buhok 100
▁choice 100
▁commandment 100
▁gasa 100
▁ibig 100
▁ihalas 100
▁ilan 100
▁injustice 100
▁itself 100
▁kabtangan 100
▁leon 100
▁magka 100
▁noah 100
▁nun 100
▁responded 100
▁test 100
▁unleavened 100
kay 99
likay 99
tay 99
▁afflicted 99
▁attack 99
▁caleb 99
▁hawanan 99
▁image 99
▁kapatagan 99
▁kunin 99
▁lying 99
▁mixed 99
▁remained 99
▁rod 99
▁sold 99
▁teacher 99
▁torn 99
gal 98
▁chariots 98
▁chosen 98
▁gipili 98
▁habagatan 98
▁inumin 98
▁kangitngit 98
▁lumakad 98
▁nakedness 98
▁needy 98
▁paghari 98
▁pandinig 98
▁patotoo 98
▁re 98
▁salot 98
▁tabernakulo 98
▁unless 98
▁upright 98
lag 97
patuloy 97
▁balik 97
▁butanga 97
▁careful 97
▁charge 97
▁hustisya 97
▁ikatulo 97
▁kin 97
▁nakig 97
▁rule 97
▁sulat 97
▁timog 97
6 96
dala 96
iddle 96
▁age 96
▁aklat 96
▁amorites 96
▁milagro 96
▁nagsisi 96
▁small 96
▁watch 96
7 95
ayon 95
dad 95
limbong 95
ling 95
▁ari 95
▁bronsi 95
▁buhata 95
▁celebrate 95
▁continued 95
▁de 95
▁ephah 95
▁himoa 95
▁katapatan 95
▁libot 95
▁liyon 95
▁pagsulti 95
▁pride 95
▁raquel 95
▁testify 95
hangyo 94
lingkod 94
▁bases 94
▁bowed 94
▁daplin 94
▁ehipcio 94
▁fight 94
▁flour 94
▁humble 94
▁journeyed 94
▁kalinaw 94
▁lansangan 94
▁libingan 94
▁magsi 94
▁mangyayari 94
▁multitude 94
▁ngari 94
▁ordinances 94
▁otherwise 94
▁reported 94
▁saints 94
▁sees 94
▁siklo 94
▁strangers 94
▁tagsa 94
▁tanso 94
▁walls 94
,000 93
asawa 93
diyosan 93
ted 93
▁1 93
▁desolation 93
▁diyu 93
▁kakain 93
▁kakainin 93
▁kaliwatan 93
▁mosunod 93
▁neck 93
▁pagitan 93
▁paglaom 93
▁pariseo 93
▁pastulan 93
▁persia 93
▁pulo 93
▁redeem 93
▁terror 93
▁tumana 93
▁ubasan 93
▁unsaon 93
lagay 92
padayag 92
pan 92
▁abandoned 92
▁created 92
▁friends 92
▁gift 92
▁gisalikway 92
▁honey 92
▁innocent 92
▁jericho 92
▁judges 92
▁kahabag 92
▁makapag 92
▁matang 92
▁nagsi 92
▁plead 92
▁rulers 92
▁seir 92
▁solomon 92
▁tumindig 92
▁wrong 92
▁yari 92
las 91
pas 91
▁al 91
▁bin 91
▁buangbuang 91
▁church 91
▁eli 91
▁garden 91
▁ibinibigay 91
▁jerico 91
▁lumalakad 91
▁mak 91
▁noe 91
▁soon 91
ari 90
bihag 90
iisip 90
kan 90
kat 90
uches 90
▁alinman 90
▁anointed 90
▁buto 90
▁cup 90
▁dali 90
▁forgive 90
▁gibeah 90
▁grow 90
▁higayona 90
▁ikasampu 90
▁inner 90
▁kaumahan 90
▁magbalantay 90
▁moon 90
▁nayon 90
▁panalanginan 90
▁panon 90
▁parts 90
▁rebellious 90
▁sidlakan 90
▁silid 90
▁susunugin 90
▁zedekiah 90
tagsa 89
▁anim 89
▁arnon 89
▁bashan 89
▁crowds 89
▁escape 89
▁fellow 89
▁foolish 89
▁kahulogan 89
▁kamatuoran 89
▁nagtuo 89
▁need 89
▁report 89
▁root 89
▁shepherd 89
▁suma 89
▁tali 89
alaga 88
gala 88
hati 88
tubag 88
▁basan 88
▁bird 88
▁ends 88
▁gipadala 88
▁kawal 88
▁kuhaon 88
▁lakaw 88
▁lu 88
▁maghimo 88
▁mothers 88
▁panit 88
▁plan 88
▁ready 88
▁red 88
▁remembered 88
▁sprinkle 88
▁sumigaw 88
▁wrongdoings 88
gamit 87
hiwalay 87
kabubut 87
kap 87
tag 87
▁desert 87
▁elam 87
▁gilgal 87
▁gitugyan 87
▁grass 87
▁ham 87
▁joyful 87
▁kaligtasan 87
▁kaluy 87
▁kamelyo 87
▁lubnganan 87
▁naming 87
▁naroon 87
▁paglilingkod 87
▁pangitain 87
▁previously 87
▁punish 87
▁replied 87
▁ruler 87
▁silot 87
▁tambok 87
▁walked 87
during 86
hikap 86
lit 86
tupad 86
▁always 86
▁amazed 86
▁babalik 86
▁consume 86
▁dapita 86
▁dugay 86
▁eliminated 86
▁exile 86
▁gitawag 86
▁hills 86
▁mabubuhay 86
▁mobalik 86
▁nagpakita 86
▁nakadungog 86
▁naomi 86
▁nina 86
▁pagtuman 86
▁redeemed 86
▁revealed 86
▁reward 86
▁saad 86
▁sh 86
▁shepherds 86
▁sick 86
▁streets 86
▁sunod 86
▁use 86
araw 85
lot 85
man 85
mon 85
▁abomination 85
▁apostles 85
▁commit 85
▁curtain 85
▁herodes 85
▁kasinungalingan 85
▁knew 85
▁lum 85
▁napa 85
▁napulo 85
▁officers 85
▁pagkabihag 85
▁praises 85
▁propesiya 85
▁riches 85
▁stars 85
▁synagogue 85
▁tomb 85
alis 84
anupa 84
atiman 84
gikan 84
puyo 84
tin 84
▁abundance 84
▁bay 84
▁completely 84
▁dati 84
▁defile 84
▁hatagi 84
▁kadaot 84
▁kasuklamsuklam 84
▁kukunin 84
▁minamahal 84
▁napaka 84
▁object 84
▁persons 84
▁pinu 84
▁practice 84
▁provide 84
▁ran 84
▁repay 84
▁sisera 84
▁spend 84
▁sure 84
▁upward 84
▁weep 84
▁widow 84
he 83
kadungog 83
lim 83
pak 83
wad 83
▁alabok 83
▁aroma 83
▁behalf 83
▁boat 83
▁care 83
▁devour 83
▁donkeys 83
▁fariseo 83
▁hears 83
▁ipinangako 83
▁kailan 83
▁kanluran 83
▁lagi 83
▁luwason 83
▁makalilisang 83
▁makasasala 83
▁matuod 83
▁nais 83
▁nasuko 83
▁panag 83
▁per 83
▁performed 83
▁pino 83
▁scarlet 83
▁surround 83
▁taas 83
▁teeth 83
▁tents 83
▁tumakas 83
▁tumingin 83
▁uri 83
ibutang 82
though 82
▁basahon 82
▁binuhatan 82
▁clouds 82
▁dagko 82
▁forgiven 82
▁ibin 82
▁ikaduha 82
▁kalooban 82
▁kayutaan 82
▁means 82
▁pagigin 82
▁pagsimba 82
▁pamana 82
▁pantas 82
▁sako 82
▁sumpa 82
▁tin 82
▁umaga 82
▁wave 82
▁yahweh 82
ies 81
kigsulti 81
othing 81
ous 81
pag 81
sagot 81
uli 81
▁anoint 81
▁boy 81
▁damgo 81
▁flood 81
▁gamiton 81
▁giluwas 81
▁glad 81
▁guilty 81
▁hard 81
▁hezekiah 81
▁karne 81
▁kota 81
▁lihim 81
▁magma 81
▁mamamayan 81
▁mataas 81
▁messengers 81
▁milk 81
▁mipadayon 81
▁nagkalainlain 81
▁panig 81
▁purple 81
▁rachel 81
▁scroll 81
▁sumusunod 81
▁tore 81
▁tungkod 81
▁tyre 81
▁umaabot 81
ban 80
ik 80
kod 80
▁andam 80
▁apart 80
▁defect 80
▁departed 80
▁diyutay 80
▁eats 80
▁kaha 80
▁kerubin 80
▁luwasa 80
▁mabuhi 80
▁matapos 80
▁mokaon 80
▁molungtad 80
▁nakaka 80
▁nanirahan 80
▁ne 80
▁nile 80
▁pastol 80
▁rings 80
▁rivers 80
▁sela 80
▁suffer 80
himuot 79
uyon 79
ver 79
▁bethlehem 79
▁bind 79
▁clothing 79
▁comfort 79
▁consecrate 79
▁demons 79
▁dies 79
▁ding 79
▁euphrates 79
▁foreign 79
▁giba 79
▁inilabas 79
▁kaloob 79
▁kingdoms 79
▁listened 79
▁mahibalo 79
▁measured 79
▁mourn 79
▁nagbigay 79
▁naglakbay 79
▁pagkuha 79
▁pagtulon 79
▁pharaohs 79
▁pi 79
▁taggutom 79
▁violet 79
▁wept 79
▁witnesses 79
▁worthless 79
▁yield 79
gapos 78
palit 78
ron 78
tukod 78
unawa 78
▁alalahanin 78
▁area 78
▁asher 78
▁bad 78
▁baptized 78
▁basket 78
▁captured 78
▁crown 78
▁doo 78
▁hearing 78
▁ilalom 78
▁inigka 78
▁isigkatawo 78
▁kapistahan 78
▁karwahe 78
▁lalo 78
▁mabuhay 78
▁makabaton 78
▁nagbibigay 78
▁pick 78
▁prince 78
▁queen 78
▁satan 78
▁sodoma 78
▁tahanan 78
▁thorns 78
▁tiro 78
▁ulit 78
▁um 78
▁utensils 78
▁vengeance 78
▁wide 78
labas 77
pakita 77
▁asul 77
▁bakak 77
▁bakal 77
▁bulls 77
▁buried 77
▁consumed 77
▁doors 77
▁eskriba 77
▁higayon 77
▁hungry 77
▁iniwan 77
▁james 77
▁kilala 77
▁maghalad 77
▁makasalanan 77
▁nabubuhay 77
▁nagpabilin 77
▁paths 77
▁pinakama 77
▁pupunta 77
▁region 77
▁relatives 77
▁sinners 77
▁sir 77
▁spring 77
▁sworn 77
▁warriors 77
har 76
kas 76
sala 76
sin 76
sunog 76
tungha 76
v 76
▁barko 76
▁broke 76
▁buntag 76
▁cain 76
▁circumcised 76
▁form 76
▁former 76
▁held 76
▁herod 76
▁hid 76
▁ilawan 76
▁ipahayag 76
▁kaibigan 76
▁kapintasan 76
▁kasamok 76
▁kasugoan 76
▁meat 76
▁nanganak 76
▁natakot 76
▁pagkadaotan 76
▁pumarito 76
▁purpose 76
▁ray 76
▁satanas 76
▁sell 76
▁suddenly 76
▁susa 76
▁tinanggap 76
ingat 75
nan 75
sangpit 75
uan 75
▁aser 75
▁beast 75
▁blameless 75
▁close 75
▁exalt 75
▁gipangutana 75
▁gisulat 75
▁hinungdan 75
▁kapitan 75
▁mibalik 75
▁nabucodonosor 75
▁natatakot 75
▁pagdala 75
▁pamatia 75
▁pampaalsa 75
▁patubo 75
▁presented 75
▁remains 75
▁storm 75
▁thoughts 75
▁turns 75
ec 74
ene 74
lam 74
ment 74
nus 74
q 74
▁adultery 74
▁appear 74
▁bansang 74
▁bulahan 74
▁camels 74
▁canaanites 74
▁covering 74
▁daygon 74
▁deceit 74
▁decree 74
▁draw 74
▁due 74
▁endure 74
▁establish 74
▁hentil 74
▁horn 74
▁isaiah 74
▁isaias 74
▁isulat 74
▁kaluoy 74
▁maghari 74
▁merari 74
▁neighbors 74
▁oxen 74
▁paghatag 74
▁paraon 74
▁proceed 74
▁promise 74
▁release 74
▁santiago 74
▁sodom 74
▁sought 74
▁steps 74
▁summoned 74
▁terrified 74
bangon 73
dor 73
tutu 73
ud 73
unat 73
▁ahasuerus 73
▁amorihanon 73
▁approached 73
▁demonyo 73
▁fourteen 73
▁kapungot 73
▁kumakain 73
▁luwang 73
▁mahadlok 73
▁moanhi 73
▁nakasala 73
▁palm 73
▁panapton 73
▁sexual 73
▁tanom 73
▁veil 73
eo 72
kop 72
kukuha 72
putol 72
▁40 72
▁belongs 72
▁bukal 72
▁bulag 72
▁discipline 72
▁eating 72
▁else 72
▁ephod 72
▁fifth 72
▁forgotten 72
▁happen 72
▁huli 72
▁jeshua 72
▁kalisdanan 72
▁kinaumagahan 72
▁leprosy 72
▁maglingkod 72
▁naghari 72
▁net 72
▁olive 72
▁ourselves 72
▁pain 72
▁papasok 72
▁pleased 72
▁robe 72
▁rose 72
▁sara 72
▁seeing 72
▁shadow 72
▁slaughtered 72
▁waist 72
8 71
baligya 71
ena 71
unay 71
▁agad 71
▁bibigyan 71
▁bug 71
▁caught 71
▁dina 71
▁forest 71
▁foundation 71
▁gikinahanglan 71
▁inside 71
▁landas 71
▁line 71
▁memorial 71
▁misulti 71
▁news 71
▁ordered 71
▁paglubo 71
▁pagpakasala 71
▁press 71
▁promised 71
▁tainga 71
▁taking 71
▁tungo 71
▁uminom 71
▁yoke 71
arian 70
lala 70
tik 70
ugos 70
usa 70
way 70
▁assembled 70
▁bangkay 70
▁bihag 70
▁buluhaton 70
▁bungtod 70
▁carved 70
▁dato 70
▁detestable 70
▁edomea 70
▁fig 70
▁furthermore 70
▁gibeon 70
▁gigamit 70
▁gilapdon 70
▁gipanalanginan 70
▁gipu 70
▁governor 70
▁higaan 70
▁hurry 70
▁ihahandog 70
▁ikalima 70
▁kaban 70
▁kamag 70
▁kanino 70
▁lalabas 70
▁low 70
▁mans 70
▁mapalad 70
▁matuman 70
▁nasusulat 70
▁neftali 70
▁pagbalik 70
▁pagsuway 70
▁papa 70
▁salt 70
▁seat 70
▁tax 70
▁wild 70
▁yelo 70
▁zebulun 70
five 69
hanap 69
pahibalo 69
pahulay 69
tigil 69
▁count 69
▁foolishness 69
▁gina 69
▁hated 69
▁hukay 69
▁ilimnon 69
▁itinalaga 69
▁kahulugan 69
▁kailanman 69
▁kaunti 69
▁lampstand 69
▁lions 69
▁madugay 69
▁mark 69
▁message 69
▁months 69
▁nahulog 69
▁nako 69
▁pakpak 69
▁panaginip 69
▁piling 69
▁precious 69
▁quiet 69
▁recognize 69
▁sagbot 69
▁taught 69
gpadayon 68
los 68
▁aalisin 68
▁agianan 68
▁amoreo 68
▁approach 68
▁astray 68
▁balo 68
▁boast 68
▁cleansed 68
▁commander 68
▁empty 68
▁formed 68
▁gain 68
▁gihigugma 68
▁gika 68
▁gun 68
▁hilabihan 68
▁horse 68
▁interpretation 68
▁jehoiakim 68
▁kapuslanan 68
▁kindness 68
▁kinds 68
▁mandirigma 68
▁nananatili 68
▁nanatili 68
▁nebukadnezar 68
▁nevertheless 68
▁pagkinabuhi 68
▁pitumpu 68
▁pleasure 68
▁sakayan 68
▁speech 68
▁tabil 68
▁uhay 68
▁umakyat 68
alam 67
hap 67
him 67
ic 67
rote 67
uga 67
▁abo 67
▁ancient 67
▁binu 67
▁chambers 67
▁counted 67
▁damasco 67
▁ezra 67
▁fought 67
▁greet 67
▁hanggan 67
▁hebreo 67
▁ismael 67
▁kadesh 67
▁moved 67
▁nagtigom 67
▁naphtali 67
▁nilalang 67
▁offspring 67
▁paraan 67
▁pintuang 67
▁resurrection 67
▁sarah 67
▁share 67
▁simbahan 67
▁sow 67
▁thought 67
▁tigulang 67
▁tumanggap 67
kanya 66
kapunong 66
lapas 66
lipay 66
uutos 66
▁add 66
▁atabay 66
▁bukas 66
▁cherubim 66
▁execute 66
▁felipe 66
▁flowing 66
▁fools 66
▁fruitful 66
▁futility 66
▁gipakita 66
▁grant 66
▁hor 66
▁igo 66
▁iisa 66
▁ishmael 66
▁kasangkapan 66
▁likewise 66
▁lost 66
▁magpapa 66
▁maluwas 66
▁mananatili 66
▁masayr 66
▁mosulod 66
▁nahadlok 66
▁nganhi 66
▁oppressed 66
▁paggawa 66
▁pangako 66
▁pangkat 66
▁puthaw 66
▁puti 66
▁question 66
▁relations 66
▁sapa 66
▁spirits 66
▁tomorrow 66
▁trumpet 66
▁weary 66
duha 65
haw 65
onon 65
pili 65
puri 65
subo 65
supak 65
upa 65
▁aso 65
▁beauty 65
▁burol 65
▁choose 65
▁distance 65
▁fields 65
▁gipamatay 65
▁heal 65
▁hesbon 65
▁hina 65
▁ib 65
▁judged 65
▁kapahamakan 65
▁lit 65
▁lubha 65
▁makasabot 65
▁nagsimba 65
▁nakipag 65
▁nilag 65
▁pas 65
▁permanent 65
▁refuse 65
▁request 65
▁seized 65
▁shouting 65
▁stop 65
▁thunder 65
▁tumoy 65
▁walo 65
ahon 64
bok 64
had 64
iel 64
ip 64
sal 64
tago 64
tified 64
▁amo 64
▁apo 64
▁biyuda 64
▁bore 64
▁caldeo 64
▁captivity 64
▁damascus 64
▁ebanghelyo 64
▁exiles 64
▁halangdon 64
▁kalaliman 64
▁karangalan 64
▁karwahi 64
▁korah 64
▁learn 64
▁maghuhukom 64
▁manganak 64
▁pagluwas 64
▁pakigdait 64
▁pamatyon 64
▁perfect 64
▁provinces 64
▁room 64
▁settled 64
▁shed 64
▁sides 64
▁sira 64
▁stopped 64
▁surrounding 64
▁swallow 64
▁vineyards 64
▁wipe 64
▁worthy 64
▁yutaa 64
alay 63
hasik 63
ite 63
nta 63
pos 63
titi 63
▁adversaries 63
▁appoint 63
▁asawang 63
▁bars 63
▁bitter 63
▁caused 63
▁commanding 63
▁either 63
▁flow 63
▁gayunman 63
▁glorify 63
▁granted 63
▁hukmanan 63
▁increase 63
▁ipag 63
▁kabutihan 63
▁kadalanan 63
▁kaguol 63
▁kahibalo 63
▁kilid 63
▁later 63
▁magbibigay 63
▁majesty 63
▁nabuhat 63
▁nagsa 63
▁outer 63
▁patungan 63
▁pinaka 63
▁point 63
▁possessions 63
▁rebecca 63
▁ruth 63
▁scatter 63
▁spoils 63
▁stands 63
▁think 63
▁uncircumcised 63
▁virgin 63
angkon 62
bigat 62
gtindog 62
hahandog 62
lapit 62
nag 62
patawag 62
salin 62
ulat 62
▁acted 62
▁boaz 62
▁bodies 62
▁branch 62
▁cananeo 62
▁captain 62
▁conceived 62
▁contend 62
▁crossed 62
▁elias 62
▁heshbon 62
▁hum 62
▁igos 62
▁ilagay 62
▁instruction 62
▁itinaas 62
▁johanan 62
▁katunga 62
▁kulay 62
▁mohatag 62
▁nawong 62
▁pagdayeg 62
▁paglubad 62
▁pagpakig 62
▁panata 62
▁philip 62
▁piece 62
▁planted 62
▁pronounce 62
▁prove 62
▁repent 62
▁rescued 62
▁result 62
▁sackcloth 62
▁shield 62
▁statute 62
▁suga 62
▁sumama 62
▁towns 62
▁tremble 62
aram 61
arap 61
lalagay 61
matngon 61
punta 61
▁alaot 61
▁arrows 61
▁benefit 61
▁bili 61
▁crushed 61
▁dark 61
▁falls 61
▁gisuginlan 61
▁governors 61
▁hapag 61
▁haran 61
▁hired 61
▁ipadala 61
▁itinayo 61
▁kaguluhan 61
▁kaigsoonan 61
▁kalakasan 61
▁magsasalita 61
▁mangyari 61
▁married 61
▁naked 61
▁numerous 61
▁orders 61
▁pagsunod 61
▁pangkapayapaan 61
▁parasan 61
▁passes 61
▁pumaroon 61
▁redemption 61
▁royal 61
▁silo 61
▁spent 61
▁statement 61
▁sukaranan 61
▁sumumpa 61
▁swarm 61
▁wages 61
▁wakas 61
▁wear 61
balik 60
drew 60
ganap 60
hilom 60
ive 60
iw 60
taasan 60
uhod 60
wan 60
▁altars 60
▁apostoles 60
▁baga 60
▁betray 60
▁demon 60
▁dug 60
▁fast 60
▁hagar 60
▁halaga 60
▁kalungsoran 60
▁kanan 60
▁korona 60
▁leather 60
▁lightning 60
▁manatili 60
▁material 60
▁multiply 60
▁nasasakupan 60
▁pagkamatay 60
▁pagpapala 60
▁pasukan 60
▁pinaraan 60
▁practices 60
▁sail 60
▁seremonyas 60
▁shaken 60
▁shekem 60
▁silas 60
▁sits 60
▁tabon 60
▁takda 60
▁tears 60
▁tinanong 60
▁tulomanon 60
▁washed 60
▁wheat 60
▁wika 60
dak 59
kad 59
libo 59
liko 59
oth 59
pis 59
▁abel 59
▁bangis 59
▁bare 59
▁bisig 59
▁bloodshed 59
▁bond 59
▁buta 59
▁calling 59
▁damo 59
▁dawn 59
▁defeated 59
▁dungog 59
▁filisteo 59
▁follows 59
▁gaza 59
▁gisunog 59
▁hininga 59
▁iglesya 59
▁ililigtas 59
▁ingatan 59
▁issachar 59
▁karumaldumal 59
▁kasikbit 59
▁katungod 59
▁magalak 59
▁magsisi 59
▁masters 59
▁matahom 59
▁metal 59
▁mitindog 59
▁mouths 59
▁naghunahuna 59
▁nangamatay 59
▁paghi 59
▁rebuild 59
▁seize 59
▁shake 59
▁splendor 59
▁spot 59
▁taba 59
▁tagapamahala 59
▁tela 59
▁unod 59
▁worshiped 59
abli 58
ali 58
bad 58
sukol 58
tira 58
wasak 58
▁awake 58
▁awesome 58
▁awtoridad 58
▁capernaum 58
▁change 58
▁complete 58
▁curtains 58
▁designate 58
▁disciple 58
▁diserto 58
▁dragon 58
▁greatness 58
▁guwardiya 58
▁heap 58
▁hinigugma 58
▁kalisang 58
▁kasunod 58
▁kinaroroonan 58
▁kiss 58
▁laraw 58
▁mahanaw 58
▁mahiagom 58
▁makakaon 58
▁malalaki 58
▁manggagawa 58
▁motuman 58
▁ordinance 58
▁pagkama 58
▁pam 58
▁prayed 58
▁suot 58
▁titipunin 58
▁tugot 58
apil 57
buka 57
dangop 57
gawa 57
gtuman 57
hay 57
husay 57
sulo 57
▁arrived 57
▁asking 57
▁contrary 57
▁creatures 57
▁daily 57
▁despised 57
▁devoured 57
▁drunk 57
▁dughan 57
▁furnace 57
▁ganap 57
▁grapes 57
▁hail 57
▁heavy 57
▁height 57
▁herds 57
▁inherit 57
▁inila 57
▁kadaghan 57
▁kasaganaan 57
▁language 57
▁lea 57
▁listening 57
▁makadungog 57
▁malipayon 57
▁nahor 57
▁pasimula 57
▁path 57
▁preaching 57
▁public 57
▁receives 57
▁risen 57
▁sarai 57
▁saulo 57
▁shoulder 57
▁singsing 57
▁sumampalataya 57
▁sungkod 57
▁sweet 57
▁testimonies 57
▁tingali 57
▁tower 57
▁tudlo 57
barog 56
buhi 56
dasig 56
est 56
higugma 56
hiusa 56
iah 56
ihap 56
ilis 56
iran 56
j 56
lubong 56
panumpa 56
sugod 56
sukad 56
tabok 56
tol 56
unom 56
▁agila 56
▁alpa 56
▁arrogant 56
▁bernabe 56
▁bil 56
▁bilangguan 56
▁breasts 56
▁commits 56
▁completed 56
▁desires 56
▁direct 56
▁dried 56
▁fail 56
▁gatas 56
▁ginikanan 56
▁guide 56
▁isacar 56
▁jealousy 56
▁jefta 56
▁karumihan 56
▁kasakit 56
▁leeg 56
▁measure 56
▁mesiyas 56
▁motubag 56
▁naiwan 56
▁nobles 56
▁oppression 56
▁pai 56
▁parable 56
▁parurusahan 56
▁prosperity 56
▁province 56
▁reveal 56
▁sandata 56
▁sixth 56
▁siyudara 56
▁tablets 56
▁tamar 56
▁thousands 56
▁trumpets 56
▁tunog 56
▁uli 56
▁watching 56
4 55
ath 55
bayad 55
bulag 55
dali 55
harap 55
katagpo 55
▁abundant 55
▁bagyo 55
▁baha 55
▁balon 55
▁base 55
▁bigla 55
▁carrying 55
▁consecrated 55
▁council 55
▁divide 55
▁fierce 55
▁fruits 55
▁gidaghanon 55
▁guro 55
▁hala 55
▁hazor 55
▁herd 55
▁hinimo 55
▁ilhanan 55
▁integrity 55
▁isipon 55
▁jealous 55
▁jephthah 55
▁less 55
▁magandang 55
▁magsasabi 55
▁mardoqueo 55
▁migula 55
▁nanumpa 55
▁nawala 55
▁oppress 55
▁pinakinggan 55
▁plans 55
▁prey 55
▁reject 55
▁sinunog 55
▁sixty 55
▁straight 55
▁stumble 55
▁suhol 55
▁sumasampalataya 55
▁thanksgiving 55
▁unahan 55
▁vow 55
▁vows 55
ahi 54
ap 54
bunyag 54
daan 54
gpaabot 54
ibalik 54
nda 54
pagbiya 54
tawag 54
ulog 54
▁ananias 54
▁apostol 54
▁artaxerxes 54
▁bintana 54
▁boards 54
▁crucified 54
▁depths 54
▁dew 54
▁feared 54
▁grasya 54
▁inhabited 54
▁isalikway 54
▁isigka 54
▁katapusan 54
▁leah 54
▁lower 54
▁mabubuwal 54
▁magdadala 54
▁mahugaw 54
▁mosulti 54
▁negeb 54
▁owner 54
▁pagpapas 54
▁palace 54
▁pin 54
▁poles 54
▁pull 54
▁ruin 54
▁samakatuwid 54
▁strife 54
▁treasures 54
▁umupo 54
dumala 53
gubat 53
huro 53
labay 53
mali 53
papatay 53
rating 53
sugat 53
tumba 53
wala 53
▁acacia 53
▁ambush 53
▁ashes 53
▁ato 53
▁awa 53
▁best 53
▁calf 53
▁chains 53
▁double 53
▁drank 53
▁eden 53
▁eglon 53
▁filistihanon 53
▁finds 53
▁giandam 53
▁gibiyaan 53
▁ginamit 53
▁halip 53
▁healing 53
▁ibabalik 53
▁infection 53
▁jonas 53
▁kalag 53
▁kasal 53
▁lack 53
▁maninirahan 53
▁matanda 53
▁met 53
▁mituo 53
▁mizpah 53
▁nabuhay 53
▁nagawa 53
▁nagtungo 53
▁paras 53
▁pasayloon 53
▁pataas 53
▁payo 53
▁redeemer 53
▁run 53
▁sagana 53
▁samsam 53
▁scribe 53
▁search 53
▁sets 53
▁souls 53
▁square 53
▁surface 53
▁tabla 53
▁tagapag 53
▁trembling 53
▁unable 53
▁zacarias 53
af 52
alala 52
dugang 52
kaw 52
kin 52
minyo 52
pasidungog 52
suka 52
susi 52
▁assemble 52
▁barnabas 52
▁bayaran 52
▁bituin 52
▁certain 52
▁circumcision 52
▁deed 52
▁dugang 52
▁dumaan 52
▁ester 52
▁groom 52
▁guma 52
▁jew 52
▁justified 52
▁kainin 52
▁kataas 52
▁kohat 52
▁kopa 52
▁loaves 52
▁luha 52
▁makaon 52
▁makasulod 52
▁nagbarog 52
▁nangita 52
▁paghukom 52
▁pagkawasak 52
▁pulos 52
▁rebekah 52
▁rises 52
▁sabbaths 52
▁sagrado 52
▁savior 52
▁severe 52
▁sinugdan 52
▁springs 52
▁stir 52
▁strengthen 52
▁subject 52
▁tama 52
▁thirsty 52
▁tunga 52
▁usapin 52
▁visions 52
agi 51
bagsak 51
daog 51
ira 51
isang 51
luya 51
ram 51
sakit 51
saksi 51
tungas 51
▁dahon 51
▁dalunggan 51
▁deceitful 51
▁discharge 51
▁drinking 51
▁dumi 51
▁elijah 51
▁firmly 51
▁forefathers 51
▁further 51
▁gitudlo 51
▁glorious 51
▁goodness 51
▁hatol 51
▁ikaapat 51
▁ilaw 51
▁inalis 51
▁ipinagbili 51
▁kaagad 51
▁kababalaghan 51
▁karahasan 51
▁kiriath 51
▁mabango 51
▁magpadayon 51
▁magpaka 51
▁makasala 51
▁map 51
▁matindi 51
▁nararapat 51
▁negev 51
▁pagbuot 51
▁pagkamatarong 51
▁pako 51
▁perez 51
▁pisi 51
▁praying 51
▁profane 51
▁repairs 51
▁ropes 51
▁ruined 51
▁separate 51
▁ships 51
▁stretched 51
▁tagiliran 51
▁tanggapin 51
▁tiyan 51
▁treasure 51
▁wail 51
abang 50
bahin 50
bahinbahin 50
hulog 50
ingnon 50
itugot 50
layo 50
libot 50
limot 50
puli 50
sabi 50
tinud 50
tribe 50
ubos 50
ve 50
yaman 50
▁asia 50
▁balabal 50
▁bangka 50
▁baruc 50
▁bilanggo 50
▁cloak 50
▁continual 50
▁daigdig 50
▁depart 50
▁digmaan 50
▁finger 50
▁gawing 50
▁godly 50
▁hates 50
▁himpapawid 50
▁ho 50
▁jo 50
▁joined 50
▁kakilakilabot 50
▁kilo 50
▁lose 50
▁lunsay 50
▁mapapa 50
▁nagdadala 50
▁nagdilaab 50
▁naglaraw 50
▁nakakakita 50
▁nakikinig 50
▁napatay 50
▁nasayran 50
▁nilo 50
▁papuri 50
▁piraso 50
▁pleasant 50
▁proclaimed 50
▁protect 50
▁rejoicing 50
▁serpent 50
▁single 50
▁soil 50
▁support 50
▁threshing 50
▁try 50
▁twist 50
▁zechariah 50
api 49
aran 49
ata 49
ezer 49
hid 49
hiya 49
hubog 49
ib 49
ibigin 49
kuha 49
less 49
nalipod 49
ngahas 49
samba 49
tro 49
▁amalek 49
▁angkinin 49
▁aton 49
▁bitin 49
▁bright 49
▁building 49
▁calls 49
▁contribution 49
▁corners 49
▁despise 49
▁dread 49
▁fact 49
▁glorified 49
▁hahatulan 49
▁hebrew 49
▁hinginlan 49
▁horsemen 49
▁incline 49
▁interest 49
▁kagandahan 49
▁kahubaran 49
▁kalapasan 49
▁kaliwa 49
▁kuhaa 49
▁magagalak 49
▁makakain 49
▁mala 49
▁maulawan 49
▁nasora 49
▁ngipin 49
▁paagiha 49
▁pagpuyo 49
▁pakinabang 49
▁price 49
▁profaned 49
▁rahab 49
▁rebelled 49
▁seas 49
▁sedekias 49
▁sheba 49
▁streams 49
▁stumbling 49
▁talinghaga 49
▁thigh 49
▁tumalikod 49
▁utang 49
▁walking 49
▁warned 49
▁wheels 49
1 48
ambit 48
anong 48
arba 48
bahagi 48
buang 48
buksan 48
dagan 48
dayeg 48
gad 48
gpakitabang 48
lon 48
ngitngit 48
supil 48
wagtang 48
▁3 48
▁alin 48
▁alisin 48
▁ani 48
▁arms 48
▁believes 48
▁binata 48
▁bury 48
▁canaanhon 48
▁canaanite 48
▁crying 48
▁devil 48
▁gaano 48
▁guya 48
▁hukman 48
▁images 48
▁ipinahayag 48
▁kadaogan 48
▁kahibulongan 48
▁katingalahan 48
▁katulad 48
▁letter 48
▁maburol 48
▁mangita 48
▁notice 48
▁pagdating 48
▁pulot 48
▁sambayanan 48
▁ship 48
▁sinu 48
▁soldiers 48
▁start 48
▁stirred 48
▁sulti 48
▁tago 48
▁taste 48
▁tatsa 48
▁thick 48
▁tinguha 48
▁tumigil 48
▁tungatunga 48
▁tunglo 48
▁vain 48
▁visit 48
▁wanted 48
▁yaon 48
apat 47
daot 47
ence 47
eth 47
galing 47
gawas 47
hiuli 47
humot 47
lumpag 47
obon 47
pasagdan 47
pat 47
rove 47
tabang 47
tagal 47
ter 47
timbang 47
utang 47
was 47
▁aha 47
▁az 47
▁bakakon 47
▁beat 47
▁bowl 47
▁breastpiece 47
▁captive 47
▁cush 47
▁delay 47
▁devise 47
▁eufrates 47
▁flame 47
▁foundations 47
▁fully 47
▁hapon 47
▁heat 47
▁hurled 47
▁kaluwasan 47
▁lights 47
▁lumalabas 47
▁magtutuo 47
▁masakiton 47
▁masdan 47
▁matatagpuan 47
▁matu 47
▁nabilang 47
▁nagmando 47
▁nagtudlo 47
▁often 47
▁opening 47
▁orphan 47
▁pagta 47
▁pledge 47
▁sandalyas 47
▁siria 47
▁slain 47
▁sumamba 47
▁sumpain 47
▁uncover 47
▁waves 47
▁weak 47
▁ze 47
aalay 46
ara 46
atbang 46
don 46
fa 46
ghalad 46
init 46
kulang 46
lagyan 46
lansang 46
luoy 46
napopoot 46
nazaret 46
ngaon 46
siya 46
tuli 46
ukol 46
uma 46
▁20 46
▁agi 46
▁bali 46
▁baruch 46
▁blow 46
▁carefully 46
▁comp 46
▁confidence 46
▁declared 46
▁fifteen 46
▁gilibot 46
▁gip 46
▁gita 46
▁gitigom 46
▁grew 46
▁halamanan 46
▁inhabitant 46
▁ipahahayag 46
▁jonah 46
▁kaayohan 46
▁kadaotan 46
▁kahirapan 46
▁kamagulangan 46
▁katarong 46
▁lalapit 46
▁likod 46
▁loathe 46
▁looks 46
▁mababang 46
▁madawat 46
▁mahulog 46
▁milakaw 46
▁nagtukod 46
▁nahisulat 46
▁natawo 46
▁pagkakataon 46
▁paryenti 46
▁pillar 46
▁portions 46
▁precepts 46
▁roll 46
▁roof 46
▁salamangkero 46
▁saul 46
▁sayop 46
▁scripture 46
▁sebada 46
▁siquem 46
▁songs 46
▁spare 46
▁survivors 46
▁tanaman 46
▁trampled 46
▁treat 46
▁tuli 46
▁wasak 46
▁zeba 46
aani 45
ce 45
gluwas 45
hukom 45
iba 45
iingat 45
kigbatok 45
lisod 45
mata 45
res 45
sur 45
ur 45
▁abog 45
▁aroer 45
▁bina 45
▁bunton 45
▁centurion 45
▁chamber 45
▁charges 45
▁coastlands 45
▁companions 45
▁considered 45
▁covers 45
▁cubit 45
▁dario 45
▁darius 45
▁dawaton 45
▁descended 45
▁escaped 45
▁exceedingly 45
▁flag 45
▁fountain 45
▁fresh 45
▁gikasilagan 45
▁gil 45
▁grief 45
▁hamat 45
▁hamor 45
▁hinlo 45
▁inquire 45
▁katungdanan 45
▁kusgan 45
▁lamp 45
▁lamps 45
▁leaves 45
▁likuran 45
▁lumayo 45
▁mabubuti 45
▁madali 45
▁magtuman 45
▁makaluwas 45
▁maker 45
▁maki 45
▁malipay 45
▁masa 45
▁masu 45
▁masuko 45
▁minsan 45
▁misinggit 45
▁mopa 45
▁muog 45
▁nakasulat 45
▁nakinig 45
▁ninth 45
▁pagkabuntag 45
▁pahumot 45
▁papan 45
▁paskuwa 45
▁perished 45
▁pinapa 45
▁pity 45
▁princes 45
▁prinsipe 45
▁sand 45
▁sandali 45
▁sealed 45
▁shine 45
▁shouted 45
▁sown 45
▁sugat 45
▁sulong 45
▁swords 45
▁synagogues 45
▁tabok 45
▁tukor 45
▁wander 45
▁weight 45
▁zedekias 45
ahan 44
akyat 44
amb 44
ana 44
ity 44
kastigo 44
lakad 44
laysay 44
lukat 44
pahamtang 44
sil 44
tuod 44
▁across 44
▁advice 44
▁ahikam 44
▁animnapu 44
▁bathe 44
▁bituon 44
▁bride 44
▁bum 44
▁cease 44
▁changed 44
▁cleanse 44
▁continue 44
▁daraan 44
▁dibon 44
▁dis 44
▁dispute 44
▁ended 44
▁floor 44
▁fulfill 44
▁gisimba 44
▁hooks 44
▁horror 44
▁ibaba 44
▁inanyuan 44
▁itinakuwil 44
▁itinata 44
▁kahatulan 44
▁kapalaluan 44
▁kindled 44
▁kuta 44
▁lalagyan 44
▁lama 44
▁lovers 44
▁lumaban 44
▁maaga 44
▁manirahan 44
▁march 44
▁matalino 44
▁mayaman 44
▁meal 44
▁miracles 44
▁nagbu 44
▁naghihintay 44
▁nagkuha 44
▁nagtan 44
▁nakakaalam 44
▁naroroon 44
▁native 44
▁offenses 44
▁pagsaylo 44
▁pagtrabaho 44
▁pala 44
▁passing 44
▁resting 44
▁roar 44
▁seal 44
▁seeks 44
▁separated 44
▁setting 44
▁st 44
▁tabangi 44
▁tinu 44
▁tug 44
▁tumu 44
▁understood 44
▁widows 44
▁yungib 44
agig 43
bak 43
bilin 43
dako 43
gahin 43
haba 43
hikaw 43
itim 43
led 43
luto 43
mar 43
oven 43
salo 43
sangyaw 43
saysay 43
tuwa 43
ube 43
wat 43
▁ago 43
▁ahaz 43
▁assessment 43
▁aware 43
▁bitag 43
▁burden 43
▁chooses 43
▁commanders 43
▁con 43
▁courage 43
▁efa 43
▁fortunes 43
▁gipahimutang 43
▁girl 43
▁green 43
▁halimaw 43
▁hermon 43
▁iinom 43
▁indignation 43
▁issued 43
▁kapahingahan 43
▁kapalit 43
▁karamihan 43
▁karapat 43
▁magagawa 43
▁mangutana 43
▁merchandise 43
▁mipauli 43
▁murder 43
▁nabati 43
▁nagtayo 43
▁nagtitiwala 43
▁pagkagamhanan 43
▁pagkakasala 43
▁paglipay 43
▁pakikipaglaban 43
▁pamilya 43
▁panuigon 43
▁pinto 43
▁play 43
▁plot 43
▁puma 43
▁refused 43
▁revolt 43
▁serving 43
▁siege 43
▁spit 43
▁talk 43
▁tanikala 43
▁trap 43
▁tutuparin 43
▁umiyak 43
▁uncovered 43
bal 42
balhin 42
daghan 42
dakop 42
gpasalamat 42
gula 42
lugod 42
ought 42
pagawas 42
subay 42
sukod 42
tatag 42
tigom 42
unsa 42
▁allot 42
▁baboy 42
▁bantayan 42
▁barak 42
▁barley 42
▁betel 42
▁budhi 42
▁buhis 42
▁bungbong 42
▁buwis 42
▁chose 42
▁dahilan 42
▁dalisay 42
▁dihadiha 42
▁doves 42
▁eber 42
▁eighth 42
▁ekron 42
▁falsely 42
▁gagmay 42
▁galamiton 42
▁gantimpala 42
▁garbo 42
▁gedaliah 42
▁gershon 42
▁gisilotan 42
▁gitugot 42
▁goshen 42
▁hezekias 42
▁humingi 42
▁humu 42
▁inihanda 42
▁invited 42
▁josiah 42
▁kalit 42
▁kamahalan 42
▁lanaw 42
▁lilim 42
▁lin 42
▁mahaba 42
▁mapahi 42
▁matatakot 42
▁minahal 42
▁nakarinig 42
▁namang 42
▁namangha 42
▁nebo 42
▁obeyed 42
▁official 42
▁pagsilot 42
▁pinulongan 42
▁pleases 42
▁prophesied 42
▁provok 42
▁puy 42
▁rayna 42
▁ring 42
▁rush 42
▁searched 42
▁sorrow 42
▁stretch 42
▁stronghold 42
▁subdue 42
▁tatayo 42
▁thief 42
▁tinuli 42
▁tiwasay 42
▁treacherously 42
▁tumawag 42
▁ugat 42
▁zerubbabel 42
50 41
9 41
angin 41
baha 41
baton 41
bitay 41
ced 41
did 41
ero 41
higda 41
himo 41
hirap 41
hoy 41
hulat 41
ir 41
kasunod 41
linis 41
matuod 41
mit 41
mpi 41
pagaling 41
pal 41
pon 41
pula 41
ry 41
silag 41
sisi 41
tahan 41
tugot 41
tungo 41
ubuhos 41
uha 41
ula 41
ulipon 41
ulod 41
undo 41
▁accepted 41
▁anguish 41
▁balang 41
▁bani 41
▁beer 41
▁biyai 41
▁breaking 41
▁bumagsak 41
▁business 41
▁contempt 41
▁dibdib 41
▁dominion 41
▁eight 41
▁etiopia 41
▁gihangyo 41
▁hanan 41
▁hinahanap 41
▁hinaluan 41
▁hot 41
▁hubo 41
▁init 41
▁itinakda 41
▁join 41
▁kapighatian 41
▁layunin 41
▁lazy 41
▁leaving 41
▁levite 41
▁lots 41
▁lumalapit 41
▁lumu 41
▁mabigat 41
▁magbigay 41
▁magnanakaw 41
▁malulu 41
▁mapait 41
▁moment 41
▁mopatay 41
▁move 41
▁nagbangotan 41
▁nagkaanak 41
▁nakarating 41
▁namati 41
▁pagsu 41
▁pama 41
▁pananalita 41
▁patya 41
▁preach 41
▁securely 41
▁steal 41
▁testified 41
▁tinipon 41
▁trample 41
▁tupad 41
▁uhaw 41
▁umiibig 41
▁virgins 41
andam 40
atang 40
bula 40
dalangin 40
ganti 40
hanaw 40
hayag 40
higot 40
hisgot 40
igo 40
kighilawas 40
laban 40
ligaw 40
log 40
lukso 40
nsang 40
padala 40
samok 40
saway 40
sod 40
suguin 40
tinguha 40
▁abiram 40
▁allotment 40
▁amorite 40
▁arabah 40
▁batid 40
▁belt 40
▁ben 40
▁biyenan 40
▁bukog 40
▁clear 40
▁crush 40
▁custom 40
▁daliri 40
▁deceive 40
▁deny 40
▁efod 40
▁extend 40
▁faint 40
▁firm 40
▁galing 40
▁gedalias 40
▁halo 40
▁heights 40
▁isangyaw 40
▁josias 40
▁kadugo 40
▁kagabhion 40
▁kalapati 40
▁kuwarta 40
▁learned 40
▁locusts 40
▁magkaka 40
▁magkakasama 40
▁malalim 40
▁malaya 40
▁males 40
▁mamunga 40
▁mangkok 40
▁mapag 40
▁mapuno 40
▁matataas 40
▁mina 40
▁miriam 40
▁mopuyo 40
▁naglakaw 40
▁nangangailangan 40
▁occurred 40
▁pagkaka 40
▁pagliligtas 40
▁pinabayaan 40
▁pleasing 40
▁prostitution 40
▁reap 40
▁rejoiced 40
▁sambingay 40
▁satisfy 40
▁sem 40
▁shattered 40
▁snare 40
▁tawagin 40
▁tigumon 40
▁treated 40
▁tumakbo 40
▁tumatawag 40
▁tutubusin 40
▁tuwi 40
▁voices 40
▁windows 40
aawit 39
agaw 39
agos 39
ataki 39
galang 39
hihiga 39
inggit 39
kagawa 39
kaharap 39
kit 39
kurog 39
ngandoy 39
pakuha 39
panaw 39
pangaral 39
peor 39
pigil 39
tahod 39
takip 39
tenth 39
tingala 39
tultol 39
uhos 39
utin 39
walan 39
▁accomplish 39
▁anymore 39
▁ascended 39
▁asin 39
▁asleep 39
▁big 39
▁bumili 39
▁caesar 39
▁carmel 39
▁co 39
▁daing 39
▁dalangpanan 39
▁den 39
▁destroyer 39
▁dreams 39
▁duma 39
▁dumaing 39
▁enters 39
▁examine 39
▁exchange 39
▁foreigners 39
▁hita 39
▁hubad 39
▁hurried 39
▁husbands 39
▁ikaupat 39
▁ikawalo 39
▁im 39
▁instruct 39
▁itutur 39
▁jewish 39
▁kagawasan 39
▁kapanahunan 39
▁katigayonan 39
▁knees 39
▁kupa 39
▁lamisa 39
▁lumitaw 39
▁maghukom 39
▁mahal 39
▁mahibilin 39
▁maliit 39
▁mini 39
▁mogula 39
▁nakilala 39
▁nakuha 39
▁napapa 39
▁og 39
▁pabango 39
▁pagtabang 39
▁pagtahod 39
▁pagtan 39
▁pagtubos 39
▁panabot 39
▁pasanin 39
▁pinagpala 39
▁plow 39
▁prisoners 39
▁purify 39
▁released 39
▁sapot 39
▁sinagot 39
▁skill 39
▁street 39
▁sukat 39
▁sumasa 39
▁talking 39
▁tema 39
▁terah 39
▁thinking 39
▁tiilan 39
▁vessels 39
▁violent 39
▁warrior 39
▁zebulon 39
14 38
alab 38
barnea 38
bato 38
baw 38
buhos 38
galak 38
hamak 38
hawak 38
hod 38
iyahan 38
ksi 38
labo 38
laki 38
lalakad 38
mula 38
ol 38
ped 38
pugas 38
purong 38
saad 38
salikway 38
tahimik 38
tugyan 38
tutok 38
ugan 38
urong 38
▁adar 38
▁ahas 38
▁batis 38
▁board 38
▁buhian 38
▁bukton 38
▁cedar 38
▁common 38
▁conduct 38
▁crawl 38
▁deserted 38
▁difficult 38
▁dispossess 38
▁eagle 38
▁extreme 38
▁figs 38
▁forehead 38
▁fury 38
▁gabhiona 38
▁habog 38
▁hananiah 38
▁impurity 38
▁increased 38
▁jubilee 38
▁kanlungan 38
▁lazaro 38
▁mabangis 38
▁maglilingkod 38
▁mam 38
▁mando 38
▁messenger 38
▁mihapa 38
▁multiplied 38
▁nagagalak 38
▁nakiki 38
▁nakikilala 38
▁nalaman 38
▁offense 38
▁pagsulod 38
▁panalipdan 38
▁pasan 38
▁pasidunggan 38
▁plain 38
▁planned 38
▁pulutong 38
▁pumapasok 38
▁putli 38
▁revive 38
▁reyna 38
▁sanggol 38
▁sapat 38
▁scepter 38
▁sharp 38
▁shekel 38
▁sidro 38
▁singers 38
▁split 38
▁tabangan 38
▁tambo 38
▁tata 38
▁taunt 38
▁tirahan 38
▁treacherous 38
▁tumahimik 38
▁tumatanggap 38
▁upahan 38
▁voluntar 38
▁waited 38
▁workers 38
▁z 38
amoy 37
baho 37
balaan 37
bilanggo 37
gpapahayag 37
ham 37
ice 37
ipahamtang 37
iyak 37
luk 37
ngalan 37
pakasama 37
palabunutan 37
panganak 37
pansin 37
pasok 37
patingog 37
seba 37
sulayan 37
sumpa 37
tao 37
titira 37
upper 37
▁actual 37
▁affliction 37
▁arose 37
▁arrogance 37
▁bakahan 37
▁balakang 37
▁basin 37
▁boil 37
▁bought 37
▁boundary 37
▁burial 37
▁chariot 37
▁condemn 37
▁cyrus 37
▁decide 37
▁determined 37
▁diwa 37
▁ebed 37
▁expanse 37
▁expect 37
▁extended 37
▁gog 37
▁grounds 37
▁gud 37
▁hardened 37
▁humiwalay 37
▁iiwan 37
▁ikina 37
▁informed 37
▁jazer 37
▁kahangalan 37
▁kalasag 37
▁kasaligan 37
▁katahom 37
▁kawad 37
▁labot 37
▁locust 37
▁makakakita 37
▁makatabang 37
▁matagpuan 37
▁micah 37
▁mopauli 37
▁nadawat 37
▁nagalit 37
▁nagpili 37
▁nagsalig 37
▁nest 37
▁pagbantay 37
▁pagkara 37
▁pagpapalain 37
▁pagtukod 37
▁past 37
▁pinagaling 37
▁plenty 37
▁pumatay 37
▁rebuilt 37
▁salampati 37
▁samyo 37
▁scriptures 37
▁secretly 37
▁sha 37
▁sisidlan 37
▁siyam 37
▁spy 37
▁tatawagin 37
▁toriyo 37
▁ulila 37
▁uncleanness 37
▁valleys 37
▁vessel 37
▁wish 37
▁worker 37
▁younger 37
▁zerubabel 37
▁zin 37
3 36
abog 36
ahom 36
ai 36
bautismo 36
bon 36
bulay 36
bunga 36
bus 36
busog 36
butan 36
dungga 36
hari 36
hol 36
hos 36
hugasan 36
inyo 36
iping 36
kanulo 36
kaylap 36
labhan 36
lasing 36
liwanag 36
lugsong 36
malik 36
talikod 36
tipunin 36
upu 36
▁4 36
▁50 36
▁aalis 36
▁aawit 36
▁adtoa 36
▁ah 36
▁alaala 36
▁amonihanon 36
▁atop 36
▁balahibo 36
▁band 36
▁baptism 36
▁binasbasan 36
▁cedars 36
▁conceal 36
▁creature 36
▁eskina 36
▁ezequias 36
▁giayo 36
▁gilubong 36
▁hanapin 36
▁heir 36
▁higugmaa 36
▁hudno 36
▁humiliated 36
▁igera 36
▁iingatan 36
▁inihagis 36
▁ipinatawa 36
▁isinulat 36
▁isipan 36
▁jacobs 36
▁kabang 36
▁kadagatan 36
▁kalagayan 36
▁kir 36
▁kulon 36
▁lambat 36
▁litro 36
▁magkuha 36
▁maluwalhati 36
▁marry 36
▁marunong 36
▁matibay 36
▁mikuha 36
▁milingkod 36
▁muna 36
▁nabalitaan 36
▁naglibot 36
▁naglilingkod 36
▁nagsimula 36
▁nailog 36
▁namamatay 36
▁namauli 36
▁overtake 36
▁padad 36
▁pagkabata 36
▁pagkabuhay 36
▁pagkapari 36
▁paglalakbay 36
▁pagpalain 36
▁pangita 36
▁pasagdi 36
▁patatawarin 36
▁perfume 36
▁preached 36
▁prevail 36
▁pronouncement 36
▁proper 36
▁provoke 36
▁running 36
▁samad 36
▁sandals 36
▁sedro 36
▁short 36
▁signet 36
▁silingan 36
▁star 36
▁store 36
▁sulok 36
▁susunod 36
▁talents 36
▁tangi 36
▁timna 36
▁totoo 36
▁troubled 36
▁winds 36
bata 35
bili 35
ble 35
bot 35
bug 35
ch 35
dani 35
gpapatotoo 35
ihanon 35
katulog 35
kil 35
lupad 35
mana 35
nakaila 35
nas 35
pakiusap 35
pangasawa 35
silaob 35
takpan 35
tanom 35
tod 35
uwi 35
▁amos 35
▁ascend 35
▁astonished 35
▁babangon 35
▁balikat 35
▁bangon 35
▁bilanggoan 35
▁binaba 35
▁bitterness 35
▁brook 35
▁cave 35
▁cling 35
▁confess 35
▁countrymen 35
▁dinggin 35
▁divorce 35
▁dulon 35
▁dum 35
▁eliab 35
▁feel 35
▁felix 35
▁frightened 35
▁ganti 35
▁gathering 35
▁gidaugdaog 35
▁gigutom 35
▁giilog 35
▁groan 35
▁gulong 35
▁harim 35
▁haughty 35
▁hazar 35
▁hinabi 35
▁hinawakan 35
▁hittite 35
▁honored 35
▁ikasiyam 35
▁insight 35
▁itatayo 35
▁iyan 35
▁jackals 35
▁kabaybayonan 35
▁kagulangon 35
▁kahiladman 35
▁karaan 35
▁katarongan 35
▁kedar 35
▁ketong 35
▁kinain 35
▁kohath 35
▁kupo 35
▁kutob 35
▁lilipulin 35
▁lobe 35
▁lyre 35
▁magsulti 35
▁magtagad 35
▁maliligtas 35
▁mamre 35
▁mamumuno 35
▁matagal 35
▁mil 35
▁misery 35
▁naghimagsik 35
▁nagp 35
▁nagtipon 35
▁natapos 35
▁paghihiganti 35
▁paghihirap 35
▁pagkagabii 35
▁pains 35
▁pregnant 35
▁produced 35
▁proud 35
▁real 35
▁repentance 35
▁reside 35
▁respect 35
▁restrain 35
▁roo 35
▁shallum 35
▁shave 35
▁shemaiah 35
▁shiloh 35
▁sinner 35
▁stream 35
▁sukod 35
▁sumbong 35
▁timbangan 35
▁tinub 35
▁town 35
▁umawit 35
▁uz 35
▁winasak 35
abol 34
aliw 34
ant 34
ard 34
banalan 34
dilim 34
guba 34
ihan 34
ilabot 34
iling 34
kahugaw 34
lis 34
lista 34
lubog 34
mod 34
nggula 34
pagod 34
pantubos 34
pasigarbo 34
salop 34
sangko 34
sulat 34
tar 34
uswag 34
walay 34
ygon 34
▁30 34
▁acquire 34
▁antioquia 34
▁bake 34
▁beneath 34
▁beware 34
▁binuksan 34
▁biyaan 34
▁booths 34
▁bugtong 34
▁captives 34
▁capture 34
▁ciro 34
▁clay 34
▁coals 34
▁comforted 34
▁dinadala 34
▁divination 34
▁drop 34
▁dwells 34
▁entering 34
▁fac 34
▁gidayeg 34
▁gin 34
▁gitudloan 34
▁halaman 34
▁horeb 34
▁immorality 34
▁inay 34
▁insult 34
▁joppa 34
▁joyfully 34
▁kabanal 34
▁kalaglagan 34
▁kinabukasan 34
▁kombira 34
▁lag 34
▁mabalitaan 34
▁mabuntog 34
▁makighilawas 34
▁manoa 34
▁manoah 34
▁mapaghimagsik 34
▁measur 34
▁mesopotamia 34
▁nagmama 34
▁nagpatirapa 34
▁nahibulong 34
▁nakala 34
▁nanalangin 34
▁obsc 34
▁obtain 34
▁padulong 34
▁panaw 34
▁papakinggan 34
▁powerful 34
▁sariwa 34
▁self 34
▁singgit 34
▁sisidlang 34
▁smooth 34
▁snow 34
▁summer 34
▁tam 34
▁tatawaging 34
▁thirst 34
▁trusted 34
▁tubod 34
▁usok 34
▁village 34
▁wage 34
▁wawasakin 34
▁weapons 34
▁withered 34
▁wounded 34
▁wrapp 34
aapi 33
agulo 33
asan 33
asiria 33
babilonia 33
dai 33
ern 33
for 33
ghahanap 33
his 33
isan 33
lisang 33
muk 33
ndi 33
ngilin 33
ph 33
puti 33
sakay 33
sako 33
sakyan 33
the 33
tingin 33
tuktok 33
tungan 33
▁abihu 33
▁alarm 33
▁alila 33
▁animnaraan 33
▁anino 33
▁antioch 33
▁apatnaraan 33
▁argulya 33
▁balhibo 33
▁banquet 33
▁bribe 33
▁buksan 33
▁clothe 33
▁corner 33
▁corrupt 33
▁dalawandaan 33
▁delana 33
▁direction 33
▁drawn 33
▁entrails 33
▁evildoers 33
▁forces 33
▁gipaka 33
▁gisugilon 33
▁gitakda 33
▁granada 33
▁hang 33
▁hezron 33
▁hil 33
▁hinihiling 33
▁ibaligya 33
▁ikapulo 33
▁iningatan 33
▁isinugo 33
▁jebusite 33
▁kahimanan 33
▁kataw 33
▁kinapopootan 33
▁kusang 33
▁langub 33
▁least 33
▁letters 33
▁maasias 33
▁madala 33
▁malinawon 33
▁mangangabayo 33
▁manluluwas 33
▁mapapala 33
▁marriage 33
▁masupilon 33
▁mention 33
▁midagan 33
▁minds 33
▁misali 33
▁molampos 33
▁mosimba 33
▁nagdumili 33
▁nagkabayo 33
▁nagmula 33
▁nagpaka 33
▁nagun 33
▁nagwali 33
▁nahimutangan 33
▁nakaplagan 33
▁namely 33
▁nights 33
▁paanan 33
▁pagbangotan 33
▁paglakaw 33
▁pagpalit 33
▁pagtitipon 33
▁palibhasa 33
▁pamatok 33
▁pamigkis 33
▁panaad 33
▁parents 33
▁pista 33
▁pitch 33
▁potter 33
▁prisoner 33
▁profit 33
▁quarrel 33
▁relative 33
▁remote 33
▁require 33
▁shade 33
▁sinakop 33
▁subay 33
▁sumisigaw 33
▁tabunok 33
▁talim 33
▁tambag 33
▁tarshish 33
▁tinago 33
▁tinik 33
▁torment 33
▁tulisan 33
▁youngest 33
age 32
anay 32
bed 32
bitik 32
himut 32
hitabo 32
ipanganak 32
ish 32
itambo 32
iyahon 32
kasabot 32
kiusap 32
latas 32
luib 32
nhi 32
nig 32
pabilin 32
tanggap 32
tapat 32
tawid 32
upo 32
usik 32
watak 32
▁ada 32
▁added 32
▁advance 32
▁alamin 32
▁aral 32
▁articles 32
▁assuredly 32
▁bald 32
▁bayad 32
▁begin 32
▁below 32
▁beor 32
▁boas 32
▁bowls 32
▁bulaklak 32
▁cesarea 32
▁cheerful 32
▁churches 32
▁collect 32
▁confront 32
▁court 32
▁crossing 32
▁custody 32
▁deaf 32
▁deceived 32
▁dedan 32
▁dismayed 32
▁forgiveness 32
▁ga 32
▁gahi 32
▁gidakop 32
▁gilid 32
▁gitamb 32
▁giyawaan 32
▁gladness 32
▁hades 32
▁hinanap 32
▁hinirang 32
▁hinumdoman 32
▁ibinaba 32
▁ilong 32
▁kahimtang 32
▁kakayahan 32
▁kalungkutan 32
▁karamdaman 32
▁katubigan 32
▁kinsmen 32
▁lalamunin 32
▁legs 32
▁ligid 32
▁likeness 32
▁maaseiah 32
▁mababa 32
▁magmalipayon 32
▁maingat 32
▁makapal 32
▁makuha 32
▁manag 32
▁managsama 32
▁manna 32
▁mapapahiya 32
▁matawo 32
▁meditate 32
▁misamo 32
▁mosali 32
▁mud 32
▁nagbisti 32
▁nahibalo 32
▁nakatira 32
▁naluk 32
▁namumu 32
▁naririnig 32
▁ngipon 32
▁overflow 32
▁pagnanasa 32
▁pagpamati 32
▁pagpangita 32
▁pagsulong 32
▁pagtangis 32
▁palaka 32
▁palalo 32
▁pandaraya 32
▁pangasaw 32
▁partiality 32
▁parusa 32
▁performing 32
▁perseverance 32
▁pigs 32
▁pinalayas 32
▁pipiliin 32
▁pool 32
▁porch 32
▁prevailed 32
▁priesthood 32
▁proclaiming 32
▁punoan 32
▁puohon 32
▁pupuksain 32
▁restored 32
▁sakdal 32
▁salawayon 32
▁shatter 32
▁shelter 32
▁silbi 32
▁slow 32
▁soothsayer 32
▁strengthened 32
▁sugoa 32
▁tabang 32
▁udyong 32
▁vari 32
▁view 32
▁zabulon 32
▁zoar 32
ash 31
buta 31
gdumot 31
gpahinga 31
haharap 31
hit 31
horon 31
hugawhugaw 31
ibubo 31
ihanda 31
ikas 31
ilibing 31
ilitaw 31
ilog 31
kla 31
laid 31
latter 31
lito 31
ninguha 31
paalam 31
pasabot 31
patalinghog 31
sagana 31
silot 31
sund 31
tagbo 31
tigas 31
turuan 31
two 31
ulit 31
▁acceptable 31
▁acquired 31
▁article 31
▁asong 31
▁balangay 31
▁baybayin 31
▁bumababa 31
▁caesarea 31
▁chase 31
▁collectors 31
▁countryman 31
▁courtyards 31
▁crucify 31
▁dawata 31
▁deborah 31
▁defense 31
▁descend 31
▁dip 31
▁edrei 31
▁emperador 31
▁exten 31
▁foreigner 31
▁forsaken 31
▁fragran 31
▁gibilanggo 31
▁gitabon 31
▁grieved 31
▁hamak 31
▁hanging 31
▁hostility 31
▁humanity 31
▁humihi 31
▁ihaha 31
▁ikalabing 31
▁ikanapulo 31
▁ingay 31
▁iniisip 31
▁instructed 31
▁inu 31
▁itataas 31
▁jar 31
▁jonathan 31
▁kabalaka 31
▁kabalayan 31
▁kaninuman 31
▁karapatan 31
▁katungkulan 31
▁kawatan 31
▁kidneys 31
▁kumalat 31
▁limp 31
▁lo 31
▁loss 31
▁lumili 31
▁maharlika 31
▁mahinlo 31
▁makainom 31
▁makapugong 31
▁makasulti 31
▁makipag 31
▁mawawalan 31
▁moagi 31
▁moinom 31
▁mortal 31
▁nagniningas 31
▁nagpatuloy 31
▁nakikipag 31
▁nanginginig 31
▁naninggit 31
▁napulog 31
▁nauna 31
▁nazareth 31
▁nilapastangan 31
▁nineveh 31
▁paglaglag 31
▁pagpili 31
▁pagsalig 31
▁pagsunog 31
▁parables 31
▁permit 31
▁perverse 31
▁prayers 31
▁r 31
▁resides 31
▁restitution 31
▁scales 31
▁sickness 31
▁smash 31
▁sour 31
▁statue 31
▁strange 31
▁sundin 31
▁tagda 31
▁tatanggapin 31
▁thirteen 31
▁timawa 31
▁tindog 31
▁tinubos 31
▁total 31
▁totoong 31
▁troops 31
▁tunic 31
▁twilight 31
▁urg 31
▁watches 31
▁working 31
▁zadok 31
▁zera 31
bakos 30
ef 30
hinginlan 30
hipos 30
iisa 30
ipo 30
jair 30
jearim 30
kalimtan 30
kasalo 30
kaulaw 30
kilala 30
lagot 30
lalaki 30
libak 30
lok 30
lupig 30
luwalhati 30
media 30
palayo 30
panuigon 30
parito 30
saylo 30
suko 30
tabon 30
timan 30
uyog 30
▁alike 30
▁beersheba 30
▁binilanggo 30
▁block 30
▁bodyguard 30
▁butangi 30
▁cakes 30
▁chaff 30
▁cherub 30
▁closed 30
▁condition 30
▁demand 30
▁distan 30
▁dung 30
▁eleven 30
▁enjoy 30
▁explain 30
▁flies 30
▁geba 30
▁gimahal 30
▁gipangayo 30
▁grave 30
▁grown 30
▁gub 30
▁handa 30
▁happy 30
▁harp 30
▁hawak 30
▁hayag 30
▁heifer 30
▁helper 30
▁hinamak 30
▁holiness 30
▁hunger 30
▁ilabas 30
▁ilubong 30
▁intend 30
▁inter 30
▁ipinadala 30
▁iro 30
▁kagaya 30
▁kasin 30
▁kasiyahan 30
▁kaunawaan 30
▁kilat 30
▁liog 30
▁maglalaba 30
▁magtatambag 30
▁makahatag 30
▁malaglag 30
▁maniningil 30
▁marah 30
▁maysala 30
▁measurements 30
▁mira 30
▁mystery 30
▁nagtuturo 30
▁natutulog 30
▁obligation 30
▁office 30
▁overcome 30
▁persecute 30
▁puspos 30
▁rehob 30
▁respond 30
▁season 30
▁settle 30
▁straw 30
▁stubborn 30
▁tabor 30
▁tagapagligtas 30
▁tapyas 30
▁tatanggap 30
▁terrors 30
▁tie 30
▁tinakpan 30
▁tombs 30
▁tongues 30
▁treasury 30
▁turban 30
▁unfaithful 30
▁unintentionally 30
▁warm 30
▁wonderful 30
▁wool 30
anam 29
angkin 29
growers 29
hahayag 29
hanga 29
ibang 29
ingilin 29
kakalat 29
lalayo 29
lantad 29
liligaw 29
mingaw 29
panalipod 29
red 29
servant 29
sindak 29
siyasat 29
sta 29
sugilon 29
takda 29
tam 29
ubkob 29
uel 29
wiwisik 29
▁acknowledge 29
▁alahas 29
▁aloud 29
▁amram 29
▁bakol 29
▁beg 29
▁black 29
▁concubine 29
▁confirm 29
▁cr 29
▁diri 29
▁diseases 29
▁dishonor 29
▁drinks 29
▁egyptian 29
▁eliakim 29
▁eunuko 29
▁fullness 29
▁gamay 29
▁gera 29
▁gibea 29
▁gidawat 29
▁gloom 29
▁gomorrah 29
▁group 29
▁gumising 29
▁hakbang 29
▁helmet 29
▁highest 29
▁hinagiban 29
▁hitihanon 29
▁hoof 29
▁huminto 29
▁humipo 29
▁hypocrites 29
▁iddo 29
▁ihawon 29
▁ikakasal 29
▁inflict 29
▁ipinat 29
▁itina 29
▁jesse 29
▁kagamitan 29
▁kamatay 29
▁kasamahan 29
▁kasubo 29
▁kaulawan 29
▁kiryat 29
▁latas 29
▁laws 29
▁lazarus 29
▁lilinisin 29
▁lipulin 29
▁load 29
▁luyo 29
▁maghinulsol 29
▁magsabi 29
▁mah 29
▁mainit 29
▁makiki 29
▁maliliit 29
▁mangayo 29
▁mean 29
▁mediteraneo 29
▁melt 29
▁midianhon 29
▁minasa 29
▁mubo 29
▁munti 29
▁naghilak 29
▁nagkaka 29
▁nahisama 29
▁naninirahang 29
▁naupo 29
▁noise 29
▁olives 29
▁ordain 29
▁overlay 29
▁pagkaalaot 29
▁pagsasalita 29
▁pagtudlo 29
▁panagway 29
▁panali 29
▁pangunahin 29
▁pierced 29
▁pipi 29
▁plains 29
▁plants 29
▁porches 29
▁prostitutes 29
▁pupurihin 29
▁purchased 29
▁rabbi 29
▁repeatedly 29
▁rocks 29
▁salubungin 29
▁sampinit 29
▁sinukat 29
▁sinungaling 29
▁sleeps 29
▁sprout 29
▁successful 29
▁tail 29
▁terrify 29
▁trade 29
▁tribute 29
▁tubal 29
▁tumangis 29
▁unos 29
▁unpunished 29
▁unwilling 29
▁valiant 29
▁zeal 29
30 28
aasawa 28
agianan 28
alas 28
amo 28
apas 28
bibili 28
buno 28
dili 28
dungog 28
habol 28
hadlok 28
hiling 28
ier 28
ingnan 28
ituro 28
kalipay 28
lapastangan 28
mangha 28
ngandam 28
padulong 28
pakalakas 28
panalangin 28
paratang 28
pila 28
pipi 28
putli 28
reklamo 28
susunog 28
tabonan 28
tatawag 28
tunglo 28
x 28
zur 28
▁22 28
▁70 28
▁acasia 28
▁accomplished 28
▁ana 28
▁approaching 28
▁arrest 28
▁attitude 28
▁banga 28
▁bati 28
▁baye 28
▁biktima 28
▁bililhon 28
▁blemish 28
▁borders 28
▁breast 28
▁bulak 28
▁burst 28
▁counsel 28
▁course 28
▁credited 28
▁curses 28
▁desired 28
▁diligently 28
▁dogs 28
▁dove 28
▁dugos 28
▁dut 28
▁entrusted 28
▁espiya 28
▁exact 28
▁felt 28
▁flower 28
▁ganyan 28
▁gigukod 28
▁gikahimu 28
▁gipanag 28
▁groaning 28
▁grumble 28
▁gumagapang 28
▁gumaling 28
▁gumi 28
▁hahanapin 28
▁halika 28
▁hamath 28
▁hammer 28
▁hamog 28
▁hat 28
▁hebrews 28
▁hilak 28
▁hurno 28
▁ibinilang 28
▁ikaanim 28
▁iniibig 28
▁inilibing 28
▁inscription 28
▁ititiwalag 28
▁jabin 28
▁kabanalan 28
▁kadakilaan 28
▁kagamhanan 28
▁kalaban 28
▁kastigohon 28
▁katiwala 28
▁lachish 28
▁lacking 28
▁limbongan 28
▁loose 28
▁magawa 28
▁magsoon 28
▁makapatay 28
▁makikinig 28
▁malalakas 28
▁manalangin 28
▁masabi 28
▁mawala 28
▁meshullam 28
▁minister 28
▁nagbaligya 28
▁nagkinabuhi 28
▁naglihi 28
▁nagmamadali 28
▁nagpahayag 28
▁nagsunod 28
▁nahibaloan 28
▁nakit 28
▁nanana 28
▁nangahadlok 28
▁nanggaling 28
▁nanghihina 28
▁nanglakaw 28
▁napakalaki 28
▁naparito 28
▁nets 28
▁opens 28
▁outrageous 28
▁pabalik 28
▁pagdali 28
▁pagdawat 28
▁pagkatakot 28
▁pagpakiggubat 28
▁pagpakitabang 28
▁pagtutuli 28
▁pakig 28
▁palma 28
▁panalipod 28
▁pangandam 28
▁panukala 28
▁paralyzed 28
▁pasayloa 28
▁pasidaan 28
▁pikas 28
▁praised 28
▁prophesying 28
▁proportion 28
▁proverb 28
▁rebel 28
▁rehum 28
▁resident 28
▁roads 28
▁roaring 28
▁row 28
▁sacrificed 28
▁sanballat 28
▁seem 28
▁simbaha 28
▁sinapupunan 28
▁sisirain 28
▁site 28
▁skillful 28
▁snares 28
▁sole 28
▁spreading 28
▁striv 28
▁succoth 28
▁sucot 28
▁survivor 28
▁swept 28
▁tanggulan 28
▁tawgon 28
▁tested 28
▁tithe 28
▁tobias 28
▁tread 28
▁tribulation 28
▁tried 28
▁tulungan 28
▁tumawid 28
▁umiinom 28
▁umuwi 28
▁wound 28
▁wounds 28
▁yayongan 28
▁zerah 28
ako 27
ally 27
anim 27
banal 27
basin 27
bilang 27
by 27
dagdag 27
dal 27
drach 27
gbabalak 27
gid 27
gpasipala 27
hagupit 27
hapon 27
hinaot 27
hulihan 27
human 27
kagiw 27
lalapastangan 27
lalom 27
ligid 27
mabdos 27
mapaubsanon 27
naog 27
nat 27
ne 27
pahiagom 27
paran 27
patawad 27
shach 27
sila 27
tical 27
tugtog 27
ulahi 27
yam 27
▁aalalahanin 27
▁advantage 27
▁alon 27
▁argue 27
▁armed 27
▁assault 27
▁assign 27
▁avenger 27
▁balumbon 27
▁bank 27
▁bantogan 27
▁baptist 27
▁beaten 27
▁bent 27
▁binuang 27
▁bondage 27
▁bush 27
▁cades 27
▁caus 27
▁cesar 27
▁colt 27
▁commission 27
▁compare 27
▁condemned 27
▁crooked 27
▁dami 27
▁deception 27
▁deeply 27
▁dig 27
▁dish 27
▁earthquake 27
▁eastward 27
▁elim 27
▁equal 27
▁everywhere 27
▁festo 27
▁festus 27
▁flatter 27
▁frankincense 27
▁girls 27
▁gisangyaw 27
▁gisul 27
▁gitu 27
▁greeks 27
▁halikayo 27
▁harden 27
▁higugmaon 27
▁humbled 27
▁hunt 27
▁ilalabas 27
▁ilo 27
▁inihandog 27
▁iwan 27
▁jezreel 27
▁kadena 27
▁kahalayan 27
▁kahumot 27
▁kalagitnaan 27
▁kapurihan 27
▁kasayahan 27
▁kilometro 27
▁labored 27
▁labors 27
▁leap 27
▁lend 27
▁mabanhaw 27
▁magaganda 27
▁magkasama 27
▁magpasalamat 27
▁maluoy 27
▁mamaayo 27
▁manumpa 27
▁mausab 27
▁merchants 27
▁mipaingon 27
▁mizpa 27
▁murderer 27
▁nabuwal 27
▁nahimutang 27
▁nakapatay 27
▁nakasakay 27
▁nananalangin 27
▁nilamon 27
▁obtained 27
▁omer 27
▁pagwali 27
▁pait 27
▁pakikipag 27
▁pakit 27
▁palalayasin 27
▁pampang 27
▁patag 27
▁persuaded 27
▁pilo 27
▁pleading 27
▁plundered 27
▁pot 27
▁pundasyon 27
▁ransom 27
▁reed 27
▁responsibility 27
▁retribution 27
▁reuel 27
▁ride 27
▁rising 27
▁romanhon 27
▁safety 27
▁salmon 27
▁scale 27
▁sentimetros 27
▁sinira 27
▁slavery 27
▁solemn 27
▁stomach 27
▁sumainyo 27
▁tahimik 27
▁taming 27
▁tawhanon 27
▁threshold 27
▁tithes 27
▁tobiah 27
▁turtledove 27
▁ulay 27
▁urge 27
▁weighed 27
▁writing 27
aalis 26
aayuno 26
abugon 26
bautismuhan 26
dagayday 26
duaw 26
dulot 26
gbugalbugal 26
ge 26
hampas 26
handed 26
hingpit 26
hubad 26
ikit 26
ilayo 26
ipanumpa 26
kanila 26
me 26
ngaliyupo 26
oban 26
one 26
out 26
pagula 26
pakilala 26
palayas 26
paliwanag 26
patindog 26
pok 26
pukaw 26
pundok 26
ros 26
sakdal 26
sampu 26
sikat 26
some 26
ster 26
stretched 26
tudlo 26
uhin 26
utan 26
va 26
▁adtoan 26
▁akasya 26
▁amon 26
▁announce 26
▁babala 26
▁balsam 26
▁baskets 26
▁beating 26
▁behavior 26
▁beings 26
▁bela 26
▁belly 26
▁binasa 26
▁binihag 26
▁carrie 26
▁complaint 26
▁conceive 26
▁copy 26
▁countries 26
▁darkened 26
▁dawag 26
▁delivered 26
▁destin 26
▁eagerly 26
▁efeso 26
▁elizabeth 26
▁excellent 26
▁exposed 26
▁falsehood 26
▁fasting 26
▁feasts 26
▁gathers 26
▁gihunahuna 26
▁gipakaulawan 26
▁gipanalipdan 26
▁gisulong 26
▁gnash 26
▁godless 26
▁grasp 26
▁greatest 26
▁griyego 26
▁hatred 26
▁heteo 26
▁higdaanan 26
▁ibabagsak 26
▁ibinalita 26
▁idol 26
▁ikabubuti 26
▁ikasulti 26
▁ikinubli 26
▁ipinahahayag 26
▁ipinangangaral 26
▁iuli 26
▁kaitaasan 26
▁kalig 26
▁kamalig 26
▁kinaiya 26
▁late 26
▁lawa 26
▁leaf 26
▁machir 26
▁maghando 26
▁magsimba 26
▁mahalaga 26
▁mahalo 26
▁mahina 26
▁mainam 26
▁maintain 26
▁makapana 26
▁malchijah 26
▁maligo 26
▁manunubos 26
▁marta 26
▁martha 26
▁masaya 26
▁maysakit 26
▁mikaba 26
▁ministers 26
▁misimba 26
▁mosulong 26
▁myrrh 26
▁naalala 26
▁naghandog 26
▁nagtata 26
▁nanagan 26
▁nasulat 26
▁nilikha 26
▁nurs 26
▁oppressor 26
▁oreb 26
▁outcry 26
▁paghahari 26
▁paghatol 26
▁pagpakighilawas 26
▁pagsabot 26
▁pamalo 26
▁panggubatan 26
▁paninibugho 26
▁phinehas 26
▁plagues 26
▁plano 26
▁possible 26
▁post 26
▁poverty 26
▁reply 26
▁saligan 26
▁sanctif 26
▁satraps 26
▁secure 26
▁seems 26
▁seol 26
▁shackles 26
▁shela 26
▁shelah 26
▁sibat 26
▁sigaw 26
▁sp 26
▁sumu 26
▁sunogonon 26
▁sustain 26
▁talked 26
▁tatak 26
▁tubagon 26
▁tumi 26
▁tunglohon 26
▁twice 26
▁useless 26
▁vines 26
▁vowed 26
▁wedding 26
▁wither 26
▁withers 26
aral 25
baylo 25
bayran 25
bibilang 25
cia 25
ebe 25
edad 25
ent 25
giging 25
gubot 25
hagit 25
hangad 25
hinog 25
hugas 25
ihaw 25
indi 25
kabilang 25
kagutom 25
kaling 25
karaniwan 25
lalim 25
lantay 25
lid 25
lipat 25
lungag 25
masa 25
mim 25
nadab 25
nap 25
nego 25
ningkamot 25
nti 25
ors 25
pahawa 25
pahulam 25
pakanaog 25
pasaylo 25
sangkap 25
sara 25
sari 25
sulay 25
suroy 25
tawo 25
tintal 25
tud 25
uhusan 25
▁9 25
▁alert 25
▁arrested 25
▁attendants 25
▁awaaw 25
▁ayohon 25
▁banhawon 25
▁belonging 25
▁bigkis 25
▁bone 25
▁bubungan 25
▁buk 25
▁center 25
▁citadel 25
▁cleansing 25
▁dag 25
▁dapig 25
▁debir 25
▁delightful 25
▁denie 25
▁different 25
▁dim 25
▁display 25
▁divisions 25
▁dressed 25
▁dumami 25
▁el 25
▁eliashib 25
▁eliezer 25
▁elon 25
▁esdras 25
▁failed 25
▁finish 25
▁flute 25
▁force 25
▁gantihan 25
▁gigisi 25
▁gipangita 25
▁gitug 25
▁hananias 25
▁hell 25
▁helped 25
▁helpless 25
▁hivite 25
▁hurl 25
▁ibilin 25
▁igagawa 25
▁ikin 25
▁ilhon 25
▁includ 25
▁increasing 25
▁inilalagay 25
▁isin 25
▁itamar 25
▁itinapon 25
▁jael 25
▁jetro 25
▁kahadloki 25
▁kawang 25
▁kidlat 25
▁kora 25
▁lagda 25
▁landong 25
▁lasang 25
▁laugh 25
▁libu 25
▁loft 25
▁log 25
▁luklukan 25
▁luna 25
▁mabu 25
▁magbantay 25
▁magpakita 25
▁magtatagumpay 25
▁mahibalik 25
▁makakaplag 25
▁makatu 25
▁makilala 25
▁mandaraya 25
▁manumbalik 25
▁mawalan 25
▁mere 25
▁meriba 25
▁mispa 25
▁misulong 25
▁motubo 25
▁nagkumpuni 25
▁naglabas 25
▁nangulo 25
▁nazirite 25
▁necessary 25
▁nethaniah 25
▁ngil 25
▁opportunity 25
▁overthrow 25
▁pagdiriwang 25
▁paghuhukom 25
▁pagkaalipin 25
▁pagpapa 25
▁pagpasok 25
▁pagsulay 25
▁pagtigom 25
▁pagtitiis 25
▁pakan 25
▁palaces 25
▁panagtigom 25
▁pangayoon 25
▁paningkamot 25
▁pasipa 25
▁patalinghogi 25
▁period 25
▁persecuted 25
▁personal 25
▁pilay 25
▁pinagputul 25
▁pomegranates 25
▁provided 25
▁rama 25
▁record 25
▁rescues 25
▁robes 25
▁sadducees 25
▁sanctified 25
▁shinar 25
▁sinaway 25
▁siyasatin 25
▁sleeping 25
▁snatch 25
▁staying 25
▁stick 25
▁stoned 25
▁stripped 25
▁sud 25
▁summon 25
▁susundin 25
▁tables 25
▁tagapagmana 25
▁tagapayo 25
▁taksil 25
▁talento 25
▁tarsis 25
▁tatakas 25
▁testifies 25
▁thoroughly 25
▁thrones 25
▁tigpanalipod 25
▁towers 25
▁tumulo 25
▁twelfth 25
▁uproar 25
▁vegetation 25
▁weeds 25
▁worked 25
aaron 24
alsa 24
anting 24
coming 24
dalugdog 24
daro 24
eel 24
garboso 24
ghago 24
guol 24
halad 24
hihip 24
itsa 24
kaila 24
kikipagtalo 24
kom 24
kub 24
lakay 24
laylay 24
lihok 24
lipod 24
lungkot 24
macedonia 24
naw 24
oops 24
polis 24
putulin 24
rs 24
sangpot 24
sid 24
special 24
tently 24
uhan 24
ukit 24
upok 24
urim 24
▁25 24
▁accus 24
▁afar 24
▁appalled 24
▁arka 24
▁azariah 24
▁baybayon 24
▁bears 24
▁binalot 24
▁binili 24
▁blaz 24
▁ble 24
▁blossoms 24
▁chiefs 24
▁cold 24
▁companion 24
▁confined 24
▁confusion 24
▁consult 24
▁cords 24
▁cows 24
▁cruel 24
▁cultivate 24
▁dayami 24
▁destroying 24
▁devastation 24
▁devot 24
▁disperse 24
▁dough 24
▁ebal 24
▁endured 24
▁er 24
▁eunuchs 24
▁fever 24
▁fingers 24
▁fold 24
▁fortress 24
▁future 24
▁gamot 24
▁gatekeepers 24
▁gawan 24
▁gibayaw 24
▁gibubo 24
▁gihisgotan 24
▁giikan 24
▁gimandoan 24
▁gipasaylo 24
▁giuhaw 24
▁herodias 24
▁hilo 24
▁hinayaan 24
▁hiyas 24
▁inadlaw 24
▁infidelity 24
▁inform 24
▁intent 24
▁inutusan 24
▁ipaalam 24
▁ipadayag 24
▁itayo 24
▁itinatag 24
▁itinu 24
▁joas 24
▁kabanay 24
▁kahanga 24
▁kalimti 24
▁kapalaran 24
▁kaparasan 24
▁kareah 24
▁katilingban 24
▁kindly 24
▁labihan 24
▁labis 24
▁laborious 24
▁lean 24
▁leaven 24
▁lubid 24
▁lungsora 24
▁luz 24
▁maawa 24
▁macedonia 24
▁magagalit 24
▁maglipay 24
▁mahigpit 24
▁mahinumdom 24
▁mamumu 24
▁mangingibig 24
▁manugang 24
▁mapatay 24
▁mawawasak 24
▁mesa 24
▁miagi 24
▁misaka 24
▁mislead 24
▁mouban 24
▁nagbantay 24
▁nagh 24
▁nagkakasala 24
▁nagnanais 24
▁nagpasimula 24
▁nagtitipon 24
▁nalulugod 24
▁nangunguna 24
▁natulog 24
▁nawawala 24
▁nebu 24
▁nilipol 24
▁nine 24
▁oak 24
▁obstinate 24
▁padayon 24
▁paggamit 24
▁pagkab 24
▁paglingkuran 24
▁pagmando 24
▁pahayag 24
▁palaso 24
▁pangpang 24
▁pasanan 24
▁pasibsibanan 24
▁patience 24
▁peleg 24
▁pilion 24
▁pinun 24
▁position 24
▁proclamation 24
▁prosper 24
▁provisions 24
▁pumu 24
▁ramah 24
▁reclining 24
▁reu 24
▁rezin 24
▁sagutin 24
▁sangla 24
▁security 24
▁sentence 24
▁shem 24
▁shilo 24
▁sibsibanan 24
▁simbahon 24
▁sinaktan 24
▁sinulat 24
▁sinunod 24
▁smashed 24
▁spices 24
▁spies 24
▁stubbornness 24
▁sunoga 24
▁tahor 24
▁talaga 24
▁tamp 24
▁tapol 24
▁tima 24
▁timoteo 24
▁tinalikuran 24
▁tini 24
▁tired 24
▁tisa 24
▁tuhod 24
▁violated 24
▁warning 24
▁watawat 24
▁wickedly 24
▁worn 24
11 23
abtan 23
agtatayo 23
aias 23
akit 23
babalik 23
cy 23
ehold 23
emuel 23
ently 23
esh 23
gabi 23
gged 23
ginhawa 23
hait 23
haling 23
huhuli 23
ibigay 23
ibot 23
ikap 23
jamin 23
kaliwat 23
kubli 23
labotan 23
lambo 23
lapad 23
luwa 23
magpakailanpaman 23
mahala 23
men 23
moab 23
nindot 23
nuka 23
old 23
padpad 23
pagsalita 23
pahirap 23
pangomusta 23
papauli 23
pasakop 23
pasalamat 23
pasan 23
pasukin 23
poot 23
samsam 23
sibog 23
siguro 23
sumbong 23
takos 23
tibay 23
tubos 23
tunaw 23
tuparin 23
tutubos 23
ubo 23
▁ab 23
▁adam 23
▁addition 23
▁admonish 23
▁ahi 23
▁andres 23
▁andrew 23
▁appears 23
▁araba 23
▁aram 23
▁badlongon 23
▁balod 23
▁bands 23
▁batoon 23
▁ber 23
▁binibi 23
▁blessings 23
▁broad 23
▁buotan 23
▁busog 23
▁chew 23
▁cistern 23
▁closely 23
▁commands 23
▁company 23
▁cord 23
▁correspond 23
▁courageous 23
▁creation 23
▁daong 23
▁delights 23
▁denario 23
▁distressed 23
▁diyablo 23
▁dumuduong 23
▁dungis 23
▁ease 23
▁ephesus 23
▁epod 23
▁farther 23
▁fighting 23
▁flam 23
▁gamaliel 23
▁gazelle 23
▁gikaon 23
▁greek 23
▁hanged 23
▁het 23
▁hiwaga 23
▁ibababa 23
▁increases 23
▁inquired 23
▁intoxicat 23
▁ipapat 23
▁ipapatay 23
▁ipatawag 23
▁isul 23
▁ithamar 23
▁jebuseo 23
▁jebusihanon 23
▁jefone 23
▁kabulaanan 23
▁kadasig 23
▁kahadlokan 23
▁kakaunti 23
▁kalan 23
▁kalisod 23
▁kapaitan 23
▁kuno 23
▁languages 23
▁lud 23
▁lumusong 23
▁maangkon 23
▁magbangotan 23
▁magdalena 23
▁magdalene 23
▁magpaki 23
▁mahimayaon 23
▁makaikyas 23
▁makapito 23
▁makaplagan 23
▁makatulo 23
▁maliwanag 23
▁managan 23
▁mangasawa 23
▁manslaughter 23
▁ministry 23
▁mitabang 23
▁mitubo 23
▁mock 23
▁nagalak 23
▁naghahandog 23
▁nagkatibulaag 23
▁nagsu 23
▁nakatakas 23
▁namuyo 23
▁natuyo 23
▁naunawaan 23
▁nazarene 23
▁neglect 23
▁noble 23
▁nose 23
▁observe 23
▁pababa 23
▁paglilinis 23
▁pamamahala 23
▁panaksan 23
▁pasalamat 23
▁pashhur 23
▁patibulaagon 23
▁patyo 23
▁pawa 23
▁pektoral 23
▁pile 23
▁pinahiran 23
▁possessed 23
▁pukot 23
▁receiv 23
▁refined 23
▁rejoices 23
▁repaired 23
▁rid 23
▁riding 23
▁roma 23
▁ruthless 23
▁saanman 23
▁sack 23
▁scorched 23
▁sense 23
▁senturion 23
▁silence 23
▁slander 23
▁subukin 23
▁succeed 23
▁sukdanan 23
▁suppo 23
▁susih 23
▁sweep 23
▁tinunglo 23
▁tinuyo 23
▁trabaho 23
▁translated 23
▁ugangan 23
▁upuan 23
▁valid 23
▁vomit 23
▁weeks 23
▁withheld 23
▁withhold 23
▁yugo 23
▁zebedee 23
13 22
2; 22
500 22
aim 22
alik 22
aries 22
asingkasing 22
con 22
dulu 22
dunot 22
eph 22
hinumdoman 22
hunahuna 22
ibuk 22
iiwan 22
ikunsa 22
ilalom 22
israelita 22
kalimot 22
ke 22
kip 22
lakas 22
mahagi 22
nah 22
nt 22
pasipala 22
pasulti 22
possessed 22
pugong 22
sakmit 22
sap 22
sasauli 22
suriin 22
tagna 22
tambong 22
tanda 22
tindig 22
udurog 22
utusan 22
zarad 22
▁2 22
▁abib 22
▁abundantly 22
▁agripa 22
▁ahira 22
▁amihanang 22
▁ashdod 22
▁asupre 22
▁awitan 22
▁axe 22
▁azarias 22
▁backs 22
▁bagama 22
▁bahina 22
▁barabbas 22
▁beard 22
▁bebai 22
▁betania 22
▁betlehem 22
▁binali 22
▁bows 22
▁brimstone 22
▁buhangin 22
▁bunso 22
▁canals 22
▁che 22
▁committing 22
▁compassionate 22
▁concealed 22
▁control 22
▁correct 22
▁counselors 22
▁craftsmen 22
▁decay 22
▁decision 22
▁dedicat 22
▁differ 22
▁discover 22
▁distinguish 22
▁divine 22
▁diviners 22
▁drip 22
▁duhaduha 22
▁eighteen 22
▁eleventh 22
▁eliasib 22
▁eliphaz 22
▁encourage 22
▁encouraged 22
▁ensina 22
▁evidence 22
▁exist 22
▁faced 22
▁finding 22
▁fragrance 22
▁frighten 22
▁frogs 22
▁gamita 22
▁gibanhaw 22
▁gibiaybiay 22
▁gihabugon 22
▁gipasipa 22
▁gray 22
▁gyod 22
▁handomanan 22
▁heber 22
▁hut 22
▁ilabay 22
▁inaakala 22
▁invite 22
▁ipu 22
▁itinataas 22
▁itinutur 22
▁jahaz 22
▁jephunneh 22
▁jerubbaal 22
▁joakim 22
▁jubilant 22
▁juniper 22
▁kaawaan 22
▁kabilin 22
▁kainit 22
▁kaisog 22
▁kakahoyan 22
▁kamalian 22
▁kaparusahan 22
▁katatakutan 22
▁kaugalian 22
▁kawit 22
▁kum 22
▁lacks 22
▁le 22
▁liban 22
▁libnah 22
▁libro 22
▁liver 22
▁lumaki 22
▁lumpagon 22
▁lumpo 22
▁mabilis 22
▁magkagayon 22
▁magkasala 22
▁maipa 22
▁majestic 22
▁makapasok 22
▁makikipag 22
▁makir 22
▁makit 22
▁malisang 22
▁malupit 22
▁manghod 22
▁mapahiya 22
▁masunog 22
▁matatag 22
▁matinumanon 22
▁maunsa 22
▁milabay 22
▁naandan 22
▁nagbabantay 22
▁nagdamgo 22
▁naglala 22
▁nakamatay 22
▁namiya 22
▁nauunawaan 22
▁ninibe 22
▁overseer 22
▁ow 22
▁pagkabati 22
▁pagkatawo 22
▁pagmaya 22
▁pair 22
▁pakaulawan 22
▁pakikidigma 22
▁pastures 22
▁payapa 22
▁pinasi 22
▁presensya 22
▁prudent 22
▁purification 22
▁refresh 22
▁remainder 22
▁returns 22
▁rods 22
▁roman 22
▁shealtiel 22
▁shoulders 22
▁siloti 22
▁slept 22
▁space 22
▁spared 22
▁spi 22
▁strip 22
▁stumbled 22
▁suffering 22
▁susumpa 22
▁taglay 22
▁task 22
▁tempted 22
▁thin 22
▁thorn 22
▁thread 22
▁timothy 22
▁traders 22
▁triumph 22
▁tubaga 22
▁tudloan 22
▁tumata 22
▁turo 22
▁umaagos 22
▁uncle 22
▁understands 22
▁unit 22
▁unrighteousness 22
▁usbon 22
▁violently 22
▁wailing 22
▁warn 22
▁wasakin 22
▁watchmen 22
▁week 22
▁welcome 22
▁wing 22
▁winter 22
▁wrap 22
▁yamog 22
▁zalmunna 22
▁zebul 22
adlaw 21
agkinabuhi 21
ated 21
bakyaw 21
be 21
bisa 21
ct 21
daragdag 21
dugmok 21
gilalas 21
glutos 21
hand 21
hikayat 21
hubas 21
imo 21
ingnanay 21
ipagbili 21
kabati 21
kuyaw 21
lawin 21
mamasdan 21
nais 21
ningning 21
num 21
ozadak 21
paghiganti 21
papuy 21
rusahan 21
safan 21
sasagawa 21
scent 21
sugo 21
suhol 21
susuot 21
tabi 21
tahi 21
tangtang 21
tulin 21
ty 21
ukot 21
uuma 21
vo 21
wali 21
▁abednego 21
▁abi 21
▁abroad 21
▁accompani 21
▁accuser 21
▁adversity 21
▁agrippa 21
▁agtang 21
▁ahasuero 21
▁alituntunin 21
▁ariel 21
▁babaliin 21
▁banyaga 21
▁biga 21
▁bitterly 21
▁blows 21
▁bumabangon 21
▁butas 21
▁calm 21
▁camps 21
▁carcass 21
▁carmi 21
▁catch 21
▁ceased 21
▁confirmed 21
▁cud 21
▁customs 21
▁dar 21
▁dare 21
▁deprive 21
▁despi 21
▁dinungisan 21
▁dishon 21
▁disobedient 21
▁drag 21
▁duty 21
▁dwellings 21
▁exhausted 21
▁fashion 21
▁fearing 21
▁fears 21
▁festival 21
▁fitting 21
▁flashing 21
▁generous 21
▁giabo 21
▁gikahadlokan 21
▁gipahamtang 21
▁greetings 21
▁grows 21
▁hal 21
▁hanay 21
▁hatulan 21
▁heirs 21
▁heth 21
▁homes 21
▁hostil 21
▁humahatol 21
▁humility 21
▁igdidihog 21
▁ihawa 21
▁ill 21
▁instruments 21
▁interpret 21
▁ipabuhat 21
▁ipinagkaloob 21
▁ipinako 21
▁iscariot 21
▁iscariote 21
▁isinasa 21
▁itlog 21
▁iuu 21
▁iyaha 21
▁jethro 21
▁jewelry 21
▁joash 21
▁kabuntagon 21
▁kadaghanan 21
▁kantidad 21
▁karit 21
▁katuyoan 21
▁kukaluoy 21
▁kumilos 21
▁lagsaw 21
▁langitnon 21
▁laray 21
▁linibo 21
▁lowland 21
▁lunhaw 21
▁mabunga 21
▁magamit 21
▁magpadala 21
▁magtipon 21
▁mahalalel 21
▁mahinungdanon 21
▁mailog 21
▁makadiyot 21
▁makakat 21
▁makalingkawas 21
▁makaraan 21
▁malala 21
▁manok 21
▁matigas 21
▁matutuwid 21
▁midali 21
▁midangop 21
▁midnight 21
▁mikaon 21
▁miqueas 21
▁nabali 21
▁nagbalik 21
▁nagbati 21
▁nagkinahanglan 21
▁nagpapasalamat 21
▁nagsisigaw 21
▁nagtrabaho 21
▁naive 21
▁nalisang 21
▁namumuno 21
▁nanganga 21
▁napukan 21
▁nature 21
▁needs 21
▁nurse 21
▁obed 21
▁obedient 21
▁observed 21
▁ordination 21
▁oven 21
▁overpower 21
▁owl 21
▁paghigugma 21
▁pagkutya 21
▁pagmamahal 21
▁pagpakita 21
▁panalipdi 21
▁pananglit 21
▁pangutan 21
▁panihapon 21
▁panukat 21
▁pasalamatan 21
▁paubani 21
▁perceive 21
▁perizzite 21
▁plaster 21
▁pumili 21
▁purim 21
▁pursuing 21
▁recline 21
▁refaim 21
▁renew 21
▁rephaim 21
▁required 21
▁roast 21
▁safely 21
▁saklolo 21
▁saktan 21
▁sanctifie 21
▁sang 21
▁sanglit 21
▁schemes 21
▁semana 21
▁shaul 21
▁sinasadya 21
▁skins 21
▁slip 21
▁spear 21
▁spears 21
▁state 21
▁stupid 21
▁sumakay 21
▁sumasamba 21
▁swift 21
▁tagoanan 21
▁takal 21
▁tall 21
▁taluktok 21
▁tatakpan 21
▁tauhan 21
▁terms 21
▁tigpak 21
▁tops 21
▁tumira 21
▁tumubo 21
▁tunics 21
▁umaasa 21
▁ut 21
▁value 21
▁waits 21
▁watchman 21
▁wealthy 21
▁weaver 21
▁westward 21
▁wheel 21
17 20
abis 20
agbabayad 20
ahit 20
amuno 20
apod 20
arabia 20
ate 20
balot 20
bil 20
bubo 20
bugnaw 20
butangbutang 20
dalaw 20
dalhan 20
four 20
gbudhi 20
gila 20
gilead 20
ize 20
kahatag 20
kahuli 20
kakabit 20
kakilala 20
kalit 20
kiskis 20
kulit 20
lapat 20
limod 20
lipas 20
lunop 20
mando 20
pahilayo 20
pandong 20
panunod 20
pasugo 20
sad 20
saulog 20
scribe 20
servants 20
sigaw 20
siping 20
sol 20
tapon 20
tapot 20
tataas 20
tened 20
unod 20
uuna 20
ving 20
▁100 20
▁aahon 20
▁agian 20
▁almond 20
▁anah 20
▁andama 20
▁apportion 20
▁asaf 20
▁ascalon 20
▁ashkelon 20
▁attain 20
▁awoke 20
▁balatian 20
▁bandila 20
▁bangkaw 20
▁barabas 20
▁bath 20
▁bend 20
▁bethany 20
▁bihisan 20
▁binuhay 20
▁blossom 20
▁boldly 20
▁books 20
▁bumaling 20
▁buntot 20
▁butangana 20
▁compel 20
▁cornelio 20
▁corpses 20
▁covet 20
▁create 20
▁cus 20
▁dathan 20
▁defeat 20
▁depth 20
▁deserv 20
▁destroys 20
▁dinner 20
▁disgust 20
▁dishonored 20
▁disturb 20
▁doble 20
▁doom 20
▁eighty 20
▁embrace 20
▁enlarge 20
▁enoch 20
▁flashes 20
▁flourish 20
▁fly 20
▁footstool 20
▁founded 20
▁gahong 20
▁gardens 20
▁gat 20
▁giadto 20
▁gibantayan 20
▁gibasa 20
▁gihu 20
▁gilimbongan 20
▁gilutos 20
▁gipaadto 20
▁gipaantos 20
▁gipanulti 20
▁gipas 20
▁gipasabot 20
▁glean 20
▁grape 20
▁grind 20
▁happens 20
▁hardship 20
▁heveo 20
▁higher 20
▁hilabt 20
▁hip 20
▁homer 20
▁humatol 20
▁hung 20
▁hyssop 20
▁imp 20
▁impossible 20
▁imprisonment 20
▁inilayo 20
▁ipapakita 20
▁itatag 20
▁itinur 20
▁jotam 20
▁jotham 20
▁kadmiel 20
▁kagul 20
▁kamanyang 20
▁kasiraan 20
▁katapangan 20
▁kobra 20
▁komandante 20
▁kuko 20
▁kulog 20
▁kumi 20
▁kuwintas 20
▁laborers 20
▁lamyon 20
▁langaw 20
▁lapok 20
▁lioness 20
▁lira 20
▁madaya 20
▁madungog 20
▁maganda 20
▁magbu 20
▁magmauswagon 20
▁maila 20
▁makabati 20
▁makahikap 20
▁makakatakas 20
▁malice 20
▁malilipol 20
▁manganga 20
▁mapupuno 20
▁marapat 20
▁maririnig 20
▁matamis 20
▁maupo 20
▁moth 20
▁moves 20
▁naghanda 20
▁nagpakasala 20
▁nagpanaw 20
▁nagsul 20
▁nagtatag 20
▁nahinumdom 20
▁nakahimo 20
▁nakaingon 20
▁nakaraan 20
▁nanggagaling 20
▁nangyayari 20
▁negosyante 20
▁oaks 20
▁obedience 20
▁oso 20
▁pagbaba 20
▁pagduol 20
▁pagkaunawa 20
▁pagpu 20
▁palagian 20
▁panganganak 20
▁panultihon 20
▁pinaalis 20
▁pinakamabuti 20
▁pinutol 20
▁poison 20
▁produces 20
▁product 20
▁promises 20
▁prophecy 20
▁punished 20
▁rage 20
▁realm 20
▁rebukes 20
▁records 20
▁represent 20
▁reproach 20
▁revel 20
▁revoke 20
▁rightly 20
▁sad 20
▁sakripisyo 20
▁sale 20
▁sanhedrin 20
▁seashore 20
▁selected 20
▁seraiah 20
▁settings 20
▁shemaya 20
▁shone 20
▁shook 20
▁shoots 20
▁sinful 20
▁siyamnapu 20
▁squares 20
▁station 20
▁stern 20
▁strap 20
▁suffered 20
▁tamad 20
▁teaches 20
▁tend 20
▁tied 20
▁tila 20
▁tinitirhan 20
▁tipunan 20
▁troubles 20
▁trustworthy 20
▁tuk 20
▁tumanggi 20
▁tungtonganan 20
▁umoy 20
▁umuus 20
▁uzias 20
▁yunuko 20
▁zalmuna 20
,500. 19
aabang 19
abuga 19
ael 19
agup 19
akot 19
alirong 19
apion 19
aton 19
binalik 19
bukas 19
bunal 19
buwal 19
cal 19
cate 19
dapit 19
dumili 19
fertile 19
galilea 19
ghahanda 19
ghukom 19
gripa 19
gsugod 19
halok 19
hipan 19
ilikay 19
ill 19
ipit 19
isugo 19
italaga 19
kasakit 19
kipagtalo 19
kipagtipan 19
lahutay 19
mapahi 19
mapailubon 19
meon 19
nagtipun 19
nanais 19
nd 19
padayon 19
pakabit 19
palitan 19
papahawa 19
paroo 19
patnubay 19
patuyang 19
pawalang 19
pinahihintul 19
tambag 19
tid 19
unsod 19
ure 19
▁12,000; 19
▁aangkinin 19
▁accurate 19
▁amalekanhon 19
▁aminadab 19
▁amount 19
▁anathoth 19
▁appeal 19
▁argolya 19
▁arises 19
▁arrow 19
▁asaph 19
▁associate 19
▁baals 19
▁baggage 19
▁batik 19
▁beelzebul 19
▁binnui 19
▁birhen 19
▁bolt 19
▁boys 19
▁bricks 19
▁brightness 19
▁bubunutin 19
▁buntogon 19
▁census 19
▁chebar 19
▁citadels 19
▁collapse 19
▁conscience 19
▁consent 19
▁contains 19
▁contingent 19
▁craftsman 19
▁cups 19
▁dangatan 19
▁datan 19
▁deliver 19
▁devours 19
▁dinadaluyan 19
▁discern 19
▁distinction 19
▁doubt 19
▁eager 19
▁earthenware 19
▁efron 19
▁enoc 19
▁entiles 19
▁envy 19
▁ephron 19
▁espirituhanon 19
▁esteban 19
▁executed 19
▁fl 19
▁flax 19
▁fleeing 19
▁freedom 19
▁freely 19
▁giataki 19
▁gibadlong 19
▁gihukman 19
▁giila 19
▁gikuptan 19
▁gipamihag 19
▁gisaligan 19
▁giwali 19
▁govern 19
▁grego 19
▁guho 19
▁gush 19
▁guwa 19
▁haggai 19
▁hahayo 19
▁hailstones 19
▁hinatulan 19
▁hingin 19
▁huyang 19
▁igin 19
▁ikadalawampu 19
▁imnon 19
▁inibig 19
▁install 19
▁ipinasok 19
▁isipa 19
▁itinal 19
▁itinanim 19
▁itini 19
▁itinuro 19
▁jedaiah 19
▁jehud 19
▁joiarib 19
▁kabituonan 19
▁kahabagan 19
▁kalakal 19
▁kani 19
▁karga 19
▁kasakitan 19
▁kataksilan 19
▁kawikaan 19
▁kinalulugdan 19
▁kinulit 19
▁kulungan 19
▁lamech 19
▁libna 19
▁lowly 19
▁lumalang 19
▁lumipas 19
▁luwad 19
▁magbayad 19
▁magbubuhat 19
▁magdamag 19
▁magmando 19
▁mahahalaga 19
▁mahalon 19
▁mahigugma 19
▁mainom 19
▁makadaghan 19
▁makaingon 19
▁mamauli 19
▁mangangalakal 19
▁mangurog 19
▁mapapasa 19
▁mapukan 19
▁matagbaw 19
▁matulog 19
▁memor 19
▁migdol 19
▁mihilak 19
▁minatay 19
▁moluwas 19
▁mosinggit 19
▁moyukbo 19
▁nagdaugdaog 19
▁nagsangpit 19
▁nailhan 19
▁namunoan 19
▁nanginig 19
▁naniwala 19
▁necks 19
▁ngabil 19
▁niluwalhati 19
▁northward 19
▁objects 19
▁oholiba 19
▁paadtoa 19
▁pagbiaybiay 19
▁pagmata 19
▁pagpangutana 19
▁pagtawag 19
▁paki 19
▁pakikiapid 19
▁palayok 19
▁palmera 19
▁panaghoy 19
▁panday 19
▁papalabas 19
▁papalayo 19
▁pararamihin 19
▁pasasalamat 19
▁pawawalan 19
▁pegs 19
▁pierce 19
▁pil 19
▁pinasimulan 19
▁prevent 19
▁prolong 19
▁pumapatay 19
▁puyopuyo 19
▁quaked 19
▁quiver 19
▁regions 19
▁reminder 19
▁repai 19
▁revere 19
▁reverence 19
▁riddle 19
▁robbery 19
▁sacks 19
▁serpents 19
▁setro 19
▁shaphan 19
▁shoot 19
▁sickle 19
▁sinalita 19
▁sobra 19
▁sorcerers 19
▁spiritual 19
▁stronger 19
▁stubble 19
▁suborno 19
▁suginl 19
▁tagumpay 19
▁talaan 19
▁talagsaon 19
▁tatangis 19
▁tinugyanan 19
▁tinupad 19
▁tubusin 19
▁tul 19
▁tum 19
▁tumatangis 19
▁unjust 19
▁ur 19
▁uupo 19
▁uwak 19
▁uzziah 19
▁vindicate 19
▁walumpu 19
▁washing 19
▁withdraw 19
▁worm 19
▁wrongful 19
15 18
abigyan 18
ac 18
alaala 18
alim 18
angasiwa 18
balak 18
bantog 18
bungol 18
bunton 18
buot 18
butyag 18
canaan 18
dahunog 18
dalamhati 18
dla 18
drawn 18
eh 18
far 18
ganda 18
ginawa 18
gitin 18
gliligtas 18
gpapalayas 18
gsunog 18
gukod 18
hatid 18
ibalita 18
if 18
ilap 18
iness 18
inuman 18
inusara 18
ipatong 18
kaba 18
katawa 18
kawas 18
kinabang 18
kitunguhan 18
kut 18
lalapit 18
lamon 18
layas 18
liwayway 18
mag 18
mtan 18
nib 18
ningas 18
obra 18
pabaya 18
pakaulaw 18
panapaw 18
pangutana 18
paningas 18
pinangaral 18
pinsala 18
punit 18
rah 18
rely 18
rinig 18
sadya 18
samaran 18
sapit 18
shua 18
sirhan 18
sungay 18
tagbaw 18
taka 18
tanungin 18
tatapos 18
tha 18
took 18
tugkad 18
ugol 18
undang 18
upot 18
usok 18
wak 18
▁acsa 18
▁adorn 18
▁anatot 18
▁appetite 18
▁apply 18
▁asdod 18
▁attentive 18
▁authorities 18
▁awaken 18
▁babatuhin 18
▁bar 18
▁betrayed 18
▁betrothed 18
▁blasphemed 18
▁boasts 18
▁builders 18
▁citizens 18
▁clearly 18
▁cloaks 18
▁complain 18
▁condemnation 18
▁construct 18
▁consum 18
▁cornerstone 18
▁correctly 18
▁corruptly 18
▁cupbearer 18
▁cyprus 18
▁deuel 18
▁devastated 18
▁difficulty 18
▁dinaugdaog 18
▁diringgin 18
▁dumaraing 18
▁ehud 18
▁encircl 18
▁erected 18
▁eunuch 18
▁ex 18
▁falling 18
▁gaal 18
▁gerson 18
▁gibahin 18
▁gibati 18
▁gibihag 18
▁gidumtan 18
▁gipabuhat 18
▁gipasid 18
▁gituli 18
▁gomora 18
▁grabi 18
▁hahabulin 18
▁hahayaan 18
▁handaan 18
▁heaps 18
▁herdsmen 18
▁hibihanon 18
▁hinahamak 18
▁hinom 18
▁hinulma 18
▁hurt 18
▁ibayo 18
▁ibinuka 18
▁inaasahan 18
▁inagaw 18
▁indignant 18
▁infertile 18
▁iniingatan 18
▁investigate 18
▁ipaila 18
▁ipinasiya 18
▁isog 18
▁itinabo 18
▁itinanong 18
▁itudlo 18
▁iwinawagayway 18
▁jesua 18
▁jubilation 18
▁kaangayan 18
▁kabangis 18
▁kadahilanan 18
▁kalalakihan 18
▁kapahulayan 18
▁kapootan 18
▁kasina 18
▁katitisuran 18
▁kenaz 18
▁kinagabihan 18
▁kinalimutan 18
▁lake 18
▁linaw 18
▁lumad 18
▁lumikha 18
▁mabibi 18
▁mabusog 18
▁magbubu 18
▁maghahanda 18
▁maghilak 18
▁magtigom 18
▁mahahabag 18
▁mahirap 18
▁mailap 18
▁makakuha 18
▁makarinig 18
▁makatarungan 18
▁makikilala 18
▁maluko 18
▁maluya 18
▁mangangalunya 18
▁mangawat 18
▁mapagpakumbaba 18
▁mapanag 18
▁maputi 18
▁masasabi 18
▁masisira 18
▁masuso 18
▁matters 18
▁mawawala 18
▁micaias 18
▁ministering 18
▁mis 18
▁misugo 18
▁mitan 18
▁nadab 18
▁nagbubunga 18
▁nagkaon 18
▁naglalakbay 18
▁nagpakiluoy 18
▁nagsigi 18
▁nagtiwala 18
▁nahuli 18
▁nakahiga 18
▁nakakakilala 18
▁nakipaglaban 18
▁nalalabi 18
▁namumuhi 18
▁nanganganlong 18
▁neriah 18
▁ninety 18
▁nostrils 18
▁onyx 18
▁paalisin 18
▁pabayaan 18
▁paghahandog 18
▁pagkamaunongon 18
▁paglabas 18
▁paglapas 18
▁pagpamatay 18
▁pagpanu 18
▁pagtagad 18
▁pagtalikod 18
▁paligid 18
▁pamanhonon 18
▁paralitiko 18
▁pardon 18
▁pareho 18
▁pauban 18
▁pauli 18
▁perga 18
▁pinahintulutan 18
▁pinangga 18
▁pisaan 18
▁pook 18
▁population 18
▁protection 18
▁publicly 18
▁pumi 18
▁purified 18
▁push 18
▁putlon 18
▁rabi 18
▁rash 18
▁ravines 18
▁rebellion 18
▁rec 18
▁relent 18
▁resist 18
▁restrained 18
▁rights 18
▁robbers 18
▁saves 18
▁scoffer 18
▁select 18
▁selling 18
▁shaft 18
▁shap 18
▁sharon 18
▁sheaves 18
▁shimei 18
▁showers 18
▁simula 18
▁sinta 18
▁sisigaw 18
▁snake 18
▁southward 18
▁sows 18
▁speckled 18
▁striking 18
▁string 18
▁strongholds 18
▁sunda 18
▁suok 18
▁suwail 18
▁tadyaw 18
▁takna 18
▁tambuli 18
▁tatahan 18
▁teachers 18
▁tender 18
▁thumb 18
▁tibod 18
▁timnah 18
▁tinatahanan 18
▁tinatanggap 18
▁tingtugnaw 18
▁tinuruan 18
▁tinutu 18
▁tomas 18
▁trembled 18
▁tugas 18
▁u 18
▁uhot 18
▁umiiyak 18
▁undergarment 18
▁uproot 18
▁victory 18
▁wandered 18
▁weigh 18
▁welfare 18
▁wrongdoers 18
▁yeast 18
▁zabdi 18
▁zibeon 18
,500 17
12 17
ach 17
agur 17
ake 17
alihan 17
ato 17
bahala 17
bigay 17
blig 17
buti 17
disiplina 17
ehud 17
garantiya 17
gtanggol 17
gtatangi 17
hampak 17
hanas 17
hukas 17
ial 17
ible 17
ikli 17
ile 17
itin 17
ius 17
kaabot 17
kakampo 17
kalapit 17
kiah 17
kikipaglaban 17
lah 17
lamat 17
luray 17
malampuson 17
malipayon 17
matuto 17
nagkamang 17
nagna 17
nanago 17
nanom 17
nine 17
numbalik 17
pagahi 17
pahimutang 17
pahiram 17
pasilong 17
rance 17
salubong 17
salungat 17
saw 17
sera 17
sibol 17
simbolo 17
sinunog 17
talan 17
tapos 17
tatakip 17
tatakuwil 17
throne 17
tipas 17
tulis 17
ugilon 17
umpuni 17
usin 17
usisa 17
uyo 17
vi 17
vious 17
▁abound 17
▁abyss 17
▁action 17
▁adan 17
▁adoni 17
▁alamag 17
▁amalekites 17
▁amminadab 17
▁answers 17
▁aquila 17
▁awe 17
▁baker 17
▁balas 17
▁basi 17
▁basura 17
▁beds 17
▁bihasa 17
▁bilha 17
▁binibigyan 17
▁binilang 17
▁briar 17
▁buhayin 17
▁bulaan 17
▁bulb 17
▁carcasses 17
▁certifi 17
▁consecration 17
▁dagami 17
▁dagway 17
▁daugdaogon 17
▁dayandayan 17
▁declaration 17
▁deer 17
▁devised 17
▁devout 17
▁dinaya 17
▁disobedience 17
▁dog 17
▁dragg 17
▁dugmokon 17
▁dy 17
▁edict 17
▁engrave 17
▁entirely 17
▁events 17
▁existed 17
▁extra 17
▁fame 17
▁fault 17
▁flint 17
▁forgot 17
▁gibugalbugalan 17
▁giihaw 17
▁gininhawa 17
▁gipainom 17
▁gipasidunggan 17
▁gitagan 17
▁graciousness 17
▁graves 17
▁greedy 17
▁guardrooms 17
▁gutomon 17
▁hikalimtan 17
▁hilkias 17
▁honors 17
▁humahabol 17
▁humawak 17
▁ibinukod 17
▁ikalipay 17
▁incit 17
▁inhabit 17
▁insolent 17
▁intended 17
▁ipasabot 17
▁island 17
▁isopo 17
▁iwin 17
▁jason 17
▁jewels 17
▁joiada 17
▁jozabad 17
▁kabantog 17
▁kailanma 17
▁kalasangan 17
▁kalayaan 17
▁kapanglawan 17
▁katabang 17
▁katakos 17
▁katakutan 17
▁katao 17
▁kinatatakutan 17
▁kindle 17
▁kinutaan 17
▁kumag 17
▁lamec 17
▁ledge 17
▁linisin 17
▁liso 17
▁liwasan 17
▁loudly 17
▁luwalhatiin 17
▁madada 17
▁magpapalayok 17
▁magsasa 17
▁magtiwala 17
▁makadaot 17
▁makakasama 17
▁makauulaw 17
▁makkedah 17
▁malicious 17
▁malilinis 17
▁mamalik 17
▁manglakaw 17
▁manimalos 17
▁mapagkunwari 17
▁mapagmataas 17
▁mapapahamak 17
▁marangal 17
▁mattaniah 17
▁measurement 17
▁media 17
▁milcah 17
▁modangat 17
▁mourns 17
▁mulo 17
▁music 17
▁naaman 17
▁nagkalisodlisod 17
▁nagpuasa 17
▁nagsilang 17
▁nagtago 17
▁nagturo 17
▁nahshon 17
▁nakatingin 17
▁nakiggubat 17
▁nangurog 17
▁naniniwala 17
▁nathan 17
▁nearby 17
▁netanias 17
▁occur 17
▁overnight 17
▁owned 17
▁pababayaan 17
▁paghilak 17
▁pagkamatinu 17
▁pagpaki 17
▁pagsaksi 17
▁pakana 17
▁pamihagon 17
▁panic 17
▁parched 17
▁paroroon 17
▁perezeo 17
▁perisihanon 17
▁pharisee 17
▁pinalit 17
▁pinatnubayan 17
▁pinggan 17
▁prais 17
▁pro 17
▁prominent 17
▁prutas 17
▁pugad 17
▁pur 17
▁rais 17
▁raven 17
▁raw 17
▁rebels 17
▁rebulto 17
▁regain 17
▁reigns 17
▁remaining 17
▁requested 17
▁ridicule 17
▁rimmon 17
▁sacr 17
▁sanla 17
▁scorch 17
▁serug 17
▁serves 17
▁settlement 17
▁shelemiah 17
▁sidonians 17
▁sigi 17
▁sinultihan 17
▁smell 17
▁sounded 17
▁sounds 17
▁steadfast 17
▁stephen 17
▁stolen 17
▁storehouses 17
▁sunrise 17
▁supling 17
▁supot 17
▁survived 17
▁tagdon 17
▁talampakan 17
▁tapolan 17
▁taunting 17
▁testing 17
▁thomas 17
▁thrust 17
▁tradition 17
▁trial 17
▁tulos 17
▁tunokon 17
▁ugsok 17
▁uriah 17
▁vashti 17
▁vat 17
▁ven 17
▁vo 17
▁window 17
▁wonder 17
▁woof 17
▁wormwood 17
▁zeeb 17
▁zelophehad 17
300 16
aalab 16
abarim 16
abin 16
agsayaw 16
ahath 16
akpak 16
amping 16
araro 16
ary 16
atnan 16
ayuno 16
batid 16
bugto 16
bulit 16
dami 16
dayag 16
dungaw 16
ermo 16
gamot 16
ged 16
ghihimagsik 16
ghihintay 16
gkukulang 16
gtalaga 16
gtukaw 16
hagdaw 16
handom 16
hinloan 16
hugaw 16
ibabaw 16
ied 16
ihahambing 16
ihandog 16
inabubut 16
kahuman 16
kalat 16
kanlungan 16
kasub 16
kikipagtipan 16
kinalat 16
ks 16
kuhaan 16
kukubli 16
kupin 16
lanog 16
lipad 16
lupaypay 16
luwas 16
mantala 16
nakawan 16
natili 16
ngomusta 16
ns 16
ordina 16
ort 16
pagarbo 16
pagbigay 16
pantay 16
pasanin 16
patunhay 16
pikaspikas 16
pinagkatiwala 16
pugngan 16
sabak 16
sangguni 16
santa 16
scribed 16
sinuot 16
sok 16
ssed 16
suot 16
talik 16
talo 16
tataglay 16
totohanan 16
tunga 16
unt 16
urin 16
▁1,2 16
▁aariin 16
▁abinoam 16
▁adah 16
▁adulteress 16
▁adversary 16
▁altogether 16
▁anakim 16
▁anindot 16
▁arad 16
▁armor 16
▁atimanon 16
▁attend 16
▁badly 16
▁bation 16
▁bayra 16
▁beasts 16
▁begun 16
▁belshazzar 16
▁bethuel 16
▁binordahan 16
▁blast 16
▁budyong 16
▁bumabalik 16
▁bumubu 16
▁ca 16
▁caifas 16
▁cart 16
▁childbirth 16
▁clap 16
▁concubines 16
▁constantly 16
▁convocation 16
▁cost 16
▁crowns 16
▁demonstrate 16
▁denarius 16
▁deserves 16
▁discerning 16
▁discour 16
▁district 16
▁distrito 16
▁doorposts 16
▁driv 16
▁dumaraan 16
▁embroiderer 16
▁equipment 16
▁express 16
▁feasting 16
▁figure 16
▁filigree 16
▁foreheads 16
▁gained 16
▁gana 16
▁giantos 16
▁gibuhian 16
▁gibunal 16
▁gidak 16
▁gigamhan 16
▁gigibain 16
▁giguba 16
▁gikalu 16
▁gipahimangnoan 16
▁gipatindog 16
▁gisaysay 16
▁gising 16
▁gitabangan 16
▁gitagal 16
▁goods 16
▁graze 16
▁guarantor 16
▁happening 16
▁hataga 16
▁helon 16
▁henadad 16
▁hibaloi 16
▁hinahatulan 16
▁hiniling 16
▁honest 16
▁honi 16
▁hoofs 16
▁horrified 16
▁hubag 16
▁hunahunaa 16
▁hypocrisy 16
▁ibinagsak 16
▁ililitaw 16
▁iniahon 16
▁ipagkaloob 16
▁ipapa 16
▁isigkakilid 16
▁isusulat 16
▁itatapon 16
▁jaws 16
▁jehohanan 16
▁kabanha 16
▁kaguliyang 16
▁kamanghoran 16
▁kangil 16
▁kapuy 16
▁katahimikan 16
▁katigasan 16
▁kaulag 16
▁kawalang 16
▁kawalogan 16
▁kedesh 16
▁larger 16
▁laughter 16
▁layman 16
▁leavened 16
▁level 16
▁lilipas 16
▁longing 16
▁lumihis 16
▁maghahari 16
▁magkaon 16
▁magligtas 16
▁magmadali 16
▁magmaman 16
▁magpahayag 16
▁magpatuloy 16
▁magsasaka 16
▁magsusu 16
▁magtrabaho 16
▁makakakain 16
▁makakatayo 16
▁makeda 16
▁makipaglaban 16
▁manganganak 16
▁mapasa 16
▁marvelous 16
▁masisiyahan 16
▁mass 16
▁matanias 16
▁maulipon 16
▁measures 16
▁medeba 16
▁melted 16
▁meribah 16
▁messiah 16
▁mesulam 16
▁midianita 16
▁misugilon 16
▁miyukbo 16
▁mobangon 16
▁molabay 16
▁mounted 16
▁naaalala 16
▁nagbuot 16
▁nagdan 16
▁nagdaraan 16
▁nagdu 16
▁naghinulsol 16
▁nagkatigom 16
▁nagningas 16
▁nagsulat 16
▁nahiagoman 16
▁nakadamit 16
▁nakakarinig 16
▁nanlulupaypay 16
▁natural 16
▁natutuwa 16
▁natutuyo 16
▁nehemiah 16
▁nethanel 16
▁niyebe 16
▁offend 16
▁oppressors 16
▁outcome 16
▁overflowing 16
▁paddan 16
▁paggula 16
▁paghihimagsik 16
▁paghinulsol 16
▁pagkagalit 16
▁pagku 16
▁paglabag 16
▁pagpupuri 16
▁pagsisisi 16
▁pagsubok 16
▁pagtitiwala 16
▁pakikinig 16
▁pananagutan 16
▁pearls 16
▁perishes 16
▁perishing 16
▁permission 16
▁pervert 16
▁philistia 16
▁pinalaya 16
▁pinaram 16
▁pinas 16
▁pinuntahan 16
▁pisgah 16
▁plainly 16
▁powers 16
▁pretend 16
▁pris 16
▁puntil 16
▁purchase 16
▁putik 16
▁realiz 16
▁refuses 16
▁regular 16
▁relief 16
▁restraints 16
▁reubenites 16
▁ribla 16
▁robb 16
▁rome 16
▁rooms 16
▁rot 16
▁sandal 16
▁sapilitan 16
▁sensible 16
▁shameful 16
▁sheaf 16
▁shur 16
▁silyo 16
▁simpl 16
▁sink 16
▁skillfully 16
▁slopes 16
▁slumber 16
▁stagger 16
▁ste 16
▁stray 16
▁supply 16
▁syria 16
▁taunted 16
▁terrible 16
▁thank 16
▁throat 16
▁tooth 16
▁torches 16
▁trib 16
▁tubo 16
▁tumatakas 16
▁tumitingin 16
▁unbelief 16
▁untie 16
▁uod 16
▁uphold 16
▁uprightness 16
▁vasti 16
▁whirlwind 16
▁wield 16
▁winnow 16
▁wondrous 16
▁worry 16
▁worse 16
▁zohar 16
24 15
aaliw 15
abunan 15
agturo 15
agway 15
alimutan 15
amagitan 15
aminaw 15
aven 15
ayanig 15
badlong 15
bantayan 15
bawi 15
bibigkis 15
buhusan 15
buling 15
bulungan 15
creta 15
danak 15
dangat 15
day 15
dding 15
dunggo 15
eals 15
gakos 15
gawad 15
gmasinugtanon 15
gmatinumanon 15
gpakahilom 15
greed 15
guhit 15
himugso 15
hulga 15
iinit 15
iinumin 15
imbis 15
ipahimutang 15
isugilon 15
iwasan 15
jah 15
kakainin 15
kalimutan 15
kalipas 15
kasira 15
katipon 15
katuwaan 15
kawal 15
kayab 15
kiglalis 15
kiha 15
kipagkasundo 15
lalait 15
lalatag 15
latos 15
lilinis 15
lipayon 15
lugmok 15
lumos 15
manaog 15
melech 15
miligro 15
napi 15
ngulohan 15
ntil 15
pahiran 15
pakigsulti 15
palakas 15
pangasiwa 15
panumbalik 15
parami 15
plano 15
punan 15
puputul 15
ran 15
samad 15
sses 15
sudlan 15
suginlan 15
talikuran 15
tayin 15
tigomanan 15
tipigan 15
tukmo 15
tunob 15
tuwid 15
ubaran 15
ung 15
unti 15
up 15
ush 15
uth 15
uusig 15
ved 15
wangis 15
we 15
yukbo 15
▁10 15
▁110 15
▁250 15
▁accompan 15
▁accuse 15
▁ages 15
▁anothers 15
▁anxious 15
▁assume 15
▁assyrians 15
▁baki 15
▁balongbalong 15
▁baptizing 15
▁belteshazzar 15
▁berseba 15
▁binigkas 15
▁bushes 15
▁caiaphas 15
▁calves 15
▁camel 15
▁catastrophe 15
▁charit 15
▁claim 15
▁clasps 15
▁cleft 15
▁comprehend 15
▁convinc 15
▁crop 15
▁crops 15
▁dance 15
▁dancing 15
▁darling 15
▁debts 15
▁decrease 15
▁deserts 15
▁despair 15
▁dinakip 15
▁dininig 15
▁dinurog 15
▁disappear 15
▁discovered 15
▁distribute 15
▁enslaved 15
▁fasten 15
▁fate 15
▁flees 15
▁flying 15
▁gabriel 15
▁gadites 15
▁gantang 15
▁gershonites 15
▁giablihan 15
▁gidihogan 15
▁gilay 15
▁ginalit 15
▁gipahil 15
▁gisunod 15
▁gisusi 15
▁gitanom 15
▁gnaw 15
▁gomorra 15
▁gosen 15
▁grandchildren 15
▁greed 15
▁guests 15
▁gukd 15
▁gumagala 15
▁halayo 15
▁hashabiah 15
▁hawakan 15
▁highway 15
▁hihingi 15
▁hikaplagi 15
▁himpilan 15
▁hinipan 15
▁hordes 15
▁humahayo 15
▁humihingi 15
▁ibubukod 15
▁ikaunom 15
▁ikiling 15
▁ikog 15
▁ilha 15
▁impairment 15
▁inaalis 15
▁inakay 15
▁inisip 15
▁insane 15
▁insignificant 15
▁isinumpa 15
▁itapon 15
▁itatalaga 15
▁jared 15
▁jebusites 15
▁jeh 15
▁joiakim 15
▁kaibog 15
▁kaisipan 15
▁kalikuan 15
▁kalugu 15
▁kapakanan 15
▁katutubo 15
▁ketongin 15
▁kinalalagyan 15
▁laglaga 15
▁lami 15
▁lap 15
▁leopard 15
▁lepro 15
▁lobo 15
▁lock 15
▁locked 15
▁lubusan 15
▁lumiko 15
▁luntian 15
▁lurk 15
▁lusts 15
▁maaalala 15
▁maanindot 15
▁madaot 15
▁magbalik 15
▁magpakahilom 15
▁magpulos 15
▁magsigi 15
▁magsugo 15
▁magtayo 15
▁makakatagpo 15
▁maluwa 15
▁mamanahin 15
▁mangaon 15
▁manghuhula 15
▁mapasaylo 15
▁mapintas 15
▁mapuksa 15
▁mapuo 15
▁matatalino 15
▁matumba 15
▁matuwa 15
▁meant 15
▁merciful 15
▁milca 15
▁milingi 15
▁misfortune 15
▁moabita 15
▁mockery 15
▁molaban 15
▁mopadayon 15
▁nagbagulbol 15
▁naghaha 15
▁naghahasik 15
▁nagkupo 15
▁naglalakad 15
▁nagmumula 15
▁nagpatay 15
▁nahiagom 15
▁nakakalugod 15
▁nasira 15
▁necklace 15
▁nganlan 15
▁ngilit 15
▁ninive 15
▁orphans 15
▁overthrown 15
▁pagalingin 15
▁pagbutang 15
▁pagdaugdaog 15
▁pagkabigaon 15
▁pagkatao 15
▁pagpanaw 15
▁pagpasalamat 15
▁pagpauli 15
▁pagpuasa 15
▁pagsamba 15
▁pagsugo 15
▁pagsulat 15
▁pagtatalaga 15
▁pagtatalo 15
▁pagtin 15
▁pahintulutan 15
▁pailob 15
▁pakaka 15
▁palakta 15
▁pale 15
▁pambuhos 15
▁pananim 15
▁pandigma 15
▁pangangalunya 15
▁pangangati 15
▁pangayo 15
▁panunumpa 15
▁pasid 15
▁pasiya 15
▁persecution 15
▁persist 15
▁pinagsikapan 15
▁pinupuri 15
▁pisga 15
▁planggana 15
▁puksain 15
▁rabbah 15
▁rabshakeh 15
▁reache 15
▁reading 15
▁reapers 15
▁recab 15
▁reeds 15
▁refrain 15
▁rememb 15
▁resembl 15
▁restless 15
▁righteously 15
▁ripe 15
▁rob 15
▁safe 15
▁sanlahon 15
▁sanlinggo 15
▁sasaktan 15
▁scatters 15
▁secrets 15
▁seeds 15
▁sekretaryo 15
▁semaias 15
▁shaved 15
▁shines 15
▁sinumpa 15
▁slanderer 15
▁sowed 15
▁sprouts 15
▁stature 15
▁sufficient 15
▁sugnod 15
▁sumusu 15
▁swelling 15
▁taho 15
▁tahoron 15
▁taimtim 15
▁tatanggalin 15
▁tigoma 15
▁topaz 15
▁tormented 15
▁transfer 15
▁travel 15
▁traveling 15
▁treasured 15
▁treasuries 15
▁tumatayo 15
▁tumutu 15
▁umaap 15
▁ungodly 15
▁uprooted 15
▁valuable 15
▁vipers 15
▁wafer 15
▁wasteland 15
▁watched 15
▁whisper 15
▁wineskins 15
▁wretched 15
▁youths 15
▁yumuko 15
▁zephaniah 15
3; 14
40 14
90 14
agayway 14
ahun 14
all 14
ambak 14
anginginig 14
arrow 14
asaph 14
atumpag 14
ber 14
biaybiay 14
biaybiayon 14
bihis 14
bubungkal 14
bugkos 14
daluyan 14
debir 14
didilim 14
dugo 14
duyog 14
eeping 14
eight 14
gpapatawad 14
gtanim 14
hagkan 14
hapak 14
hawi 14
higa 14
hilig 14
hip 14
hudyaka 14
ians 14
ilhon 14
imbak 14
isaad 14
ith 14
iyuko 14
kab 14
kabayo 14
kalbo 14
kigdait 14
kmiton 14
kunwari 14
lampas 14
lantaw 14
lawig 14
licious 14
liki 14
liliwanag 14
lipak 14
mangguni 14
melec 14
nanaig 14
nuol 14
orma 14
pagtayo 14
pamatigayon 14
patubig 14
pinatatawad 14
presyo 14
pya 14
ripped 14
salita 14
siawit 14
side 14
silo 14
sinati 14
six 14
stern 14
tapusin 14
tatakan 14
tikaw 14
tuluyan 14
ulungan 14
uusap 14
uuwi 14
year 14
zed 14
▁120 14
▁aakyat 14
▁abaga 14
▁adulterers 14
▁aki 14
▁almo 14
▁andana 14
▁anxiety 14
▁arab 14
▁areas 14
▁arioc 14
▁arioch 14
▁ashtaroth 14
▁avoid 14
▁awiti 14
▁baywang 14
▁believer 14
▁besieg 14
▁betuel 14
▁bihagon 14
▁blaspheme 14
▁bo 14
▁boats 14
▁boils 14
▁bracelets 14
▁bubu 14
▁buo 14
▁caesars 14
▁cargo 14
▁caves 14
▁censer 14
▁ch 14
▁cilicia 14
▁clings 14
▁closer 14
▁clusters 14
▁cohort 14
▁colleagues 14
▁colorful 14
▁confessed 14
▁conquer 14
▁cook 14
▁cre 14
▁dagtom 14
▁dakp 14
▁dakpon 14
▁dalila 14
▁dalu 14
▁deceased 14
▁desirable 14
▁desolated 14
▁dinah 14
▁dinalaw 14
▁discouraged 14
▁discuss 14
▁discussing 14
▁disease 14
▁distort 14
▁dudurugin 14
▁dumadaing 14
▁duna 14
▁dungisan 14
▁easier 14
▁eggs 14
▁elisama 14
▁endurance 14
▁endures 14
▁error 14
▁example 14
▁experience 14
▁eyelids 14
▁fatherless 14
▁fatness 14
▁finehas 14
▁fleece 14
▁freed 14
▁fugitives 14
▁futile 14
▁gallows 14
▁game 14
▁geder 14
▁gialagaran 14
▁gibug 14
▁gidangatan 14
▁gidapit 14
▁gikulit 14
▁gimbu 14
▁gipalakaw 14
▁gitagoan 14
▁giulipon 14
▁grecia 14
▁grumblings 14
▁gusali 14
▁hagdan 14
▁halin 14
▁handful 14
▁harsh 14
▁hiilhi 14
▁hinalad 14
▁hinampas 14
▁hul 14
▁hungog 14
▁ihiwalay 14
▁ikalabindalawa 14
▁immer 14
▁imprisoned 14
▁inakala 14
▁infants 14
▁inflicted 14
▁inililigtas 14
▁ipagka 14
▁ipapangilin 14
▁isu 14
▁isusuot 14
▁itakuwil 14
▁itutu 14
▁ivory 14
▁jab 14
▁japheth 14
▁ju 14
▁jump 14
▁kaabin 14
▁kaaliwan 14
▁kababayan 14
▁kabagabagan 14
▁kabs 14
▁kabukogan 14
▁kabuuan 14
▁kagahob 14
▁kalainan 14
▁kalihim 14
▁kandungan 14
▁kaparangan 14
▁katanghalian 14
▁keeper 14
▁kiliran 14
▁kinaka 14
▁kinakain 14
▁kinapootan 14
▁kn 14
▁kneel 14
▁kristal 14
▁kubol 14
▁kumakat 14
▁lakis 14
▁lamian 14
▁lamparahan 14
▁lampstands 14
▁lamunin 14
▁lebo 14
▁lengthen 14
▁lilies 14
▁limb 14
▁lumakas 14
▁maalam 14
▁madilim 14
▁magalit 14
▁magbubunga 14
▁magbubunyag 14
▁magistrates 14
▁magmalinawon 14
▁magpapatuloy 14
▁mahabagin 14
▁mahuhulog 14
▁maihap 14
▁maiiwan 14
▁makakapasok 14
▁makapahulay 14
▁makasama 14
▁makausa 14
▁malalagay 14
▁malilig 14
▁malimbongon 14
▁malipol 14
▁malkia 14
▁manlilibak 14
▁mapakyas 14
▁marahas 14
▁masikap 14
▁mataba 14
▁matapa 14
▁matunaw 14
▁matutuyo 14
▁medes 14
▁memfis 14
▁menstrua 14
▁midianites 14
▁migikan 14
▁minas 14
▁mituaw 14
▁moku 14
▁molding 14
▁mortar 14
▁nagbubuka 14
▁nagbutang 14
▁naghigda 14
▁naghiusa 14
▁naglaom 14
▁nagluluksa 14
▁nagpapatuloy 14
▁nagpatu 14
▁nagsangyaw 14
▁namalandong 14
▁nanaginip 14
▁nasisiyahan 14
▁natanael 14
▁natitisod 14
▁nehemias 14
▁nerias 14
▁oholibamah 14
▁onward 14
▁paghamak 14
▁pagkabalaan 14
▁pagkahuman 14
▁paglakad 14
▁paglapastangan 14
▁pagminatay 14
▁pagpan 14
▁pagpanag 14
▁pagpupulong 14
▁pagsakit 14
▁pagtata 14
▁pagtubag 14
▁paimna 14
▁paimnon 14
▁palatandaan 14
▁palayain 14
▁pallet 14
▁panauhin 14
▁panulondon 14
▁pasidungg 14
▁peor 14
▁perfected 14
▁pinagka 14
▁pinakadakila 14
▁pinangalanan 14
▁pinapakinggan 14
▁piso 14
▁plentiful 14
▁po 14
▁pr 14
▁praetorium 14
▁pre 14
▁preacher 14
▁privately 14
▁prophesies 14
▁prophetess 14
▁pulu 14
▁quarrels 14
▁raging 14
▁reddish 14
▁reduce 14
▁render 14
▁res 14
▁resid 14
▁riblah 14
▁rider 14
▁rim 14
▁roam 14
▁rottenness 14
▁ru 14
▁rules 14
▁saduseo 14
▁sambingaya 14
▁section 14
▁shakes 14
▁sharpened 14
▁sheepfolds 14
▁shields 14
▁sigawan 14
▁sighing 14
▁singing 14
▁skies 14
▁sla 14
▁solomons 14
▁span 14
▁speechless 14
▁staffs 14
▁stoop 14
▁stretche 14
▁striped 14
▁surrender 14
▁tagapa 14
▁talent 14
▁teman 14
▁tendons 14
▁tetrarch 14
▁timber 14
▁tingga 14
▁tinikan 14
▁titingin 14
▁tonight 14
▁tumatakbo 14
▁turbante 14
▁tutupukin 14
▁twins 14
▁umabot 14
▁unloved 14
▁unrighteous 14
▁urias 14
▁uttered 14
▁violate 14
▁violation 14
▁wars 14
▁weari 14
▁wolves 14
▁yuma 14
▁zere 14
▁zoan 14
37 13
45 13
abiabi 13
agkinahanglan 13
ahawakan 13
ahiladman 13
aiah 13
alipusta 13
and 13
apak 13
awhag 13
bangkite 13
biah 13
bitbit 13
bubuhusan 13
cilicia 13
dagma 13
dalahan 13
dihog 13
dinadalangin 13
dugtong 13
elt 13
ento 13
fourth 13
gdiwang 13
gpailob 13
hadrac 13
halo 13
hasmag 13
hinnom 13
hinto 13
hinulsol 13
hoglah 13
huhulog 13
hulma 13
ibayad 13
ibog 13
ify 13
ikyas 13
ilagay 13
ipagbibili 13
kabit 13
kanaog 13
kapal 13
kasilagan 13
kasu 13
kuniskunis 13
lapped 13
lusong 13
muel 13
muhay 13
namkon 13
nawagan 13
ner 13
nibugho 13
paagas 13
pagmatigas 13
pagtibay 13
pamulong 13
panirahan 13
paniwala 13
pasaka 13
pasalaag 13
pasibsib 13
patibay 13
patubo 13
punuin 13
rea 13
rior 13
rumbling 13
sarhan 13
shai 13
shan 13
shemesh 13
sisiping 13
stand 13
tagad 13
takbuhan 13
taktak 13
tanyag 13
tingog 13
tuklasan 13
tunto 13
ulaw 13
upaw 13
uyapan 13
vai 13
▁32 13
▁abaddon 13
▁abias 13
▁acan 13
▁achs 13
▁adullam 13
▁adulterous 13
▁advisers 13
▁agree 13
▁alagari 13
▁alarmed 13
▁alitan 13
▁ammonita 13
▁apostle 13
▁apple 13
▁assured 13
▁avenge 13
▁babies 13
▁backward 13
▁barac 13
▁baytang 13
▁begging 13
▁behave 13
▁bethsaida 13
▁bibilangin 13
▁bilhah 13
▁binabati 13
▁bingi 13
▁biniyaan 13
▁bite 13
▁bottom 13
▁bukag 13
▁burdens 13
▁cake 13
▁car 13
▁chest 13
▁chi 13
▁childless 13
▁choke 13
▁circumcise 13
▁climb 13
▁confused 13
▁cornelius 13
▁counselor 13
▁creator 13
▁cubs 13
▁curds 13
▁defend 13
▁delilah 13
▁denarii 13
▁diligence 13
▁dirt 13
▁disc 13
▁disciplines 13
▁dismiss 13
▁disyerto 13
▁doctrine 13
▁drie 13
▁efrata 13
▁elect 13
▁elihu 13
▁encouragement 13
▁enraged 13
▁entice 13
▁evident 13
▁excluded 13
▁exercise 13
▁faithfully 13
▁fier 13
▁filthy 13
▁finally 13
▁flash 13
▁fun 13
▁furnishings 13
▁gagamitin 13
▁gale 13
▁gezer 13
▁gibilin 13
▁gigunitan 13
▁gihapina 13
▁gihigdaan 13
▁gihinloan 13
▁gikalisangan 13
▁gikawat 13
▁giku 13
▁gilingan 13
▁gipatibulaag 13
▁gramos 13
▁graz 13
▁gulo 13
▁gypt 13
▁hahatiin 13
▁hahatol 13
▁hatinggabi 13
▁health 13
▁healthy 13
▁hepher 13
▁himalatyon 13
▁hinihintay 13
▁hiningi 13
▁hips 13
▁hitsura 13
▁horonaim 13
▁housetops 13
▁hur 13
▁hush 13
▁huwad 13
▁ibayaw 13
▁ibubuwal 13
▁impurities 13
▁included 13
▁indecen 13
▁infant 13
▁inialay 13
▁inigkamatay 13
▁inihaha 13
▁injunction 13
▁insert 13
▁ipasulo 13
▁ipugas 13
▁isipin 13
▁isolate 13
▁itataboy 13
▁itinuturo 13
▁jarmut 13
▁jarmuth 13
▁jasper 13
▁journeys 13
▁judg 13
▁justify 13
▁kabalangayan 13
▁kabayaran 13
▁kabulukan 13
▁kaginhawahan 13
▁kahilingan 13
▁kalawakan 13
▁kapin 13
▁katandaan 13
▁katayan 13
▁katulong 13
▁kaulipnan 13
▁kenite 13
▁kinatu 13
▁knead 13
▁lakish 13
▁laodicea 13
▁lattice 13
▁laughingstock 13
▁lifetime 13
▁limpyo 13
▁lingap 13
▁loyalty 13
▁lumalaban 13
▁mabalaka 13
▁maganap 13
▁magbudhi 13
▁magdumili 13
▁maghunahuna 13
▁magpapahinga 13
▁magpuasa 13
▁magsul 13
▁mahayag 13
▁mahimbing 13
▁maibigan 13
▁maililigtas 13
▁makalipay 13
▁makapahimul 13
▁malawak 13
▁mananagot 13
▁mangunguna 13
▁marrie 13
▁marurumi 13
▁maulaw 13
▁maunawaan 13
▁mauunawaan 13
▁melchizedek 13
▁melquisedec 13
▁member 13
▁memphis 13
▁meshech 13
▁metro 13
▁milawig 13
▁millstone 13
▁mishael 13
▁mocking 13
▁molakaw 13
▁mosanay 13
▁mourned 13
▁muwang 13
▁nabanhaw 13
▁nabatasan 13
▁nadungisan 13
▁naghahari 13
▁nagmamahal 13
▁nagsigawan 13
▁nagtaba 13
▁nagtagumpay 13
▁nahibalik 13
▁nahot 13
▁nahum 13
▁naisin 13
▁nakaikyas 13
▁nakatago 13
▁nangagi 13
▁nanganganak 13
▁nanghapa 13
▁noa 13
▁numbers 13
▁obligated 13
▁ocean 13
▁overcomes 13
▁overwhelm 13
▁paghinlo 13
▁pagkakaiba 13
▁pagkasindak 13
▁pagpaila 13
▁pagpangayo 13
▁pagsalangsang 13
▁paitaas 13
▁palagi 13
▁palakton 13
▁pamumuhay 13
▁panadero 13
▁pananalangin 13
▁pangyayari 13
▁panlabas 13
▁pans 13
▁papalapit 13
▁parisukat 13
▁patawarin 13
▁paulanan 13
▁perizzites 13
▁persecuting 13
▁pinahihirapan 13
▁pinahirapan 13
▁pinalibutan 13
▁pinehas 13
▁pingga 13
▁pinigil 13
▁pleas 13
▁pomegranate 13
▁por 13
▁pots 13
▁practiced 13
▁prosperous 13
▁pursuers 13
▁questions 13
▁quick 13
▁rameses 13
▁razor 13
▁relented 13
▁remembers 13
▁repented 13
▁resol 13
▁response 13
▁retain 13
▁ruled 13
▁runs 13
▁sailors 13
▁samaritans 13
▁sandok 13
▁scoffers 13
▁secluded 13
▁severely 13
▁shamefully 13
▁sheath 13
▁shephatiah 13
▁signal 13
▁sinamsam 13
▁siniyasat 13
▁siyamnaraan 13
▁stairway 13
▁sumuway 13
▁sundon 13
▁sunk 13
▁takas 13
▁taknaa 13
▁talikdan 13
▁tanglaw 13
▁tanod 13
▁temples 13
▁temptation 13
▁thicket 13
▁thinks 13
▁tinamo 13
▁tinatakan 13
▁tolera 13
▁trangka 13
▁tumun 13
▁tuohi 13
▁udto 13
▁ugl 13
▁ulohan 13
▁ulupong 13
▁undergo 13
▁unfaithfully 13
▁unholy 13
▁uns 13
▁unt 13
▁vanish 13
▁venture 13
▁vicinity 13
▁vicious 13
▁virginity 13
▁visible 13
▁weaned 13
▁weapon 13
▁whirl 13
▁whitewash 13
▁worried 13
▁zorah 13
,400. 12
aalinlangan 12
agad 12
aluktot 12
amgo 12
ams 12
anah 12
aph 12
awagayway 12
azz 12
bakwi 12
balutin 12
born 12
bow 12
bton 12
cio 12
cirene 12
dagat 12
dagmal 12
daranas 12
durog 12
ema 12
eshac 12
etiopia 12
ganapin 12
gbanhaw 12
gmulo 12
gon 12
gpahinumdom 12
gpakamatay 12
gpasidaan 12
gunit 12
hamath 12
higpit 12
holah 12
icol 12
itatatag 12
juda 12
kaalam 12
kalagay 12
kaligutgotan 12
kapukan 12
kasad 12
kiglantugi 12
kilos 12
kusog 12
labingwalo 12
labinlima 12
land 12
lawak 12
liyab 12
lly 12
lubngan 12
mad 12
malulu 12
mariah 12
mura 12
niwang 12
paghugas 12
pahalaga 12
pakyas 12
pamalandong 12
panamastamas 12
panglakaw 12
pasuso 12
puksa 12
pulong 12
pungot 12
ribiti 12
sai 12
sakmal 12
sanay 12
scription 12
sukaran 12
suray 12
tanggal 12
tapua 12
teen 12
tesalonica 12
tip 12
titibay 12
tukso 12
tuslob 12
upha 12
yamot 12
ying 12
zer 12
▁46 12
▁74 12
▁abihail 12
▁accusation 12
▁acquaintances 12
▁adopt 12
▁agag 12
▁alawiton 12
▁amoz 12
▁approval 12
▁arabia 12
▁argob 12
▁arguments 12
▁arrogantly 12
▁asherim 12
▁asriel 12
▁assess 12
▁attempt 12
▁banks 12
▁baptize 12
▁barracks 12
▁basbasan 12
▁bell 12
▁bestow 12
▁bezalel 12
▁binalaan 12
▁birthright 12
▁blowing 12
▁breathed 12
▁bruise 12
▁bulbs 12
▁calculate 12
▁cap 12
▁carea 12
▁chal 12
▁charm 12
▁circumstances 12
▁complie 12
▁confine 12
▁consolation 12
▁contributions 12
▁couch 12
▁crows 12
▁crystal 12
▁decepti 12
▁depend 12
▁detriment 12
▁distresses 12
▁division 12
▁doorkeeper 12
▁dumarami 12
▁earnestly 12
▁effect 12
▁elifaz 12
▁emerald 12
▁encompass 12
▁enduring 12
▁engulf 12
▁escol 12
▁estatuwa 12
▁ethiopian 12
▁excuse 12
▁extinguish 12
▁extinguished 12
▁faithless 12
▁favorably 12
▁fishermen 12
▁fit 12
▁flogged 12
▁forem 12
▁forfeit 12
▁frost 12
▁fulfillment 12
▁gateway 12
▁gatos 12
▁gentle 12
▁gentleness 12
▁gidili 12
▁gidugmok 12
▁gikapuyan 12
▁gileadite 12
▁gipahayag 12
▁gipugas 12
▁gisab 12
▁gitagbo 12
▁gitapta 12
▁giyab 12
▁gleaming 12
▁gnats 12
▁gomer 12
▁graciously 12
▁grudg 12
▁guardhouse 12
▁guardian 12
▁gugu 12
▁habitually 12
▁habulin 12
▁hageo 12
▁hahawak 12
▁handle 12
▁hapin 12
▁harps 12
▁hides 12
▁hikalimti 12
▁hinagkan 12
▁hinipo 12
▁hinuli 12
▁hinuo 12
▁hittites 12
▁holes 12
▁hometown 12
▁horma 12
▁hormah 12
▁howl 12
▁ibinubuhos 12
▁igaga 12
▁igalang 12
▁ihihiwalay 12
▁iilan 12
▁ikalabinlima 12
▁imbakan 12
▁impatient 12
▁impiyerno 12
▁injure 12
▁insanity 12
▁instructions 12
▁ipagdiriwang 12
▁ipin 12
▁islands 12
▁israelite 12
▁itago 12
▁itandi 12
▁jabbok 12
▁jaboc 12
▁jehiel 12
▁jer 12
▁jerubaal 12
▁joint 12
▁jokneam 12
▁kaadlawon 12
▁kabundukan 12
▁kadungganan 12
▁kahalangdon 12
▁kalanggaman 12
▁kapatas 12
▁kapatawaran 12
▁kapildihan 12
▁karagatan 12
▁karami 12
▁karilagan 12
▁kasakiman 12
▁kasaysayan 12
▁katabaan 12
▁katuigan 12
▁key 12
▁ki 12
▁kohathites 12
▁koral 12
▁kwadrado 12
▁lakang 12
▁lakaran 12
▁laughs 12
▁lawasnon 12
▁lawlessness 12
▁lehi 12
▁liar 12
▁limbs 12
▁limit 12
▁limping 12
▁loan 12
▁lugas 12
▁lumubog 12
▁lusted 12
▁mabati 12
▁mabubusog 12
▁magaga 12
▁magduga 12
▁maggot 12
▁maghanda 12
▁magmatinumanon 12
▁magpatuli 12
▁magtagumpay 12
▁magtitipon 12
▁mahanaim 12
▁mahuman 12
▁main 12
▁makatakas 12
▁makatubag 12
▁makusog 12
▁malubha 12
▁malumo 12
▁mamakak 12
▁maminyo 12
▁mandragora 12
▁mangwawasak 12
▁manlalakbay 12
▁manunumbalik 12
▁marcos 12
▁matalas 12
▁mauswagon 12
▁mauuna 12
▁mentioned 12
▁mercies 12
▁midwives 12
▁miikyas 12
▁mistreat 12
▁mistress 12
▁miturok 12
▁moabites 12
▁mocked 12
▁motion 12
▁multitudes 12
▁myriads 12
▁nagdadalamhati 12
▁nagdagayday 12
▁nagdurusa 12
▁nagkakatipon 12
▁nagliliyab 12
▁naglupad 12
▁nagtaka 12
▁nagtamo 12
▁nails 12
▁nakakatagpo 12
▁nakakaunawa 12
▁namamahala 12
▁nangalaya 12
▁nangalisang 12
▁nanung 12
▁napakaganda 12
▁naparoon 12
▁nasayop 12
▁natutunaw 12
▁naulawan 12
▁nauuhaw 12
▁nayayanig 12
▁nazirita 12
▁nimrod 12
▁ofra 12
▁ophrah 12
▁opposed 12
▁origin 12
▁otniel 12
▁overjoyed 12
▁pagkakamali 12
▁pagtatayo 12
▁pahihirapan 12
▁painful 12
▁palayasin 12
▁palihim 12
▁pamamaraan 12
▁pamilihan 12
▁panagna 12
▁pangalawa 12
▁pangangailangan 12
▁pant 12
▁papason 12
▁paran 12
▁pastur 12
▁pavement 12
▁payat 12
▁penalty 12
▁perlas 12
▁piliin 12
▁pinagkalooban 12
▁pinalakas 12
▁piniyalan 12
▁pinuksa 12
▁pisngi 12
▁plasa 12
▁pleasures 12
▁pottery 12
▁prefer 12
▁preparation 12
▁pugon 12
▁pugson 12
▁putla 12
▁quakes 12
▁refer 12
▁rehas 12
▁relat 12
▁remind 12
▁reserved 12
▁riders 12
▁ripa 12
▁romans 12
▁rows 12
▁sacrifici 12
▁saduceo 12
▁sasagutin 12
▁scorn 12
▁seasons 12
▁seraias 12
▁seth 12
▁sheet 12
▁sho 12
▁sinisikatan 12
▁sinunggaban 12
▁sinusunod 12
▁sirain 12
▁smaller 12
▁socket 12
▁sorry 12
▁sower 12
▁speck 12
▁sprouted 12
▁stricken 12
▁success 12
▁sumisira 12
▁sumusumpa 12
▁sunset 12
▁suuban 12
▁tablet 12
▁tagapagbautismo 12
▁tambourine 12
▁tanghaga 12
▁temanite 12
▁th 12
▁thieves 12
▁tinitipon 12
▁tirzah 12
▁tofet 12
▁tool 12
▁topheth 12
▁trabahador 12
▁train 12
▁trembles 12
▁tuboran 12
▁tukbonon 12
▁tumila 12
▁tumutulo 12
▁tumutupok 12
▁tunika 12
▁turmoil 12
▁unawain 12
▁uncircumcision 12
▁underfoot 12
▁underneath 12
▁unjustly 12
▁upstairs 12
▁uziel 12
▁uzziel 12
▁vigor 12
▁weights 12
▁whip 12
▁wisely 12
▁wishes 12
▁workmanship 12
▁worth 12
▁wrappings 12
▁zebedeo 12
▁zippor 12
54 11
5; 11
aayus 11
abala 11
abb 11
aglilibing 11
anibsib 11
apawan 11
banos 11
baskog 11
bhasa 11
braham 11
bungkag 11
buntag 11
co 11
course 11
cum 11
danguyngoy 11
danihon 11
dapig 11
drac 11
ehipto 11
galong 11
gampanan 11
gasto 11
ghanda 11
ghinlo 11
ghuhugas 11
gkakabaha 11
here 11
higit 11
hininga 11
ight 11
iiyakan 11
ily 11
inday 11
ipigil 11
iwisik 11
kahibalo 11
kahigayon 11
kainan 11
kalakalan 11
kasuot 11
kurat 11
lalagyan 11
lihim 11
lingkoran 11
lisudliso 11
lumi 11
mapagarbohon 11
mapapakinabangan 11
masid 11
mentary 11
mpas 11
nagsisikap 11
nakay 11
nakit 11
nasasabik 11
ngkukulam 11
niah 11
nim 11
ows 11
padanak 11
pagpapatawad 11
pagtatanggol 11
pahimuslan 11
pahintul 11
palamuti 11
pinanukala 11
pplied 11
puspus 11
sabwatan 11
sanggalang 11
sangil 11
sudla 11
sudya 11
sumbalik 11
tambok 11
tamis 11
tapok 11
tatalian 11
they 11
tiyabaw 11
tuloy 11
udlanan 11
ulous 11
umihan 11
wood 11
yatak 11
zah 11
zi 11
▁18 11
▁200 11
▁aaliwin 11
▁abijah 11
▁abominable 11
▁achieve 11
▁afflictions 11
▁air 11
▁amarias 11
▁annul 11
▁aramean 11
▁assur 11
▁astarot 11
▁atarot 11
▁await 11
▁badlonga 11
▁barefoot 11
▁bathed 11
▁beach 11
▁believing 11
▁bereave 11
▁berechiah 11
▁bigvai 11
▁binugbog 11
▁bit 11
▁blaspheming 11
▁boastful 11
▁bozrah 11
▁breach 11
▁bridle 11
▁bubuhayin 11
▁buckler 11
▁bulok 11
▁caldea 11
▁carefree 11
▁chaldea 11
▁channel 11
▁cheek 11
▁cleared 11
▁clubs 11
▁coat 11
▁collector 11
▁consist 11
▁cunning 11
▁cyrene 11
▁dadaing 11
▁damage 11
▁decorations 11
▁definite 11
▁demanded 11
▁deposit 11
▁dignity 11
▁dinamitan 11
▁dinapit 11
▁discretion 11
▁displeas 11
▁drench 11
▁drowned 11
▁dumu 11
▁earlie 11
▁earthly 11
▁effort 11
▁elifas 11
▁elimelec 11
▁elisabet 11
▁elishama 11
▁elnatan 11
▁ensnared 11
▁eshcol 11
▁esmeralda 11
▁esteemed 11
▁etam 11
▁eternity 11
▁fasted 11
▁fearful 11
▁fellowship 11
▁fitt 11
▁foam 11
▁foreskin 11
▁fortresses 11
▁gagantihan 11
▁gerar 11
▁gidayandayan 11
▁gihik 11
▁gilain 11
▁ginhawaan 11
▁giniba 11
▁gipangandoy 11
▁gipasaka 11
▁gipatrabaho 11
▁gipiyal 11
▁gisugi 11
▁gitalikdan 11
▁gitipigan 11
▁giukanan 11
▁gumagal 11
▁halt 11
▁haserot 11
▁headband 11
▁hesron 11
▁hinukay 11
▁hivites 11
▁holder 11
▁hollow 11
▁honorable 11
▁horites 11
▁hosanna 11
▁hugasi 11
▁humiliation 11
▁hundreds 11
▁hutdo 11
▁idle 11
▁ikubli 11
▁ikukubli 11
▁inanyayahan 11
▁incurable 11
▁inosente 11
▁intercede 11
▁inubana 11
▁ipadpad 11
▁issue 11
▁jair 11
▁joaquin 11
▁jonadab 11
▁kabalisahan 11
▁kahiyahiya 11
▁kakulangan 11
▁kalayawan 11
▁kapamahalaan 11
▁kapintas 11
▁kapisanan 11
▁kapuloan 11
▁kasambahay 11
▁kasigurohan 11
▁katalinuhan 11
▁kaugmaon 11
▁kedes 11
▁kinasusuklaman 11
▁knives 11
▁kumaka 11
▁leviathan 11
▁libni 11
▁loads 11
▁lust 11
▁luxuriant 11
▁maaawa 11
▁maantigo 11
▁mababali 11
▁mabait 11
▁machpelah 11
▁madato 11
▁maglakaw 11
▁maglalap 11
▁magmumula 11
▁magpakasala 11
▁magpakatapang 11
▁magpapaka 11
▁magsaya 11
▁magsuroysuroy 11
▁mahalay 11
▁mahihina 11
▁mahimutang 11
▁mahl 11
▁mailigtas 11
▁maipahayag 11
▁makakatagal 11
▁makalawa 11
▁makapagpapa 11
▁makapauli 11
▁makawang 11
▁mamahalin 11
▁mamumuo 11
▁manager 11
▁mananampalataya 11
▁mangangayam 11
▁mangaral 11
▁manghina 11
▁mangil 11
▁manumbaling 11
▁mararangal 11
▁marketplace 11
▁marsh 11
▁matatatag 11
▁matayog 11
▁mayayaman 11
▁mensahero 11
▁merchant 11
▁meremoth 11
▁methuselah 11
▁michael 11
▁misana 11
▁monster 11
▁mosugot 11
▁myrtle 11
▁nababaga 11
▁nababal 11
▁nagbago 11
▁nagkalot 11
▁nagmadali 11
▁nagpaki 11
▁nagsibaba 11
▁nagsinggit 11
▁nagtubo 11
▁nagutom 11
▁nahaso 11
▁nahihirapan 11
▁nakaligtas 11
▁nakatakda 11
▁nalalanta 11
▁nalipol 11
▁namumunga 11
▁nanapaw 11
▁nanghilak 11
▁naririto 11
▁nasaktan 11
▁nayanig 11
▁nebusaradan 11
▁nebuzaradan 11
▁needed 11
▁neglected 11
▁ngumunguya 11
▁ninakaw 11
▁occurs 11
▁ohola 11
▁oholibah 11
▁onix 11
▁overturn 11
▁owe 11
▁pabayr 11
▁pagkabuta 11
▁pagkahimo 11
▁pagkakatulog 11
▁pagkubkob 11
▁pagkukunwari 11
▁pagluluksa 11
▁pagnanakaw 11
▁pagngangalit 11
▁pagpanimalos 11
▁pagpunay 11
▁pagtitiyaga 11
▁pairs 11
▁pakawalan 11
▁palahubog 11
▁palandong 11
▁palanggana 11
▁palapag 11
▁panabang 11
▁panakip 11
▁pangaliya 11
▁pantatak 11
▁panugtog 11
▁panula 11
▁pararangalan 11
▁partakers 11
▁partner 11
▁pashur 11
▁pasudlon 11
▁pathway 11
▁patibulaaga 11
▁payment 11
▁pertain 11
▁perverted 11
▁philippi 11
▁physician 11
▁pinaglingkuran 11
▁pinagtata 11
▁pinakamali 11
▁pinangalat 11
▁pinatawad 11
▁pinatyanay 11
▁pitchers 11
▁pits 11
▁planning 11
▁planting 11
▁plat 11
▁plauta 11
▁polished 11
▁prolonged 11
▁properly 11
▁proverbs 11
▁provocation 11
▁prun 11
▁pulseras 11
▁pus 11
▁putong 11
▁quake 11
▁radiance 11
▁raped 11
▁ration 11
▁regalo 11
▁regulation 11
▁returning 11
▁risk 11
▁roars 11
▁rushes 11
▁sabta 11
▁saddle 11
▁sagol 11
▁salamangka 11
▁sapphire 11
▁seals 11
▁sealtiel 11
▁sebanias 11
▁selfish 11
▁shining 11
▁silenced 11
▁sinago 11
▁sinusubok 11
▁splend 11
▁srael 11
▁starting 11
▁sub 11
▁subjection 11
▁sudden 11
▁sudlana 11
▁sufferings 11
▁suit 11
▁summ 11
▁sunogan 11
▁tambal 11
▁te 11
▁tebes 11
▁thistles 11
▁titingnan 11
▁toril 11
▁totter 11
▁trained 11
▁trials 11
▁tuaw 11
▁tukma 11
▁tumingala 11
▁tumutubo 11
▁tunok 11
▁umaawit 11
▁umagad 11
▁umuupo 11
▁unbelieving 11
▁unsearchable 11
▁unsuspecting 11
▁vile 11
▁viper 11
▁wadi 11
▁wagas 11
▁wasto 11
▁web 11
▁yumukod 11
▁zilpah 11
,700 10
abba 10
access 10
adah 10
agiw 10
akayin 10
anganlong 10
atenas 10
balos 10
budhian 10
bul 10
ces 10
dden 10
din 10
du 10
ects 10
eep 10
ether 10
fearing 10
gai 10
gapusin 10
gate 10
glilihi 10
gpakumbaba 10
gpapatubo 10
gpipigil 10
gsapayan 10
habilin 10
hiwahiwa 10
hogla 10
hugot 10
hum 10
hupay 10
ihagis 10
ipakaon 10
israel 10
isuot 10
its 10
kabaton 10
kagot 10
kainom 10
kapasok 10
kusokuso 10
kuwenta 10
labaw 10
lagdaan 10
lakarin 10
likha 10
lilipol 10
lulugod 10
maalamon 10
mah 10
maisogon 10
mamalit 10
mmed 10
munyag 10
nakmal 10
nghambog 10
ose 10
ost 10
pahubas 10
pakabanal 10
pakain 10
pamaligya 10
pastol 10
pikas 10
pildi 10
pinto 10
pirit 10
pobre 10
rangkahan 10
rumi 10
saliksik 10
sefer 10
serah 10
shea 10
sibsib 10
sidlak 10
simba 10
subli 10
tarso 10
tatangka 10
termination 10
tipig 10
tle 10
tungtong 10
tunobtunoban 10
umol 10
ured 10
wataswatas 10
winisik 10
worthy 10
yatakyatakan 10
▁ability 10
▁abuse 10
▁abusive 10
▁accordingly 10
▁accursed 10
▁achan 10
▁achor 10
▁actions 10
▁activity 10
▁address 10
▁adma 10
▁af 10
▁afflict 10
▁agagite 10
▁agony 10
▁ambon 10
▁amihud 10
▁ammihud 10
▁ammonite 10
▁ampoanan 10
▁ancestors 10
▁annually 10
▁approaches 10
▁approve 10
▁aristarchus 10
▁aristarco 10
▁ariyos 10
▁arpachshad 10
▁arrange 10
▁artemis 10
▁arts 10
▁asshur 10
▁ataroth 10
▁atimana 10
▁attained 10
▁ayoha 10
▁baby 10
▁balances 10
▁balbas 10
▁basemath 10
▁beeroth 10
▁besalel 10
▁binautismuhan 10
▁binayaw 10
▁binunot 10
▁bitak 10
▁blown 10
▁bold 10
▁borrow 10
▁breastplate 10
▁bubuksan 10
▁bugalbugalan 10
▁bugang 10
▁bundle 10
▁censers 10
▁char 10
▁cheeks 10
▁chephir 10
▁circl 10
▁compulsion 10
▁confident 10
▁conflict 10
▁confuse 10
▁consistent 10
▁contain 10
▁containers 10
▁contention 10
▁cos 10
▁countryside 10
▁counts 10
▁creditor 10
▁crete 10
▁crumble 10
▁cured 10
▁cursing 10
▁dangkal 10
▁debate 10
▁debora 10
▁debt 10
▁deceitfully 10
▁delayed 10
▁delicate 10
▁delighted 10
▁deliverance 10
▁descendant 10
▁describ 10
▁developed 10
▁dictation 10
▁dihogi 10
▁directions 10
▁disciplined 10
▁dissension 10
▁divorced 10
▁dor 10
▁drives 10
▁drunkenness 10
▁dugaydugay 10
▁dull 10
▁dwelt 10
▁earnings 10
▁earrings 10
▁elimelech 10
▁encircle 10
▁endow 10
▁engraving 10
▁entrust 10
▁ephrath 10
▁erect 10
▁estaol 10
▁ewe 10
▁ewes 10
▁excessive 10
▁exhortation 10
▁explore 10
▁fairly 10
▁fam 10
▁fe 10
▁feeble 10
▁fenicia 10
▁folded 10
▁followers 10
▁furrows 10
▁galileans 10
▁ganoon 10
▁gap 10
▁gath 10
▁gibunyagan 10
▁gihagoan 10
▁gihuptan 10
▁gitapi 10
▁grandson 10
▁grating 10
▁greeting 10
▁grieving 10
▁growth 10
▁guides 10
▁gulu 10
▁habit 10
▁hahamakin 10
▁haharapin 10
▁harass 10
▁harbor 10
▁harness 10
▁hazeroth 10
▁hearth 10
▁heated 10
▁heel 10
▁heels 10
▁hefer 10
▁higante 10
▁hikaplagan 10
▁hinati 10
▁hinihingi 10
▁hire 10
▁hissing 10
▁huhugasan 10
▁hulihin 10
▁humihihip 10
▁humihip 10
▁humira 10
▁hurrying 10
▁ibabangon 10
▁ibinubuka 10
▁illness 10
▁implore 10
▁importante 10
▁inaalalayan 10
▁inalala 10
▁inatasan 10
▁invade 10
▁ipapasok 10
▁ipinagkait 10
▁jachin 10
▁japet 10
▁jars 10
▁javan 10
▁jeroboam 10
▁jozadak 10
▁kahambugan 10
▁kailibgon 10
▁kakaiba 10
▁kaluguran 10
▁kampanilya 10
▁kapasikaran 10
▁kapitbahay 10
▁kaslonon 10
▁katatawanan 10
▁kinakailangan 10
▁kinukuha 10
▁kiriat 10
▁kiriathaim 10
▁latoson 10
▁layer 10
▁lied 10
▁lindol 10
▁lingi 10
▁lingkoranan 10
▁listra 10
▁loins 10
▁lowe 10
▁luluwalhatiin 10
▁lumilipad 10
▁lungib 10
▁lystra 10
▁mabalisa 10
▁macpela 10
▁magnificent 10
▁magpatotoo 10
▁magtanong 10
▁mahisakop 10
▁mahuli 10
▁makakarinig 10
▁makapagliligtas 10
▁makintab 10
▁malamig 10
▁malilimutan 10
▁malinaw 10
▁mandrakes 10
▁mansanas 10
▁mapagpala 10
▁mapanibughuin 10
▁mapupunta 10
▁mapuypoy 10
▁marker 10
▁marketplaces 10
▁masabt 10
▁masigasig 10
▁masipag 10
▁mat 10
▁matarog 10
▁matukib 10
▁mature 10
▁meaning 10
▁meanwhile 10
▁merkado 10
▁mesullam 10
▁midianite 10
▁minamasdan 10
▁miscarri 10
▁miserable 10
▁moabitess 10
▁moan 10
▁mob 10
▁molech 10
▁moons 10
▁mustasa 10
▁nabalaka 10
▁naghik 10
▁nagisi 10
▁naglakawlakaw 10
▁nagmahal 10
▁nagpangidlap 10
▁nagpatotoo 10
▁nakabig 10
▁nakakatakot 10
▁nalulungkot 10
▁namakak 10
▁nangaguba 10
▁nangatulog 10
▁nanubo 10
▁nanudlo 10
▁natuto 10
▁nilulu 10
▁nursed 10
▁officer 10
▁ofir 10
▁oils 10
▁onan 10
▁ophir 10
▁ostriches 10
▁overlook 10
▁owed 10
▁padaghanon 10
▁pagasunogon 10
▁pagbibigay 10
▁pagdadalamhati 10
▁pagkahimugso 10
▁pagmamataas 10
▁pagpangaon 10
▁pagpanghinlo 10
▁pagpapasalamat 10
▁pakiki 10
▁palabih 10
▁palakol 10
▁palalayain 10
▁palilig 10
▁pallu 10
▁pamatay 10
▁pangangalatin 10
▁panghunahuna 10
▁paninglan 10
▁pansinin 10
▁papatnubayan 10
▁parosh 10
▁passage 10
▁patingogon 10
▁patrol 10
▁pattern 10
▁pe 10
▁pelican 10
▁penuel 10
▁perceived 10
▁perplexed 10
▁perversion 10
▁pet 10
▁pinagtabuyan 10
▁pinagtitiwalaan 10
▁pinalaki 10
▁pinalalaya 10
▁pinipili 10
▁pinitpit 10
▁plac 10
▁pleadings 10
▁poll 10
▁poste 10
▁potifar 10
▁pound 10
▁previous 10
▁prow 10
▁pumaitaas 10
▁pumipi 10
▁pumuksa 10
▁pumupunta 10
▁pumuti 10
▁pupu 10
▁pupuntahan 10
▁pupunuin 10
▁puputulin 10
▁rab 10
▁rains 10
▁rechab 10
▁reclined 10
▁recover 10
▁refidim 10
▁refine 10
▁relation 10
▁relied 10
▁relieve 10
▁renown 10
▁repair 10
▁repeat 10
▁rephidim 10
▁resided 10
▁revenge 10
▁revert 10
▁rinyon 10
▁roared 10
▁round 10
▁rumor 10
▁samaryanhon 10
▁sank 10
▁sash 10
▁sashes 10
▁satisf 10
▁scarce 10
▁sebedeo 10
▁sect 10
▁senseless 10
▁sever 10
▁sharpen 10
▁shear 10
▁shecaniah 10
▁shittim 10
▁shrines 10
▁signed 10
▁similar 10
▁sinamba 10
▁sinipingan 10
▁sipres 10
▁sore 10
▁spice 10
▁stag 10
▁stench 10
▁stepp 10
▁stirring 10
▁ston 10
▁strive 10
▁struggle 10
▁sumaksi 10
▁sumasaka 10
▁surviv 10
▁taglamig 10
▁tahpanhes 10
▁tails 10
▁takutin 10
▁tamayon 10
▁tambourines 10
▁taniman 10
▁tapang 10
▁tarsus 10
▁taskmasters 10
▁teachings 10
▁tenons 10
▁tera 10
▁thessalonica 10
▁thighs 10
▁thresh 10
▁thummim 10
▁timailhan 10
▁tinatangay 10
▁tinutupad 10
▁torch 10
▁torrent 10
▁tri 10
▁trim 10
▁truthful 10
▁tumim 10
▁tutulungan 10
▁twent 10
▁tyrants 10
▁ugaling 10
▁unfaithfulness 10
▁valiantly 10
▁verdict 10
▁violator 10
▁vulture 10
▁wagons 10
▁wasted 10
▁willingly 10
▁wished 10
▁woke 10
▁wrestl 10
▁yapak 10
▁yumuyuko 10
▁zaccur 10
▁zacur 10
▁zafiro 10
▁zuar 10
,100 9
60 9
abtik 9
acle 9
agbabago 9
agtipun 9
ahatulan 9
ans 9
atch 9
babayen 9
balhog 9
banagbanag 9
being 9
bezek 9
bisibis 9
broth 9
bubuhay 9
cation 9
coal 9
color 9
cu 9
daugdaog 9
derbe 9
ders 9
dia 9
ekod 9
elah 9
elu 9
enan 9
enath 9
enggaste 9
eni 9
ery 9
esem 9
even 9
filipos 9
gbasol 9
gibis 9
giok 9
glalayag 9
godliness 9
gpangutan 9
guyod 9
hattaavah 9
himsog 9
hinloi 9
hood 9
how 9
hugpa 9
hukmi 9
ightly 9
insulto 9
jabes 9
judio 9
kahupay 9
kaibigan 9
kaluwas 9
kam 9
kapalit 9
katapos 9
kigsabot 9
kilab 9
kutkot 9
langoy 9
lar 9
lessness 9
lhogan 9
ligalig 9
linog 9
lugit 9
lutaw 9
maaca 9
madasigon 9
mahawa 9
makapagpasalamat 9
matnubay 9
mbangan 9
ments 9
midian 9
mihag 9
minded 9
mposed 9
nagpalipas 9
nanamsam 9
nanangis 9
nggugulo 9
nlumo 9
nukso 9
oday 9
ony 9
ory 9
pagkakatiwala 9
paglalaban 9
pagtiis 9
paniniwala 9
panumbaling 9
papadanak 9
patakbo 9
per 9
persia 9
piras 9
pukyutan 9
pusgay 9
ranasan 9
rebelde 9
rimmon 9
rough 9
sabod 9
sandaan 9
sikreto 9
sinyas 9
spir 9
steps 9
taguan 9
tamaktamak 9
tandi 9
tatatag 9
tempered 9
that 9
three 9
timate 9
tunog 9
tutuwid 9
ubso 9
uch 9
udyo 9
umapaw 9
urok 9
utbo 9
vah 9
wawakasan 9
yayapakan 9
yuyukod 9
▁,400. 9
▁400 9
▁62 9
▁8 9
▁aabutan 9
▁aapaw 9
▁aapihin 9
▁abdo 9
▁abida 9
▁abidan 9
▁acquit 9
▁agreement 9
▁aijalon 9
▁akala 9
▁alagaran 9
▁alimpulos 9
▁aliwin 9
▁almendras 9
▁aloes 9
▁amalekita 9
▁amisadai 9
▁ankle 9
▁answering 9
▁approved 9
▁archer 9
▁argument 9
▁arrive 9
▁assyrian 9
▁avenged 9
▁azekah 9
▁babayaran 9
▁baguhin 9
▁bakilid 9
▁baluktot 9
▁barn 9
▁basaha 9
▁batter 9
▁beerot 9
▁beheaded 9
▁belteshasar 9
▁benaiah 9
▁bene 9
▁berilo 9
▁besiege 9
▁binabantayan 9
▁binugkos 9
▁boasting 9
▁bother 9
▁bra 9
▁brief 9
▁bukira 9
▁bumabalot 9
▁bumasa 9
▁bystanders 9
▁caps 9
▁cares 9
▁cephas 9
▁chemosh 9
▁chop 9
▁cliffs 9
▁cluster 9
▁coast 9
▁compensat 9
▁complaining 9
▁confession 9
▁conspiracy 9
▁conspire 9
▁contrite 9
▁convict 9
▁corpse 9
▁cristohanon 9
▁crushes 9
▁cur 9
▁cushan 9
▁da 9
▁dabir 9
▁daugdaoga 9
▁delicacies 9
▁deport 9
▁destitute 9
▁devote 9
▁diamond 9
▁diligent 9
▁discussion 9
▁dishe 9
▁downward 9
▁drain 9
▁drought 9
▁dungeon 9
▁durung 9
▁dying 9
▁eagles 9
▁edges 9
▁elder 9
▁ele 9
▁eleale 9
▁emission 9
▁emptied 9
▁emptiness 9
▁encounter 9
▁engkantador 9
▁enlighten 9
▁enos 9
▁enosh 9
▁eshtaol 9
▁exists 9
▁expecting 9
▁expert 9
▁fails 9
▁fee 9
▁festivals 9
▁firepans 9
▁fixed 9
▁flog 9
▁forbid 9
▁frustrate 9
▁fuel 9
▁galler 9
▁gamitin 9
▁gawasnon 9
▁gerahs 9
▁giagian 9
▁gid 9
▁gidaoban 9
▁gidugayon 9
▁gilaoman 9
▁girgashite 9
▁gisangon 9
▁gitukob 9
▁gituohan 9
▁glass 9
▁gleanings 9
▁glow 9
▁goldsmith 9
▁graft 9
▁grasshopper 9
▁grope 9
▁growl 9
▁hahampasin 9
▁halimbawa 9
▁hall 9
▁hammedatha 9
▁han 9
▁hanoch 9
▁happiness 9
▁harem 9
▁heavi 9
▁hele 9
▁hinabang 9
▁hinahabol 9
▁hinder 9
▁hoba 9
▁hole 9
▁housetop 9
▁hubar 9
▁hurrie 9
▁husayon 9
▁ibinababa 9
▁iconium 9
▁ikalabintatlo 9
▁ikasasama 9
▁ikasaway 9
▁immoral 9
▁inaapi 9
▁incur 9
▁infe 9
▁inigpang 9
▁inihalaga 9
▁inilalabas 9
▁injur 9
▁intelligent 9
▁inuusig 9
▁inwardly 9
▁ishmaelites 9
▁isinilang 9
▁isinusugo 9
▁ismaelita 9
▁israelites 9
▁isugi 9
▁italia 9
▁itatanim 9
▁itur 9
▁izhar 9
▁jafet 9
▁jamin 9
▁jedias 9
▁kahakog 9
▁kahanginan 9
▁kakilabutan 9
▁kalapastanganan 9
▁kamand 9
▁kapanganakan 9
▁kaparian 9
▁kasalukuyan 9
▁kasapaan 9
▁kasaypanan 9
▁kasinatian 9
▁katiyakan 9
▁katubusan 9
▁katusuhan 9
▁kauhaw 9
▁kinalaman 9
▁kishon 9
▁knee 9
▁knife 9
▁kornalina 9
▁kukulangin 9
▁kumikinang 9
▁kuneho 9
▁kuwago 9
▁lagyo 9
▁laish 9
▁laps 9
▁lavish 9
▁lawyers 9
▁linggo 9
▁liryo 9
▁litid 9
▁lodging 9
▁lovely 9
▁lukp 9
▁lumago 9
▁lumalago 9
▁lutoa 9
▁maanyag 9
▁madagayaon 9
▁madaugon 9
▁magdusa 9
▁maghintay 9
▁magic 9
▁magkakapatid 9
▁magkatibulaag 9
▁maglakbay 9
▁maglalasing 9
▁magnakaw 9
▁magpaubos 9
▁magsimula 9
▁magtatam 9
▁magtatanim 9
▁magtutukod 9
▁magwawakas 9
▁major 9
▁makalakaw 9
▁makapagsasabi 9
▁makinaadmanon 9
▁malluc 9
▁mangalaglag 9
▁mangangaral 9
▁manger 9
▁manggagamot 9
▁manghihina 9
▁maniwala 9
▁manlulupaypay 9
▁mapandaya 9
▁mapapakinabang 9
▁mapuputi 9
▁matatapa 9
▁mate 9
▁matiyaga 9
▁meditation 9
▁megiddo 9
▁melquizedek 9
▁meremot 9
▁mill 9
▁minabuti 9
▁mirto 9
▁misael 9
▁misled 9
▁morsel 9
▁motives 9
▁musi 9
▁mute 9
▁nadato 9
▁naghahangad 9
▁naglatag 9
▁nagmaga 9
▁nagmaya 9
▁nagnanakaw 9
▁nagpapahinga 9
▁nagtatagumpay 9
▁nagtatanong 9
▁nagtitinda 9
▁nakahanda 9
▁nakaukit 9
▁nakikipamayan 9
▁namunga 9
▁nanampalataya 9
▁nananampalataya 9
▁nangabusog 9
▁nanubag 9
▁napahiya 9
▁nardo 9
▁nasina 9
▁natutunan 9
▁nazaretnon 9
▁ocran 9
▁offensive 9
▁oholiab 9
▁oppose 9
▁oppresse 9
▁overseers 9
▁overshadow 9
▁paabota 9
▁pagbabantay 9
▁pagdaing 9
▁pagkabalisa 9
▁pagkabanhaw 9
▁pagkahubo 9
▁pagkapanganay 9
▁paglilingkuran 9
▁paglingap 9
▁pagmasdan 9
▁pagpangani 9
▁pagpangespiya 9
▁pagpapagod 9
▁pagpaubos 9
▁pagsalang 9
▁pagsinggit 9
▁pagtubo 9
▁pahalang 9
▁pahingahan 9
▁pakaulawi 9
▁pakyason 9
▁palingkor 9
▁pamaty 9
▁paminawa 9
▁pamphylia 9
▁pangangaral 9
▁panghilak 9
▁paninira 9
▁panulukan 9
▁papawiin 9
▁partial 9
▁patalim 9
▁patch 9
▁patiently 9
▁patukoranan 9
▁peg 9
▁permanently 9
▁permissi 9
▁phi 9
▁pinagmulan 9
▁pinakamaganda 9
▁pinalabi 9
▁pinansin 9
▁pinapatay 9
▁pinaslang 9
▁pinayagan 9
▁pipili 9
▁planks 9
▁plate 9
▁plawta 9
▁plea 9
▁plott 9
▁plotting 9
▁ponder 9
▁predestined 9
▁presses 9
▁prinsesa 9
▁proconsul 9
▁pumailanglang 9
▁purposes 9
▁ravine 9
▁reconciled 9
▁reel 9
▁reflect 9
▁refu 9
▁refute 9
▁relihiyoso 9
▁remaliah 9
▁results 9
▁retained 9
▁rewarded 9
▁rite 9
▁sagipin 9
▁sakim 9
▁samaritan 9
▁sanbalat 9
▁sanctuaries 9
▁sasamsaman 9
▁schem 9
▁scorpions 9
▁sebna 9
▁seventeen 9
▁severity 9
▁shebna 9
▁shethar 9
▁shim 9
▁shimron 9
▁shortened 9
▁shortly 9
▁shrivel 9
▁sibma 9
▁sigh 9
▁simons 9
▁sinaligan 9
▁sinasaway 9
▁sinisira 9
▁sinning 9
▁sinugatan 9
▁sinuholan 9
▁sinulid 9
▁skirt 9
▁skull 9
▁slipped 9
▁slope 9
▁sofonias 9
▁soldier 9
▁somewhere 9
▁sores 9
▁sort 9
▁stated 9
▁steals 9
▁stocks 9
▁story 9
▁stretcher 9
▁strict 9
▁stumbles 9
▁stump 9
▁suar 9
▁submit 9
▁sumampa 9
▁sumasagot 9
▁supported 9
▁survive 9
▁susukatin 9
▁tambor 9
▁tappuah 9
▁tassel 9
▁tel 9
▁tempest 9
▁tighimo 9
▁tinuturuan 9
▁tinutuya 9
▁trappe 9
▁trick 9
▁tripulante 9
▁troso 9
▁tumatahan 9
▁tumbanan 9
▁tungkulin 9
▁umaalis 9
▁umigib 9
▁umiikot 9
▁umuungal 9
▁umuusad 9
▁units 9
▁vi 9
▁vigorous 9
▁vindication 9
▁vinegar 9
▁weakness 9
▁wink 9
▁wiser 9
▁writhe 9
▁zattu 9
▁zurishaddai 9
,200 8
05 8
6; 8
73 8
aawaan 8
aben 8
acob 8
action 8
agdiriwang 8
aghat 8
agtitiwala 8
ahalata 8
akuran 8
angatulog 8
anghimaraot 8
arah 8
baal 8
baslan 8
berea 8
bugbog 8
cated 8
controlled 8
cyprus 8
daldal 8
damdam 8
del 8
diah 8
earned 8
ecause 8
ection 8
edomea 8
eri 8
ering 8
eva 8
fected 8
fifth 8
fter 8
gamay 8
gapin 8
ginto 8
gpaparumi 8
gsiahon 8
gsuroysuroy 8
guguluh 8
hach 8
handog 8
her 8
hingawa 8
hinumdom 8
histle 8
hunaw 8
ically 8
ieser 8
ified 8
igihan 8
igising 8
ikla 8
jeshimoth 8
jesimot 8
kahihiya 8
kakain 8
kakamit 8
kamamatay 8
kamay 8
kamuhi 8
katap 8
katigulang 8
kighugoyhugoy 8
kipagpayapaan 8
labintatlo 8
latigo 8
lie 8
looking 8
lungkab 8
mamalagi 8
mamat 8
marry 8
matarok 8
merodac 8
metic 8
minal 8
mish 8
ms 8
my 8
ngilngig 8
niel 8
oenai 8
pagpapahinga 8
pamukpok 8
pangguba 8
panghambog 8
pangulo 8
panlupig 8
pasimulan 8
patanto 8
patigayon 8
patrabaho 8
pher 8
pinakain 8
popootan 8
punsisok 8
rated 8
rim 8
ripe 8
rishathaim 8
rity 8
room 8
saac 8
salipdan 8
sar 8
sepher 8
seven 8
silangan 8
ssing 8
sugyot 8
sumbag 8
sure 8
takbo 8
tangisan 8
tataghoy 8
tax 8
then 8
tri 8
ttah 8
udungisan 8
umamo 8
uyurak 8
white 8
wisik 8
ye 8
yrus 8
▁,600 8
▁14 8
▁aanihin 8
▁abarim 8
▁abistros 8
▁accustomed 8
▁achaia 8
▁adaiah 8
▁admah 8
▁aged 8
▁akkub 8
▁allowance 8
▁almendro 8
▁aloe 8
▁amaze 8
▁amend 8
▁anna 8
▁annihilat 8
▁apolos 8
▁app 8
▁apparel 8
▁apuyan 8
▁arch 8
▁arguing 8
▁arimathea 8
▁arranged 8
▁aslo 8
▁astonishment 8
▁athens 8
▁attached 8
▁attire 8
▁awakened 8
▁azgad 8
▁babasagin 8
▁balance 8
▁baluti 8
▁barzillai 8
▁belshasar 8
▁beltesasar 8
▁bewildered 8
▁bitiis 8
▁blasphemies 8
▁blinded 8
▁blocks 8
▁bodi 8
▁boiled 8
▁box 8
▁bribes 8
▁bukbok 8
▁bumuha 8
▁buslo 8
▁buwitre 8
▁buyer 8
▁canceled 8
▁capital 8
▁certainty 8
▁chain 8
▁chedorlaomer 8
▁chinnereth 8
▁cho 8
▁chronicles 8
▁cisterns 8
▁cliff 8
▁coastland 8
▁cobra 8
▁coin 8
▁collapsed 8
▁colors 8
▁complacen 8
▁conform 8
▁consequen 8
▁content 8
▁contentious 8
▁courts 8
▁crack 8
▁crave 8
▁credit 8
▁crime 8
▁criminal 8
▁criminals 8
▁crowed 8
▁cult 8
▁dadalh 8
▁danger 8
▁danites 8
▁darken 8
▁daybreak 8
▁dealings 8
▁debtors 8
▁decisions 8
▁declar 8
▁decorate 8
▁decreed 8
▁delaiah 8
▁derbe 8
▁deride 8
▁derision 8
▁descent 8
▁despaired 8
▁detest 8
▁devastate 8
▁dignitaries 8
▁dinidilig 8
▁disclosed 8
▁displeased 8
▁disturbed 8
▁document 8
▁domineer 8
▁dress 8
▁drunken 8
▁dungganan 8
▁dwindle 8
▁educated 8
▁elealeh 8
▁enan 8
▁engaste 8
▁enlightened 8
▁entertain 8
▁escapes 8
▁eu 8
▁excess 8
▁exert 8
▁exiled 8
▁ezer 8
▁fade 8
▁farm 8
▁fence 8
▁flames 8
▁flowers 8
▁foliage 8
▁foremen 8
▁forevermore 8
▁fortifications 8
▁fortune 8
▁foxes 8
▁fugitive 8
▁furious 8
▁gagaling 8
▁galilean 8
▁galli 8
▁garland 8
▁gemariah 8
▁gemarias 8
▁genealogi 8
▁genealogy 8
▁gershonita 8
▁gesh 8
▁geshurites 8
▁gideoni 8
▁gigikanan 8
▁gihubo 8
▁gikarga 8
▁gilaraw 8
▁ginansilyo 8
▁ginugulo 8
▁gipalabi 8
▁gisagol 8
▁gitamay 8
▁gitunton 8
▁gleam 8
▁gleaned 8
▁gloomy 8
▁grasped 8
▁greece 8
▁grieve 8
▁groups 8
▁guidance 8
▁hagai 8
▁hakkoz 8
▁hakog 8
▁hanani 8
▁hanoc 8
▁hapunan 8
▁hashabias 8
▁hashum 8
▁hasshub 8
▁hatac 8
▁havilah 8
▁hegai 8
▁heritage 8
▁hihinto 8
▁hilanat 8
▁hinaharap 8
▁holiday 8
▁homage 8
▁hop 8
▁horribl 8
▁humiga 8
▁humili 8
▁humiliate 8
▁hunawanan 8
▁hymn 8
▁ibinibi 8
▁ice 8
▁iconio 8
▁idolatr 8
▁iginagalang 8
▁ignorance 8
▁igsusu 8
▁ilalapa 8
▁illuminate 8
▁imer 8
▁imprison 8
▁inigkagabii 8
▁inihahanda 8
▁injury 8
▁inspection 8
▁instantly 8
▁interrogate 8
▁interv 8
▁inupahan 8
▁invent 8
▁involve 8
▁ipaglaban 8
▁ipinaghanda 8
▁ipinagmamalaki 8
▁isigkamagtutuo 8
▁italy 8
▁itatal 8
▁jahas 8
▁jaw 8
▁jehoiachin 8
▁jeshurun 8
▁kaamuan 8
▁kabaitan 8
▁kabulahanan 8
▁kagalingan 8
▁kahilayan 8
▁kalawang 8
▁kaldero 8
▁kaligayahan 8
▁kaluha 8
▁kamanghamangha 8
▁kambal 8
▁kaminyoon 8
▁kaningningan 8
▁kapait 8
▁karagdagan 8
▁karaingan 8
▁karsunsilyo 8
▁kasagaran 8
▁kasakdalan 8
▁ke 8
▁kenihanon 8
▁ker 8
▁kibrot 8
▁kinakalag 8
▁kinalilimutan 8
▁kinulayan 8
▁kiriatiarim 8
▁kit 8
▁knocking 8
▁kriminal 8
▁labans 8
▁lagnat 8
▁lalampas 8
▁lalamunan 8
▁languish 8
▁laughed 8
▁layuan 8
▁leopardo 8
▁li 8
▁lifeblood 8
▁lod 8
▁loosen 8
▁lumalabag 8
▁lumalaki 8
▁lustful 8
▁mabagabag 8
▁madaugdaugon 8
▁magbago 8
▁magbigkis 8
▁magbubula 8
▁magkakabisa 8
▁magkakasala 8
▁magkalisodlisod 8
▁magmalaki 8
▁magtuo 8
▁makakaunawa 8
▁makatayo 8
▁makatuwiran 8
▁malluch 8
▁malulupit 8
▁mamamahala 8
▁manggagaling 8
▁manghilak 8
▁mangingisda 8
▁mangiob 8
▁maniniwala 8
▁manlalaban 8
▁mapagbiyaya 8
▁marrying 8
▁marvel 8
▁masayop 8
▁maselan 8
▁massah 8
▁mateo 8
▁matitirahan 8
▁matutuwa 8
▁mediator 8
▁menstruation 8
▁mid 8
▁midday 8
▁millstones 8
▁missing 8
▁mist 8
▁mix 8
▁miz 8
▁moabite 8
▁mokunhod 8
▁molde 8
▁moloc 8
▁mourners 8
▁mudd 8
▁mules 8
▁multi 8
▁multiplie 8
▁multo 8
▁naashon 8
▁nabagabag 8
▁nabubuwal 8
▁nadakpan 8
▁nagbabala 8
▁naghintay 8
▁naglaho 8
▁nagmadaugon 8
▁nagmauswagon 8
▁nagpapasaya 8
▁nagpupuri 8
▁nagsasaya 8
▁nagtatanim 8
▁nagugutom 8
▁nahisalaag 8
▁nakasulti 8
▁nakatala 8
▁namaligya 8
▁namulak 8
▁nangagu 8
▁nangangalunya 8
▁nangangaral 8
▁nangapukan 8
▁nanghina 8
▁nanindog 8
▁napahamak 8
▁napakataas 8
▁napupuno 8
▁nard 8
▁natatago 8
▁natawhan 8
▁nebaioth 8
▁nicodemus 8
▁ninuman 8
▁noblemen 8
▁nullif 8
▁oaths 8
▁oboth 8
▁occup 8
▁ochran 8
▁oly 8
▁openly 8
▁opposition 8
▁outburst 8
▁owners 8
▁pagagalingin 8
▁pagbabago 8
▁pagbabayarin 8
▁pagbagulbol 8
▁pagbati 8
▁pagdaramdam 8
▁pagkakaadlawon 8
▁pagkakaisa 8
▁pagkamasupilon 8
▁pagkaugma 8
▁pagkayari 8
▁pagpanudlo 8
▁pagpaparusa 8
▁pagsasabi 8
▁pagsigi 8
▁pagtambo 8
▁pagtatagumpay 8
▁pagtuaw 8
▁pagtuturo 8
▁paharion 8
▁painumin 8
▁pakialam 8
▁palihog 8
▁panaghiusa 8
▁pananatilihin 8
▁pandereta 8
▁panganib 8
▁panghawakan 8
▁panunumbalikin 8
▁pap 8
▁papel 8
▁par 8
▁paramihin 8
▁pasultiha 8
▁pathros 8
▁patient 8
▁patnubayan 8
▁patros 8
▁patutunguhan 8
▁pawiin 8
▁pedaiah 8
▁periods 8
▁physicians 8
▁pinababayaan 8
▁pinagpaguran 8
▁pinagpapala 8
▁pinagtatawanan 8
▁pinakiusapan 8
▁pinananatili 8
▁pinapahalagahan 8
▁pinapanghina 8
▁pinataba 8
▁pinuputol 8
▁platero 8
▁plato 8
▁platter 8
▁pont 8
▁prefects 8
▁profan 8
▁promote 8
▁protected 8
▁provision 8
▁psalms 8
▁pumayag 8
▁purged 8
▁quail 8
▁quarantine 8
▁qui 8
▁rabba 8
▁race 8
▁radiant 8
▁ramp 8
▁recogniz 8
▁register 8
▁registered 8
▁representatives 8
▁reprimand 8
▁reprimanded 8
▁reputation 8
▁requirement 8
▁respected 8
▁responsib 8
▁ripen 8
▁romano 8
▁rope 8
▁ruling 8
▁sakes 8
▁salem 8
▁samaritano 8
▁samuel 8
▁sangkalangitan 8
▁sapiro 8
▁sav 8
▁scab 8
▁script 8
▁seacoast 8
▁secu 8
▁selofehad 8
▁senses 8
▁seraya 8
▁sew 8
▁shedeur 8
▁shelemias 8
▁shovels 8
▁shrink 8
▁shudder 8
▁sibmah 8
▁sikomoro 8
▁sinundan 8
▁skip 8
▁smelt 8
▁sorceries 8
▁sovereignty 8
▁sowing 8
▁sparrows 8
▁speed 8
▁spitting 8
▁spots 8
▁stallions 8
▁step 8
▁stork 8
▁straighten 8
▁strings 8
▁sumagana 8
▁sumasangguni 8
▁sumikat 8
▁sumulong 8
▁sunugin 8
▁swell 8
▁swim 8
▁swoop 8
▁taanach 8
▁tagapagturo 8
▁tar 8
▁taxes 8
▁thebes 8
▁thickness 8
▁thirsts 8
▁thoughtless 8
▁threaten 8
▁tingpamu 8
▁tinuohan 8
▁tir 8
▁titirahan 8
▁tola 8
▁torrents 8
▁trac 8
▁trampl 8
▁trans 8
▁tribo 8
▁trivial 8
▁tro 8
▁tugkar 8
▁tumatagal 8
▁ulunan 8
▁unaware 8
▁undergarments 8
▁undisturbed 8
▁unity 8
▁upheld 8
▁upset 8
▁utanon 8
▁uyoan 8
▁veils 8
▁wanderer 8
▁wolf 8
▁worshipers 8
▁wrists 8
▁zaccheus 8
▁zatu 8
▁zealous 8
▁zeboiim 8
▁zelofehad 8
▁zerahites 8
▁ziph 8
▁zoph 8
▁zur 8
,300 7
22; 7
abasbasan 7
addar 7
ade 7
adiah 7
agayakan 7
akipot 7
angabayo 7
apinan 7
arimatea 7
attenai 7
augu 7
bbling 7
bel 7
betsaida 7
binahagi 7
binigkis 7
biyuda 7
bozenai 7
cable 7
ched 7
communi 7
corinto 7
daraan 7
dibuho 7
duhig 7
dumtan 7
elaiah 7
enter 7
erate 7
form 7
fully 7
ghihirap 7
gilin 7
gpaparangal 7
gugul 7
habul 7
halina 7
hambin 7
hamugaway 7
haph 7
hearted 7
hen 7
herefore 7
hugno 7
humaling 7
hutd 7
ibza 7
idalit 7
iimbot 7
impil 7
imus 7
ipagkakaila 7
ipirma 7
ished 7
ities 7
kainin 7
katilaw 7
kigbisog 7
kumot 7
lalagas 7
lamdag 7
langyaw 7
lets 7
lita 7
lugway 7
lumb 7
luspad 7
mabungahon 7
magandang 7
mailhan 7
makapagpaliwanag 7
masakiton 7
molupyo 7
mumuhian 7
nalangin 7
nangangasiwa 7
nding 7
netofa 7
nghupaw 7
nna 7
oboam 7
ordinah 7
pabuhagay 7
pagtutuli 7
palaran 7
pinahintul 7
pipe 7
piyal 7
ps 7
pulpog 7
pulutong 7
puputol 7
puspos 7
rive 7
roi 7
roth 7
salakayin 7
sam 7
sheth 7
sigasig 7
siglahin 7
siklab 7
sukitsukit 7
tabuyan 7
tatakutin 7
tested 7
than 7
tly 7
tuck 7
tugnaw 7
ump 7
unggab 7
unlod 7
use 7
uzza 7
vial 7
yubit 7
zai 7
zaphan 7
▁,3 7
▁44 7
▁600 7
▁aalalayan 7
▁abadon 7
▁abused 7
▁achzib 7
▁admi 7
▁aflame 7
▁aground 7
▁aholibama 7
▁alabaster 7
▁alabastro 7
▁alejandro 7
▁alexander 7
▁alfeo 7
▁alphaeus 7
▁ambition 7
▁amihan 7
▁ammishaddai 7
▁amounts 7
▁angle 7
▁anywhere 7
▁apapangig 7
▁apdo 7
▁appropriate 7
▁aspalto 7
▁assist 7
▁associates 7
▁awakens 7
▁baana 7
▁babylonians 7
▁banners 7
▁banog 7
▁barns 7
▁barri 7
▁belsazar 7
▁belts 7
▁bereaved 7
▁beriah 7
▁beryl 7
▁blasphem 7
▁blasphemy 7
▁breached 7
▁breathe 7
▁brick 7
▁brighter 7
▁bud 7
▁bukol 7
▁bumabagsak 7
▁bumuka 7
▁cana 7
▁caravan 7
▁careless 7
▁charging 7
▁ches 7
▁childhood 7
▁cinnamon 7
▁clan 7
▁coins 7
▁commotion 7
▁compar 7
▁comparison 7
▁composed 7
▁condemns 7
▁conf 7
▁conferred 7
▁confesses 7
▁contemptible 7
▁continuing 7
▁copper 7
▁cris 7
▁crouch 7
▁cru 7
▁cumin 7
▁cymbals 7
▁dalagita 7
▁decrees 7
▁dedicate 7
▁defraud 7
▁delila 7
▁deliverer 7
▁delivery 7
▁demolish 7
▁dens 7
▁detail 7
▁devo 7
▁dinadaya 7
▁dinakpan 7
▁disagree 7
▁discernment 7
▁disheartened 7
▁divid 7
▁downfall 7
▁drachmas 7
▁drifter 7
▁drinker 7
▁dumidikit 7
▁elnathan 7
▁em 7
▁embalm 7
▁embittered 7
▁engage 7
▁espirituwal 7
▁etham 7
▁evi 7
▁evildoer 7
▁exits 7
▁exploit 7
▁expose 7
▁expression 7
▁farmer 7
▁farmers 7
▁farthe 7
▁feeling 7
▁festiv 7
▁fifties 7
▁filthiness 7
▁flew 7
▁flight 7
▁flourishes 7
▁fo 7
▁folds 7
▁foolishly 7
▁furnish 7
▁gains 7
▁galloping 7
▁gerizim 7
▁gershom 7
▁gibistihan 7
▁gidikta 7
▁gikasab 7
▁gililong 7
▁giluko 7
▁ginsakopan 7
▁gipasidaan 7
▁gipasika 7
▁gipasinaw 7
▁gision 7
▁gitunol 7
▁grandsons 7
▁groves 7
▁guest 7
▁habagat 7
▁habitation 7
▁hadad 7
▁hak 7
▁hamtong 7
▁handled 7
▁hasabias 7
▁haspe 7
▁himala 7
▁hinugasan 7
▁honesty 7
▁huhubar 7
▁hy 7
▁hyrax 7
▁ibinili 7
▁ibinitin 7
▁iggugubat 7
▁ignore 7
▁ikapapahamak 7
▁imitat 7
▁imm 7
▁impl 7
▁implor 7
▁important 7
▁impuls 7
▁inalagaan 7
▁indicate 7
▁intelligence 7
▁inusig 7
▁isugnod 7
▁itinatanong 7
▁itinawag 7
▁jaspe 7
▁jeconias 7
▁jobab 7
▁jug 7
▁justly 7
▁kabisera 7
▁kagahi 7
▁kahahabagan 7
▁kahinaan 7
▁kakabos 7
▁kakutyaan 7
▁kalilimutan 7
▁kaliskis 7
▁kalugdan 7
▁kapanganoran 7
▁kapasayloan 7
▁karbungko 7
▁kasagbotan 7
▁kasagutan 7
▁kasawian 7
▁kasintahan 7
▁katinuan 7
▁katiwasayan 7
▁kenan 7
▁kenizzite 7
▁kerioth 7
▁kikilos 7
▁kinahapunan 7
▁kinaluluguran 7
▁kinamuhian 7
▁kinatawan 7
▁kisse 7
▁kittim 7
▁kneeling 7
▁knock 7
▁knocks 7
▁kontra 7
▁kublihan 7
▁kumakalat 7
▁kumikilos 7
▁kutsilyo 7
▁lament 7
▁landowner 7
▁lapyahan 7
▁learning 7
▁leb 7
▁lebiatan 7
▁legion 7
▁lib 7
▁lick 7
▁lime 7
▁lirio 7
▁liyopardo 7
▁looted 7
▁loving 7
▁mabubulok 7
▁mabudhion 7
▁madudurog 7
▁madug 7
▁magkapatid 7
▁maglaraw 7
▁maglatag 7
▁magmahal 7
▁magpahimu 7
▁magpakarami 7
▁magtatabang 7
▁magtina 7
▁mahlon 7
▁maintained 7
▁makahahadlok 7
▁makamatay 7
▁makipagdigma 7
▁malquias 7
▁mamuyo 7
▁managhoy 7
▁mananamba 7
▁mandaragit 7
▁mangapukan 7
▁manginginain 7
▁mangungu 7
▁mapuslanon 7
▁market 7
▁matataba 7
▁mating 7
▁matitisod 7
▁matt 7
▁matthew 7
▁matutuli 7
▁medium 7
▁merai 7
▁micaiah 7
▁miguel 7
▁mizpeh 7
▁mobati 7
▁modasdas 7
▁mosaka 7
▁motunhay 7
▁mow 7
▁murderers 7
▁murders 7
▁nagbaga 7
▁nagdaramdam 7
▁naggilakgilak 7
▁nagkaguliyang 7
▁nagkagulo 7
▁naglayag 7
▁nagmalaki 7
▁nagmalinawon 7
▁nagmamasid 7
▁nagngangalit 7
▁nagpaantaw 7
▁nagsisisigaw 7
▁nakalakaw 7
▁nakamat 7
▁nakapagpapa 7
▁nakatuon 7
▁nakigdu 7
▁nakipagdigma 7
▁namahulay 7
▁namalagi 7
▁namumuhay 7
▁nanamilit 7
▁naninibugho 7
▁nanuo 7
▁napakadakila 7
▁napakaliit 7
▁nasiyahan 7
▁natatakpan 7
▁nests 7
▁nicodemo 7
▁nilakaran 7
▁niyapakan 7
▁obligations 7
▁observ 7
▁obst 7
▁oneself 7
▁oth 7
▁overflows 7
▁pagkapalong 7
▁pagmamatigas 7
▁pagpamakak 7
▁pagpapagal 7
▁pagsisikap 7
▁pagtamay 7
▁palalaka 7
▁pamaagi 7
▁pambalikat 7
▁pamutl 7
▁pananabik 7
▁panel 7
▁panglawas 7
▁panulok 7
▁panustos 7
▁papahintulutan 7
▁payagan 7
▁peaceful 7
▁peaks 7
▁pedahzur 7
▁pedasur 7
▁persecutors 7
▁persians 7
▁persuade 7
▁pinagsisikapan 7
▁pinahalagahan 7
▁pinakadulo 7
▁pinanggalingan 7
▁pinaniwalaan 7
▁pinions 7
▁pinupu 7
▁posts 7
▁practic 7
▁presumptuously 7
▁pri 7
▁principles 7
▁prisons 7
▁proposal 7
▁propose 7
▁psaltery 7
▁pukanon 7
▁pumapailanglang 7
▁puoh 7
▁rabsake 7
▁ramps 7
▁realize 7
▁reck 7
▁referr 7
▁religion 7
▁repute 7
▁respects 7
▁restraint 7
▁revered 7
▁riddles 7
▁rust 7
▁salterio 7
▁sam 7
▁scoff 7
▁scrap 7
▁seba 7
▁sedeur 7
▁sefanias 7
▁seller 7
▁setarboz 7
▁shamed 7
▁shar 7
▁shefatias 7
▁sheshbazzar 7
▁shuhite 7
▁sicknesses 7
▁sil 7
▁simple 7
▁simron 7
▁sinimulan 7
▁sinina 7
▁sinisin 7
▁sinusugo 7
▁size 7
▁sledge 7
▁snatche 7
▁sora 7
▁spacious 7
▁sparing 7
▁sparkl 7
▁spoil 7
▁stadia 7
▁staggering 7
▁sto 7
▁stops 7
▁stormy 7
▁structure 7
▁subsided 7
▁suck 7
▁sumusulat 7
▁supplies 7
▁surg 7
▁surpasse 7
▁sustenance 7
▁sw 7
▁swifter 7
▁swing 7
▁sycamore 7
▁tagoangkan 7
▁taksanan 7
▁talukap 7
▁tangke 7
▁target 7
▁tatangayin 7
▁tatenai 7
▁terafim 7
▁tetrarka 7
▁threat 7
▁thresholds 7
▁tiktik 7
▁tinapakan 7
▁tinubuan 7
▁tiquico 7
▁tirza 7
▁tradisyon 7
▁travelers 7
▁tuluy 7
▁tumatanggi 7
▁tuso 7
▁tutubo 7
▁tychicus 7
▁unceasing 7
▁uncultivated 7
▁undertake 7
▁unfortunate 7
▁unique 7
▁uubusin 7
▁uzzi 7
▁va 7
▁vegetables 7
▁vindicated 7
▁violat 7
▁volunteer 7
▁wax 7
▁wrathful 7
▁wronged 7
▁zanoah 7
▁zered 7
▁zif 7
▁zilpa 7
▁zipor 7
,600 6
3,400 6
aakala 6
ability 6
addon 6
adudulas 6
adulam 6
aha 6
akku 6
alah 6
allai 6
amalandong 6
amgar 6
anath 6
approval 6
arabah 6
arded 6
aris 6
asion 6
atarungan 6
ature 6
bansay 6
berith 6
bethsaida 6
binuang 6
bone 6
cing 6
cle 6
cloth 6
control 6
daplin 6
debt 6
diblathaim 6
diyos 6
doub 6
ebai 6
efeso 6
efraim 6
elet 6
ellow 6
ements 6
fection 6
ficial 6
ficient 6
fits 6
foot 6
ganansya 6
gannim 6
gotten 6
gpapakababa 6
gra 6
gress 6
hahiroth 6
hambugiro 6
haruhay 6
hugyaw 6
huptan 6
ide 6
idlip 6
igdal 6
ilize 6
intel 6
intellig 6
jasub 6
kakaplag 6
kalabas 6
kem 6
kislap 6
labimpito 6
landong 6
larawan 6
lashes 6
lect 6
light 6
lilimos 6
liness 6
llegi 6
lungtad 6
magsisinungaling 6
mahinatagon 6
mai 6
main 6
makalilisang 6
matarong 6
milit 6
millo 6
mmanuel 6
namel 6
nia 6
ntact 6
occupied 6
ook 6
paghihiganti 6
pagkamatinumanon 6
pagpapakumbaba 6
pamuhat 6
panaginip 6
panukala 6
parusa 6
peel 6
pelet 6
phel 6
pinaglilingkuran 6
presen 6
rang 6
riph 6
routed 6
runner 6
rurusahan 6
sanlibutan 6
sayran 6
secrate 6
senaah 6
she 6
shemes 6
sight 6
skirt 6
solve 6
stain 6
stairs 6
stitute 6
taglay 6
tai 6
talia 6
tapol 6
this 6
tigbas 6
tikyop 6
togarma 6
togarmah 6
tub 6
tuktugaok 6
tuous 6
ture 6
tutumbas 6
tych 6
uff 6
ular 6
ulent 6
upp 6
wel 6
west 6
who 6
wife 6
will 6
work 6
works 6
zaniah 6
▁1,0 6
▁11 6
▁128 6
▁144,000 6
▁76 6
▁80 6
▁abiezrites 6
▁aboard 6
▁abolish 6
▁absen 6
▁achbor 6
▁acor 6
▁administrat 6
▁administrators 6
▁adullamite 6
▁adulterer 6
▁advise 6
▁ahab 6
▁alexandrian 6
▁almon 6
▁alpha 6
▁alpombra 6
▁alter 6
▁amasias 6
▁ambassador 6
▁amethyst 6
▁amulets 6
▁anchor 6
▁annihilate 6
▁apollos 6
▁apostas 6
▁apples 6
▁applie 6
▁aramaic 6
▁arameans 6
▁arfacsad 6
▁aris 6
▁arisen 6
▁armado 6
▁arod 6
▁arpad 6
▁arrangement 6
▁arrival 6
▁arvad 6
▁asenat 6
▁assert 6
▁attach 6
▁autumn 6
▁aveng 6
▁avvi 6
▁azar 6
▁baalah 6
▁babaguhin 6
▁bahagya 6
▁bakuran 6
▁balsamo 6
▁bamoth 6
▁bandage 6
▁banne 6
▁banquets 6
▁bantilis 6
▁bartholomew 6
▁bartolome 6
▁basemat 6
▁bearer 6
▁beneficial 6
▁benjaminite 6
▁berea 6
▁bethphage 6
▁betroth 6
▁blindness 6
▁blunt 6
▁boldness 6
▁borrower 6
▁bosra 6
▁bounty 6
▁bramble 6
▁brazier 6
▁brokenhearted 6
▁bubusugin 6
▁bucket 6
▁budd 6
▁buildings 6
▁burda 6
▁burdened 6
▁cadmiel 6
▁caftor 6
▁canal 6
▁canopy 6
▁caphtor 6
▁carri 6
▁cassia 6
▁celebrating 6
▁check 6
▁cherishes 6
▁chests 6
▁circle 6
▁citizen 6
▁cle 6
▁coats 6
▁col 6
▁collar 6
▁columns 6
▁comforters 6
▁commendable 6
▁companies 6
▁complet 6
▁conclud 6
▁confidently 6
▁container 6
▁continues 6
▁contribut 6
▁convocations 6
▁convulsions 6
▁coral 6
▁corinth 6
▁corruption 6
▁counsels 6
▁couriers 6
▁cower 6
▁craftsmanship 6
▁cramped 6
▁craving 6
▁creat 6
▁dadakilain 6
▁date 6
▁daytime 6
▁dear 6
▁debris 6
▁deceiver 6
▁defi 6
▁delaia 6
▁departs 6
▁departure 6
▁deported 6
▁describe 6
▁deserve 6
▁designs 6
▁determines 6
▁devouring 6
▁dia 6
▁dinidisiplina 6
▁disa 6
▁disab 6
▁disguise 6
▁dishan 6
▁disowned 6
▁displace 6
▁disposal 6
▁disregard 6
▁disrespectfully 6
▁distracted 6
▁doorpost 6
▁dreadful 6
▁dregs 6
▁drinkers 6
▁dripping 6
▁du 6
▁dudu 6
▁earns 6
▁easi 6
▁elapse 6
▁eminen 6
▁encampment 6
▁encourag 6
▁engaged 6
▁enlarged 6
▁enroll 6
▁enticed 6
▁epaphr 6
▁ephesians 6
▁err 6
▁espanya 6
▁espongha 6
▁estate 6
▁ethiopia 6
▁examin 6
▁exc 6
▁expend 6
▁expertise 6
▁exterminate 6
▁extort 6
▁extortion 6
▁faded 6
▁failing 6
▁fainthearted 6
▁farms 6
▁fervent 6
▁fester 6
▁filth 6
▁fin 6
▁fist 6
▁fists 6
▁fleeting 6
▁forbidden 6
▁forcefully 6
▁formation 6
▁fowl 6
▁futilities 6
▁gaius 6
▁galio 6
▁gaze 6
▁gennesaret 6
▁ghost 6
▁gibakakan 6
▁giddel 6
▁gikampohan 6
▁gileadites 6
▁ginising 6
▁ginnetho 6
▁girgasihanon 6
▁gleaning 6
▁gloat 6
▁goiim 6
▁goldsmiths 6
▁granddaughter 6
▁gratitude 6
▁griddle 6
▁grumbling 6
▁guiltless 6
▁guyoron 6
▁hab 6
▁hammers 6
▁hamon 6
▁hananel 6
▁hanapbuhay 6
▁hangarin 6
▁harh 6
▁haro 6
▁harshly 6
▁hawk 6
▁haza 6
▁headwaiter 6
▁hedgehog 6
▁helek 6
▁helpers 6
▁herbs 6
▁hinnom 6
▁hinuhuli 6
▁hipuin 6
▁hook 6
▁horonite 6
▁hosana 6
▁hosea 6
▁hug 6
▁hunter 6
▁ibinabagsak 6
▁iglap 6
▁imagination 6
▁impair 6
▁impart 6
▁impur 6
▁income 6
▁indict 6
▁inquir 6
▁insensitive 6
▁intention 6
▁intermi 6
▁intimately 6
▁invisible 6
▁ipagkakaloob 6
▁iparirinig 6
▁ipinaaalam 6
▁ipinaglalaban 6
▁ipinanata 6
▁jacinth 6
▁jehoshaphat 6
▁jeshaiah 6
▁joel 6
▁jog 6
▁joktan 6
▁jonatan 6
▁joses 6
▁jurisdiction 6
▁kadagaya 6
▁kagipitan 6
▁kahigalaan 6
▁kakaladkarin 6
▁kalamangan 6
▁kalamo 6
▁kalamposan 6
▁kaligutgot 6
▁kamanggagawa 6
▁kandado 6
▁kapansanan 6
▁kaparyentihan 6
▁kapasidunggan 6
▁kasalatan 6
▁kedemoth 6
▁kinasuklaman 6
▁kindred 6
▁kinuku 6
▁kiriataim 6
▁kite 6
▁kor 6
▁kuwart 6
▁laborer 6
▁lalangin 6
▁laughing 6
▁lawless 6
▁lawyer 6
▁lazuli 6
▁leaks 6
▁leviatan 6
▁lily 6
▁literat 6
▁loath 6
▁lotan 6
▁luke 6
▁lulutuin 6
▁luxuriously 6
▁luyoluyo 6
▁lydda 6
▁lye 6
▁maaca 6
▁maacathites 6
▁magbakak 6
▁maghahasik 6
▁maghihiganti 6
▁magigiba 6
▁magkakapareho 6
▁magkatuwang 6
▁maglaba 6
▁maglalaho 6
▁magog 6
▁mahli 6
▁maisog 6
▁makalangit 6
▁makanunayon 6
▁malc 6
▁malchiel 6
▁malimpyo 6
▁malulusog 6
▁mamulak 6
▁management 6
▁manampalataya 6
▁manapaw 6
▁manunukob 6
▁mapakinggan 6
▁mapangalunya 6
▁mapanghimagsik 6
▁martilyo 6
▁masunurin 6
▁matatias 6
▁mattath 6
▁mattenai 6
▁matutulog 6
▁mefaat 6
▁melody 6
▁mephaath 6
▁meraiot 6
▁mesec 6
▁mibuhagay 6
▁mibul 6
▁mica 6
▁michmas 6
▁midheaven 6
▁midu 6
▁migrat 6
▁mirac 6
▁mistake 6
▁mistaken 6
▁mixture 6
▁mol 6
▁moresheth 6
▁mosuba 6
▁moturok 6
▁murdered 6
▁muster 6
▁mysteri 6
▁naamathite 6
▁nagkakagulo 6
▁nagmatigas 6
▁nagpakilimos 6
▁nagpapatirapa 6
▁nagpropesiya 6
▁nagsinungaling 6
▁nagsitakas 6
▁nagustohan 6
▁nakababata 6
▁nakakamatay 6
▁nakakulong 6
▁nakaugalian 6
▁nakayuko 6
▁nanginginain 6
▁nanunumpa 6
▁naratnan 6
▁nathanael 6
▁necess 6
▁nemuel 6
▁nephilim 6
▁ner 6
▁nergal 6
▁nis 6
▁nob 6
▁nourishe 6
▁nurture 6
▁occ 6
▁olivet 6
▁ome 6
▁omens 6
▁opponent 6
▁originat 6
▁orion 6
▁outcasts 6
▁pagdasdas 6
▁pagdurusa 6
▁pagkakilomkilom 6
▁pagkatinuli 6
▁pagmamalaki 6
▁pagsamo 6
▁pahatmoab 6
▁palate 6
▁panggatong 6
▁panginabuhi 6
▁panlasa 6
▁panunuya 6
▁partic 6
▁paseah 6
▁passion 6
▁passions 6
▁patirahin 6
▁patriarch 6
▁pelatiah 6
▁pelikano 6
▁pen 6
▁perceiv 6
▁perfection 6
▁perpet 6
▁persian 6
▁pethahiah 6
▁phoenicia 6
▁phy 6
▁pihahirot 6
▁pillage 6
▁pinagbilinan 6
▁pinahayo 6
▁pinaniniwalaan 6
▁pinawawalang 6
▁pirathon 6
▁pitcher 6
▁plowshares 6
▁plu 6
▁pocket 6
▁pools 6
▁poplar 6
▁populate 6
▁portico 6
▁portiko 6
▁potiphera 6
▁powder 6
▁preeminen 6
▁priscilla 6
▁procession 6
▁profusely 6
▁project 6
▁prompt 6
▁proof 6
▁prospers 6
▁prostrat 6
▁prudence 6
▁psalm 6
▁pugngi 6
▁purchaser 6
▁pursuit 6
▁quota 6
▁quote 6
▁raamah 6
▁rampart 6
▁rap 6
▁ravens 6
▁reaps 6
▁reasonable 6
▁rebuk 6
▁rechabites 6
▁recovered 6
▁recovery 6
▁refin 6
▁reform 6
▁refugees 6
▁rehoboth 6
▁relate 6
▁relihiyon 6
▁remalias 6
▁remark 6
▁repe 6
▁repents 6
▁replace 6
▁replaster 6
▁reptile 6
▁repudiate 6
▁rescu 6
▁reserve 6
▁restor 6
▁revelers 6
▁revived 6
▁rib 6
▁ridge 6
▁rouse 6
▁rub 6
▁rubbish 6
▁rudder 6
▁sabsaban 6
▁sal 6
▁sangnilikha 6
▁sapphires 6
▁saqueo 6
▁scapegoat 6
▁scheme 6
▁screamed 6
▁seasoned 6
▁sefatias 6
▁sefora 6
▁sekta 6
▁senakerib 6
▁senir 6
▁sennacherib 6
▁serebias 6
▁shak 6
▁shamir 6
▁shawl 6
▁shemida 6
▁sheph 6
▁shobal 6
▁shua 6
▁shun 6
▁sibeon 6
▁sickly 6
▁siddim 6
▁silk 6
▁simei 6
▁simeonites 6
▁slanderous 6
▁sling 6
▁slippery 6
▁smoking 6
▁snort 6
▁sobal 6
▁soft 6
▁soothsayers 6
▁sopar 6
▁sotana 6
▁spark 6
▁sponge 6
▁stack 6
▁stalks 6
▁stammer 6
▁stank 6
▁stem 6
▁stink 6
▁storehouse 6
▁stories 6
▁stroke 6
▁subsequent 6
▁subsides 6
▁suet 6
▁sumaiyo 6
▁sumibol 6
▁superior 6
▁supper 6
▁supplied 6
▁surpass 6
▁swiftly 6
▁sympathy 6
▁tafnes 6
▁tagnok 6
▁tagtuyot 6
▁talmon 6
▁tapanhes 6
▁tawiran 6
▁temper 6
▁tendon 6
▁terribly 6
▁territories 6
▁threatening 6
▁thyatira 6
▁tinanggihan 6
▁tinatanong 6
▁tinitingnan 6
▁titus 6
▁tongs 6
▁trance 6
▁traveler 6
▁treasurers 6
▁tribulations 6
▁trough 6
▁trustworth 6
▁tudling 6
▁tumitig 6
▁tumupad 6
▁tutulong 6
▁tutuyuin 6
▁tuwirin 6
▁umuunlad 6
▁uncu 6
▁undertakings 6
▁unintentional 6
▁unw 6
▁v 6
▁vapor 6
▁vehemently 6
▁ver 6
▁victim 6
▁wadis 6
▁wag 6
▁waterpot 6
▁waver 6
▁wayside 6
▁weighs 6
▁wick 6
▁won 6
▁workmen 6
▁worries 6
▁writhes 6
▁yantok 6
▁zare 6
▁zealot 6
▁zebulunite 6
▁zilfa 6
▁zillah 6
▁zipporah 6
▁zora 6
6,7 5
730 5
775 5
acc 5
agpanuko 5
almon 5
authori 5
avelin 5
avid 5
azaniah 5
aziah 5
but 5
dagon 5
elem 5
erech 5
fact 5
flame 5
fluent 5
gar 5
geber 5
grown 5
gue 5
hagoyim 5
haired 5
inu 5
ior 5
ition 5
jaakan 5
kadesh 5
known 5
lac 5
let 5
like 5
lines 5
loyal 5
minated 5
mless 5
morr 5
mounted 5
mus 5
oam 5
oh 5
ounded 5
phath 5
quir 5
repare 5
rog 5
roph 5
runk 5
seventh 5
stic 5
til 5
tipha 5
trator 5
uda 5
udent 5
ummim 5
ural 5
usual 5
what 5
you 5
zabad 5
zion 5
▁123 5
▁15 5
▁245 5
▁43 5
▁52 5
▁64 5
▁abhorren 5
▁ablaze 5
▁acquaint 5
▁adulteries 5
▁advised 5
▁afford 5
▁akrabbim 5
▁allegiance 5
▁alliance 5
▁aloof 5
▁ammonites 5
▁ancestr 5
▁aphek 5
▁appease 5
▁ararat 5
▁artist 5
▁azmon 5
▁azzur 5
▁bakbukiah 5
▁banished 5
▁banner 5
▁bark 5
▁bat 5
▁bernice 5
▁bilga 5
▁binubuk 5
▁birthday 5
▁bloomed 5
▁boisterous 5
▁breaches 5
▁broth 5
▁bulrush 5
▁bunni 5
▁captors 5
▁carv 5
▁character 5
▁chilion 5
▁chronic 5
▁clamor 5
▁claudius 5
▁clever 5
▁clo 5
▁club 5
▁consol 5
▁constant 5
▁consultation 5
▁contemp 5
▁contributed 5
▁controvers 5
▁convened 5
▁convers 5
▁convert 5
▁cop 5
▁cow 5
▁crimes 5
▁cub 5
▁customer 5
▁danced 5
▁daylight 5
▁decapolis 5
▁deceiv 5
▁deriv 5
▁determine 5
▁deviate 5
▁dimon 5
▁disappears 5
▁disrespectful 5
▁dissensions 5
▁downpour 5
▁dreamer 5
▁dripped 5
▁earthquakes 5
▁egla 5
▁elt 5
▁emim 5
▁encamp 5
▁encamps 5
▁engedi 5
▁ephrathah 5
▁epi 5
▁equipped 5
▁establishes 5
▁excel 5
▁excellence 5
▁exclusive 5
▁exhort 5
▁expens 5
▁eze 5
▁falcon 5
▁forti 5
▁fraud 5
▁fringe 5
▁gebal 5
▁gerasenes 5
▁glutton 5
▁golgotha 5
▁goodwill 5
▁gossiper 5
▁hagab 5
▁hatch 5
▁hattush 5
▁hedge 5
▁herodians 5
▁hesitate 5
▁holon 5
▁horde 5
▁hori 5
▁horrif 5
▁hoshaiah 5
▁hoshea 5
▁ignorant 5
▁illuminated 5
▁implications 5
▁import 5
▁impose 5
▁impoverished 5
▁impre 5
▁incite 5
▁individually 5
▁indulg 5
▁innocence 5
▁instant 5
▁jaddua 5
▁jeremoth 5
▁jezer 5
▁joking 5
▁jotbathah 5
▁joyously 5
▁justifies 5
▁keilah 5
▁lame 5
▁languishes 5
▁leans 5
▁lends 5
▁lept 5
▁liars 5
▁libya 5
▁limits 5
▁linger 5
▁lizard 5
▁located 5
▁lonely 5
▁magnified 5
▁mail 5
▁maimed 5
▁marrow 5
▁meaningless 5
▁memucan 5
▁meshezabel 5
▁mildew 5
▁minni 5
▁miracle 5
▁mirror 5
▁miscarry 5
▁mold 5
▁mov 5
▁needle 5
▁neighing 5
▁nimr 5
▁obadiah 5
▁occupation 5
▁ointment 5
▁opinion 5
▁opponents 5
▁parcel 5
▁perfumer 5
▁perpetual 5
▁persever 5
▁plateau 5
▁pleiades 5
▁pluck 5
▁plucked 5
▁pole 5
▁possessors 5
▁preparations 5
▁profess 5
▁prospered 5
▁pulverize 5
▁qua 5
▁qualif 5
▁quantity 5
▁quarter 5
▁quench 5
▁quenched 5
▁rafter 5
▁rages 5
▁ranks 5
▁reaper 5
▁reconcile 5
▁rela 5
▁relenting 5
▁remov 5
▁rinse 5
▁riot 5
▁ro 5
▁rotten 5
▁rubb 5
▁rubble 5
▁sacrific 5
▁sardis 5
▁scar 5
▁scream 5
▁searche 5
▁seduce 5
▁shal 5
▁shammua 5
▁shelomi 5
▁shillem 5
▁shore 5
▁shrewd 5
▁shrewdly 5
▁silversmith 5
▁situat 5
▁sn 5
▁soot 5
▁specific 5
▁spectacle 5
▁spells 5
▁spiritists 5
▁spun 5
▁spurn 5
▁stalk 5
▁stare 5
▁stings 5
▁stole 5
▁stor 5
▁strain 5
▁stud 5
▁supervis 5
▁swamp 5
▁sways 5
▁sweetness 5
▁tabba 5
▁talmai 5
▁tanner 5
▁tasteless 5
▁team 5
▁temporary 5
▁tempt 5
▁thefts 5
▁tiberias 5
▁tracks 5
▁tranquil 5
▁transform 5
▁trays 5
▁treacher 5
▁tribunal 5
▁truthfully 5
▁turquoise 5
▁tyrant 5
▁undefiled 5
▁undo 5
▁unnoticed 5
▁unpleasant 5
▁unproductive 5
▁valuables 5
▁victorious 5
▁vinedressers 5
▁wielded 5
▁witchcraft 5
▁wo 5
▁worshiper 5
▁zaanan 5
▁zeresh 5
▁zichri 5
,400 4
03 4
20 4
47 4
53 4
82 4
930 4
abak 4
abera 4
ace 4
adai 4
aked 4
aliah 4
alled 4
alter 4
alyze 4
amaris 4
ammi 4
amon 4
ananiah 4
ander 4
anna 4
antly 4
aphtali 4
appoint 4
arden 4
aruma 4
ashore 4
astus 4
ative 4
awns 4
babel 4
bac 4
back 4
baladan 4
baz 4
bbing 4
bearing 4
because 4
beha 4
blemish 4
board 4
bol 4
bowl 4
bungkalin 4
cain 4
ccording 4
ception 4
char 4
cit 4
city 4
closed 4
clusion 4
col 4
commend 4
condemned 4
count 4
crow 4
dded 4
detected 4
drachma 4
duced 4
eans 4
egation 4
ei 4
ejected 4
ejoice 4
ekah 4
elchizedek 4
eluded 4
emon 4
ench 4
eopard 4
esar 4
etur 4
ext 4
ezib 4
fields 4
figure 4
firm 4
fork 4
forward 4
fruitful 4
gates 4
gathering 4
gaz 4
gging 4
gnified 4
gog 4
guard 4
gull 4
haara 4
hage 4
hash 4
hirt 4
hoz 4
hul 4
huphamites 4
ibboleth 4
icket 4
idal 4
ilities 4
indulg 4
iram 4
isted 4
itting 4
iza 4
kabzeel 4
killed 4
ladder 4
lank 4
leased 4
lifted 4
lled 4
llowed 4
makers 4
masses 4
mation 4
merodach 4
mic 4
morali 4
mpha 4
nacle 4
nate 4
nated 4
net 4
not 4
nounce 4
ntage 4
ocated 4
och 4
oes 4
olad 4
oses 4
ounding 4
own 4
pace 4
perez 4
ply 4
port 4
posts 4
quee 4
quench 4
quiet 4
rachel 4
rained 4
rap 4
rass 4
razin 4
redit 4
reph 4
ries 4
rmor 4
roz 4
rwise 4
sannah 4
scr 4
second 4
sense 4
sequence 4
setting 4
shal 4
shearers 4
shmon 4
sia 4
sick 4
significant 4
sition 4
specting 4
spense 4
steady 4
still 4
stricted 4
tabor 4
tain 4
tamar 4
thful 4
third 4
times 4
tracted 4
treat 4
ually 4
udah 4
ugg 4
upon 4
ursed 4
vil 4
vows 4
vvah 4
water 4
went 4
wise 4
workers 4
xion 4
yself 4
zedek 4
zephon 4
zon 4
zum 4
zzl 4
▁2,81 4
▁41 4
▁5 4
▁59 4
▁60 4
▁603,550 4
▁642 4
▁83 4
▁abhorre 4
▁abiezer 4
▁abihud 4
▁absence 4
▁absolutely 4
▁acceptance 4
▁accomplishment 4
▁achim 4
▁acqui 4
▁active 4
▁adram 4
▁aeneas 4
▁affairs 4
▁agitat 4
▁agitation 4
▁alternat 4
▁alush 4
▁amra 4
▁anath 4
▁anchors 4
▁anew 4
▁apostasy 4
▁appeased 4
▁archippus 4
▁areli 4
▁areopagus 4
▁arida 4
▁armory 4
▁arti 4
▁ashbel 4
▁ashpenaz 4
▁assari 4
▁asserted 4
▁attribute 4
▁avail 4
▁azm 4
▁azor 4
▁bakbuk 4
▁balm 4
▁banish 4
▁bargain 4
▁barren 4
▁battlement 4
▁bazl 4
▁bdellium 4
▁beads 4
▁beak 4
▁becher 4
▁bigger 4
▁biz 4
▁blade 4
▁blame 4
▁blanket 4
▁bochim 4
▁bottle 4
▁brandish 4
▁breakfast 4
▁bred 4
▁bri 4
▁briers 4
▁builder 4
▁bulge 4
▁burie 4
▁buz 4
▁buzite 4
▁calculated 4
▁calneh 4
▁caphtorim 4
▁carc 4
▁caretaker 4
▁carousing 4
▁carpenters 4
▁carve 4
▁casiphia 4
▁catche 4
▁chair 4
▁chaldean 4
▁champion 4
▁charity 4
▁cheat 4
▁cheerfulness 4
▁cherethites 4
▁cherish 4
▁chim 4
▁chinner 4
▁chislev 4
▁choirs 4
▁chryso 4
▁circulate 4
▁coastline 4
▁coffin 4
▁collection 4
▁colon 4
▁column 4
▁comforter 4
▁compass 4
▁compl 4
▁compos 4
▁conceit 4
▁condu 4
▁congratulate 4
▁conjurers 4
▁constellations 4
▁convulsion 4
▁cori 4
▁corro 4
▁cozbi 4
▁crafti 4
▁crane 4
▁cret 4
▁crimson 4
▁croc 4
▁cucumber 4
▁cultivat 4
▁cure 4
▁cushi 4
▁customers 4
▁cypr 4
▁damaged 4
▁debtor 4
▁deck 4
▁defame 4
▁defiantly 4
▁defil 4
▁demas 4
▁demetrius 4
▁depraved 4
▁desir 4
▁desponden 4
▁device 4
▁devis 4
▁disclose 4
▁discourag 4
▁dislocated 4
▁dismay 4
▁disorder 4
▁dispersion 4
▁distinguishe 4
▁dorcas 4
▁dreamers 4
▁drift 4
▁earring 4
▁eas 4
▁edification 4
▁edomites 4
▁ek 4
▁eldad 4
▁eliph 4
▁elishah 4
▁eliud 4
▁elk 4
▁ellasar 4
▁elm 4
▁elteke 4
▁emasculate 4
▁embar 4
▁embracing 4
▁embroider 4
▁emer 4
▁emperor 4
▁enact 4
▁encampments 4
▁enchante 4
▁engraver 4
▁enjoyment 4
▁enrich 4
▁enslave 4
▁epaphroditus 4
▁eran 4
▁esteem 4
▁estimation 4
▁evangelist 4
▁evaporate 4
▁eve 4
▁exclude 4
▁executioner 4
▁exempt 4
▁expense 4
▁explanation 4
▁extensi 4
▁extremity 4
▁fa 4
▁fair 4
▁fairness 4
▁famili 4
▁favoritism 4
▁fiercely 4
▁final 4
▁flogging 4
▁footprints 4
▁forefather 4
▁foretold 4
▁forewarn 4
▁fortunate 4
▁foul 4
▁fox 4
▁fragile 4
▁fragments 4
▁frail 4
▁framework 4
▁frontier 4
▁frustrated 4
▁gabba 4
▁gaddi 4
▁galatian 4
▁gall 4
▁gash 4
▁gaunt 4
▁gazite 4
▁genital 4
▁gethsemane 4
▁gibbethon 4
▁gitum 4
▁gluttons 4
▁goads 4
▁godliness 4
▁goring 4
▁gossip 4
▁gossips 4
▁gouge 4
▁gravel 4
▁grinder 4
▁guarantee 4
▁guardroom 4
▁gudgodah 4
▁gushe 4
▁hacaliah 4
▁hagg 4
▁haggi 4
▁hammo 4
▁hamstr 4
▁hamul 4
▁harbona 4
▁harmon 4
▁hashabneiah 4
▁haughti 4
▁haughtily 4
▁hauran 4
▁headlong 4
▁healer 4
▁hedges 4
▁helkath 4
▁hethlon 4
▁hirah 4
▁hoarded 4
▁homelessness 4
▁honeycomb 4
▁hornet 4
▁hospitality 4
▁humbl 4
▁hunters 4
▁hypocrite 4
▁idolater 4
▁ignored 4
▁immovable 4
▁impress 4
▁infa 4
▁infuriated 4
▁insistent 4
▁insisting 4
▁instinct 4
▁insufficient 4
▁interc 4
▁invalidat 4
▁investigating 4
▁investigation 4
▁iphtahel 4
▁irad 4
▁irijah 4
▁irreparable 4
▁irritating 4
▁ishvi 4
▁isolated 4
▁ithiel 4
▁jaala 4
▁jahleel 4
▁jairus 4
▁janoah 4
▁japhia 4
▁jareb 4
▁jashub 4
▁jehu 4
▁jokshan 4
▁julius 4
▁justus 4
▁juttah 4
▁kain 4
▁kark 4
▁karta 4
▁kick 4
▁kidnap 4
▁kil 4
▁kish 4
▁kishion 4
▁kohathite 4
▁kolaiah 4
▁lair 4
▁lan 4
▁launderer 4
▁lawgiver 4
▁lawsuit 4
▁laz 4
▁leadership 4
▁lender 4
▁lent 4
▁lewdness 4
▁lighten 4
▁liqu 4
▁liquor 4
▁listeners 4
▁localit 4
▁loi 4
▁lookout 4
▁loom 4
▁louder 4
▁lycaonia 4
▁lydia 4
▁lysias 4
▁madmen 4
▁magician 4
▁malignancy 4
▁mara 4
▁marble 4
▁marche 4
▁mason 4
▁mattanah 4
▁matthan 4
▁maturity 4
▁meadow 4
▁mehujael 4
▁melchi 4
▁methushael 4
▁mightily 4
▁miletus 4
▁mischie 4
▁miseries 4
▁misgivings 4
▁mishal 4
▁mithkah 4
▁mockers 4
▁mole 4
▁mottled 4
▁mule 4
▁mus 4
▁mushi 4
▁mutter 4
▁mysterious 4
▁nahalal 4
▁nahaliel 4
▁nail 4
▁negligent 4
▁nehelamite 4
▁nephew 4
▁netopha 4
▁netophathite 4
▁nezi 4
▁nicolaitans 4
▁nineteen 4
▁nobah 4
▁nullifie 4
▁nullified 4
▁oars 4
▁ophel 4
▁opportun 4
▁orpah 4
▁oseph 4
▁ostrich 4
▁outwardly 4
▁oversee 4
▁ozni 4
▁pact 4
▁palti 4
▁paphos 4
▁paradise 4
▁parm 4
▁participat 4
▁pat 4
▁patched 4
▁paws 4
▁pedestal 4
▁pentecost 4
▁perfumers 4
▁perpetually 4
▁perplexity 4
▁philosoph 4
▁phrygia 4
▁pigeon 4
▁pip 4
▁plum 4
▁plumage 4
▁plunderers 4
▁ponds 4
▁populated 4
▁porticoes 4
▁possibl 4
▁preparing 4
▁pret 4
▁private 4
▁problems 4
▁procedure 4
▁produc 4
▁profound 4
▁proselyte 4
▁proselytes 4
▁prostrate 4
▁prote 4
▁proudly 4
▁provid 4
▁prune 4
▁puah 4
▁punon 4
▁pursuits 4
▁quart 4
▁raam 4
▁rabbit 4
▁rabboni 4
▁rags 4
▁rai 4
▁raisin 4
▁rakk 4
▁rape 4
▁ratified 4
▁rattling 4
▁ravag 4
▁ravages 4
▁rece 4
▁reconciliation 4
▁reef 4
▁registration 4
▁rehoboam 4
▁reli 4
▁reliable 4
▁remarking 4
▁reme 4
▁remedy 4
▁repayment 4
▁representative 4
▁reservoir 4
▁revenue 4
▁revile 4
▁reviv 4
▁rhod 4
▁ridicul 4
▁rithmah 4
▁roadway 4
▁rogue 4
▁rom 4
▁rott 4
▁rowers 4
▁royalty 4
▁rubies 4
▁sab 4
▁sabt 4
▁salecah 4
▁saliva 4
▁sallu 4
▁salome 4
▁salu 4
▁sar 4
▁sardius 4
▁sarid 4
▁scare 4
▁scaveng 4
▁scent 4
▁scoffing 4
▁scorpion 4
▁screen 4
▁seers 4
▁seizure 4
▁sepharvaim 4
▁sered 4
▁shabbethai 4
▁shamm 4
▁shema 4
▁shemariah 4
▁shepham 4
▁shepher 4
▁shift 4
▁shihor 4
▁shiph 4
▁shrine 4
▁shulammite 4
▁shuni 4
▁shuthelah 4
▁sift 4
▁situated 4
▁smear 4
▁smelter 4
▁smith 4
▁smolder 4
▁sna 4
▁sneer 4
▁soap 4
▁soften 4
▁sorceress 4
▁spatter 4
▁spin 4
▁squa 4
▁squander 4
▁stain 4
▁stall 4
▁stat 4
▁statut 4
▁stew 4
▁stiff 4
▁stiffen 4
▁storeroom 4
▁straggler 4
▁straightened 4
▁strand 4
▁strictly 4
▁stylus 4
▁substance 4
▁successive 4
▁sue 4
▁sung 4
▁super 4
▁swea 4
▁swindler 4
▁swirl 4
▁syene 4
▁sym 4
▁sympathize 4
▁syr 4
▁taber 4
▁tabitha 4
▁tahath 4
▁taskmaster 4
▁tekoa 4
▁tertullus 4
▁thankful 4
▁thebez 4
▁theophilus 4
▁tigris 4
▁track 4
▁translat 4
▁triumphant 4
▁troas 4
▁troop 4
▁troubl 4
▁troughs 4
▁trousers 4
▁tryph 4
▁tumult 4
▁twig 4
▁twigs 4
▁ulai 4
▁undone 4
▁unfastened 4
▁unfathomable 4
▁unfeeling 4
▁unload 4
▁unrestrained 4
▁unstable 4
▁uphaz 4
▁uzal 4
▁vanishes 4
▁vault 4
▁voluntarily 4
▁wares 4
▁watcher 4
▁watchtower 4
▁wavering 4
▁waving 4
▁wholeheartedly 4
▁wil 4
▁wove 4
▁wrongdoer 4
▁zabbai 4
▁zacc 4
▁zalmon 4
▁zalmonah 4
▁zaphon 4
▁zebadiah 4
▁zemar 4
▁zena 4
▁zephon 4
▁ziha 4
▁zimri 4
,600. 3
33 3
80 3
abel 3
ackle 3
alak 3
amin 3
anned 3
armed 3
asha 3
asting 3
azin 3
bijah 3
blished 3
bolt 3
certain 3
chereth 3
corrupti 3
desirable 3
destructi 3
dran 3
first 3
fus 3
generation 3
growth 3
hadad 3
haggidgad 3
hanan 3
hanging 3
happy 3
hareseth 3
imnah 3
keeper 3
marks 3
master 3
penetra 3
please 3
post 3
ppress 3
rib 3
roducti 3
rom 3
ruhamah 3
service 3
shelishiyah 3
since 3
slaught 3
storm 3
tappuah 3
teries 3
time 3
tude 3
unites 3
urning 3
versity 3
wallow 3
where 3
without 3
▁13 3
▁337,500 3
▁66 3
▁675 3
▁activities 3
▁agabus 3
▁ahava 3
▁aimlessly 3
▁annoyed 3
▁antelope 3
▁anticipat 3
▁apiece 3
▁appall 3
▁ashkenaz 3
▁astonish 3
▁bowstring 3
▁brid 3
▁bukki 3
▁chasm 3
▁compete 3
▁conscious 3
▁consumption 3
▁continuously 3
▁contradict 3
▁crumbs 3
▁deba 3
▁depriv 3
▁desp 3
▁devastat 3
▁diviner 3
▁dophkah 3
▁drows 3
▁elasah 3
▁elevat 3
▁empire 3
▁eshtemo 3
▁execution 3
▁expresse 3
▁fabric 3
▁farewell 3
▁fiftie 3
▁fracture 3
▁gentile 3
▁hallo 3
▁handkerchief 3
▁harpists 3
▁hoopoe 3
▁illuminat 3
▁illumine 3
▁illusion 3
▁imagin 3
▁incapa 3
▁inclin 3
▁innumerable 3
▁intensely 3
▁irritation 3
▁jahzeel 3
▁jattir 3
▁jewel 3
▁judaism 3
▁justification 3
▁kehelathah 3
▁lewd 3
▁libnites 3
▁lucius 3
▁luxurious 3
▁luxury 3
▁mahala 3
▁makheloth 3
▁mareshah 3
▁michm 3
▁moisture 3
▁mushites 3
▁muzzle 3
▁nephtoah 3
▁obstruct 3
▁ornament 3
▁pavilion 3
▁pearl 3
▁persuasion 3
▁pethor 3
▁philadelphia 3
▁pig 3
▁possessor 3
▁prematurely 3
▁premeditation 3
▁presum 3
▁presumptuous 3
▁preten 3
▁promis 3
▁publius 3
▁purge 3
▁quarr 3
▁religious 3
▁retract 3
▁rissah 3
▁robber 3
▁safekeeping 3
▁sc 3
▁scalp 3
▁scour 3
▁scrape 3
▁serious 3
▁shimeites 3
▁shin 3
▁shoba 3
▁shock 3
▁shrub 3
▁slap 3
▁slingstones 3
▁sorcerer 3
▁sprig 3
▁sprinkl 3
▁stead 3
▁strang 3
▁stripp 3
▁surplus 3
▁suspect 3
▁tabeel 3
▁terebinth 3
▁thwart 3
▁treasurer 3
▁unchangeable 3
▁unsh 3
▁zepho 3
95 2
ahiah 2
efore 2
ew 2
guided 2
hindered 2
ie 2
mitted 2
mma 2
oreover 2
rolled 2
ther 2
ubin 2
▁assum 2
▁broo 2
▁distribut 2
▁envi 2
▁exchang 2
▁gitam 2
▁guid 2
▁mad 2
▁mib 2
▁princess 2
▁prov 2
▁advanc 1
madeupword0000 0
madeupword0001 0
madeupword0002 0
madeupword0003 0
