, 80706
▁the 42556
▁sa 41589
. 40532
ng 37426
▁ 34335
▁ng 34144
<2eng> 34053
<2tgl> 34053
▁ang 31632
▁and 26619
▁at 26586
▁na 22862
mga 21884
▁of 20943
▁ay 16178
▁to 16103
; 14101
▁you 10819
' 10386
▁kanya 9278
y 9212
▁in 8298
▁will 7569
▁a 7437
▁i 7266
▁he 6798
▁for 6702
▁is 5975
▁iyo 5678
- 5577
▁kanila 5432
▁panginoon 5367
▁ni 5334
▁your 5308
▁lord 5201
▁his 5124
▁they 5095
▁that 4888
▁not 4824
▁who 4773
g 4663
▁it 4578
▁be 4517
▁siya 4456
▁with 4403
? 4378
▁isa 4362
▁hindi 4312
aking 4278
▁ito 4199
▁them 4175
▁him 4055
▁from 3903
▁mo 3765
▁ako 3715
▁on 3649
▁sila 3632
▁have 3628
▁my 3570
s 3526
t 3513
▁all 3493
▁anak 3412
▁niya 3406
▁ko 3273
▁may 3176
▁diyos 3157
▁sapagkat 3120
▁inyo 3080
▁me 3073
▁their 3053
▁are 3032
▁but 3015
▁lahat 2965
▁shall 2949
▁so 2927
▁as 2900
▁was 2897
▁israel 2886
▁nang 2751
ing 2729
▁sinabi 2715
▁si 2676
▁god 2668
▁kayo 2616
▁said 2601
▁then 2560
▁upang 2490
▁one 2434
▁this 2356
▁ka 2337
! 2271
▁o 2256
▁has 2149
▁mula 2121
ed 2050
▁ninyo 2043
▁araw 2011
▁which 2003
▁ku 2002
▁when 1944
▁do 1880
▁were 1871
▁by 1848
▁ngunit 1820
▁out 1780
▁kay 1779
▁akin 1762
▁am 1693
▁sons 1659
▁people 1615
▁had 1596
▁tao 1586
▁nila 1562
▁lupain 1557
▁man 1556
▁there 1533
▁up 1511
▁jesus 1475
▁walang 1472
▁what 1452
▁again 1435
▁land 1421
▁lalaki 1418
▁now 1406
▁kaya 1405
▁iyon 1374
l 1330
▁her 1325
▁para 1312
st 1311
▁hari 1302
▁, 1278
▁huwag 1274
▁pa 1270
▁bayan 1269
: 1253
▁nasa 1253
▁or 1226
▁son 1217
▁like 1203
▁no 1187
▁gaya 1175
▁if 1161
▁pag 1156
▁its 1123
▁we 1123
▁because 1119
▁ikaw 1117
▁nag 1116
▁day 1115
an 1109
▁kamay 1099
▁come 1096
▁also 1086
▁those 1085
▁came 1075
▁bagay 1057
▁mag 1052
▁hangga 1048
▁laban 1019
▁an 1000
itan 996
▁go 983
▁saying 981
▁king 978
▁pamamag 964
d 960
▁jerusalem 955
▁into 926
▁lupa 925
▁ba 924
▁before 921
▁kasama 911
▁ma 906
▁these 902
▁us 902
▁buong 888
▁house 885
in 875
▁babae 865
▁over 860
▁taong 860
▁make 852
▁sinasabi 845
▁bahay 840
▁our 840
▁handog 835
▁did 833
ayon 826
▁hand 819
▁bawa 813
▁dahil 803
▁sarili 802
▁behold 801
▁magiging 798
▁say 784
▁down 779
ong 767
▁put 763
▁kapag 741
▁been 739
▁sabi 735
▁she 732
▁g 730
▁ginawa 721
▁father 720
▁mong 718
▁salita 717
▁take 714
▁let 711
▁moises 710
▁earth 706
▁nito 706
▁men 705
▁moses 705
▁harapan 703
▁dumating 694
▁. 693
▁ama 689
▁away 687
▁pangalan 678
▁siyang 678
▁know 676
▁kami 668
▁offering 665
▁about 660
▁made 659
▁jacob 658
▁w 652
▁things 642
▁kapatid 638
▁went 637
▁days 636
▁pari 634
▁place 628
▁pagkatapos 627
▁m 626
▁give 622
▁ini 611
▁lunsod 606
▁bring 599
▁ano 595
▁puso 589
▁magi 588
▁name 583
▁bilang 580
▁aaron 570
▁nor 569
▁subalit 563
▁city 561
▁whom 561
sa 560
ould 557
▁dako 557
▁person 557
▁tungko 557
▁kasamaan 551
▁says 548
▁parang 546
▁therefore 545
▁pinuno 541
▁ganito 532
▁kundi 531
▁every 529
▁great 528
▁see 527
▁after 525
▁holy 525
▁masama 524
▁tubig 524
▁niyon 522
▁mabuti 517
▁naging 517
▁marami 509
▁heart 507
▁banal 505
aming 499
▁panahon 495
▁brought 493
▁word 493
▁way 489
▁langit 487
▁egypt 486
▁ehipto 484
▁doon 483
▁good 481
▁two 478
▁become 474
▁gitna 474
▁time 471
▁through 470
ok 466
▁silang 464
ly 460
▁ngayon 459
▁does 458
▁bansa 452
▁buhay 449
▁fire 449
▁anuman 444
▁dalawang 443
▁nakita 442
▁even 437
▁how 430
▁muli 426
▁ibinigay 422
▁where 422
▁any 420
▁gawa 420
▁daan 418
▁taon 418
▁judah 416
▁sin 415
▁sent 413
▁juda 412
▁heard 411
▁own 411
▁apoy 408
▁sambahayan 408
▁many 406
▁unti 406
▁bundok 405
▁nations 401
▁saw 401
▁life 400
▁words 400
▁abraham 398
▁mata 398
▁una 397
▁fathers 392
▁tayo 392
▁espiritu 391
upon 390
▁narito 388
▁rin 388
▁set 388
▁spirit 387
▁water 387
▁live 386
▁eat 384
▁ibabaw 384
▁wala 384
▁sabihin 383
▁according 381
▁just 381
▁bahagi 378
▁pina 378
▁yet 378
▁gagawin 377
ave 376
▁asawa 375
▁hukbo 375
▁priest 375
▁matuwid 369
▁pintuan 367
▁himself 365
▁lamang 364
▁ilang 361
▁kang 361
▁than 360
▁gayon 357
▁other 357
▁nga 355
▁loob 354
▁heaven 351
▁namin 350
▁eyes 348
▁sino 348
▁hands 347
▁nawa 347
▁pito 347
▁paano 345
▁each 344
▁kautusan 344
▁sina 342
▁evil 339
▁gumawa 339
▁law 339
▁while 338
utos 337
▁called 335
▁done 332
▁lingkod 331
▁years 328
▁dugo 327
▁going 327
▁death 326
▁kasalanan 323
▁dagat 320
▁declares 320
i 319
▁sea 319
▁keep 318
▁speak 318
▁tabak 318
▁tinig 318
ever 317
▁another 315
▁kings 315
▁left 315
▁haba 312
▁some 312
▁spoke 312
▁brothers 311
▁given 310
▁hayop 310
▁od 310
▁blood 309
▁bakit 306
▁kaaway 306
▁magkagayo 306
▁around 305
▁pang 305
▁s 305
▁baka 304
▁gold 303
▁sword 303
▁tupa 303
n 302
▁seven 302
▁tinapay 300
▁christ 299
▁ipina 298
▁ulo 297
e 296
▁burn 295
▁cities 295
▁first 295
▁bibig 293
▁ginto 292
▁nagsalita 292
▁only 292
▁propeta 292
▁tolda 292
▁roon 291
▁voice 290
▁jordan 289
▁taga 289
▁why 288
▁dinala 287
▁kaharian 287
a 286
▁hear 285
▁tapat 285
▁iba 284
▁bata 283
▁bato 283
▁mouth 282
▁amin 281
▁can 281
▁dambana 281
▁kita 281
▁tatlo 281
▁back 280
▁alipin 279
▁din 279
▁right 278
▁drink 277
▁ina 277
▁naman 277
▁more 274
▁sinuma 272
▁together 270
▁paa 269
▁woman 269
▁commanded 268
▁turn 268
o 267
▁lipi 267
▁nagsasabi 267
▁sumagot 267
▁wicked 267
▁armies 266
▁side 266
▁malaki 265
▁sasabihin 265
▁work 265
▁nilang 264
▁harap 262
▁without 262
▁higit 261
▁umalis 261
se 260
▁listen 258
▁priests 258
▁zion 258
▁head 256
▁nalalaman 256
▁high 255
▁utos 254
▁makita 253
▁pumunta 253
ward 252
▁angkan 252
▁lumabas 251
▁laman 250
▁altar 249
▁gabi 249
▁ibibigay 249
▁lima 249
▁mayroon 249
▁under 249
▁children 248
▁found 248
▁judio 248
▁moab 248
▁righteous 248
k 247
▁palibot 247
▁fear 246
▁magpakailanman 246
▁peace 246
▁righteousness 246
▁sabbath 246
▁galit 245
▁kapangyarihan 245
▁libo 245
▁ninuno 245
▁old 245
▁naninirahan 244
▁cristo 242
▁far 242
▁night 241
▁face 240
▁well 240
▁dito 239
dapat 238
▁coming 238
▁gawin 238
▁bago 237
▁buwan 237
▁pumasok 237
▁tell 237
▁year 237
▁glory 236
▁wife 235
▁alagad 234
▁bread 234
▁sight 234
▁since 234
▁wilderness 234
▁dakila 233
▁gayundin 231
karoon 230
u 230
▁tent 230
▁turned 229
▁anger 228
▁ibang 228
▁love 228
▁faraon 227
▁baba 226
▁long 226
▁yourself 226
▁covenant 225
▁field 225
▁forever 225
▁inheritance 225
▁jose 225
▁three 225
gan 224
▁; 224
▁brother 224
▁inilagay 224
er 223
▁grain 223
▁bunga 222
▁midst 222
▁blessed 221
▁flesh 221
▁anghel 220
▁david 220
▁dead 219
▁joseph 218
▁disciples 217
▁babylon 216
▁daughter 216
▁kaluwalhatian 216
▁wine 216
▁themselves 215
▁isaac 214
▁both 212
▁darating 212
ibig 211
▁paningin 211
▁stand 211
▁babilonia 210
▁silver 210
▁end 209
▁kingdom 209
▁pilak 209
▁t 208
▁daughters 207
▁di 207
▁kaluluwa 207
▁atin 206
▁die 206
▁katuwiran 206
▁langis 206
▁return 206
▁benjamin 205
▁makapangyarihan 205
▁rest 205
▁soul 205
on 204
▁gumagawa 204
▁jews 204
▁gate 203
▁very 202
▁tabi 201
▁gods 200
▁send 200
▁tinawag 200
▁ilalim 199
▁comes 198
▁kapwa 198
▁kawan 198
▁offer 198
▁sinusunog 198
▁look 197
▁off 197
m 196
▁puno 196
▁servant 196
▁spoken 196
▁enemies 195
▁temple 195
▁unclean 195
▁being 194
▁josue 194
▁lugar 194
▁malakas 194
▁here 193
▁joshua 193
▁malapit 193
▁male 193
▁mother 193
▁pagkain 193
▁patungo 193
▁walk 193
▁esau 192
▁feet 192
▁gayo 192
▁longer 192
▁show 192
▁k 191
▁patay 191
▁seen 191
▁ground 190
bayan 189
▁alak 189
▁katotohanan 189
▁lumapit 189
▁mukha 188
▁peoples 188
▁apat 187
▁food 187
▁magkakaroon 187
▁save 187
▁tipan 186
tulad 185
▁gayunma 185
▁siko 185
ga 184
▁damit 184
▁ginagawa 184
▁nothing 184
▁offerings 184
▁same 184
▁serve 184
▁young 184
▁answered 183
▁servants 183
▁tingnan 183
▁yourselves 183
▁everyone 182
▁certainly 181
▁namatay 181
▁narinig 181
▁waters 181
▁saan 180
▁taken 180
us 179
came 178
▁marumi 178
▁month 178
▁though 178
▁everything 177
▁light 177
▁pananampalataya 177
▁pati 177
▁pharaoh 177
▁anyone 176
▁full 176
▁oil 176
▁power 176
▁samantala 175
▁kamatayan 174
▁indeed 173
▁praise 173
▁hayaan 172
▁kabila 172
▁kanan 172
▁y 172
▁enter 171
▁known 171
▁living 171
▁pakinggan 171
▁still 171
▁kinuha 170
▁might 170
▁natin 170
▁kapulungan 169
▁faith 168
▁mountain 168
▁ones 168
▁sinuman 168
▁poot 167
▁four 166
▁nagsabi 166
▁hangganan 165
▁must 165
▁templo 165
▁cut 164
▁fruit 164
▁levita 164
▁nagsasalita 164
▁pagka 164
▁tunay 164
▁mas 163
▁near 163
▁kayamanan 162
▁present 162
▁buhy 161
▁dalawampu 161
▁fall 161
▁thousand 161
▁cubits 160
▁joy 160
▁bumalik 159
▁could 159
▁between 158
▁cannot 158
▁women 158
▁maka 157
▁naka 157
▁world 157
han 156
▁l 156
▁ngayo 156
▁tribe 156
▁angel 155
▁concern 155
▁humayo 155
▁ilog 155
▁kordero 155
▁paul 155
▁canaan 154
▁ipa 154
▁karunungan 154
▁maaari 154
▁pader 154
▁body 153
▁daniel 153
▁matatanda 153
▁tree 153
▁descendants 152
▁katawan 152
▁n 152
▁tuntunin 152
▁bagaman 151
▁east 151
▁lakad 151
▁stone 151
▁sumunod 151
▁written 151
ting 150
▁died 150
▁itaas 150
▁kapayapaan 150
▁morning 150
▁nakatayo 150
▁presence 150
▁silangan 150
▁strength 150
▁sum 150
▁tanda 150
▁thing 150
▁tumayo 150
▁slave 148
▁dadalhin 147
▁dayuhan 147
hit 146
p 146
▁along 146
▁destroy 146
▁five 146
▁haligi 146
▁pinag 146
▁wise 146
▁wrath 146
▁elders 145
▁huma 145
▁inhabitants 145
▁pablo 145
▁bang 144
▁libis 144
▁mountains 144
▁times 144
▁kambing 143
▁pedro 143
▁sampu 143
alang 142
aw 142
h 142
▁deeds 142
▁prophet 142
▁prophets 142
▁get 141
▁hin 141
▁kabuluhan 141
▁lived 141
▁masasama 141
▁peter 141
▁strong 141
▁wisdom 141
▁birth 140
▁families 140
▁gilead 140
▁magsalita 140
▁mamamatay 140
▁mana 140
▁order 140
▁poor 140
▁dukha 139
▁find 139
▁labas 139
▁little 139
▁speaking 139
▁noon 138
▁pinatay 138
▁sound 138
▁war 138
▁call 137
▁heavens 137
▁mamatay 137
▁sanlibutan 137
▁binhi 136
▁butil 136
▁punungkahoy 136
▁standing 136
▁juan 135
▁leave 135
▁should 135
▁ways 135
es 134
▁camp 134
▁gagawa 134
▁hangin 134
▁remember 134
▁ten 134
▁within 134
▁dumarating 133
▁hilaga 133
▁mai 133
▁meeting 133
▁nalabi 133
▁nation 133
▁new 133
▁too 133
▁twenty 133
▁yaman 133
▁bumangon 132
▁gulang 132
▁kagalakan 132
▁mankind 132
▁pass 132
▁pour 132
▁chief 131
▁judge 131
▁kumain 131
▁possession 131
▁salitang 131
ha 130
▁fine 130
▁hav 130
▁john 130
▁please 130
▁tiyak 130
▁told 130
▁afraid 129
▁darkness 129
▁kill 129
▁levites 129
▁mighty 129
▁natagpuan 129
▁salinlahi 129
▁alay 128
▁congregation 128
▁hundred 128
▁marinig 128
▁anything 127
▁ephraim 127
▁fell 127
▁myself 127
▁north 127
▁sana 127
▁simon 127
▁sun 127
▁tipanan 127
▁wind 127
al 126
ra 126
▁alam 126
▁balat 126
▁border 126
▁bukod 126
▁gather 126
▁gone 126
▁hangal 126
▁noo 126
▁rejoice 126
▁sacrifice 126
▁salvation 126
▁sins 126
▁toro 126
▁believe 125
▁entered 125
▁justice 125
▁ulap 125
la 124
▁batas 124
▁efraim 124
▁guilt 124
▁ilalagay 124
▁killed 124
▁sheep 124
r 123
▁binigyan 123
▁help 123
▁kadiliman 123
▁malayo 123
▁named 123
▁nangyari 123
▁papatayin 123
▁truth 123
▁country 122
▁favor 122
▁gawain 122
▁jeremiah 122
▁stood 122
▁takot 122
▁today 122
▁e 121
▁number 121
▁open 121
▁seek 121
aari 120
umuha 120
▁liwanag 120
as 119
▁bulwagan 119
▁gathered 119
▁levi 119
▁second 119
▁struck 119
▁twelve 119
▁animals 118
▁answer 118
▁balaam 118
▁dalhin 118
▁edom 118
▁h 118
▁jeremias 118
▁kept 118
▁lot 118
▁lubos 118
▁rito 118
▁truly 118
▁whole 118
▁cry 117
▁family 117
▁nakaupo 117
▁places 117
▁sanctuary 117
▁tinatawag 117
▁wrongdoing 117
▁biyaya 116
▁bukid 116
▁bumaba 116
▁command 116
▁kailangan 116
▁makinig 116
▁malalaman 116
▁malaman 116
▁wall 116
pa 115
▁above 115
▁front 115
▁judgment 115
▁kampo 115
▁katarungan 115
▁much 115
▁santuwaryo 115
▁works 115
▁isandaan 114
▁never 114
▁pun 114
▁purihin 114
▁tabing 114
▁third 114
▁umahon 114
▁asno 113
▁cast 113
▁looked 113
▁nagkasala 113
▁nakikita 113
▁raised 113
b 112
usap 112
▁evening 112
▁filled 112
▁regard 112
▁sheol 112
▁trono 112
▁appointed 111
▁born 111
▁however 111
▁ikatlo 111
▁lay 111
ot 110
▁able 110
▁alone 110
▁apatnapu 110
▁kahihiyan 110
▁labindalawa 110
▁mordecai 110
▁panganay 110
▁pinaka 110
▁valley 110
ta 109
▁bless 109
▁got 109
▁iligtas 109
▁kina 109
▁leaders 109
▁oo 109
▁ord 109
▁outside 109
▁stay 109
it 108
▁firstborn 108
▁flock 108
▁malinis 108
▁mind 108
▁money 108
▁pangkasalanan 108
▁tabernacle 108
ance 107
▁army 107
▁broken 107
▁ikalawa 107
▁kaalaman 107
▁kalahati 107
▁matakot 107
▁punong 107
▁shame 107
▁sinugo 107
▁tatlumpu 107
▁understanding 107
f 106
▁clean 106
▁dalawa 106
▁destroyed 106
▁half 106
▁hearts 106
▁ibon 106
▁kasuotan 106
▁reach 106
lagay 105
▁fat 105
▁hold 105
▁stones 105
asa 104
loob 104
th 104
▁ammon 104
▁anyo 104
▁bantay 104
▁commandments 104
▁household 104
▁kabayo 104
▁kahoy 104
▁lakas 104
▁master 104
▁napakarami 104
▁patayin 104
▁rock 104
▁sanga 104
im 103
▁garments 103
▁ibigay 103
▁idols 103
▁ipinanganak 103
▁lips 103
▁makikita 103
▁maliban 103
▁nagpa 103
habag 102
▁eleazar 102
▁hope 102
▁job 102
▁knowledge 102
▁lands 102
▁mount 102
▁spread 102
▁woe 102
▁wood 102
▁esther 101
▁gad 101
▁limampu 101
▁pay 101
▁sing 101
▁statutes 101
▁throne 101
el 100
▁balak 100
▁bigyan 100
▁haman 100
▁ilan 100
▁leon 100
▁nagsugo 100
▁receive 100
▁saved 100
▁courtyard 99
▁follow 99
▁understand 99
▁want 99
ma 98
▁immediately 98
▁inumin 98
▁lumakad 98
▁mercy 98
▁pandinig 98
▁pasture 98
▁patotoo 98
▁ram 98
▁salot 98
▁tabernakulo 98
▁wait 98
en 97
sama 97
▁ask 97
▁daang 97
▁dulo 97
▁kunin 97
▁laid 97
▁reason 97
▁returned 97
▁rise 97
▁salapi 97
▁south 97
▁ta 97
▁abram 96
▁aklat 96
▁break 96
▁dan 96
▁doing 96
▁drive 96
▁ibig 96
ita 95
▁batong 95
▁burned 95
▁destruction 95
▁disaster 95
▁generations 95
▁katapatan 95
▁labi 95
▁opened 95
▁pin 95
li 94
patuloy 94
▁animal 94
▁curse 94
▁diy 94
▁ehipcio 94
▁hill 94
▁lansangan 94
▁libingan 94
▁mangyayari 94
▁nakakita 94
▁siklo 94
▁such 94
▁tanso 94
diyosan 93
kita 93
▁ark 93
▁dust 93
▁gives 93
▁heads 93
▁kakain 93
▁kakainin 93
▁magulang 93
▁nagpapa 93
▁pagitan 93
▁pastulan 93
▁ubasan 93
giving 92
lu 92
▁everlasting 92
▁kahabag 92
▁lamb 92
▁lead 92
▁perish 92
▁raise 92
▁testimony 92
▁trigo 92
▁tumindig 92
▁ubas 92
▁worship 92
▁yari 92
ah 91
▁better 91
▁ibinibigay 91
▁labor 91
▁large 91
▁lumalakad 91
▁oras 91
▁timog 91
iisip 90
▁alinman 90
▁bronze 90
▁cloud 90
▁houses 90
▁ikasampu 90
▁lie 90
▁nayon 90
▁saksi 90
▁silid 90
▁susunugin 90
▁trees 90
▁accord 89
▁crowd 89
▁happened 89
▁manasseh 89
▁midian 89
▁throughout 89
▁whether 89
▁anim 88
▁beside 88
▁eye 88
▁feast 88
▁gates 88
▁manases 88
▁nd 88
▁officials 88
▁part 88
▁pieces 88
▁sumigaw 88
go 87
▁ari 87
▁arise 87
▁crie 87
▁entire 87
▁faithfulness 87
▁kaligtasan 87
▁naroon 87
▁paglilingkod 87
▁pangitain 87
▁sakit 87
▁trust 87
law 86
lo 86
▁committed 86
▁famine 86
▁mabubuhay 86
▁river 86
▁sky 86
oreover 85
▁battle 85
▁bear 85
▁beyond 85
▁bull 85
▁doo 85
▁egyptians 85
▁kasinungalingan 85
▁lebanon 85
z 84
▁alang 84
▁dati 84
▁ears 84
▁judea 84
▁kasuklamsuklam 84
▁kukunin 84
▁minamahal 84
▁next 84
▁pure 84
▁simeon 84
▁six 84
▁wickedness 84
am 83
anupa 83
is 83
ligtas 83
▁alabok 83
▁assembly 83
▁authority 83
▁built 83
▁enemy 83
▁fariseo 83
▁foot 83
▁forth 83
▁honor 83
▁ikapito 83
▁insenso 83
▁ipinangako 83
▁kailan 83
▁kanluran 83
▁mourning 83
▁neighbor 83
▁rain 83
▁remain 83
▁service 83
▁sign 83
▁sisters 83
▁tumakas 83
▁tumingin 83
▁ulan 83
▁un 83
anak 82
▁atonement 82
▁baal 82
▁bethel 82
▁compassion 82
▁kalooban 82
▁lives 82
▁nais 82
▁pagigin 82
▁pamana 82
▁pantas 82
▁propesiya 82
▁refuge 82
▁seventh 82
▁sister 82
▁umaga 82
▁cause 81
▁child 81
▁dila 81
▁except 81
▁ha 81
▁horses 81
▁lagi 81
▁lahi 81
▁last 81
▁lihim 81
▁linen 81
▁mamamayan 81
▁sat 81
▁sumpa 81
▁tungkod 81
na 80
▁ever 80
▁goes 80
▁grace 80
▁led 80
▁lino 80
▁makaka 80
▁mataas 80
▁meet 80
▁nanirahan 80
▁pastol 80
▁su 80
hin 79
▁babalik 79
▁cover 79
▁deal 79
▁hate 79
▁inilabas 79
▁kaloob 79
▁kama 79
▁larawan 79
▁magpapa 79
▁nagbigay 79
▁naglakbay 79
▁others 79
▁samaria 79
▁shekels 79
▁stranger 79
▁taggutom 79
▁tina 79
araw 78
hi 78
▁account 78
▁alalahanin 78
▁cloth 78
▁female 78
▁flee 78
▁ipinag 78
▁kapistahan 78
▁karwahe 78
▁lalo 78
▁mabuhay 78
▁nagbibigay 78
▁offered 78
▁portion 78
▁received 78
▁tahanan 78
kampo 77
mo 77
▁bakal 77
▁buto 77
▁generation 77
▁iniwan 77
▁lambs 77
▁makasalanan 77
▁nabubuhay 77
▁ou 77
▁pupunta 77
▁rebuke 77
▁sit 77
▁wives 77
▁angels 76
▁beloved 76
▁dwell 76
▁gideon 76
▁guard 76
▁hukom 76
▁husband 76
▁ilawan 76
▁iron 76
▁kaibigan 76
▁kapintasan 76
▁natakot 76
▁nina 76
▁pula 76
▁pumarito 76
▁sacrifices 76
▁santo 76
▁someone 76
▁sungay 76
▁tinanggap 76
▁tongue 76
▁ulit 76
c 75
cristo 75
un 75
▁ai 75
▁book 75
▁build 75
▁ding 75
▁hair 75
▁jesu 75
▁kabataan 75
▁natatakot 75
▁pampaalsa 75
▁prayer 75
▁sinai 75
▁teach 75
▁teaching 75
▁tribes 75
▁bansang 74
▁bet 74
▁bow 74
▁branches 74
▁carried 74
▁carry 74
▁free 74
▁hentil 74
▁names 74
▁panig 74
▁slaves 74
▁smoke 74
▁strike 74
▁uri 74
▁wealth 74
elah 73
▁deep 73
▁eskriba 73
▁forty 73
▁goat 73
▁kumakain 73
▁luwang 73
▁passed 73
▁yes 73
lubog 72
▁? 72
▁balita 72
▁bukal 72
▁cross 72
▁ear 72
▁hour 72
▁huli 72
▁incense 72
▁kinaumagahan 72
▁makapag 72
▁once 72
▁papasok 72
▁perform 72
▁pharisees 72
▁pinili 72
▁remove 72
▁samson 72
▁agad 71
▁beginning 71
▁bibigyan 71
▁buhat 71
▁clothes 71
▁kawal 71
▁landas 71
▁none 71
▁p 71
▁plague 71
▁plunder 71
▁proclaim 71
▁sitting 71
▁tainga 71
▁touch 71
▁uminom 71
arian 70
either 70
pakita 70
ro 70
▁amen 70
▁asked 70
▁bangkay 70
▁beth 70
▁blind 70
▁higaan 70
▁ihahandog 70
▁kaban 70
▁kanino 70
▁lalabas 70
▁mapalad 70
▁nasusulat 70
▁pagsuway 70
il 69
tungo 69
w 69
▁bin 69
▁d 69
▁declare 69
▁hukay 69
▁itinalaga 69
▁kahulugan 69
▁kailanman 69
▁kaunti 69
▁obey 69
▁panaginip 69
▁piling 69
▁something 69
▁tin 69
bi 68
padala 68
ri 68
▁aalisin 68
▁amoreo 68
▁camped 68
▁dalaga 68
▁eliminate 68
▁mandirigma 68
▁nananatili 68
▁nanatili 68
▁nebukadnezar 68
▁pakpak 68
▁pitumpu 68
▁remnant 68
▁satisfied 68
▁seed 68
▁sihon 68
▁trouble 68
▁umakyat 68
▁west 68
▁youth 68
or 67
selah 67
ya 67
▁ate 67
▁burning 67
▁consider 67
▁dry 67
▁hanggan 67
▁harvest 67
▁hidden 67
▁kind 67
▁livestock 67
▁maglingkod 67
▁magpa 67
▁nilalang 67
▁paraan 67
▁pintuang 67
▁rich 67
▁slaughter 67
▁top 67
▁tumanggap 67
at 66
kukuha 66
to 66
uutos 66
▁act 66
▁believed 66
▁birds 66
▁covered 66
▁demonyo 66
▁lift 66
▁lion 66
▁mananatili 66
▁matter 66
▁paggawa 66
▁pangako 66
▁pangkat 66
▁restore 66
▁sinned 66
▁sumusunod 66
▁thirty 66
▁trumpeta 66
▁vine 66
▁womb 66
ba 65
punong 65
▁alive 65
▁angry 65
▁bulag 65
▁burol 65
▁continually 65
▁desire 65
▁dream 65
▁gentiles 65
▁home 65
▁itina 65
▁kapahamakan 65
▁lubha 65
▁nakipag 65
▁nebuchadnezzar 65
▁numbered 65
▁produce 65
▁rather 65
▁sinagoga 65
▁sleep 65
▁table 65
▁utter 65
ingat 64
unat 64
▁appeared 64
▁bones 64
▁caldeo 64
▁chaldeans 64
▁dala 64
▁eaten 64
▁en 64
▁fallen 64
▁harm 64
▁households 64
▁kalaliman 64
▁karangalan 64
▁looking 64
▁loved 64
▁ox 64
▁ruben 64
▁thanks 64
▁throw 64
▁vision 64
▁write 64
alam 63
ang 63
ation 63
▁appearance 63
▁ashamed 63
▁balo 63
▁beautiful 63
▁bukas 63
▁defiled 63
▁exalted 63
▁followed 63
▁following 63
▁gayunman 63
▁ipag 63
▁krus 63
▁magbibigay 63
▁napa 63
▁patungan 63
▁rams 63
▁shout 63
▁wash 63
ar 62
hahandog 62
id 62
ion 62
▁! 62
▁asawang 62
▁attention 62
▁blessing 62
▁de 62
▁desolate 62
▁disgrace 62
▁entrance 62
▁flocks 62
▁human 62
▁ilagay 62
▁isina 62
▁itinaas 62
▁kulay 62
▁length 62
▁nagsisi 62
▁panata 62
▁sake 62
▁scribes 62
▁sugo 62
▁sumama 62
asawa 61
da 61
hanap 61
re 61
▁assyria 61
▁cananeo 61
▁case 61
▁delight 61
▁fish 61
▁garment 61
▁hapag 61
▁itinayo 61
▁judas 61
▁judgments 61
▁kaguluhan 61
▁kalakasan 61
▁kasulatan 61
▁lalawigan 61
▁magsasalita 61
▁mangyari 61
▁pagkabihag 61
▁pangkapayapaan 61
▁pillars 61
▁pit 61
▁pumaroon 61
▁quickly 61
▁re 61
▁rescue 61
▁reuben 61
▁scattered 61
▁signs 61
▁sumumpa 61
▁swore 61
▁wakas 61
▁yours 61
ites 60
ulan 60
▁allow 60
▁b 60
▁bihag 60
▁edge 60
▁halaga 60
▁horns 60
▁kilala 60
▁magka 60
▁manatili 60
▁mine 60
▁mismo 60
▁napaka 60
▁nasasakupan 60
▁oath 60
▁pagpapala 60
▁pasukan 60
▁pinaraan 60
▁placed 60
▁prepared 60
▁pursue 60
▁shekem 60
▁takda 60
▁tinanong 60
▁wika 60
▁awit 59
▁behind 59
▁belong 59
▁bisig 59
▁damo 59
▁filisteo 59
▁galilee 59
▁gospel 59
▁hininga 59
▁iglesya 59
▁ililigtas 59
▁ingatan 59
▁ipahayag 59
▁karumaldumal 59
▁knows 59
▁lies 59
▁magalak 59
▁opposite 59
▁prison 59
▁skin 59
▁tagapamahala 59
▁white 59
isa 58
▁door 58
▁established 58
▁eternal 58
▁fled 58
▁fool 58
▁hide 58
▁kasunod 58
▁kinaroroonan 58
▁malalaki 58
▁manggagawa 58
▁nagpakita 58
▁reign 58
▁song 58
▁staff 58
▁suot 58
▁taba 58
▁tear 58
▁tela 58
▁titipunin 58
▁um 58
▁width 58
▁wings 58
▁witness 58
hrew 57
▁abandon 57
▁ganap 57
▁goats 57
▁instead 57
▁kabutihan 57
▁kasaganaan 57
▁lifted 57
▁mapa 57
▁pasimula 57
▁property 57
▁punishment 57
▁shechem 57
▁speaks 57
▁sumampalataya 57
▁tagapag 57
▁violence 57
ful 56
tupad 56
wa 56
▁aside 56
▁bilangguan 56
▁false 56
▁forget 56
▁forward 56
▁galilea 56
▁gracious 56
▁karumihan 56
▁kasangkapan 56
▁leeg 56
▁naiwan 56
▁oh 56
▁parurusahan 56
▁possess 56
▁road 56
▁ruins 56
▁rule 56
▁sandata 56
▁secret 56
▁swear 56
harap 55
ila 55
ka 55
katagpo 55
ted 55
▁bigla 55
▁distress 55
▁dwelling 55
▁fifty 55
▁greater 55
▁greatly 55
▁guro 55
▁harina 55
▁magandang 55
▁magsasabi 55
▁philistines 55
▁pinakinggan 55
▁prepare 55
▁prophesy 55
▁prostitute 55
▁read 55
▁seeking 55
▁sumasampalataya 55
▁territory 55
▁villages 55
os 54
▁abimelec 54
▁abimelech 54
▁accept 54
▁afterward 54
▁already 54
▁balon 54
▁bed 54
▁besides 54
▁bound 54
▁cursed 54
▁donkey 54
▁early 54
▁faces 54
▁faithful 54
▁finished 54
▁gifts 54
▁herself 54
▁ibin 54
▁katapusan 54
▁la 54
▁leader 54
▁loud 54
▁lum 54
▁mabubuwal 54
▁magdadala 54
▁maria 54
▁nakaka 54
▁sala 54
▁samakatuwid 54
▁true 54
▁umupo 54
kanya 53
thrown 53
um 53
▁ahead 53
▁asiria 53
▁awa 53
▁bethlehem 53
▁divided 53
▁doorway 53
▁draw 53
▁few 53
▁halip 53
▁ibabalik 53
▁journey 53
▁magdala 53
▁maninirahan 53
▁mary 53
▁matanda 53
▁nabuhay 53
▁nagawa 53
▁nagdala 53
▁nagtungo 53
▁payo 53
▁pilato 53
▁pray 53
▁sagana 53
▁strangers 53
▁tenth 53
▁terror 53
▁torn 53
▁used 53
▁waste 53
▁wrong 53
bu 52
ko 52
lapit 52
puno 52
▁abominations 52
▁arm 52
▁bayaran 52
▁bituin 52
▁chariots 52
▁commandment 52
▁dumaan 52
▁ebanghelyo 52
▁enough 52
▁fourth 52
▁healed 52
▁hebron 52
▁injustice 52
▁isda 52
▁kainin 52
▁kopa 52
▁mixed 52
▁pagkawasak 52
▁pilate 52
▁plant 52
▁seir 52
▁seventy 52
▁sidon 52
▁tunog 52
▁unleavened 52
▁usapin 52
▁wonders 52
▁cattle 51
▁desolation 51
▁dumi 51
▁forgive 51
▁hatol 51
▁iisa 51
▁ilaw 51
▁inalis 51
▁ipinagbili 51
▁itself 51
▁kaagad 51
▁kababalaghan 51
▁karahasan 51
▁loves 51
▁mabango 51
▁matindi 51
▁nararapat 51
▁pan 51
▁rejected 51
▁removed 51
▁rod 51
▁silent 51
▁tagiliran 51
▁tanggapin 51
▁test 51
able 50
ari 50
ca 50
▁age 50
▁almighty 50
▁attack 50
▁balabal 50
▁bangka 50
▁breath 50
▁careful 50
▁daigdig 50
▁digmaan 50
▁ephah 50
▁feed 50
▁fill 50
▁friend 50
▁fulfilled 50
▁gawing 50
▁himpapawid 50
▁igos 50
▁image 50
▁jo 50
▁kakilakilabot 50
▁lying 50
▁nagdadala 50
▁nakakakita 50
▁nakikinig 50
▁noah 50
▁passover 50
▁redeem 50
▁served 50
▁tuyo 50
▁unless 50
▁upright 50
▁walo 50
mit 49
ness 49
taasan 49
▁acts 49
▁afflicted 49
▁angkinin 49
▁choice 49
▁elam 49
▁hahatulan 49
▁honey 49
▁ikaapat 49
▁journeyed 49
▁kagandahan 49
▁kahubaran 49
▁kaliwa 49
▁kataas 49
▁magagalak 49
▁makakain 49
▁neck 49
▁ngipin 49
▁pakinabang 49
▁pride 49
▁remained 49
▁reported 49
▁shut 49
▁small 49
▁stretch 49
▁sulat 49
▁talinghaga 49
▁teacher 49
▁tumalikod 49
▁vineyard 49
▁watch 49
▁weeping 49
abot 48
me 48
no 48
▁ahasuerus 48
▁alisin 48
▁apostol 48
▁basan 48
▁binata 48
▁buy 48
▁caleb 48
▁charge 48
▁exile 48
▁gaano 48
▁garden 48
▁gin 48
▁guya 48
▁ib 48
▁ipinahayag 48
▁je 48
▁katulad 48
▁maburol 48
▁magsisi 48
▁nakedness 48
▁needy 48
▁noe 48
▁nun 48
▁olibo 48
▁pagdating 48
▁pulot 48
▁punish 48
▁rebellious 48
▁rulers 48
▁saints 48
▁sambayanan 48
▁sira 48
▁testify 48
▁tumigil 48
▁yaon 48
apat 47
bigat 47
iddle 47
isang 47
ubuhos 47
ulat 47
▁amorites 47
▁anointed 47
▁buhok 47
▁celebrate 47
▁chosen 47
▁created 47
▁crowds 47
▁desert 47
▁fight 47
▁flour 47
▁jehoiakim 47
▁kalangitan 47
▁kerubin 47
▁lumalabas 47
▁masdan 47
▁matatagpuan 47
▁nabilang 47
▁ordinances 47
▁papuri 47
▁parts 47
▁plead 47
▁practice 47
▁red 47
▁report 47
▁responded 47
▁sees 47
▁sold 47
▁soon 47
▁streets 47
▁sumamba 47
▁sumpain 47
▁tuma 47
▁walls 47
aalay 46
gis 46
labas 46
lagyan 46
napopoot 46
ni 46
pi 46
putol 46
taas 46
▁al 46
▁alin 46
▁arnon 46
▁bowed 46
▁consume 46
▁cup 46
▁escape 46
▁fellow 46
▁friends 46
▁gift 46
▁halamanan 46
▁humble 46
▁ika 46
▁inner 46
▁innocent 46
▁ipahahayag 46
▁jeshua 46
▁judges 46
▁kadesh 46
▁kahirapan 46
▁labing 46
▁lalapit 46
▁mababang 46
▁multitude 46
▁need 46
▁otherwise 46
▁pagkakataon 46
▁per 46
▁raquel 46
▁root 46
▁samsam 46
▁sinunog 46
▁upward 46
▁wasak 46
▁wrongdoings 46
▁zedekiah 46
bahagi 45
ti 45
tong 45
▁abandoned 45
▁always 45
▁bird 45
▁gilgal 45
▁joyful 45
▁kapitan 45
▁likuran 45
▁lumayo 45
▁mabubuti 45
▁mak 45
▁minsan 45
▁muog 45
▁nakasulat 45
▁nakinig 45
▁nile 45
▁object 45
▁pana 45
▁panalangin 45
▁paskuwa 45
▁plan 45
▁pre 45
▁repay 45
▁ruler 45
▁solomon 45
▁stars 45
▁synagogue 45
▁tomb 45
▁zedekias 45
aani 44
akyat 44
during 44
so 44
ube 44
▁amazed 44
▁animnapu 44
▁apostles 44
▁bashan 44
▁church 44
▁curtain 44
▁devour 44
▁eliminated 44
▁f 44
▁grow 44
▁hills 44
▁inanyuan 44
▁itinakuwil 44
▁jericho 44
▁kahatulan 44
▁kamelyo 44
▁kapalaluan 44
▁kuta 44
▁lalagyan 44
▁lumaban 44
▁maaga 44
▁manirahan 44
▁matalino 44
▁mayaman 44
▁moon 44
▁naghihintay 44
▁nakakaalam 44
▁naroroon 44
▁persia 44
▁pino 44
▁piraso 44
▁ready 44
▁redeemed 44
▁replied 44
▁reward 44
▁shepherd 44
▁spend 44
▁sure 44
▁surround 44
▁tents 44
▁touche 44
ahon 43
alis 43
aya 43
ers 43
iingat 43
sala 43
turo 43
yo 43
▁bases 43
▁behalf 43
▁bitag 43
▁clouds 43
▁commit 43
▁completely 43
▁continued 43
▁ends 43
▁ezra 43
▁grass 43
▁halimaw 43
▁hard 43
▁hears 43
▁iinom 43
▁jerico 43
▁kapahingahan 43
▁kapalit 43
▁karamihan 43
▁karapat 43
▁magagawa 43
▁means 43
▁messengers 43
▁nagtayo 43
▁nagtitiwala 43
▁naomi 43
▁oxen 43
▁pagkakasala 43
▁pakikipaglaban 43
▁pinto 43
▁praises 43
▁purple 43
▁ran 43
▁riches 43
▁scarlet 43
▁sprinkle 43
▁tanikala 43
▁tutuparin 43
▁umiyak 43
▁vengeance 43
▁walked 43
▁widow 43
▁yungib 43
though 42
uan 42
unawa 42
▁abomination 42
▁budhi 42
▁buwis 42
▁dahilan 42
▁dalisay 42
▁departed 42
▁donkeys 42
▁el 42
▁exalt 42
▁foreign 42
▁forgiven 42
▁gantimpala 42
▁glad 42
▁held 42
▁humingi 42
▁inihanda 42
▁ja 42
▁kingdoms 42
▁lilim 42
▁matatakot 42
▁merari 42
▁mothers 42
▁nakarinig 42
▁namangha 42
▁performed 42
▁persons 42
▁previously 42
▁revealed 42
▁scroll 42
▁shepherds 42
▁sick 42
▁tatayo 42
▁tiwasay 42
▁tumawag 42
▁weep 42
ho 41
ies 41
puri 41
rap 41
sunod 41
▁abundance 41
▁aroma 41
▁bad 41
▁balang 41
▁blameless 41
▁bumagsak 41
▁clothing 41
▁consumed 41
▁da 41
▁dibdib 41
▁efa 41
▁eli 41
▁foolish 41
▁ham 41
▁hearing 41
▁hezekiah 41
▁hi 41
▁hinahanap 41
▁hinaluan 41
▁ibaba 41
▁itinakda 41
▁kapighatian 41
▁knew 41
▁layunin 41
▁lumalapit 41
▁mabigat 41
▁magbigay 41
▁magnanakaw 41
▁makakita 41
▁mourn 41
▁nagkaanak 41
▁nagsi 41
▁nahulog 41
▁nakarating 41
▁officers 41
▁pananalita 41
▁paths 41
▁pharaohs 41
▁pinakama 41
▁provide 41
▁relatives 41
▁remembered 41
▁sodoma 41
▁sworn 41
▁teeth 41
▁thorns 41
▁tinipon 41
▁tyre 41
▁umiibig 41
▁unahan 41
▁violet 41
▁wave 41
▁worthless 41
ai 40
bo 40
gal 40
ibigin 40
kay 40
lalagay 40
othing 40
ous 40
patong 40
▁apart 40
▁area 40
▁bind 40
▁biyenan 40
▁boaz 40
▁boy 40
▁bulls 40
▁captured 40
▁care 40
▁circumcised 40
▁comfort 40
▁consecrate 40
▁crown 40
▁daliri 40
▁defect 40
▁defile 40
▁dies 40
▁eats 40
▁establish 40
▁euphrates 40
▁flood 40
▁guilty 40
▁herod 40
▁hezekias 40
▁hid 40
▁hungry 40
▁kalapati 40
▁lumi 40
▁magkakasama 40
▁malalim 40
▁mangkok 40
▁matataas 40
▁meat 40
▁milk 40
▁nangangailangan 40
▁neighbors 40
▁pagkamatay 40
▁pagliligtas 40
▁pick 40
▁pinabayaan 40
▁purpose 40
▁rachel 40
▁region 40
▁sell 40
▁sinners 40
▁sisera 40
▁suffer 40
▁susa 40
▁tawagin 40
▁tumakbo 40
▁tumatawag 40
▁tutubusin 40
▁ugat 40
▁uma 40
▁wept 40
gi 39
kaharap 39
lugod 39
tipon 39
uhos 39
ur 39
▁adultery 39
▁asher 39
▁asul 39
▁baptized 39
▁boat 39
▁broke 39
▁bumili 39
▁close 39
▁daing 39
▁demons 39
▁due 39
▁dumaing 39
▁efod 39
▁hita 39
▁horn 39
▁itutur 39
▁kapanahunan 39
▁kapatagan 39
▁leprosy 39
▁line 39
▁lumitaw 39
▁maliit 39
▁measured 39
▁naglingkod 39
▁nakilala 39
▁pabango 39
▁pain 39
▁palasyo 39
▁pasanin 39
▁pinagpala 39
▁prince 39
▁promise 39
▁remains 39
▁rings 39
▁rivers 39
▁sinagot 39
▁sought 39
▁storm 39
▁suddenly 39
▁tore 39
▁tu 39
▁tulong 39
▁use 39
▁warriors 39
▁yield 39
▁zebulon 39
be 38
cious 38
ganap 38
hawak 38
lalakad 38
le 38
tak 38
ul 38
▁ahas 38
▁anoint 38
▁appear 38
▁batis 38
▁bunton 38
▁buried 38
▁cain 38
▁endure 38
▁hum 38
▁isipan 38
▁kanlungan 38
▁luma 38
▁maglilingkod 38
▁nagagalak 38
▁nakikilala 38
▁nalaman 38
▁offspring 38
▁papa 38
▁promised 38
▁pulutong 38
▁pumapasok 38
▁reyna 38
▁sama 38
▁sanggol 38
▁seeing 38
▁sexual 38
▁shadow 38
▁silo 38
▁singsing 38
▁summoned 38
▁thoughts 38
▁tirahan 38
▁tumahimik 38
▁tumatanggap 38
▁turns 38
▁upahan 38
▁utensils 38
▁wide 38
inom 37
laysay 37
lingkod 37
▁bakahan 37
▁balakang 37
▁belongs 37
▁camels 37
▁canaanites 37
▁covering 37
▁decree 37
▁doors 37
▁empty 37
▁execute 37
▁fig 37
▁forgotten 37
▁form 37
▁former 37
▁fourteen 37
▁furthermore 37
▁gutom 37
▁herodes 37
▁humiwalay 37
▁humu 37
▁iiwan 37
▁ikalima 37
▁isaiah 37
▁iyan 37
▁james 37
▁kahangalan 37
▁korona 37
▁lions 37
▁listened 37
▁low 37
▁makakakita 37
▁matagpuan 37
▁memorial 37
▁nagalit 37
▁nagka 37
▁news 37
▁olive 37
▁pagkara 37
▁pagpapalain 37
▁pataas 37
▁pinagaling 37
▁pumatay 37
▁queen 37
▁quiet 37
▁release 37
▁rose 37
▁samyo 37
▁santiago 37
▁satanas 37
▁seized 37
▁sisidlan 37
▁slaughtered 37
▁spring 37
▁steps 37
▁tatawagin 37
▁terrified 37
▁tiro 37
▁tumu 37
▁ulila 37
▁uncircumcised 37
▁witnesses 37
hiya 36
hu 36
iping 36
ment 36
sinama 36
sugo 36
tipunin 36
yaman 36
▁aalis 36
▁alaala 36
▁baha 36
▁balahibo 36
▁beast 36
▁binasbasan 36
▁carved 36
▁caught 36
▁cherubim 36
▁count 36
▁counted 36
▁deceit 36
▁fifth 36
▁gatas 36
▁gobernador 36
▁hanapin 36
▁hubad 36
▁iingatan 36
▁inihagis 36
▁ipinatawa 36
▁isinulat 36
▁ismael 36
▁kalagayan 36
▁kalasag 36
▁kinain 36
▁lambat 36
▁maluwalhati 36
▁mans 36
▁marunong 36
▁matapos 36
▁matibay 36
▁muna 36
▁naglilingkod 36
▁nagsimula 36
▁namamatay 36
▁namang 36
▁napatay 36
▁neftali 36
▁net 36
▁ourselves 36
▁pagkabuhay 36
▁paglalakbay 36
▁pagpalain 36
▁pagtubos 36
▁palm 36
▁patatawarin 36
▁press 36
▁proceed 36
▁robe 36
▁salt 36
▁sapat 36
▁satan 36
▁sedro 36
▁shake 36
▁shouting 36
▁sodom 36
▁sulok 36
▁susunod 36
▁taking 36
▁tangi 36
▁totoo 36
▁tuwi 36
▁yoke 36
alay 35
ce 35
em 35
gpapatotoo 35
hiwalay 35
lang 35
palakas 35
si 35
tan 35
ver 35
▁add 35
▁approach 35
▁approached 35
▁assembled 35
▁babangon 35
▁balikat 35
▁beauty 35
▁detestable 35
▁dinggin 35
▁discipline 35
▁eating 35
▁ephod 35
▁flow 35
▁forest 35
▁foundation 35
▁gibeon 35
▁grant 35
▁greet 35
▁gulong 35
▁hinabi 35
▁hinawakan 35
▁inside 35
▁itatayo 35
▁ketong 35
▁kindness 35
▁lampstand 35
▁lilipulin 35
▁maliligtas 35
▁matagal 35
▁naghimagsik 35
▁nagtipon 35
▁paghihiganti 35
▁paghihirap 35
▁pleasure 35
▁sara 35
▁spirits 35
▁sugat 35
▁sukat 35
▁umawit 35
▁veil 35
▁winasak 35
▁zebulun 35
aapi 34
banalan 34
five 34
handog 34
hap 34
ias 34
iel 34
nan 34
ol 34
▁abo 34
▁ancient 34
▁aser 34
▁barko 34
▁boast 34
▁choose 34
▁cleansed 34
▁dinadala 34
▁else 34
▁governor 34
▁halaman 34
▁hated 34
▁hesbon 34
▁horse 34
▁ipapa 34
▁isaias 34
▁kabanal 34
▁kinabukasan 34
▁kinds 34
▁learn 34
▁mabalitaan 34
▁majesty 34
▁mapaghimagsik 34
▁mapait 34
▁message 34
▁metal 34
▁months 34
▁nagpatirapa 34
▁nevertheless 34
▁ordered 34
▁outer 34
▁papakinggan 34
▁passes 34
▁pleased 34
▁point 34
▁puma 34
▁question 34
▁recognize 34
▁refuse 34
▁sariwa 34
▁scatter 34
▁sisidlang 34
▁spoils 34
▁stands 34
▁surrounding 34
▁tatawaging 34
▁taught 34
▁think 34
▁trumpet 34
▁uli 34
▁usok 34
▁vineyards 34
▁wawasakin 34
ay 33
daan 33
gala 33
ghahanap 33
pit 33
tified 33
▁adversaries 33
▁alila 33
▁animnaraan 33
▁apatnaraan 33
▁appoint 33
▁astray 33
▁bilanggo 33
▁caused 33
▁commander 33
▁commanding 33
▁crushed 33
▁dalawandaan 33
▁damascus 33
▁daraan 33
▁demon 33
▁diwa 33
▁foolishness 33
▁gain 33
▁gubat 33
▁halo 33
▁happen 33
▁heshbon 33
▁hinihiling 33
▁hor 33
▁hurry 33
▁iningatan 33
▁instruction 33
▁interpretation 33
▁ishmael 33
▁isinugo 33
▁israelita 33
▁johanan 33
▁judged 33
▁kinapopootan 33
▁kusang 33
▁likewise 33
▁lost 33
▁mabangis 33
▁makipag 33
▁mangangabayo 33
▁mapapala 33
▁mark 33
▁moved 33
▁nabalitaan 33
▁nagmula 33
▁paanan 33
▁pagtitipon 33
▁palibhasa 33
▁pamatok 33
▁pamigkis 33
▁piece 33
▁prove 33
▁resurrection 33
▁seat 33
▁seize 33
▁share 33
▁shed 33
▁sinakop 33
▁sow 33
▁splendor 33
▁sumisigaw 33
▁swallow 33
▁swarm 33
▁talim 33
▁tax 33
▁wages 33
▁waist 33
▁weary 33
▁wild 33
ab 32
drew 32
ic 32
kiusap 32
ne 32
rote 32
sako 32
tao 32
▁alamin 32
▁aral 32
▁basket 32
▁binuksan 32
▁bodies 32
▁bond 32
▁bulaklak 32
▁captivity 32
▁chambers 32
▁commits 32
▁damasco 32
▁dark 32
▁exiles 32
▁fields 32
▁flowing 32
▁fools 32
▁formed 32
▁fought 32
▁fruitful 32
▁futility 32
▁gilid 32
▁haran 32
▁hazor 32
▁hinanap 32
▁hinirang 32
▁jealousy 32
▁kakayahan 32
▁kalungkutan 32
▁karamdaman 32
▁kin 32
▁lalamunin 32
▁later 32
▁li 32
▁magsi 32
▁mapapahiya 32
▁married 32
▁nakatira 32
▁naked 32
▁nanganak 32
▁naphtali 32
▁naririnig 32
▁nawala 32
▁numerous 32
▁oppressed 32
▁pagnanasa 32
▁pagtangis 32
▁palalo 32
▁pandaraya 32
▁parusa 32
▁permanent 32
▁pinalayas 32
▁pipiliin 32
▁planted 32
▁possessions 32
▁pronounce 32
▁pulo 32
▁pupuksain 32
▁relations 32
▁repent 32
▁request 32
▁rescued 32
▁result 32
▁sakdal 32
▁sandali 32
▁sarah 32
▁speech 32
▁spot 32
▁stop 32
▁thought 32
▁thunder 32
▁tinik 32
▁tomorrow 32
▁usa 32
▁virgin 32
▁wipe 32
ihanda 31
ir 31
man 31
oth 31
puspos 31
uhod 31
una 31
▁altars 31
▁amalek 31
▁asong 31
▁awake 31
▁bars 31
▁baybayin 31
▁benefit 31
▁betray 31
▁big 31
▁bintana 31
▁bitter 31
▁bore 31
▁bumababa 31
▁complete 31
▁contend 31
▁curtains 31
▁daily 31
▁distance 31
▁either 31
▁felipe 31
▁fruits 31
▁galing 31
▁gibea 31
▁governors 31
▁habag 31
▁heal 31
▁heavy 31
▁height 31
▁hired 31
▁ikalabing 31
▁increase 31
▁ingay 31
▁iniisip 31
▁itataas 31
▁kaninuman 31
▁karapatan 31
▁katungkulan 31
▁kumalat 31
▁leather 31
▁maharlika 31
▁manna 31
▁mapapa 31
▁mawawalan 31
▁measure 31
▁mouths 31
▁nagbabala 31
▁nagniningas 31
▁nagpatuloy 31
▁nakikipag 31
▁nanalangin 31
▁nanginginig 31
▁nilapastangan 31
▁perfect 31
▁provinces 31
▁rebuild 31
▁redemption 31
▁royal 31
▁sackcloth 31
▁settled 31
▁sits 31
▁statement 31
▁stopped 31
▁sundin 31
▁tatanggapin 31
▁tears 31
▁totoong 31
▁towns 31
▁worthy 31
apos 30
balita 30
hanga 30
iisa 30
ite 30
ive 30
kanulo 30
rami 30
ru 30
takpan 30
▁acted 30
▁awesome 30
▁barak 30
▁bloodshed 30
▁branch 30
▁buksan 30
▁captain 30
▁conceived 30
▁cush 30
▁dawn 30
▁defeated 30
▁designate 30
▁devoured 30
▁dina 30
▁direct 30
▁elias 30
▁falls 30
▁fierce 30
▁gershon 30
▁gibeah 30
▁glorify 30
▁handa 30
▁heap 30
▁hebreo 30
▁herds 30
▁hinamak 30
▁ilabas 30
▁ipinadala 30
▁kasiyahan 30
▁kaunawaan 30
▁lightning 30
▁mahaba 30
▁masters 30
▁material 30
▁maysala 30
▁multiply 30
▁nagtuturo 30
▁natutulog 30
▁nauna 30
▁oppression 30
▁orders 30
▁philip 30
▁pista 30
▁practices 30
▁prayed 30
▁preaching 30
▁public 30
▁room 30
▁sail 30
▁sasagot 30
▁shaken 30
▁sides 30
▁sixth 30
▁sixty 30
▁souls 30
▁spent 30
▁statute 30
▁sweet 30
▁tablets 30
▁tag 30
▁tagapagligtas 30
▁tapyas 30
▁tatanggap 30
▁testimonies 30
▁thousands 30
▁tinakpan 30
▁tinubos 30
▁washed 30
▁wheat 30
bata 29
bihag 29
isan 29
kasalo 29
ter 29
tingin 29
wiwisik 29
▁aawit 29
▁abel 29
▁ah 29
▁arrogant 29
▁awtoridad 29
▁bright 29
▁calling 29
▁change 29
▁contrary 29
▁council 29
▁creatures 29
▁crossed 29
▁desires 29
▁despised 29
▁dried 29
▁eunuko 29
▁fail 29
▁furnace 29
▁giba 29
▁gumising 29
▁hakbang 29
▁huminto 29
▁humipo 29
▁ikakasal 29
▁isacar 29
▁issachar 29
▁jealous 29
▁jefta 29
▁jephthah 29
▁kagaya 29
▁karne 29
▁kasamahan 29
▁kiryat 29
▁lilinisin 29
▁lipulin 29
▁magsabi 29
▁maliliit 29
▁munti 29
▁naninirahang 29
▁naupo 29
▁nobles 29
▁pagsasalita 29
▁palace 29
▁pangunahin 29
▁pasan 29
▁path 29
▁pipi 29
▁pull 29
▁pupurihin 29
▁rebecca 29
▁reject 29
▁reveal 29
▁risen 29
▁salubungin 29
▁shield 29
▁shoulder 29
▁sinukat 29
▁sinungaling 29
▁stumble 29
▁thanksgiving 29
▁tumangis 29
▁u 29
▁uhaw 29
▁wear 29
▁worshiped 29
aasawa 28
ath 28
bag 28
buhos 28
galang 28
hari 28
ibalik 28
ik 28
tatag 28
▁abundant 28
▁ahikam 28
▁ar 28
▁arrived 28
▁arrows 28
▁ashes 28
▁bagyo 28
▁beer 28
▁breasts 28
▁capernaum 28
▁consecrated 28
▁deceitful 28
▁discharge 28
▁drunk 28
▁fast 28
▁feared 28
▁finds 28
▁firmly 28
▁follows 28
▁ganyan 28
▁gaza 28
▁goshen 28
▁granted 28
▁grapes 28
▁guide 28
▁gumagapang 28
▁gumaling 28
▁hahanapin 28
▁hail 28
▁halika 28
▁hamog 28
▁herd 28
▁hurno 28
▁ibinilang 28
▁ikaanim 28
▁ikina 28
▁images 28
▁inherit 28
▁iniibig 28
▁inilibing 28
▁integrity 28
▁isulat 28
▁ititiwalag 28
▁kabanalan 28
▁kadakilaan 28
▁kalaban 28
▁katiwala 28
▁kiss 28
▁listening 28
▁lower 28
▁magawa 28
▁makikinig 28
▁malalakas 28
▁masabi 28
▁naglihi 28
▁nagmamadali 28
▁nanggaling 28
▁nanghihina 28
▁napakalaki 28
▁naparito 28
▁oppress 28
▁ordinance 28
▁pagkatakot 28
▁pagtutuli 28
▁palma 28
▁panali 28
▁panukala 28
▁prosperity 28
▁ruin 28
▁ruth 28
▁sets 28
▁silas 28
▁sinapupunan 28
▁sisirain 28
▁springs 28
▁straight 28
▁suma 28
▁surface 28
▁tanggulan 28
▁tiyan 28
▁tower 28
▁treasures 28
▁tremble 28
▁trumpets 28
▁tulungan 28
▁tumawid 28
▁umiinom 28
▁umuwi 28
▁visions 28
▁vow 28
▁vows 28
ad 27
agamit 27
iah 27
ig 27
kad 27
lakad 27
ngilin 27
pansin 27
watak 27
▁aalalahanin 27
▁acacia 27
▁aha 27
▁alon 27
▁ambush 27
▁balumbon 27
▁band 27
▁bare 27
▁base 27
▁best 27
▁calf 27
▁carrying 27
▁certain 27
▁cesar 27
▁chains 27
▁crucified 27
▁dami 27
▁depths 27
▁disciple 27
▁dread 27
▁goodness 27
▁greatness 27
▁halikayo 27
▁ibinaba 27
▁ilalabas 27
▁infection 27
▁inihandog 27
▁iwan 27
▁kagamitan 27
▁kahalayan 27
▁kalagitnaan 27
▁kapurihan 27
▁kasayahan 27
▁lack 27
▁language 27
▁lea 27
▁less 27
▁magaganda 27
▁magkasama 27
▁malaya 27
▁met 27
▁mizpa 27
▁mizpah 27
▁nabuwal 27
▁nakasakay 27
▁nananalangin 27
▁negeb 27
▁nilamon 27
▁owner 27
▁pagsunod 27
▁pai 27
▁palalayasin 27
▁pampang 27
▁parable 27
▁plans 27
▁prey 27
▁proclaimed 27
▁repairs 27
▁rises 27
▁sabbaths 27
▁saka 27
▁severe 27
▁sinira 27
▁siyam 27
▁strife 27
▁sumainyo 27
▁taas 27
▁tahimik 27
▁tambo 27
▁thirsty 27
▁threshing 27
▁unable 27
▁unawa 27
▁watching 27
aayuno 26
abol 26
alab 26
baba 26
eo 26
est 26
ginoo 26
hati 26
ilayo 26
lawin 26
liko 26
lot 26
mi 26
pas 26
siya 26
tawid 26
tutu 26
urong 26
ve 26
▁akasya 26
▁ani 26
▁asia 26
▁asking 26
▁assemble 26
▁barnabas 26
▁bati 26
▁bernabe 26
▁circumcision 26
▁completed 26
▁confidence 26
▁dawag 26
▁deed 26
▁depart 26
▁despise 26
▁double 26
▁drinking 26
▁dug 26
▁duma 26
▁finger 26
▁fortunes 26
▁foundations 26
▁further 26
▁glorious 26
▁griyego 26
▁groom 26
▁healing 26
▁heteo 26
▁horsemen 26
▁ibabagsak 26
▁ibinalita 26
▁ikabubuti 26
▁ikinubli 26
▁incline 26
▁inhabited 26
▁ipinahahayag 26
▁ipinangangaral 26
▁jeh 26
▁jew 26
▁jonas 26
▁justified 26
▁kaitaasan 26
▁labanan 26
▁loathe 26
▁lose 26
▁mahalaga 26
▁mainam 26
▁march 26
▁maysakit 26
▁naalala 26
▁naghandog 26
▁nahor 26
▁nakiki 26
▁negev 26
▁nilikha 26
▁paghahari 26
▁paghatol 26
▁pamalo 26
▁paninibugho 26
▁perez 26
▁pleasant 26
▁praying 26
▁profaned 26
▁province 26
▁receives 26
▁redeemer 26
▁rejoicing 26
▁ropes 26
▁ruined 26
▁run 26
▁sarai 26
▁savior 26
▁scribe 26
▁separate 26
▁ships 26
▁sibat 26
▁sigaw 26
▁slain 26
▁soil 26
▁soldiers 26
▁support 26
▁tama 26
▁terah 26
▁thigh 26
▁trembling 26
▁try 26
▁tuli 26
▁wheels 26
bigay 25
bulay 25
gad 25
giging 25
gpapahayag 25
gubat 25
hamak 25
ibang 25
ipo 25
kabilang 25
layo 25
nda 25
ningas 25
ob 25
od 25
pag 25
pakiusap 25
san 25
tribe 25
uhusan 25
ulit 25
▁arms 25
▁bigkis 25
▁biktima 25
▁blow 25
▁boards 25
▁bowl 25
▁bubungan 25
▁bum 25
▁burden 25
▁bury 25
▁calls 25
▁cloak 25
▁con 25
▁divide 25
▁drank 25
▁dumami 25
▁eber 25
▁eden 25
▁eglon 25
▁elijah 25
▁fact 25
▁forefathers 25
▁hamor 25
▁hapon 25
▁hates 25
▁hebrew 25
▁igagawa 25
▁inhabitant 25
▁inilalagay 25
▁itinapon 25
▁joined 25
▁jonah 25
▁kidlat 25
▁lanta 25
▁leah 25
▁libu 25
▁lights 25
▁loaves 25
▁looks 25
▁luklukan 25
▁maglalaba 25
▁magtatagumpay 25
▁makilala 25
▁mandaraya 25
▁manumbalik 25
▁mawalan 25
▁nagkumpuni 25
▁naglabas 25
▁nagpahayag 25
▁nilo 25
▁notice 25
▁offenses 25
▁pagdiriwang 25
▁paghuhukom 25
▁pagkaalipin 25
▁pagpasok 25
▁pagtitiis 25
▁pam 25
▁pinagputul 25
▁pledge 25
▁poles 25
▁price 25
▁princes 25
▁profane 25
▁rebekah 25
▁rebelled 25
▁search 25
▁sheba 25
▁sinaway 25
▁single 25
▁siyasatin 25
▁square 25
▁start 25
▁stirred 25
▁streams 25
▁strengthen 25
▁susundin 25
▁tagapagmana 25
▁tagapayo 25
▁taksil 25
▁talento 25
▁tatakas 25
▁tinu 25
▁tumulo 25
▁twist 25
▁visit 25
▁wail 25
▁warned 25
▁waves 25
akarating 24
ala 24
bangon 24
baya 24
ch 24
do 24
eth 24
hirap 24
kagawa 24
kakalat 24
kip 24
nat 24
nd 24
ought 24
susunog 24
tapat 24
te 24
ukol 24
▁artaxerxes 24
▁assessment 24
▁aton 24
▁babala 24
▁beat 24
▁bil 24
▁binalot 24
▁binili 24
▁canaanite 24
▁chamber 24
▁continue 24
▁contribution 24
▁covers 24
▁dario 24
▁dayami 24
▁delay 24
▁devise 24
▁dew 24
▁dis 24
▁dragon 24
▁fifteen 24
▁flame 24
▁floor 24
▁fully 24
▁gawan 24
▁giikan 24
▁glorified 24
▁godly 24
▁grew 24
▁hinayaan 24
▁horror 24
▁hurled 24
▁ihaha 24
▁inutusan 24
▁ipaalam 24
▁isip 24
▁itayo 24
▁itinatag 24
▁kindled 24
▁kiriath 24
▁kora 24
▁labis 24
▁lo 24
▁lubid 24
▁luha 24
▁maawa 24
▁makapal 24
▁mangingibig 24
▁manugang 24
▁matatag 24
▁mawawasak 24
▁mina 24
▁nagkakasala 24
▁nagnanais 24
▁nagpasimula 24
▁nagtitipon 24
▁nalulugod 24
▁nangunguna 24
▁nilipol 24
▁overflow 24
▁paglingkuran 24
▁pahayag 24
▁palaso 24
▁pasanan 24
▁protect 24
▁pundasyon 24
▁rahab 24
▁resting 24
▁roar 24
▁roo 24
▁sagutin 24
▁sand 24
▁sandalyas 24
▁sangla 24
▁securely 24
▁serving 24
▁sinaktan 24
▁sinunod 24
▁songs 24
▁stir 24
▁subject 24
▁talaga 24
▁taste 24
▁thick 24
▁tinalikuran 24
▁trample 24
▁trampled 24
▁treasure 24
▁treat 24
▁wander 24
▁wanted 24
▁watawat 24
▁weak 24
▁zacarias 24
▁zechariah 24
aawit 23
agtatayo 23
angkin 23
iran 23
libo 23
magpakailanpaman 23
ron 23
sabi 23
tay 23
tayo 23
tuktok 23
tuparin 23
uusig 23
▁across 23
▁alpa 23
▁anguish 23
▁asin 23
▁banga 23
▁believes 23
▁breastpiece 23
▁bride 23
▁building 23
▁c 23
▁captive 23
▁carefully 23
▁charges 23
▁cleanse 23
▁commanders 23
▁companions 23
▁considered 23
▁contempt 23
▁continual 23
▁corners 23
▁crying 23
▁daong 23
▁declared 23
▁descended 23
▁devil 23
▁diyablo 23
▁dungis 23
▁extend 23
▁fountain 23
▁gedaliah 23
▁girl 23
▁green 23
▁grief 23
▁guma 23
▁hagar 23
▁hamak 23
▁hazar 23
▁hiwaga 23
▁ibababa 23
▁ikin 23
▁init 23
▁j 23
▁jebuseo 23
▁kabulaanan 23
▁kahanga 23
▁kakaunti 23
▁korah 23
▁letter 23
▁likod 23
▁lovers 23
▁lumusong 23
▁maingat 23
▁maipa 23
▁maker 23
▁maliwanag 23
▁maniningil 23
▁miracles 23
▁nagalak 23
▁naghahandog 23
▁nakatakas 23
▁natuyo 23
▁naunawaan 23
▁nauu 23
▁ninth 23
▁opening 23
▁orphan 23
▁pababa 23
▁paglilinis 23
▁pamamahala 23
▁patyo 23
▁pawa 23
▁pektoral 23
▁perished 23
▁pilay 23
▁pillar 23
▁pinahiran 23
▁pity 23
▁portions 23
▁provok 23
▁pu 23
▁roll 23
▁roof 23
▁saanman 23
▁saligan 23
▁scripture 23
▁seal 23
▁sealed 23
▁seas 23
▁seeks 23
▁senturion 23
▁serpent 23
▁setting 23
▁ship 23
▁shouted 23
▁sorrow 23
▁spare 23
▁street 23
▁stumbling 23
▁subukin 23
▁suhol 23
▁sumasa 23
▁survivors 23
▁swords 23
▁synagogues 23
▁talk 23
▁upa 23
▁upuan 23
▁walking 23
af 22
balot 22
ban 22
banal 22
dulu 22
gawa 22
hahayag 22
ham 22
hang 22
he 22
ib 22
kanila 22
kol 22
lad 22
lalim 22
led 22
less 22
libot 22
lubong 22
pangaral 22
rove 22
sari 22
she 22
suriin 22
tanggap 22
uri 22
utusan 22
za 22
▁advice 22
▁agila 22
▁ago 22
▁allot 22
▁ananias 22
▁aroer 22
▁aso 22
▁aware 22
▁bagama 22
▁baruc 22
▁baruch 22
▁bathe 22
▁buhangin 22
▁bunso 22
▁business 22
▁cease 22
▁centurion 22
▁changed 22
▁chooses 22
▁coastlands 22
▁comp 22
▁courage 22
▁cubit 22
▁dahon 22
▁dalang 22
▁darius 22
▁debir 22
▁destroyer 22
▁dibon 22
▁dispute 22
▁dreams 22
▁ebed 22
▁escaped 22
▁exceedingly 22
▁firm 22
▁flag 22
▁fresh 22
▁gedalias 22
▁hamat 22
▁hawak 22
▁heat 22
▁ho 22
▁hooks 22
▁horeb 22
▁inaakala 22
▁indignation 22
▁inquire 22
▁inu 22
▁ipu 22
▁issu 22
▁itinataas 22
▁itinutur 22
▁join 22
▁jonathan 22
▁kaawaan 22
▁kamalian 22
▁kaparusahan 22
▁kasin 22
▁katatakutan 22
▁kaugalian 22
▁kawit 22
▁lamp 22
▁lamps 22
▁leaves 22
▁levite 22
▁liban 22
▁lots 22
▁lumaki 22
▁mabilis 22
▁madala 22
▁magkagayon 22
▁magkasala 22
▁mahigpit 22
▁makapasok 22
▁malupit 22
▁manalangin 22
▁mapag 22
▁mapahiya 22
▁move 22
▁murder 22
▁nagbabantay 22
▁naglalaga 22
▁nakamatay 22
▁nama 22
▁native 22
▁nauunawaan 22
▁obeyed 22
▁official 22
▁pagkaing 22
▁pagpapa 22
▁pagpatay 22
▁pakikidigma 22
▁pakikipag 22
▁pangalang 22
▁payapa 22
▁pinapa 22
▁plot 22
▁precepts 22
▁puti 22
▁ring 22
▁saul 22
▁saway 22
▁separated 22
▁shattered 22
▁shilo 22
▁shine 22
▁siege 22
▁skill 22
▁sown 22
▁st 22
▁steal 22
▁susumpa 22
▁taglay 22
▁tatak 22
▁trap 22
▁tum 22
▁uhay 22
▁umaagos 22
▁uncover 22
▁uncovered 22
▁understood 22
▁vain 22
▁wasakin 22
▁weight 22
▁zeba 22
▁zin 22
0 21
arba 21
bisa 21
ea 21
gilalas 21
husay 21
iling 21
iyak 21
lak 21
lalaki 21
laylay 21
ligaw 21
lili 21
liwanag 21
mah 21
mamana 21
oven 21
ry 21
suguin 21
susuot 21
tin 21
ubok 21
umapit 21
▁accepted 21
▁ahaz 21
▁az 21
▁babaliin 21
▁banyaga 21
▁belt 21
▁bumabangon 21
▁busog 21
▁butas 21
▁deceive 21
▁deserted 21
▁dinungisan 21
▁dominion 21
▁eighth 21
▁ended 21
▁ensina 21
▁exchange 21
▁falsely 21
▁fulfill 21
▁fury 21
▁granada 21
▁hanay 21
▁hatulan 21
▁heights 21
▁hina 21
▁humahatol 21
▁ikasiyam 21
▁ikawalo 21
▁impurity 21
▁ipinagkaloob 21
▁ipinako 21
▁joppa 21
▁josiah 21
▁josias 21
▁kabang 21
▁kani 21
▁kumilos 21
▁learned 21
▁mabunga 21
▁madaling 21
▁magkaka 21
▁makaraan 21
▁matigas 21
▁matutuwid 21
▁merchandise 21
▁moment 21
▁nagpapasalamat 21
▁namumuno 21
▁often 21
▁pagkutya 21
▁pagmamahal 21
▁panukat 21
▁passing 21
▁pinu 21
▁pleases 21
▁plow 21
▁preach 21
▁pumili 21
▁refused 21
▁rejoiced 21
▁released 21
▁rush 21
▁saklolo 21
▁saktan 21
▁sasama 21
▁satisfy 21
▁searched 21
▁sebada 21
▁sinasadya 21
▁snare 21
▁sumakay 21
▁sumasamba 21
▁taluktok 21
▁tamar 21
▁tatakpan 21
▁tauhan 21
▁thief 21
▁tumira 21
▁turo 21
▁umaasa 21
▁uncleanness 21
▁vessel 21
▁vessels 21
▁virgins 21
▁voices 21
▁warrior 21
▁widows 21
▁windows 21
▁zerubabel 21
▁zerubbabel 21
aalis 20
ac 20
ata 20
barnea 20
dad 20
dalangin 20
ec 20
ene 20
gpahinga 20
haharap 20
kahuli 20
kakilala 20
mar 20
nadab 20
palayas 20
pasok 20
ped 20
pili 20
tabi 20
tataas 20
tubos 20
tuli 20
upa 20
utin 20
▁aahon 20
▁abiram 20
▁accomplish 20
▁adar 20
▁affliction 20
▁ahi 20
▁allotment 20
▁amorite 20
▁araba 20
▁arabah 20
▁aram 20
▁arose 20
▁barley 20
▁bihisan 20
▁binali 20
▁binuhay 20
▁breaking 20
▁bu 20
▁bumaling 20
▁buntot 20
▁chose 20
▁clear 20
▁common 20
▁crush 20
▁dalangin 20
▁deny 20
▁determined 20
▁dispossess 20
▁doves 20
▁eight 20
▁ekron 20
▁faint 20
▁figs 20
▁forehead 20
▁foreigners 20
▁groan 20
▁gulo 20
▁heveo 20
▁hiyas 20
▁hot 20
▁humatol 20
▁husbands 20
▁im 20
▁inilayo 20
▁interest 20
▁ipapakita 20
▁isinasa 20
▁itinur 20
▁jazer 20
▁jewish 20
▁jubilee 20
▁kamanyang 20
▁kapalaran 20
▁kasiraan 20
▁katapangan 20
▁knees 20
▁kulog 20
▁lawa 20
▁lazy 20
▁leaving 20
▁locusts 20
▁lumpo 20
▁lumu 20
▁macedonia 20
▁maganda 20
▁mahal 20
▁makakatakas 20
▁malilipol 20
▁mapupuno 20
▁marah 20
▁marapat 20
▁maririnig 20
▁matamis 20
▁maupo 20
▁meal 20
▁multiplied 20
▁naghanda 20
▁nakapag 20
▁nakaraan 20
▁nanggagaling 20
▁nangyayari 20
▁nebo 20
▁nest 20
▁overtake 20
▁pagkaunawa 20
▁pagsa 20
▁palabunutan 20
▁palagian 20
▁panganganak 20
▁pantubos 20
▁pinaalis 20
▁pinakamabuti 20
▁pinun 20
▁plain 20
▁pleasing 20
▁prophesied 20
▁prostitution 20
▁proverb 20
▁purify 20
▁revive 20
▁revolt 20
▁sako 20
▁salamangkero 20
▁sanhedrin 20
▁sari 20
▁sasamba 20
▁saulo 20
▁scepter 20
▁seba 20
▁sha 20
▁shekel 20
▁shemaiah 20
▁shemaya 20
▁siyamnapu 20
▁spit 20
▁stream 20
▁stronghold 20
▁subdue 20
▁summer 20
▁talents 20
▁tali 20
▁tamad 20
▁taunt 20
▁testified 20
▁tinitirhan 20
▁tipunan 20
▁treacherous 20
▁treated 20
▁tumanggi 20
▁ugong 20
▁waited 20
▁worker 20
▁zadok 20
aabang 19
aaliw 19
abutan 19
ak 19
amumuno 19
awi 19
bili 19
binalik 19
ced 19
kaw 19
ki 19
kipagtipan 19
lantad 19
numpa 19
pak 19
reklamo 19
sauli 19
su 19
takda 19
tenth 19
tira 19
▁aangkinin 19
▁amo 19
▁ana 19
▁anino 19
▁anymore 19
▁argolya 19
▁arrogance 19
▁ascended 19
▁asleep 19
▁bag 19
▁bantayan 19
▁batik 19
▁biga 19
▁birhen 19
▁boil 19
▁bought 19
▁bubunutin 19
▁burial 19
▁caesar 19
▁capture 19
▁carmel 19
▁cedar 19
▁clay 19
▁conduct 19
▁creature 19
▁custom 19
▁cyrus 19
▁den 19
▁difficult 19
▁dinadaluyan 19
▁dumu 19
▁eagle 19
▁enters 19
▁entrails 19
▁etiopia 19
▁extended 19
▁grounds 19
▁guho 19
▁hahayo 19
▁hinatulan 19
▁hittite 19
▁hurried 19
▁ikadalawampu 19
▁increased 19
▁informed 19
▁inibig 19
▁instruct 19
▁invited 19
▁ipinasok 19
▁itinanim 19
▁itinuro 19
▁iuu 19
▁jackals 19
▁kahabagan 19
▁kalakal 19
▁kapaitan 19
▁kataksilan 19
▁kawikaan 19
▁kedar 19
▁kinalulugdan 19
▁kohat 19
▁kohath 19
▁kulungan 19
▁lu 19
▁lumalang 19
▁lumipas 19
▁luwad 19
▁magdamag 19
▁magpaka 19
▁mahahalaga 19
▁mahulog 19
▁mal 19
▁males 19
▁mangangalakal 19
▁manoa 19
▁measur 19
▁messenger 19
▁nabuksan 19
▁nanginig 19
▁naniwala 19
▁nawawala 19
▁niluwalhati 19
▁occurred 19
▁og 19
▁pakikiapid 19
▁palayok 19
▁panaghoy 19
▁papalabas 19
▁papalayo 19
▁pararamihin 19
▁pasasalamat 19
▁past 19
▁pawawalan 19
▁pinasimulan 19
▁pinutol 19
▁planned 19
▁play 19
▁porch 19
▁prevail 19
▁pronouncement 19
▁provoke 19
▁reap 19
▁running 19
▁scriptures 19
▁se 19
▁setro 19
▁shallum 19
▁shiloh 19
▁signet 19
▁sinalita 19
▁sinner 19
▁split 19
▁spy 19
▁star 19
▁suguin 19
▁tagumpay 19
▁tamang 19
▁tatangis 19
▁thinking 19
▁timbangan 19
▁tinupad 19
▁torment 19
▁total 19
▁treacherously 19
▁tubusin 19
▁tumatangis 19
▁uupo 19
▁valleys 19
▁violent 19
▁voluntar 19
▁walumpu 19
▁winds 19
▁z 19
alaga 18
ard 18
away 18
bog 18
dala 18
ence 18
ern 18
for 18
ginawa 18
gpapalayas 18
har 18
init 18
ity 18
jearim 18
kasu 18
ladla 18
laki 18
latag 18
liwayway 18
muno 18
nais 18
nazaret 18
papasan 18
pinangaral 18
rac 18
sapit 18
seba 18
tibay 18
ubos 18
upper 18
uwi 18
▁4 18
▁actual 18
▁amos 18
▁ascend 18
▁astonished 18
▁babatuhin 18
▁baboy 18
▁bani 18
▁banquet 18
▁baptism 18
▁basin 18
▁ben 18
▁beor 18
▁board 18
▁boundary 18
▁cave 18
▁cedars 18
▁chariot 18
▁ciro 18
▁cling 18
▁conceal 18
▁condemn 18
▁corner 18
▁decide 18
▁direction 18
▁diringgin 18
▁dismayed 18
▁divorce 18
▁drop 18
▁dumaraing 18
▁elizabeth 18
▁entering 18
▁eufrates 18
▁examine 18
▁expect 18
▁exten 18
▁extreme 18
▁feel 18
▁gathering 18
▁gog 18
▁grieved 18
▁hahabulin 18
▁hahayaan 18
▁hananiah 18
▁hananias 18
▁handaan 18
▁hardened 18
▁harim 18
▁haughty 18
▁het 18
▁hinahamak 18
▁ibayo 18
▁ibinuka 18
▁immorality 18
▁inaasahan 18
▁iniingatan 18
▁ipinasiya 18
▁itinabo 18
▁itinanong 18
▁itinu 18
▁iwinawagayway 18
▁jacobs 18
▁jar 18
▁kadahilanan 18
▁kalalakihan 18
▁kapootan 18
▁katitisuran 18
▁kinagabihan 18
▁kinalimutan 18
▁least 18
▁locust 18
▁lumikha 18
▁maghahanda 18
▁mahahabag 18
▁mahina 18
▁mahirap 18
▁mailap 18
▁makarinig 18
▁makikilala 18
▁mali 18
▁mamre 18
▁mangangalunya 18
▁mapagpakumbaba 18
▁masasabi 18
▁masisira 18
▁mawawala 18
▁micah 18
▁miriam 18
▁nagbalik 18
▁nagbubunga 18
▁naghari 18
▁naglalakbay 18
▁nagtiwala 18
▁nahuli 18
▁nakahiga 18
▁nakakakilala 18
▁nakipaglaban 18
▁nalalabi 18
▁namumuhi 18
▁nan 18
▁nanganganlong 18
▁ne 18
▁offense 18
▁omer 18
▁paalisin 18
▁pabalik 18
▁pabayaan 18
▁paghahandog 18
▁pagkapari 18
▁paglabas 18
▁pains 18
▁paligid 18
▁pinahintulutan 18
▁pisaan 18
▁plenty 18
▁pook 18
▁preached 18
▁pregnant 18
▁prinsipe 18
▁prisoners 18
▁pro 18
▁produced 18
▁proper 18
▁pumapatay 18
▁pumi 18
▁rebuilt 18
▁repentance 18
▁reside 18
▁respect 18
▁sanballat 18
▁secretly 18
▁sharp 18
▁shave 18
▁short 18
▁simula 18
▁sinta 18
▁sisigaw 18
▁snow 18
▁strengthened 18
▁suwail 18
▁talking 18
▁tambuli 18
▁ti 18
▁tinatahanan 18
▁tinatanggap 18
▁tinuli 18
▁tinuruan 18
▁troubled 18
▁tulo 18
▁tumubo 18
▁umiiyak 18
▁withdraw 18
▁withered 18
▁workers 18
▁wounded 18
alala 17
bibilang 17
binilang 17
ble 17
dagdag 17
dalhan 17
gising 17
hampas 17
hatid 17
imbang 17
inuman 17
ipanganak 17
j 17
kan 17
kap 17
katipon 17
laid 17
lalapastangan 17
latter 17
ling 17
linis 17
lit 17
mad 17
mana 17
muel 17
pasan 17
pawalang 17
pigil 17
po 17
salungat 17
the 17
tigas 17
two 17
ulo 17
vai 17
▁accus 17
▁acquire 17
▁added 17
▁articles 17
▁assuredly 17
▁bababa 17
▁baga 17
▁bake 17
▁bald 17
▁bautismo 17
▁below 17
▁beneath 17
▁bihasa 17
▁binaba 17
▁binibigyan 17
▁bitterness 17
▁booths 17
▁bowls 17
▁buhayin 17
▁bulaan 17
▁captives 17
▁chase 17
▁clothe 17
▁coals 17
▁comforted 17
▁confront 17
▁counsel 17
▁crawl 17
▁deceived 17
▁dedan 17
▁dilim 17
▁divination 17
▁dove 17
▁eliab 17
▁evildoers 17
▁expanse 17
▁fac 17
▁falsehood 17
▁foreigner 17
▁forgiveness 17
▁frightened 17
▁gladness 17
▁gloom 17
▁hades 17
▁hang 17
▁hanging 17
▁har 17
▁heir 17
▁hermon 17
▁honored 17
▁humahabol 17
▁humanity 17
▁humawak 17
▁humiliated 17
▁ibinukod 17
▁ilong 17
▁instructed 17
▁ipagbili 17
▁iwin 17
▁ju 17
▁kailanma 17
▁kaing 17
▁kalayaan 17
▁kamahalan 17
▁kapanglawan 17
▁karaniwan 17
▁katakutan 17
▁katao 17
▁kilalanin 17
▁kinatatakutan 17
▁kulang 17
▁lazaro 17
▁letters 17
▁linisin 17
▁liwasan 17
▁lobe 17
▁luwalhatiin 17
▁lyre 17
▁maasias 17
▁madali 17
▁magpapalayok 17
▁magtipon 17
▁magtiwala 17
▁makakasama 17
▁malilinis 17
▁manoah 17
▁mapagkunwari 17
▁mapagmataas 17
▁mapapahamak 17
▁marangal 17
▁marriage 17
▁marry 17
▁micaias 17
▁minahal 17
▁misery 17
▁nabasa 17
▁nagsilang 17
▁nagta 17
▁nagtatag 17
▁nagturo 17
▁nakatingin 17
▁namely 17
▁naniniwala 17
▁nights 17
▁overt 17
▁pababayaan 17
▁pagkaka 17
▁pakana 17
▁pala 17
▁pangaral 17
▁parents 17
▁perezeo 17
▁perseverance 17
▁pinatnubayan 17
▁pr 17
▁prevailed 17
▁prisoner 17
▁proud 17
▁pugad 17
▁quarrel 17
▁real 17
▁rebulto 17
▁relative 17
▁remote 17
▁require 17
▁restored 17
▁restrain 17
▁season 17
▁shelter 17
▁singers 17
▁sour 17
▁strange 17
▁supling 17
▁supot 17
▁takip 17
▁talampakan 17
▁tie 17
▁tig 17
▁town 17
▁trusted 17
▁tulos 17
▁tumitig 17
▁tuntungan 17
▁unintentionally 17
▁utang 17
▁vari 17
▁view 17
▁village 17
▁watches 17
▁weapons 17
▁wish 17
▁wrapp 17
▁younger 17
▁zoar 17
aalab 16
agbabayad 16
age 16
alat 16
araro 16
asan 16
awa 16
ayuno 16
bahala 16
balik 16
bautismuhan 16
buhat 16
daragdag 16
ef 16
gila 16
hayag 16
hihi 16
hipan 16
ihandog 16
ikit 16
ingnan 16
ish 16
kanlungan 16
kawal 16
kikipagtipan 16
nagtipun 16
ningning 16
om 16
pasanin 16
pat 16
pinagkatiwala 16
ran 16
rin 16
sagot 16
sakay 16
salubong 16
sindak 16
sinuot 16
sisi 16
sunog 16
tal 16
tataglay 16
tawag 16
uhin 16
ukit 16
upok 16
▁1 16
▁aariin 16
▁abihu 16
▁acquired 16
▁adoni 16
▁advance 16
▁alike 16
▁alituntunin 16
▁aloud 16
▁amram 16
▁antioch 16
▁assault 16
▁beersheba 16
▁bela 16
▁blemish 16
▁bribe 16
▁bumabalik 16
▁chaff 16
▁cheerful 16
▁confess 16
▁corrupt 16
▁countryman 16
▁countrymen 16
▁court 16
▁crossing 16
▁crucify 16
▁deaf 16
▁descend 16
▁dinaya 16
▁diseases 16
▁distan 16
▁dumaraan 16
▁dung 16
▁edrei 16
▁eleven 16
▁enjoy 16
▁explain 16
▁flies 16
▁forces 16
▁gigibain 16
▁grave 16
▁gum 16
▁gumaga 16
▁harden 16
▁hati 16
▁hinahatulan 16
▁hingin 16
▁hiniling 16
▁hoof 16
▁hostility 16
▁hu 16
▁hulihan 16
▁hunger 16
▁hunt 16
▁ibinagsak 16
▁ililitaw 16
▁iniahon 16
▁inter 16
▁ipagkaloob 16
▁isusulat 16
▁itatapon 16
▁jebusite 16
▁joyfully 16
▁kamalig 16
▁katahimikan 16
▁katigasan 16
▁kawalang 16
▁legs 16
▁ligtas 16
▁likeness 16
▁lilipas 16
▁loss 16
▁lumihis 16
▁maghahari 16
▁magligtas 16
▁magmadali 16
▁magpahayag 16
▁magpatuloy 16
▁magsasaka 16
▁makakakain 16
▁makakatayo 16
▁maki 16
▁makiki 16
▁makikipag 16
▁makipaglaban 16
▁manganganak 16
▁manunubos 16
▁mapapasa 16
▁masisiyahan 16
▁mati 16
▁media 16
▁meshullam 16
▁mesulam 16
▁midianita 16
▁mira 16
▁mortal 16
▁mud 16
▁naaalala 16
▁nagdaraan 16
▁nagningas 16
▁nakadamit 16
▁nakakarinig 16
▁naki 16
▁nakuha 16
▁nanlulupaypay 16
▁natutuwa 16
▁natutuyo 16
▁nineveh 16
▁noise 16
▁obsc 16
▁obtain 16
▁ordain 16
▁overcome 16
▁paghihimagsik 16
▁pagkagalit 16
▁paglabag 16
▁pagod 16
▁pagpupuri 16
▁pagsisisi 16
▁pagsubok 16
▁pagtitiwala 16
▁pakikinig 16
▁pananagutan 16
▁partiality 16
▁patubo 16
▁pe 16
▁performing 16
▁perfume 16
▁perverse 16
▁pigs 16
▁pinalaya 16
▁pinggan 16
▁pinuntahan 16
▁pisi 16
▁pitch 16
▁pool 16
▁powerful 16
▁priesthood 16
▁proclaiming 16
▁profit 16
▁purchased 16
▁rehob 16
▁resident 16
▁restitution 16
▁sagot 16
▁sahod 16
▁sandals 16
▁sapilitan 16
▁self 16
▁settle 16
▁shade 16
▁smash 16
▁soothsayer 16
▁statue 16
▁stor 16
▁successful 16
▁tabang 16
▁tabor 16
▁tarshish 16
▁teman 16
▁terrify 16
▁thirst 16
▁tombs 16
▁tongues 16
▁tread 16
▁troops 16
▁tuhod 16
▁tumatakas 16
▁tumitingin 16
▁tunic 16
▁turuan 16
▁twilight 16
▁uod 16
▁wage 16
▁working 16
▁yelo 16
▁youngest 16
▁zeal 16
akit 15
alan 15
amo 15
aram 15
bal 15
bed 15
bibigkis 15
bit 15
buhusan 15
bukas 15
bulungan 15
buti 15
dan 15
durog 15
eh 15
ent 15
ganda 15
gawad 15
gilin 15
had 15
hahati 15
huhuli 15
ira 15
italaga 15
kakainin 15
kakuha 15
kalimutan 15
kalipas 15
kasal 15
lalatag 15
laya 15
lim 15
limot 15
lipat 15
luto 15
pakalakas 15
pangasiwa 15
patawad 15
ph 15
pil 15
pot 15
puputul 15
ram 15
rating 15
rumi 15
saysay 15
servant 15
siawit 15
takip 15
talik 15
tanaw 15
tapon 15
tas 15
titira 15
ubaran 15
udurog 15
uhan 15
wangis 15
▁acceptable 15
▁acknowledge 15
▁alarm 15
▁antioquia 15
▁armed 15
▁article 15
▁avenger 15
▁begin 15
▁beware 15
▁bina 15
▁binigkas 15
▁binu 15
▁bodyguard 15
▁brook 15
▁caesarea 15
▁cakes 15
▁churches 15
▁closed 15
▁collect 15
▁collectors 15
▁concubine 15
▁condition 15
▁confirm 15
▁cr 15
▁credited 15
▁cyprus 15
▁dada 15
▁demand 15
▁dig 15
▁diligently 15
▁dinakip 15
▁dininig 15
▁dinurog 15
▁dip 15
▁dish 15
▁dishonor 15
▁dogs 15
▁drinks 15
▁dut 15
▁egyptian 15
▁elon 15
▁entrusted 15
▁er 15
▁feasts 15
▁felix 15
▁flatter 15
▁flute 15
▁fold 15
▁forsaken 15
▁fullness 15
▁ginalit 15
▁girls 15
▁gomorra 15
▁grasp 15
▁greatest 15
▁groaning 15
▁group 15
▁gumagala 15
▁halang 15
▁harp 15
▁hawakan 15
▁heifer 15
▁helmet 15
▁himpilan 15
▁hinipan 15
▁hirap 15
▁holiness 15
▁hukuman 15
▁humahayo 15
▁humihingi 15
▁ibubukod 15
▁ikiling 15
▁ill 15
▁inaalis 15
▁inakay 15
▁inflict 15
▁inisip 15
▁insight 15
▁insult 15
▁intend 15
▁isinumpa 15
▁itapon 15
▁itatag 15
▁itatalaga 15
▁itin 15
▁kalikuan 15
▁kalugu 15
▁kapakanan 15
▁katutubo 15
▁ketongin 15
▁kinalalagyan 15
▁kinsmen 15
▁lend 15
▁limp 15
▁load 15
▁lubusan 15
▁lumiko 15
▁luntian 15
▁maaalala 15
▁maaseiah 15
▁magagalit 15
▁magbalik 15
▁magsusu 15
▁magtayo 15
▁makakatagpo 15
▁mamanahin 15
▁manghuhula 15
▁manok 15
▁mapuksa 15
▁matapa 15
▁matatalino 15
▁matuwa 15
▁mawala 15
▁mean 15
▁measurements 15
▁meditate 15
▁melt 15
▁mention 15
▁minds 15
▁minister 15
▁moabita 15
▁naghahasik 15
▁nagkaka 15
▁naglalakad 15
▁nagmumula 15
▁nakakalugod 15
▁nasira 15
▁natapos 15
▁nazareth 15
▁ninive 15
▁niyebe 15
▁obligation 15
▁office 15
▁paba 15
▁pagalingin 15
▁pagkatao 15
▁pagpa 15
▁pagsamba 15
▁pagtatalaga 15
▁pagtatalo 15
▁pahintulutan 15
▁pambuhos 15
▁pananim 15
▁pandigma 15
▁pangangalunya 15
▁pangangati 15
▁panunumpa 15
▁parables 15
▁paralyzed 15
▁paratang 15
▁pasiya 15
▁permit 15
▁persecute 15
▁pinagsikapan 15
▁pinas 15
▁pinupuri 15
▁porches 15
▁post 15
▁potter 15
▁praised 15
▁prayers 15
▁proportion 15
▁prostitutes 15
▁puksain 15
▁repeatedly 15
▁respond 15
▁reuel 15
▁ride 15
▁rocks 15
▁safety 15
▁sakali 15
▁sambahin 15
▁sanlinggo 15
▁sasaktan 15
▁sawayin 15
▁scale 15
▁shatter 15
▁sickness 15
▁siria 15
▁site 15
▁skillful 15
▁smooth 15
▁sprout 15
▁stomach 15
▁straw 15
▁taimtim 15
▁tamp 15
▁tatanggalin 15
▁tatawag 15
▁terrors 15
▁thirteen 15
▁timna 15
▁tribute 15
▁tubal 15
▁tumatayo 15
▁turban 15
▁unpunished 15
▁valiant 15
▁warm 15
▁yelong 15
▁yumuko 15
▁ze 15
abang 14
agpapasalamat 14
ally 14
asiria 14
atnan 14
ayos 14
balak 14
bon 14
by 14
ganti 14
gnanais 14
growers 14
gtanong 14
handed 14
higa 14
hihip 14
hikayat 14
ice 14
iiwan 14
imbak 14
itin 14
jair 14
kain 14
kalag 14
kikipagtalo 14
kinalat 14
kot 14
lakas 14
lawak 14
liligaw 14
mahagi 14
mak 14
nakit 14
nap 14
naw 14
nig 14
numbalik 14
out 14
paghiganti 14
pal 14
pantubos 14
paroo 14
pasukin 14
pinahihintul 14
pinatatawad 14
punta 14
raan 14
sila 14
taon 14
tatakan 14
tha 14
tical 14
tutubos 14
ugan 14
uin 14
umaga 14
usin 14
ut 14
uusap 14
uuwi 14
va 14
▁aakyat 14
▁accomplished 14
▁advantage 14
▁aki 14
▁amon 14
▁anakim 14
▁approaching 14
▁argue 14
▁attitude 14
▁balsam 14
▁baog 14
▁baptist 14
▁batu 14
▁baywang 14
▁beaten 14
▁beg 14
▁belly 14
▁bilin 14
▁black 14
▁block 14
▁borders 14
▁breast 14
▁buo 14
▁bush 14
▁car 14
▁catch 14
▁caus 14
▁cesarea 14
▁chebar 14
▁cherub 14
▁colt 14
▁commission 14
▁compare 14
▁course 14
▁courtyards 14
▁cows 14
▁curses 14
▁custody 14
▁dalu 14
▁darkened 14
▁deception 14
▁deeply 14
▁defense 14
▁dinalaw 14
▁dishon 14
▁dudurugin 14
▁dumadaing 14
▁dungisan 14
▁earthquake 14
▁eastward 14
▁elim 14
▁everywhere 14
▁flower 14
▁fragran 14
▁future 14
▁ga 14
▁geba 14
▁gezer 14
▁gina 14
▁gomorrah 14
▁grown 14
▁gusali 14
▁hamath 14
▁hammer 14
▁hanan 14
▁happy 14
▁hebrews 14
▁helper 14
▁highest 14
▁hinampas 14
▁hinulma 14
▁humbled 14
▁hur 14
▁hypocrites 14
▁iddo 14
▁idol 14
▁ihiwalay 14
▁ikalabindalawa 14
▁inagaw 14
▁inakala 14
▁infidelity 14
▁inililigtas 14
▁inscription 14
▁ipapangilin 14
▁isin 14
▁isusuot 14
▁itakuwil 14
▁jabin 14
▁jahaz 14
▁jesse 14
▁kaaliwan 14
▁kababayan 14
▁kabagabagan 14
▁kabuuan 14
▁kalihim 14
▁kandungan 14
▁kaparangan 14
▁katanghalian 14
▁kawalan 14
▁kidneys 14
▁kinakain 14
▁kinapootan 14
▁kubol 14
▁kumakat 14
▁labored 14
▁labors 14
▁lamunin 14
▁lazarus 14
▁leap 14
▁likas 14
▁lock 14
▁loft 14
▁log 14
▁loose 14
▁lumakas 14
▁madilim 14
▁magalit 14
▁magbubunga 14
▁magpapatuloy 14
▁magta 14
▁mahabagin 14
▁mahuhulog 14
▁maiiwan 14
▁mainit 14
▁makakapasok 14
▁makasama 14
▁malalagay 14
▁malilig 14
▁malipol 14
▁manlilibak 14
▁marahas 14
▁masikap 14
▁mataba 14
▁matutuyo 14
▁merchants 14
▁murderer 14
▁myrrh 14
▁nabusog 14
▁nagbubuka 14
▁nagluluksa 14
▁nagmama 14
▁nagpapatuloy 14
▁nanaginip 14
▁nasisiyahan 14
▁natira 14
▁natitisod 14
▁nazirite 14
▁netanias 14
▁nethaniah 14
▁nine 14
▁nose 14
▁observ 14
▁opens 14
▁oppressor 14
▁oreb 14
▁paghamak 14
▁paglakad 14
▁paglapastangan 14
▁pagpupulong 14
▁palaces 14
▁palatandaan 14
▁palayain 14
▁panauhin 14
▁pareho 14
▁peor 14
▁persecuted 14
▁persuaded 14
▁pierced 14
▁pinakadakila 14
▁pinangalanan 14
▁pinapakinggan 14
▁plagues 14
▁plains 14
▁plants 14
▁pleading 14
▁pot 14
▁prophesying 14
▁prosper 14
▁r 14
▁rabbi 14
▁rabi 14
▁rama 14
▁ransom 14
▁rebel 14
▁resides 14
▁roads 14
▁roaring 14
▁row 14
▁sacrificed 14
▁scales 14
▁sem 14
▁shealtiel 14
▁shinar 14
▁sigawan 14
▁sinumpa 14
▁sleeps 14
▁slow 14
▁snares 14
▁sole 14
▁solemn 14
▁spreading 14
▁stripped 14
▁striv 14
▁succoth 14
▁suka 14
▁summon 14
▁suso 14
▁sustain 14
▁tabla 14
▁tail 14
▁takal 14
▁talked 14
▁tested 14
▁tinikan 14
▁titingin 14
▁trade 14
▁treasury 14
▁tribulation 14
▁tried 14
▁tumata 14
▁tumatakbo 14
▁tumutu 14
▁turbante 14
▁tutupukin 14
▁tuwa 14
▁twelfth 14
▁twice 14
▁umabot 14
▁umu 14
▁unwilling 14
▁urg 14
▁weeds 14
▁wither 14
▁wool 14
▁wounds 14
▁writing 14
▁zoan 14
7 13
abigyan 13
ach 13
aliw 13
angguni 13
anim 13
ano 13
ant 13
ara 13
aral 13
ate 13
bato 13
bihis 13
bubuhusan 13
che 13
dalahan 13
dia 13
dinadalangin 13
ghasik 13
halaga 13
halo 13
hawi 13
hinto 13
hip 13
huhulog 13
igan 13
ihiwalay 13
kilos 13
kitunguhan 13
lagak 13
lampas 13
lapastangan 13
lipas 13
manda 13
men 13
muhay 13
one 13
oops 13
pagtibay 13
patnubay 13
pis 13
punuin 13
sakdal 13
salin 13
sarhan 13
sisiping 13
sob 13
special 13
ster 13
tanggol 13
tatawag 13
tened 13
tindig 13
totohanan 13
ukan 13
umpuni 13
ure 13
urim 13
utang 13
ving 13
zur 13
▁ad 13
▁alitan 13
▁ammonita 13
▁announce 13
▁arrested 13
▁attendants 13
▁bank 13
▁bar 13
▁baskets 13
▁batay 13
▁bayad 13
▁baytang 13
▁bears 13
▁beating 13
▁behavior 13
▁belonging 13
▁bent 13
▁bibilangin 13
▁binabati 13
▁binasa 13
▁binasag 13
▁bingi 13
▁blaz 13
▁blossoms 13
▁bondage 13
▁burst 13
▁carrie 13
▁chiefs 13
▁cistern 13
▁citadel 13
▁citadels 13
▁co 13
▁cold 13
▁companion 13
▁company 13
▁complaint 13
▁condemned 13
▁copy 13
▁correspond 13
▁courageous 13
▁crooked 13
▁cultivate 13
▁delivered 13
▁denario 13
▁desired 13
▁destroying 13
▁devastation 13
▁display 13
▁disyerto 13
▁dressed 13
▁eagerly 13
▁eliakim 13
▁encircle 13
▁exact 13
▁excellent 13
▁exposed 13
▁farther 13
▁fasting 13
▁fears 13
▁felt 13
▁festus 13
▁finehas 13
▁frankincense 13
▁gagamitin 13
▁ganti 13
▁gilingan 13
▁gnash 13
▁godless 13
▁greeks 13
▁grumble 13
▁hahatiin 13
▁hahatol 13
▁hatinggabi 13
▁helped 13
▁helpless 13
▁hinihintay 13
▁hivite 13
▁hiwalay 13
▁hudyat 13
▁huwad 13
▁ibubuwal 13
▁inform 13
▁inialay 13
▁ipanganak 13
▁itamar 13
▁itataboy 13
▁itinuturo 13
▁jefone 13
▁jewelry 13
▁jezreel 13
▁kabayaran 13
▁kabulukan 13
▁kaginhawahan 13
▁kahilingan 13
▁kaka 13
▁kalawakan 13
▁karit 13
▁katandaan 13
▁katayan 13
▁katulong 13
▁kindly 13
▁kir 13
▁kuwintas 13
▁lachish 13
▁lacking 13
▁lakish 13
▁lalayo 13
▁late 13
▁laugh 13
▁laws 13
▁leaf 13
▁lingap 13
▁lumalaban 13
▁lumang 13
▁mababa 13
▁machir 13
▁maganap 13
▁magpapahinga 13
▁mahimbing 13
▁maibigan 13
▁maililigtas 13
▁majestic 13
▁malawak 13
▁malchijah 13
▁mananagot 13
▁mangunguna 13
▁mapan 13
▁maputi 13
▁marta 13
▁martha 13
▁marurumi 13
▁masa 13
▁masaya 13
▁masayang 13
▁maunawaan 13
▁mauunawaan 13
▁mere 13
▁meriba 13
▁ministers 13
▁mukhaan 13
▁muwang 13
▁mystery 13
▁nadungisan 13
▁naghahari 13
▁naglala 13
▁nagligtas 13
▁nagmamahal 13
▁nagsigawan 13
▁nagtagumpay 13
▁naisin 13
▁nakatago 13
▁nanganganak 13
▁napakalakas 13
▁natipon 13
▁nawasak 13
▁nazarene 13
▁necessary 13
▁nets 13
▁nurs 13
▁obtained 13
▁olives 13
▁opportunity 13
▁outcry 13
▁overlay 13
▁overthrow 13
▁pagkakaiba 13
▁pagkasindak 13
▁pagsalangsang 13
▁pagta 13
▁palagi 13
▁palaka 13
▁pamumuhay 13
▁pananalangin 13
▁panday 13
▁panghuhula 13
▁pangyayari 13
▁panlabas 13
▁papalapit 13
▁paran 13
▁parisukat 13
▁parito 13
▁patawarin 13
▁patience 13
▁period 13
▁phinehas 13
▁pile 13
▁pinahihirapan 13
▁pinahirapan 13
▁pinalibutan 13
▁pingga 13
▁pinigil 13
▁plundered 13
▁pomegranates 13
▁rehum 13
▁repaired 13
▁reply 13
▁responsibility 13
▁retribution 13
▁rising 13
▁sandaling 13
▁sandok 13
▁satraps 13
▁secure 13
▁seem 13
▁shackles 13
▁shimei 13
▁sindak 13
▁siniyasat 13
▁sir 13
▁siyamnaraan 13
▁slavery 13
▁sleeping 13
▁smashed 13
▁stubborn 13
▁stubbornness 13
▁sucot 13
▁sulo 13
▁sumuway 13
▁survivor 13
▁swept 13
▁tables 13
▁takas 13
▁tanglaw 13
▁tarsis 13
▁testifies 13
▁thoroughly 13
▁threshold 13
▁thrones 13
▁tinatakan 13
▁tinuy 13
▁tithes 13
▁tobias 13
▁tumi 13
▁turtledove 13
▁tutungo 13
▁ulupong 13
▁uproar 13
▁urge 13
▁usbong 13
▁vines 13
▁violently 13
▁vowed 13
▁warning 13
▁wedding 13
▁weighed 13
▁wonderful 13
▁wound 13
▁zera 13
▁zerah 13
aabot 12
aalinlangan 12
aaway 12
alaala 12
alihan 12
ani 12
apawi 12
aran 12
arap 12
ash 12
awagayway 12
balutin 12
bayad 12
cia 12
coming 12
cu 12
dagat 12
daig 12
dalamhati 12
dla 12
dor 12
drach 12
eshac 12
ganapin 12
ghahanda 12
handa 12
hinga 12
horon 12
hukom 12
hulog 12
ier 12
ilang 12
ilap 12
ilibing 12
iness 12
inyo 12
ipigil 12
kalagay 12
kapal 12
kipagtalo 12
kubkob 12
kuha 12
labinlima 12
lalapit 12
lalayo 12
lapat 12
lasing 12
lihis 12
likha 12
log 12
lugmok 12
lupig 12
mis 12
mon 12
nas 12
nt 12
ors 12
palitan 12
pipi 12
pos 12
possessed 12
punit 12
putulin 12
retched 12
rias 12
rinig 12
sahin 12
saksi 12
sasagawa 12
saw 12
scent 12
shach 12
some 12
tangay 12
tayin 12
tently 12
tigil 12
tik 12
ud 12
unin 12
unti 12
wan 12
x 12
yang 12
▁9 12
▁abib 12
▁abroad 12
▁afar 12
▁ahira 12
▁alert 12
▁amoz 12
▁appalled 12
▁appears 12
▁ariel 12
▁arrest 12
▁asaf 12
▁attain 12
▁babagsak 12
▁basbasan 12
▁batid 12
▁bebai 12
▁beelzebul 12
▁beings 12
▁bilangin 12
▁binalaan 12
▁binubuk 12
▁bone 12
▁brimstone 12
▁bubu 12
▁camps 12
▁carea 12
▁chew 12
▁chi 12
▁cleansing 12
▁closely 12
▁commands 12
▁conceive 12
▁confined 12
▁confusion 12
▁consult 12
▁cord 12
▁counselors 12
▁covet 12
▁creation 12
▁daanan 12
▁dedicat 12
▁delightful 12
▁denie 12
▁devot 12
▁different 12
▁dim 12
▁disperse 12
▁distressed 12
▁divine 12
▁diviners 12
▁divisions 12
▁drag 12
▁dumarami 12
▁dwellings 12
▁ease 12
▁ebal 12
▁eleventh 12
▁eliasib 12
▁elifaz 12
▁endured 12
▁equal 12
▁exist 12
▁failed 12
▁fever 12
▁fingers 12
▁finish 12
▁force 12
▁fortress 12
▁frogs 12
▁gamaliel 12
▁gana 12
▁gazelle 12
▁gigising 12
▁ginamit 12
▁ginawan 12
▁graves 12
▁greek 12
▁habulin 12
▁hatred 12
▁hayag 12
▁herodias 12
▁hezron 12
▁hinagkan 12
▁hinipo 12
▁hinuli 12
▁hurl 12
▁ibinubuhos 12
▁igalang 12
▁ihihiwalay 12
▁iilan 12
▁ikalabinlima 12
▁imbakan 12
▁includ 12
▁increases 12
▁increasing 12
▁inquired 12
▁intent 12
▁intoxicat 12
▁ipagdiriwang 12
▁ithamar 12
▁iw 12
▁jephunneh 12
▁juniper 12
▁kabundukan 12
▁kapatawaran 12
▁karagatan 12
▁karami 12
▁kareah 12
▁karilagan 12
▁kasakiman 12
▁katabaan 12
▁kenaz 12
▁kinaka 12
▁laborious 12
▁lacks 12
▁lakaran 12
▁languages 12
▁laodicea 12
▁lean 12
▁lumubog 12
▁mabilang 12
▁mabubusog 12
▁madaya 12
▁magdalena 12
▁maghanda 12
▁magpasalamat 12
▁magtagumpay 12
▁magtitipon 12
▁mahabag 12
▁mahalalel 12
▁maintain 12
▁makainom 12
▁makatakas 12
▁makir 12
▁mala 12
▁maligtas 12
▁malubha 12
▁mam 12
▁mangwawasak 12
▁manlalakbay 12
▁manslaughter 12
▁manunumbalik 12
▁matalas 12
▁mauuna 12
▁mesopotamia 12
▁ministry 12
▁mislead 12
▁mock 12
▁naganap 12
▁nagdaan 12
▁nagdadalamhati 12
▁nagdurusa 12
▁nagkakatipon 12
▁nagliliyab 12
▁nagtaka 12
▁naive 12
▁nakakatagpo 12
▁nakakaunawa 12
▁namamahala 12
▁napakaganda 12
▁napapa 12
▁naparoon 12
▁natutunaw 12
▁nauuhaw 12
▁nayayanig 12
▁nazirita 12
▁nebu 12
▁nilapa 12
▁observe 12
▁obstinate 12
▁outrageous 12
▁outst 12
▁pagkakamali 12
▁pagtalikod 12
▁pagtatayo 12
▁pahihirapan 12
▁paitaas 12
▁pakaka 12
▁palayasin 12
▁palihim 12
▁pamamaraan 12
▁pamilihan 12
▁pangalawa 12
▁pangangailangan 12
▁papatay 12
▁pashhur 12
▁pastures 12
▁payat 12
▁peleg 12
▁personal 12
▁piliin 12
▁pinagkalooban 12
▁pinakamali 12
▁pinalakas 12
▁pinuksa 12
▁pisngi 12
▁possessed 12
▁possible 12
▁poverty 12
▁proclamation 12
▁product 12
▁pur 12
▁purification 12
▁pursuing 12
▁putik 12
▁putulin 12
▁ramah 12
▁record 12
▁reed 12
▁refaim 12
▁refined 12
▁reproach 12
▁required 12
▁rescues 12
▁returns 12
▁reu 12
▁revoke 12
▁rezin 12
▁riding 12
▁robes 12
▁rods 12
▁ruthless 12
▁sadducees 12
▁saduceo 12
▁salmon 12
▁sanctified 12
▁sasagutin 12
▁schemes 12
▁scorched 12
▁security 12
▁seems 12
▁select 12
▁sense 12
▁sentence 12
▁shaul 12
▁shela 12
▁shelah 12
▁shem 12
▁shook 12
▁shoulders 12
▁silence 12
▁sinisikatan 12
▁sinunggaban 12
▁sinusunod 12
▁sirain 12
▁sisi 12
▁slander 12
▁sp 12
▁spared 12
▁spi 12
▁squares 12
▁staying 12
▁stick 12
▁stoned 12
▁succeed 12
▁suffering 12
▁sumisira 12
▁sumu 12
▁sumusumpa 12
▁suppo 12
▁suuban 12
▁sweep 12
▁swift 12
▁tagapagbautismo 12
▁tata 12
▁tatahimik 12
▁te 12
▁thorn 12
▁tigil 12
▁timothy 12
▁tinitipon 12
▁tired 12
▁tithe 12
▁tobiah 12
▁towers 12
▁train 12
▁translated 12
▁tulisan 12
▁tumutulo 12
▁tumutupok 12
▁tunika 12
▁unawain 12
▁unfaithful 12
▁useless 12
▁valid 12
▁violated 12
▁week 12
▁wickedly 12
▁withers 12
▁withheld 12
▁worked 12
▁wrap 12
▁zebedee 12
▁zebedeo 12
▁zeeb 12
▁zibeon 12
2; 11
8 11
aalaga 11
abala 11
ahit 11
akayin 11
anan 11
api 11
asalakay 11
bagsak 11
bhasa 11
bilanggo 11
cy 11
dali 11
dami 11
de 11
destined 11
four 11
galilea 11
gampanan 11
gged 11
ghuhugas 11
halik 11
hand 11
hasik 11
hat 11
here 11
higit 11
hilig 11
hininga 11
hulihan 11
ico 11
if 11
iinit 11
imok 11
iwas 11
kaba 11
kainan 11
kakabit 11
kalakalan 11
kam 11
kasuot 11
kilala 11
libak 11
lipad 11
mangha 11
mapapakinabangan 11
mpas 11
nagsisikap 11
nah 11
nakawan 11
nasasabik 11
nawin 11
nego 11
oc 11
old 11
ozadak 11
padanak 11
pahintul 11
pakilala 11
pan 11
peor 11
plano 11
rah 11
red 11
rs 11
sabwatan 11
sai 11
sanggalang 11
sara 11
servants 11
sin 11
siping 11
taan 11
tag 11
talian 11
tanda 11
titindi 11
ty 11
udy 11
ugin 11
ulot 11
umihan 11
ungal 11
upo 11
urin 11
uuna 11
wit 11
yurakan 11
zarad 11
▁12,000 11
▁aaliwin 11
▁accompani 11
▁accurate 11
▁accuser 11
▁ada 11
▁adam 11
▁adorn 11
▁adversity 11
▁agos 11
▁agripa 11
▁agrippa 11
▁almond 11
▁amoy 11
▁arrow 11
▁ascalon 11
▁ashkelon 11
▁assign 11
▁azariah 11
▁azarias 11
▁backs 11
▁barabas 11
▁barabbas 11
▁bath 11
▁beard 11
▁bethany 11
▁bigyang 11
▁binugbog 11
▁bitterly 11
▁ble 11
▁blessings 11
▁bows 11
▁broad 11
▁bubuhayin 11
▁bugtong 11
▁calm 11
▁canals 11
▁center 11
▁ch 11
▁committing 11
▁compel 11
▁concealed 11
▁cords 11
▁correct 11
▁countries 11
▁craftsmen 11
▁cruel 11
▁cud 11
▁customs 11
▁dadaing 11
▁daraanan 11
▁dare 11
▁decay 11
▁decision 11
▁delights 11
▁despi 11
▁destroys 11
▁differ 11
▁dinamitan 11
▁discover 11
▁dishonored 11
▁distinguish 11
▁dough 11
▁drip 11
▁dumala 11
▁earthenware 11
▁efeso 11
▁efron 11
▁eighteen 11
▁eliashib 11
▁eliezer 11
▁eliphaz 11
▁embrace 11
▁encourage 11
▁encouraged 11
▁enlarge 11
▁enoc 11
▁enoch 11
▁ephesus 11
▁ephron 11
▁evidence 11
▁ex 11
▁faced 11
▁fashion 11
▁fearing 11
▁festo 11
▁fighting 11
▁fitting 11
▁flam 11
▁flashes 11
▁flourish 11
▁footstool 11
▁fragrance 11
▁frighten 11
▁gagantihan 11
▁gardens 11
▁generous 11
▁gerar 11
▁giniba 11
▁gising 11
▁grape 11
▁gray 11
▁gumagal 11
▁gusto 11
▁haharap 11
▁hanged 11
▁hesron 11
▁heth 11
▁hiningi 11
▁hinog 11
▁hinukay 11
▁homer 11
▁homes 11
▁hostil 11
▁hugasan 11
▁humility 11
▁igin 11
▁ikubli 11
▁ikukubli 11
▁impiyerno 11
▁impossible 11
▁inanyayahan 11
▁iniha 11
▁instruments 11
▁interpret 11
▁invite 11
▁jab 11
▁jubilant 11
▁kabalisahan 11
▁kahiyahiya 11
▁kaisipan 11
▁kakulangan 11
▁kalayawan 11
▁kapamahalaan 11
▁kapisanan 11
▁kasalan 11
▁kasambahay 11
▁kataasan 11
▁katalinuhan 11
▁katumbas 11
▁kinasusuklaman 11
▁kumuku 11
▁lilitaw 11
▁lioness 11
▁lira 11
▁liver 11
▁maaawa 11
▁mabait 11
▁magbunga 11
▁magdalene 11
▁maglalap 11
▁magmumula 11
▁magpakatapang 11
▁magsaya 11
▁mahalay 11
▁mahihina 11
▁maibiga 11
▁mailigtas 11
▁maipahayag 11
▁maitim 11
▁makakatagal 11
▁makalawa 11
▁makatarungan 11
▁mamahalin 11
▁mananampalataya 11
▁mangaral 11
▁manghina 11
▁mapula 11
▁mara 11
▁mararangal 11
▁matatatag 11
▁matayog 11
▁matu 11
▁matuto 11
▁mayayaman 11
▁memor 11
▁midnight 11
▁moves 11
▁nababaga 11
▁nagbago 11
▁nagmadali 11
▁nagpunta 11
▁nagsasa 11
▁nagsibaba 11
▁nagutom 11
▁nahihiga 11
▁nahihirapan 11
▁nakaligtas 11
▁nakapagpapa 11
▁nakatakda 11
▁nalalanta 11
▁nalipol 11
▁namumunga 11
▁nanganga 11
▁napakasama 11
▁naririto 11
▁nasakop 11
▁nasaktan 11
▁nature 11
▁nawalan 11
▁nayanig 11
▁nebuzaradan 11
▁ngumunguya 11
▁nilinis 11
▁ninakaw 11
▁nurse 11
▁oak 11
▁obedient 11
▁onix 11
▁ordination 11
▁overpower 11
▁ow 11
▁pagbaba 11
▁pagbagsak 11
▁pagkabata 11
▁pagkakatulog 11
▁pagkukunwari 11
▁pagluluksa 11
▁pagngangalit 11
▁pagtitiyaga 11
▁pakawalan 11
▁palabas 11
▁palanggana 11
▁palapag 11
▁panakip 11
▁pantatak 11
▁panugtog 11
▁pararangalan 11
▁pashur 11
▁patag 11
▁perceive 11
▁pinaglingkuran 11
▁pinagtata 11
▁pinatawad 11
▁plaster 11
▁plauta 11
▁population 11
▁position 11
▁produces 11
▁prophecy 11
▁provided 11
▁provisions 11
▁prudent 11
▁pugon 11
▁pulu 11
▁pumu 11
▁putong 11
▁rab 11
▁receiv 11
▁reclin 11
▁rejoices 11
▁remainder 11
▁rephaim 11
▁roast 11
▁roman 11
▁sack 11
▁sanctif 11
▁sanctifie 11
▁sasakyan 11
▁seraiah 11
▁sinusubok 11
▁skins 11
▁slip 11
▁snatch 11
▁spices 11
▁state 11
▁suffered 11
▁talaan 11
▁tall 11
▁task 11
▁teaches 11
▁tel 11
▁tempted 11
▁tend 11
▁terms 11
▁thin 11
▁timoteo 11
▁tisa 11
▁titingnan 11
▁traders 11
▁triumph 11
▁tumingala 11
▁tumutubo 11
▁tunics 11
▁umaawit 11
▁umasa 11
▁umuupo 11
▁uncle 11
▁understands 11
▁unit 11
▁unrighteousness 11
▁ut 11
▁vegetation 11
▁vomit 11
▁wagas 11
▁wailing 11
▁wandered 11
▁warn 11
▁wasto 11
▁watchman 11
▁wealthy 11
▁weeks 11
▁wheel 11
▁wing 11
▁winter 11
▁worn 11
▁yumukod 11
,500 10
2 10
agayway 10
agpalipas 10
agtipun 10
alagaan 10
alipusta 10
alled 10
almon 10
ama 10
amin 10
anyo 10
aries 10
bang 10
batid 10
buk 10
bunan 10
cate 10
co 10
con 10
dalawa 10
danak 10
ehold 10
ena 10
ezer 10
far 10
galing 10
gdiwang 10
gilead 10
gpakumbaba 10
gpipigil 10
haba 10
hala 10
ialay 10
iba 10
ihagis 10
ikap 10
ikli 10
ine 10
isipan 10
isiping 10
isuot 10
iwan 10
iwasan 10
jamin 10
kalat 10
kapasok 10
ksi 10
kubli 10
laban 10
lalo 10
lat 10
latan 10
lilinis 10
lis 10
litaw 10
lkias 10
lulugod 10
mali 10
mos 10
nib 10
ns 10
og 10
ook 10
paliwanag 10
pantay 10
pasakop 10
patibay 10
pigilan 10
pinsala 10
pinto 10
poot 10
puti 10
res 10
salo 10
sen 10
shad 10
shua 10
tanim 10
tatakuwil 10
tatali 10
tatapos 10
tungan 10
tuwa 10
tuwid 10
ugol 10
ulungan 10
unsod 10
untong 10
utan 10
uwang 10
vious 10
vo 10
wala 10
winisik 10
▁3 10
▁ab 10
▁abednego 10
▁abundantly 10
▁adan 10
▁addition 10
▁amount 10
▁anah 10
▁andres 10
▁andrew 10
▁arises 10
▁artemis 10
▁asaph 10
▁ashdod 10
▁asupre 10
▁awoke 10
▁axe 10
▁baggage 10
▁bakod 10
▁betania 10
▁binautismuhan 10
▁binunot 10
▁bitak 10
▁blossom 10
▁blows 10
▁boasts 10
▁boldly 10
▁books 10
▁bricks 10
▁brightness 10
▁bubuksan 10
▁carcass 10
▁carmi 10
▁ceased 10
▁census 10
▁confirmed 10
▁consum 10
▁contains 10
▁contingent 10
▁control 10
▁corpses 10
▁corruptly 10
▁craftsman 10
▁create 10
▁dangkal 10
▁datan 10
▁dathan 10
▁debora 10
▁deborah 10
▁deer 10
▁defeat 10
▁deliver 10
▁depth 10
▁devours 10
▁dinner 10
▁discern 10
▁disgust 10
▁distinction 10
▁disturb 10
▁doom 10
▁duty 10
▁dy 10
▁eighty 10
▁envy 10
▁eunuchs 10
▁executed 10
▁exhausted 10
▁falling 10
▁fate 10
▁fe 10
▁festival 10
▁finding 10
▁fit 10
▁flashing 10
▁flax 10
▁fleeing 10
▁fly 10
▁founded 10
▁freely 10
▁galak 10
▁ganoon 10
▁gapos 10
▁gatekeepers 10
▁gideoni 10
▁govern 10
▁greetings 10
▁grind 10
▁grows 10
▁hahamakin 10
▁haharapin 10
▁hailstones 10
▁happens 10
▁heirs 10
▁higher 10
▁hikaw 10
▁hil 10
▁hinati 10
▁hinihingi 10
▁hinom 10
▁hip 10
▁hordes 10
▁huhugasan 10
▁hulihin 10
▁humihihip 10
▁humihip 10
▁humira 10
▁hung 10
▁hurt 10
▁ibabangon 10
▁ibinubuka 10
▁igaga 10
▁ihahambing 10
▁iinumin 10
▁inaalalayan 10
▁inatasan 10
▁indignant 10
▁infertile 10
▁inihaha 10
▁ipapasok 10
▁ipinagkait 10
▁iscariot 10
▁iscariote 10
▁isipin 10
▁itago 10
▁itlog 10
▁jared 10
▁jehohanan 10
▁jehud 10
▁jethro 10
▁joas 10
▁joash 10
▁joiarib 10
▁jotam 10
▁jotham 10
▁kahambugan 10
▁kakaiba 10
▁kaluguran 10
▁kapitbahay 10
▁katatawanan 10
▁katuwaan 10
▁kinakailangan 10
▁kindle 10
▁kinikilala 10
▁kinukuha 10
▁labingwalo 10
▁laborers 10
▁lama 10
▁lamec 10
▁lamech 10
▁langaw 10
▁larger 10
▁lasing 10
▁le 10
▁libnah 10
▁lindol 10
▁lowland 10
▁lowly 10
▁lud 10
▁luluwalhatiin 10
▁lumilipad 10
▁luz 10
▁maalala 10
▁mabalisa 10
▁mabautismuhan 10
▁magma 10
▁magpatotoo 10
▁magtanong 10
▁mahayag 10
▁mahuli 10
▁makakapag 10
▁makakarinig 10
▁makapagliligtas 10
▁makapagpapa 10
▁makata 10
▁makikipaglaban 10
▁makikipagtalo 10
▁makintab 10
▁malamig 10
▁malice 10
▁malilimutan 10
▁malinaw 10
▁malungkot 10
▁mamumu 10
▁manana 10
▁manganak 10
▁manlupaypay 10
▁mapagpala 10
▁mapanibughuin 10
▁mapapatay 10
▁mapatay 10
▁mapuno 10
▁mapupunta 10
▁masigasig 10
▁masipag 10
▁massah 10
▁matanggap 10
▁mesa 10
▁minamasdan 10
▁moth 10
▁nagda 10
▁naglalabas 10
▁nagpatotoo 10
▁nahayag 10
▁nakakatakot 10
▁nakasu 10
▁naliligaw 10
▁nalulungkot 10
▁namumu 10
▁nasamsam 10
▁nasasabi 10
▁nathan 10
▁natisod 10
▁natitira 10
▁natuklasan 10
▁natuto 10
▁nazaret 10
▁necks 10
▁needs 10
▁neglect 10
▁neriah 10
▁nilalapastangan 10
▁nostrils 10
▁oaks 10
▁obed 10
▁obedience 10
▁objects 10
▁oppressors 10
▁oso 10
▁oven 10
▁overseer 10
▁owl 10
▁pagbibigay 10
▁pagdadalamhati 10
▁pagkubkob 10
▁pagmamataas 10
▁pagpapasalamat 10
▁pagtatangi 10
▁pagwasak 10
▁pair 10
▁pakiki 10
▁pakiusap 10
▁palakol 10
▁palalaka 10
▁palalayain 10
▁palilig 10
▁paliwanag 10
▁pamamaga 10
▁pangangalatin 10
▁panic 10
▁pansinin 10
▁papatnubayan 10
▁parangalan 10
▁parusahan 10
▁penuel 10
▁perizzite 10
▁pierce 10
▁pil 10
▁pinagka 10
▁pinagtabuyan 10
▁pinagtitiwalaan 10
▁pinalaki 10
▁pinalalaya 10
▁pinapag 10
▁pinitpit 10
▁promises 10
▁pumaitaas 10
▁pumuksa 10
▁pumupunta 10
▁pumuti 10
▁punished 10
▁pupuntahan 10
▁pupunuin 10
▁puputulin 10
▁purim 10
▁push 10
▁quaked 10
▁rebukes 10
▁recline 10
▁records 10
▁regalo 10
▁regions 10
▁relent 10
▁repai 10
▁rightly 10
▁rimon 10
▁robbers 10
▁roma 10
▁rot 10
▁sad 10
▁safan 10
▁safely 10
▁sakop 10
▁sale 10
▁scorch 10
▁seashore 10
▁serug 10
▁settings 10
▁shaphan 10
▁sheaves 10
▁shittim 10
▁shone 10
▁shoot 10
▁shoots 10
▁sikap 10
▁sinamba 10
▁sinful 10
▁singaw 10
▁sinipingan 10
▁sinulat 10
▁sipi 10
▁slept 10
▁snake 10
▁sorcerers 10
▁sounds 10
▁sows 10
▁space 10
▁spear 10
▁spears 10
▁speckled 10
▁spies 10
▁station 10
▁store 10
▁strip 10
▁stronger 10
▁stumbled 10
▁stupid 10
▁sumaksi 10
▁sumalakay 10
▁sumasaka 10
▁taglamig 10
▁takutin 10
▁taniman 10
▁tanod 10
▁tanungin 10
▁tatahanan 10
▁teachers 10
▁tender 10
▁testing 10
▁thread 10
▁tied 10
▁timbang 10
▁tinatangay 10
▁tinutupad 10
▁trial 10
▁troubles 10
▁trustworthy 10
▁tulog 10
▁tumila 10
▁tutulungan 10
▁ungodly 10
▁unjust 10
▁unos 10
▁uproot 10
▁uz 10
▁uzias 10
▁uzziah 10
▁value 10
▁vat 10
▁watchmen 10
▁weaver 10
▁welcome 10
▁withhold 10
▁worm 10
▁zafiro 10
▁zalmuna 10
▁zalmunna 10
▁zebul 10
,500. 9
5 9
abarim 9
abel 9
ael 9
agaw 9
akamtan 9
ake 9
alubong 9
anin 9
apakan 9
arabia 9
asalamatan 9
ated 9
bababa 9
bak 9
bantog 9
bat 9
bay 9
ber 9
bibili 9
bim 9
bubuhay 9
bubungkal 9
buno 9
dal 9
di 9
don 9
dya 9
eeping 9
ehipto 9
enggaste 9
eph 9
ermo 9
etiopia 9
fertile 9
flicted 9
gabag 9
gabi 9
galak 9
ghihimagsik 9
gliligtas 9
gpalit 9
gtalaga 9
gtanim 9
gulong 9
hagupit 9
hid 9
ia 9
ible 9
ile 9
ill 9
ipaalam 9
isiyasat 9
itatatag 9
ius 9
ize 9
kaibigan 9
kiah 9
kin 9
kinabang 9
kpin 9
kukubli 9
labanan 9
lagot 9
lakasan 9
lid 9
ligalig 9
lok 9
lukl 9
lulubog 9
lusong 9
magitan 9
makapagpasalamat 9
mbangan 9
melech 9
meon 9
mula 9
nanangis 9
ngahas 9
ngalan 9
nggugulo 9
nine 9
nlumo 9
paalam 9
pagkakatiwala 9
paglalaban 9
pagtayo 9
pagtiis 9
palad 9
panirahan 9
papadanak 9
patakbo 9
pukyutan 9
puspus 9
qui 9
rado 9
ranasan 9
rely 9
sad 9
sagana 9
scribe 9
sion 9
sumpa 9
taboy 9
takbuhan 9
talo 9
tar 9
tatangka 9
tatatag 9
throne 9
tnubay 9
tuluyan 9
ukin 9
umapaw 9
unt 9
usok 9
uu 9
wawakasan 9
▁aabutan 9
▁aapihin 9
▁abuse 9
▁acsa 9
▁action 9
▁admonish 9
▁akala 9
▁aliwin 9
▁amalekita 9
▁amalekites 9
▁ambon 9
▁aminadab 9
▁amminadab 9
▁anatot 9
▁ap 9
▁appeal 9
▁apply 9
▁apportion 9
▁ariing 9
▁associate 9
▁attentive 9
▁authorities 9
▁awaken 9
▁awitan 9
▁baals 9
▁babayaran 9
▁badly 9
▁baguhin 9
▁baker 9
▁balbas 9
▁baluktot 9
▁bangin 9
▁basi 9
▁beds 9
▁belteshasar 9
▁betrayed 9
▁betrothed 9
▁bilha 9
▁binabantayan 9
▁binuhat 9
▁blasphemed 9
▁bolt 9
▁boys 9
▁bracelets 9
▁bug 9
▁builders 9
▁bukang 9
▁buma 9
▁bumabalot 9
▁bumasa 9
▁bunganga 9
▁cana 9
▁certifi 9
▁childbirth 9
▁citizens 9
▁clearly 9
▁cleft 9
▁cloaks 9
▁collapse 9
▁compassionate 9
▁complain 9
▁condemnation 9
▁conscience 9
▁constantly 9
▁construct 9
▁cook 9
▁cornerstone 9
▁cost 9
▁cupbearer 9
▁cups 9
▁dali 9
▁declaration 9
▁deserv 9
▁deuel 9
▁devastated 9
▁devised 9
▁difficulty 9
▁dishe 9
▁disobedience 9
▁disobedient 9
▁district 9
▁distrito 9
▁durung 9
▁eager 9
▁edict 9
▁embroiderer 9
▁engkantador 9
▁engrave 9
▁entiles 9
▁erected 9
▁eunuch 9
▁existed 9
▁freedom 9
▁gagawan 9
▁gamitin 9
▁gat 9
▁gera 9
▁ginap 9
▁glean 9
▁goods 9
▁guarantor 9
▁guardrooms 9
▁gush 9
▁hahampasin 9
▁halimbawa 9
▁hardship 9
▁heaps 9
▁hell 9
▁herdsmen 9
▁hihiga 9
▁hinahabol 9
▁honors 9
▁husto 9
▁hyssop 9
▁ibinababa 9
▁iibigin 9
▁ikalabintatlo 9
▁ikasasama 9
▁ililibing 9
▁imprisonment 9
▁inaapi 9
▁incit 9
▁inhabit 9
▁inihalaga 9
▁inihasik 9
▁inila 9
▁inilalabas 9
▁intended 9
▁inuusig 9
▁ipagbibili 9
▁ipagka 9
▁ipin 9
▁ipinagka 9
▁ipinapa 9
▁isagawa 9
▁isasagawa 9
▁isinilang 9
▁isinu 9
▁isinusugo 9
▁isopo 9
▁itatanim 9
▁itutu 9
▁jael 9
▁jafet 9
▁jason 9
▁javan 9
▁jedaiah 9
▁jedias 9
▁jerubaal 9
▁jerubbaal 9
▁jetro 9
▁jewels 9
▁joiada 9
▁jozadak 9
▁jubilation 9
▁kagala 9
▁kahi 9
▁kakilabutan 9
▁kalagan 9
▁kalapastanganan 9
▁kalbo 9
▁kapanganakan 9
▁kasalukuyan 9
▁kasing 9
▁katiyakan 9
▁katubusan 9
▁katusuhan 9
▁kinalaman 9
▁kishon 9
▁kukulangin 9
▁kumaka 9
▁kumikinang 9
▁kuwago 9
▁lake 9
▁lana 9
▁layman 9
▁leaven 9
▁libna 9
▁linggo 9
▁liryo 9
▁litid 9
▁longing 9
▁loudly 9
▁lumago 9
▁lumalago 9
▁lurk 9
▁maba 9
▁mabibilang 9
▁magagalitin 9
▁magaling 9
▁magdusa 9
▁maghapon 9
▁maghihintay 9
▁maghintay 9
▁magkakapatid 9
▁maglakbay 9
▁maglalasing 9
▁magliligtas 9
▁magnakaw 9
▁magsimula 9
▁magtatam 9
▁magtatanim 9
▁magwawakas 9
▁maingatan 9
▁makain 9
▁makakagawa 9
▁makapa 9
▁makapagsalita 9
▁makapagsasabi 9
▁makaunawa 9
▁makeda 9
▁makkedah 9
▁malapastangan 9
▁malkia 9
▁maluwang 9
▁mamahala 9
▁mangangaral 9
▁manggagamot 9
▁manghihina 9
▁maniwala 9
▁manlulupaypay 9
▁mapandaya 9
▁mapapakinabang 9
▁mapasa 9
▁mapuputi 9
▁mass 9
▁matanias 9
▁matatapa 9
▁matiyaga 9
▁mattaniah 9
▁matutubos 9
▁matutupad 9
▁melquizedek 9
▁meribah 9
▁migdol 9
▁minabuti 9
▁mounted 9
▁mourns 9
▁naaapi 9
▁naaman 9
▁nabali 9
▁nagbubu 9
▁nagdilim 9
▁naghahangad 9
▁naghirap 9
▁nagnanakaw 9
▁nagpapahinga 9
▁nagsisigaw 9
▁nagtatagumpay 9
▁nagtatanong 9
▁nagtitinda 9
▁nahshon 9
▁nakahanda 9
▁nakaukit 9
▁nakaunat 9
▁nakikipamayan 9
▁naligaw 9
▁nanampalataya 9
▁nanana 9
▁nananampalataya 9
▁nangako 9
▁napahiya 9
▁nasunog 9
▁natatanaw 9
▁natutunan 9
▁nauuna 9
▁necklace 9
▁nerias 9
▁nili 9
▁nilulu 9
▁ninety 9
▁northward 9
▁occur 9
▁onyx 9
▁owned 9
▁paayon 9
▁pabigat 9
▁pagbabantay 9
▁pagdaing 9
▁paghi 9
▁pagkabalisa 9
▁pagkakabit 9
▁pagkasira 9
▁paglilingkuran 9
▁paglingap 9
▁pagmasdan 9
▁pagnanakaw 9
▁pagpapagod 9
▁pagpunta 9
▁pagsalang 9
▁pagsaway 9
▁pagtupad 9
▁pahalang 9
▁pahingahan 9
▁pangangaral 9
▁panulukan 9
▁papasukin 9
▁papawiin 9
▁parara 9
▁pardon 9
▁paroroon 9
▁patalim 9
▁patiti 9
▁pegs 9
▁pinagmulan 9
▁pinakamaganda 9
▁pinansin 9
▁pinanukala 9
▁pinapatay 9
▁pinaslang 9
▁pinayagan 9
▁pipili 9
▁poison 9
▁poste 9
▁preparation 9
▁prevent 9
▁proconsul 9
▁prolong 9
▁prominent 9
▁protection 9
▁publicly 9
▁pumailanglang 9
▁purified 9
▁pus 9
▁quiver 9
▁rage 9
▁rash 9
▁raven 9
▁ravines 9
▁raw 9
▁realm 9
▁rebellion 9
▁regain 9
▁relief 9
▁remaining 9
▁reminder 9
▁renew 9
▁requested 9
▁resist 9
▁restrained 9
▁revel 9
▁revere 9
▁reverence 9
▁rid 9
▁riddle 9
▁ridicule 9
▁rights 9
▁rimmon 9
▁robb 9
▁robbery 9
▁rubenita 9
▁sacks 9
▁sacr 9
▁sagipin 9
▁sakim 9
▁sakong 9
▁sang 9
▁sasamsaman 9
▁saves 9
▁scoffer 9
▁sel 9
▁selected 9
▁selling 9
▁settlement 9
▁sh 9
▁shaft 9
▁sharon 9
▁shines 9
▁showers 9
▁sickle 9
▁sidonians 9
▁simpl 9
▁sinasaway 9
▁sinisira 9
▁sinu 9
▁sinugatan 9
▁sinulid 9
▁slumber 9
▁smell 9
▁southward 9
▁spiritual 9
▁stagger 9
▁steadfast 9
▁stephen 9
▁stern 9
▁stolen 9
▁storehouses 9
▁strap 9
▁striking 9
▁string 9
▁strongholds 9
▁stubble 9
▁sumampa 9
▁sumasagot 9
▁sunrise 9
▁susukatin 9
▁syria 9
▁tagubilin 9
▁tapos 9
▁tapusin 9
▁tema 9
▁thrust 9
▁thumb 9
▁tinuturuan 9
▁tinutuya 9
▁tiwala 9
▁trembled 9
▁tuliin 9
▁tumatahan 9
▁tungkulin 9
▁uban 9
▁umaalis 9
▁umigib 9
▁umiikot 9
▁umuungal 9
▁umuusad 9
▁undergarment 9
▁uprightness 9
▁uprooted 9
▁uriah 9
▁urias 9
▁uwak 9
▁valuable 9
▁vashti 9
▁vasti 9
▁victory 9
▁vindicate 9
▁wars 9
▁washing 9
▁weigh 9
▁welfare 9
▁westward 9
▁wield 9
▁window 9
▁winnow 9
▁woof 9
▁wormwood 9
▁worse 9
▁wrongdoers 9
▁wrongful 9
▁yeast 9
1 8
aawaan 8
aayus 8
aba 8
agawin 8
agayakan 8
agdiriwang 8
agtitiwala 8
ahath 8
aim 8
akpak 8
alalayan 8
alon 8
als 8
and 8
angasiwa 8
anginginig 8
aph 8
ary 8
asim 8
atha 8
aven 8
ayabong 8
baal 8
bautismo 8
bugbog 8
dagdagan 8
daranas 8
didilim 8
din 8
ehud 8
elt 8
emo 8
ering 8
gbag 8
ged 8
ginto 8
ginulo 8
gitin 8
gkasakit 8
gpapatawad 8
gsiahon 8
gugul 8
guhit 8
hagis 8
hahaba 8
hur 8
ied 8
igib 8
iiyakan 8
ikom 8
imula 8
indihan 8
ipit 8
isip 8
itim 8
itingin 8
jah 8
kaawa 8
kahihiya 8
kamamatay 8
karaniwan 8
ke 8
kipagpayapaan 8
kit 8
ks 8
kupin 8
labintatlo 8
labis 8
laglag 8
lai 8
lakay 8
lalabas 8
lalakas 8
lamon 8
looban 8
lukso 8
luwalhati 8
manglaw 8
masid 8
mata 8
matarok 8
melec 8
moab 8
nagpalipas 8
nalimutan 8
nalin 8
nti 8
nulat 8
oenai 8
ordina 8
pagmatigas 8
pagpapahinga 8
pakain 8
palibot 8
panumbalik 8
pe 8
polis 8
popootan 8
rance 8
rea 8
ripped 8
rot 8
rusahan 8
sakmal 8
sangguni 8
sanggunian 8
side 8
sod 8
ssed 8
sses 8
sundo 8
sur 8
suray 8
susulat 8
taguan 8
tamis 8
tanggal 8
tangisan 8
tanungin 8
tatakip 8
titibay 8
titipon 8
tiyak 8
tok 8
tuloy 8
ub 8
udungisan 8
uel 8
ura 8
ush 8
utas 8
uth 8
uturuan 8
uurong 8
ved 8
vi 8
wer 8
yag 8
ze 8
▁1,2 8
▁2 8
▁aanihin 8
▁aasa 8
▁abinoam 8
▁abyss 8
▁accuse 8
▁adah 8
▁ages 8
▁almendro 8
▁altogether 8
▁anathoth 8
▁anothers 8
▁answers 8
▁anxious 8
▁apo 8
▁appetite 8
▁apuyan 8
▁aquila 8
▁arad 8
▁armor 8
▁asdod 8
▁assyrians 8
▁attend 8
▁avenge 8
▁awe 8
▁babasagin 8
▁bala 8
▁baluti 8
▁bango 8
▁barn 8
▁basbas 8
▁basura 8
▁beasts 8
▁begun 8
▁bell 8
▁belshasar 8
▁belshazzar 8
▁bini 8
▁briar 8
▁bukbok 8
▁bumubu 8
▁bumuha 8
▁buwitre 8
▁caesars 8
▁calves 8
▁carcasses 8
▁cart 8
▁catastrophe 8
▁cilicia 8
▁claim 8
▁clap 8
▁climb 8
▁comprehend 8
▁concubines 8
▁consecration 8
▁consent 8
▁convinc 8
▁convocation 8
▁cornelio 8
▁correctly 8
▁crops 8
▁crowns 8
▁dadalh 8
▁daluyan 8
▁darling 8
▁daya 8
▁demonstrate 8
▁deserves 8
▁devout 8
▁dinal 8
▁dinidilig 8
▁disappear 8
▁discerning 8
▁discour 8
▁disiplina 8
▁dismiss 8
▁doble 8
▁dog 8
▁doorposts 8
▁doubt 8
▁dragg 8
▁elisama 8
▁enslaved 8
▁entirely 8
▁equipment 8
▁esteban 8
▁etam 8
▁events 8
▁express 8
▁extra 8
▁fame 8
▁fault 8
▁feasting 8
▁filigree 8
▁flees 8
▁foreheads 8
▁forgot 8
▁freed 8
▁fugitives 8
▁gaal 8
▁gabriel 8
▁gadita 8
▁gadites 8
▁gagaling 8
▁gained 8
▁gantihan 8
▁gentle 8
▁gerizim 8
▁gershonita 8
▁gershonites 8
▁gibain 8
▁gileadita 8
▁ginugulo 8
▁graciousness 8
▁grandchildren 8
▁greed 8
▁greedy 8
▁guests 8
▁gulay 8
▁hagai 8
▁haggai 8
▁hagupit 8
▁hamakin 8
▁hanani 8
▁happening 8
▁hapunan 8
▁harsh 8
▁hashabias 8
▁hat 8
▁hayagan 8
▁healthy 8
▁helon 8
▁henadad 8
▁highway 8
▁hihingin 8
▁hihinto 8
▁hilot 8
▁hinaharap 8
▁hoofs 8
▁horonaim 8
▁horrified 8
▁humaha 8
▁humiga 8
▁humili 8
▁hypocrisy 8
▁ibagsak 8
▁ibinu 8
▁iginagalang 8
▁ikasal 8
▁ilalapa 8
▁imer 8
▁imp 8
▁inggit 8
▁inihahanda 8
▁iniiwan 8
▁insolent 8
▁inupahan 8
▁investigate 8
▁ipaglaban 8
▁ipatawa 8
▁ipinaghanda 8
▁ipinagmamalaki 8
▁isinauli 8
▁island 8
▁isu 8
▁itim 8
▁itur 8
▁japheth 8
▁jaws 8
▁jeshurun 8
▁jobab 8
▁joiakim 8
▁jozabad 8
▁kaamuan 8
▁kabaitan 8
▁kagalingan 8
▁kaisa 8
▁kakampi 8
▁kalapit 8
▁kalawang 8
▁kaligayahan 8
▁kamanghamangha 8
▁kambal 8
▁kampanilya 8
▁kaningningan 8
▁karagdagan 8
▁karaingan 8
▁kariton 8
▁kasakdalan 8
▁kasaysayan 8
▁katagal 8
▁katas 8
▁kinakalag 8
▁kinalilimutan 8
▁kinulayan 8
▁kittim 8
▁kohatita 8
▁lagnat 8
▁lalamunan 8
▁lap 8
▁lasa 8
▁laughter 8
▁layuan 8
▁leavened 8
▁ledge 8
▁lehi 8
▁lengthen 8
▁leopard 8
▁leopardo 8
▁lepro 8
▁liar 8
▁limb 8
▁lumalabag 8
▁lumalaki 8
▁maamo 8
▁mababali 8
▁mabagabag 8
▁mabibi 8
▁mabu 8
▁mabusog 8
▁magb 8
▁magbago 8
▁magbigkis 8
▁magbubula 8
▁magda 8
▁magkakabisa 8
▁magkakasala 8
▁magkukulang 8
▁magmalaki 8
▁magpapahayag 8
▁magpapaka 8
▁magpatawad 8
▁magpuri 8
▁magtatagal 8
▁mahli 8
▁mahuhuli 8
▁makakaunawa 8
▁makalakad 8
▁makatayo 8
▁makatuwiran 8
▁malulupit 8
▁mamamahala 8
▁manggagaling 8
▁mangkukulam 8
▁maniniwala 8
▁mapagbiyaya 8
▁masagana 8
▁maselan 8
▁masiyahan 8
▁mat 8
▁matatapos 8
▁matitirahan 8
▁matters 8
▁matuli 8
▁matutuwa 8
▁mawasak 8
▁measurement 8
▁measures 8
▁medeba 8
▁medes 8
▁melted 8
▁merai 8
▁messiah 8
▁mica 8
▁ministering 8
▁mis 8
▁mitsa 8
▁mockery 8
▁molde 8
▁music 8
▁naashon 8
▁nabagabag 8
▁nabubuwal 8
▁nadab 8
▁nagbibili 8
▁naghintay 8
▁naglaho 8
▁nagpakilala 8
▁nagpapaka 8
▁nagpapasaya 8
▁nagpasiya 8
▁nagpupuri 8
▁nagsasaya 8
▁nagsisisi 8
▁nagsuo 8
▁nagtago 8
▁nagtatanim 8
▁nagugutom 8
▁nakagapos 8
▁nakatulog 8
▁nangangalunya 8
▁nangangaral 8
▁nanghina 8
▁nanla 8
▁napahamak 8
▁napakataas 8
▁napupuno 8
▁natanael 8
▁natatago 8
▁natural 8
▁natuwa 8
▁nawawasak 8
▁nearby 8
▁nehemiah 8
▁nehemias 8
▁nethanel 8
▁niluluwalhati 8
▁nimr 8
▁ninuman 8
▁niyakap 8
▁noble 8
▁onward 8
▁outcome 8
▁overnight 8
▁overthrown 8
▁padan 8
▁pagagalingin 8
▁pagbabago 8
▁pagbabayarin 8
▁pagdaramdam 8
▁paghihiwalay 8
▁pagkakaisa 8
▁pagkapoot 8
▁pagkayari 8
▁pagpaparusa 8
▁pagpapasiya 8
▁pagsasabi 8
▁pagsusu 8
▁pagtatagumpay 8
▁pagtatanggol 8
▁pagtuturo 8
▁painumin 8
▁pakialam 8
▁palamuti 8
▁pananatilihin 8
▁pandereta 8
▁pangangasiwa 8
▁panganib 8
▁panghawakan 8
▁pans 8
▁panunumbalikin 8
▁paramihin 8
▁parched 8
▁paroroonan 8
▁patnubayan 8
▁patutunguhan 8
▁pawiin 8
▁pearls 8
▁perga 8
▁perishes 8
▁perishing 8
▁permission 8
▁persecution 8
▁persist 8
▁pervert 8
▁pharisee 8
▁philistia 8
▁pinababayaan 8
▁pinagpaguran 8
▁pinagpapala 8
▁pinagtatawanan 8
▁pinakiusapan 8
▁pinananatili 8
▁pinapahalagahan 8
▁pinapanghina 8
▁pinataba 8
▁pinuputol 8
▁pisga 8
▁pisgah 8
▁plentiful 8
▁po 8
▁powers 8
▁prais 8
▁pretend 8
▁pulseras 8
▁pumayag 8
▁puntahan 8
▁purchase 8
▁rabba 8
▁rabbah 8
▁raging 8
▁rais 8
▁reading 8
▁realiz 8
▁reapers 8
▁rec 8
▁refresh 8
▁refuses 8
▁regular 8
▁reigns 8
▁res 8
▁resembl 8
▁restraints 8
▁reubenites 8
▁ribla 8
▁righteously 8
▁ripe 8
▁roam 8
▁rob 8
▁romano 8
▁rome 8
▁rooms 8
▁safe 8
▁salem 8
▁samaritano 8
▁sangkalangitan 8
▁sasagana 8
▁sasakupin 8
▁sasakyang 8
▁scoffers 8
▁secluded 8
▁secrets 8
▁section 8
▁seeds 8
▁sensible 8
▁seraya 8
▁serpents 8
▁serves 8
▁shameful 8
▁shaved 8
▁sheaf 8
▁shelemiah 8
▁shelemias 8
▁sho 8
▁shur 8
▁sinamsaman 8
▁sinasamba 8
▁sinundan 8
▁sinusu 8
▁sipres 8
▁skies 8
▁slopes 8
▁sprouts 8
▁stairway 8
▁stature 8
▁ste 8
▁stretche 8
▁sufficient 8
▁sumagana 8
▁sumasangguni 8
▁sumikat 8
▁sumulong 8
▁sunugin 8
▁survived 8
▁susu 8
▁swelling 8
▁tagapagturo 8
▁talent 8
▁tapang 8
▁taunted 8
▁taunting 8
▁terrible 8
▁thank 8
▁throat 8
▁tigang 8
▁tinata 8
▁tingga 8
▁tirintas 8
▁titirahan 8
▁tola 8
▁tooth 8
▁transfer 8
▁traveling 8
▁treasured 8
▁treasuries 8
▁trib 8
▁tubo 8
▁tumataas 8
▁tumatagal 8
▁twins 8
▁ulunan 8
▁unbelief 8
▁uphold 8
▁vanish 8
▁ven 8
▁violation 8
▁wafer 8
▁wasteland 8
▁watched 8
▁whirlwind 8
▁whisper 8
▁wonder 8
▁wretched 8
▁youths 8
▁zabdi 8
▁zelofehad 8
▁zelophehad 8
▁zohar 8
30 7
3; 7
aalala 7
abasbasan 7
akipot 7
alas 7
alimutan 7
amoy 7
anib 7
arrow 7
asakop 7
babangon 7
babaw 7
binahagi 7
binigkis 7
bow 7
braham 7
bubulay 7
buhay 7
buksan 7
cal 7
ces 7
cilicia 7
cirene 7
cum 7
dalisay 7
daraan 7
daram 7
day 7
dding 7
eel 7
eight 7
esh 7
fat 7
gaganti 7
galit 7
ge 7
gently 7
ghihintay 7
ghihirap 7
gpahirap 7
gpaparangal 7
greed 7
gsunog 7
gtatangi 7
gtrabaho 7
gundo 7
habul 7
halina 7
haz 7
hihiga 7
hilingin 7
hinnom 7
hukay 7
humaling 7
ians 7
iasaph 7
idlan 7
ify 7
iimbot 7
ily 7
impil 7
ingatan 7
inggit 7
inilala 7
inip 7
ipaghiganti 7
ipasok 7
itable 7
kabitin 7
kainin 7
kakapit 7
kamay 7
kasamba 7
kikipaglaban 7
kla 7
kunwari 7
labhan 7
laboy 7
lagdaan 7
laksa 7
lalagas 7
lalagyan 7
layan 7
libing 7
licious 7
lilihim 7
lilito 7
liliwanag 7
liw 7
lulukso 7
magandang 7
mahala 7
mahan 7
makapagpaliwanag 7
masahin 7
masukat 7
media 7
mpo 7
mumulaklak 7
munga 7
nanagot 7
nanaig 7
nangangasiwa 7
nawagan 7
ndi 7
niel 7
ntil 7
op 7
ort 7
pagaling 7
pagod 7
pagtutuli 7
paniwala 7
papalig 7
paratang 7
patahimik 7
patid 7
persia 7
pin 7
pinahintul 7
pitan 7
por 7
pulutong 7
puputol 7
ras 7
rumbling 7
salakayin 7
salaysay 7
sampu 7
samsam 7
sawa 7
ses 7
sha 7
sigasig 7
siglahin 7
sikat 7
siklab 7
sil 7
silangan 7
silo 7
sino 7
siyasat 7
stern 7
sulong 7
suot 7
tabunan 7
tagos 7
talikuran 7
tamasa 7
tapua 7
tapunan 7
tatalian 7
til 7
tion 7
tugan 7
tukso 7
tunayan 7
tunog 7
turuan 7
tutupad 7
ubkob 7
uck 7
umang 7
umulan 7
upahan 7
upu 7
usan 7
usisa 7
usubok 7
utupok 7
v 7
wakas 7
walan 7
wasak 7
yakap 7
year 7
ying 7
zed 7
▁120 7
▁18 7
▁32 7
▁aalalayan 7
▁abaddon 7
▁abadon 7
▁abias 7
▁accompan 7
▁achs 7
▁adullam 7
▁adulterers 7
▁adulteress 7
▁adulterous 7
▁adversary 7
▁agree 7
▁aholibama 7
▁aijalon 7
▁alakdan 7
▁alarmed 7
▁almo 7
▁amain 7
▁anxiety 7
▁apostle 7
▁approval 7
▁arab 7
▁arabia 7
▁areas 7
▁arioch 7
▁arpad 7
▁asherim 7
▁ashtaroth 7
▁assume 7
▁assured 7
▁attach 7
▁babalikan 7
▁babies 7
▁bagsik 7
▁bakol 7
▁banta 7
▁baptizing 7
▁batuhan 7
▁batuhin 7
▁behave 7
▁believer 7
▁beriah 7
▁besieg 7
▁bethuel 7
▁betuel 7
▁bez 7
▁bilh 7
▁bilhah 7
▁binabalak 7
▁binabasa 7
▁binalak 7
▁binti 7
▁binui 7
▁bite 7
▁blaspheme 7
▁blast 7
▁bo 7
▁boats 7
▁boils 7
▁bottom 7
▁bozrah 7
▁bukol 7
▁bulb 7
▁bumabagsak 7
▁bumuka 7
▁buntong 7
▁burdens 7
▁bushes 7
▁caiaphas 7
▁caifas 7
▁cake 7
▁camel 7
▁cargo 7
▁caves 7
▁chaldea 7
▁charit 7
▁chest 7
▁childless 7
▁choke 7
▁clings 7
▁closer 7
▁clusters 7
▁cohort 7
▁col 7
▁cornelius 7
▁creator 7
▁crop 7
▁cubs 7
▁curds 7
▁cus 7
▁dancing 7
▁debts 7
▁deceased 7
▁decepti 7
▁delila 7
▁denarius 7
▁deserts 7
▁desirable 7
▁desolated 7
▁despair 7
▁diligence 7
▁dinadaya 7
▁dinah 7
▁dirt 7
▁discouraged 7
▁discovered 7
▁discuss 7
▁discussing 7
▁disease 7
▁distresses 7
▁distribute 7
▁driv 7
▁dumada 7
▁dumanak 7
▁dumidikit 7
▁easier 7
▁efrata 7
▁eggs 7
▁ehud 7
▁elihu 7
▁elishama 7
▁encouragement 7
▁endurance 7
▁engulf 7
▁entice 7
▁error 7
▁espirituwal 7
▁esteem 7
▁eu 7
▁example 7
▁experience 7
▁extinguish 7
▁eyelids 7
▁fasted 7
▁fasten 7
▁fatherless 7
▁fier 7
▁filthy 7
▁fl 7
▁fleece 7
▁flint 7
▁flying 7
▁fun 7
▁futile 7
▁gale 7
▁gapusin 7
▁ginaga 7
▁gnaw 7
▁graz 7
▁graze 7
▁grumblings 7
▁guhit 7
▁gulu 7
▁gypt 7
▁haha 7
▁handful 7
▁harps 7
▁hashabiah 7
▁health 7
▁heber 7
▁hefer 7
▁hepher 7
▁hihingi 7
▁hihiwalay 7
▁himala 7
▁hinugasan 7
▁hips 7
▁hiwalayan 7
▁hoba 7
▁honest 7
▁housetops 7
▁huhubar 7
▁hundreds 7
▁ibinili 7
▁ibinitin 7
▁igawa 7
▁ihahayag 7
▁iiyak 7
▁ikapapahamak 7
▁ilala 7
▁impairment 7
▁imprisoned 7
▁impurities 7
▁inalagaan 7
▁inalala 7
▁inari 7
▁included 7
▁indecen 7
▁infants 7
▁inilala 7
▁injunction 7
▁insane 7
▁inscribe 7
▁insignificant 7
▁instructions 7
▁inusig 7
▁ipagpa 7
▁ipanalangin 7
▁ipapapatay 7
▁ipapatay 7
▁ipinakilala 7
▁isasagot 7
▁isolate 7
▁itatakuwil 7
▁itinatanong 7
▁itinawag 7
▁ivory 7
▁iyakan 7
▁jarmut 7
▁jarmuth 7
▁jaspe 7
▁jasper 7
▁jebusites 7
▁jeconias 7
▁jer 7
▁journeys 7
▁judg 7
▁jump 7
▁justify 7
▁kabisera 7
▁kahahabagan 7
▁kahinaan 7
▁kakutyaan 7
▁kalilimutan 7
▁kaliskis 7
▁kalugdan 7
▁kasagutan 7
▁kasawian 7
▁kasintahan 7
▁katapat 7
▁katinuan 7
▁katiwasayan 7
▁kedes 7
▁kedesh 7
▁keeper 7
▁ki 7
▁kib 7
▁kikilos 7
▁kilabot 7
▁kinahapunan 7
▁kinaluluguran 7
▁kinamuhian 7
▁kinatawan 7
▁kn 7
▁kneel 7
▁kristal 7
▁kublihan 7
▁kuko 7
▁kuma 7
▁kumakalat 7
▁kumikilos 7
▁laba 7
▁lalaban 7
▁lalabhan 7
▁lambong 7
▁lampstands 7
▁lason 7
▁lattice 7
▁laughingstock 7
▁lawlessness 7
▁lebo 7
▁level 7
▁lifetime 7
▁liyab 7
▁looban 7
▁loyalty 7
▁lumala 7
▁lusts 7
▁maayos 7
▁mabubulok 7
▁madudurog 7
▁magba 7
▁magbantay 7
▁maghasik 7
▁magistrates 7
▁magkaisa 7
▁magkapatid 7
▁magpagaling 7
▁magpahinga 7
▁magpakarami 7
▁magsasaya 7
▁magsilapit 7
▁magtalaga 7
▁mahihiga 7
▁mahihiwalay 7
▁maiinom 7
▁maikli 7
▁makaalis 7
▁makakaligtas 7
▁makipagdigma 7
▁makipagtalo 7
▁makisama 7
▁malabo 7
▁malicious 7
▁mamasdan 7
▁managhoy 7
▁mandaragit 7
▁manganga 7
▁manginginain 7
▁manginig 7
▁mapahamak 7
▁marrie 7
▁marvelous 7
▁masira 7
▁matataba 7
▁matitisod 7
▁maylalang 7
▁melchizedek 7
▁memfis 7
▁menstrua 7
▁mentioned 7
▁merciful 7
▁midianites 7
▁millstone 7
▁minas 7
▁misfortune 7
▁mishael 7
▁mocked 7
▁mortar 7
▁mourned 7
▁myriads 7
▁nagapi 7
▁nagdaramdam 7
▁naghihimagsik 7
▁nagiba 7
▁nagkagulo 7
▁nagkakaisa 7
▁nagkukubli 7
▁naglayag 7
▁nagliliwanag 7
▁nagmalaki 7
▁nagmamasid 7
▁nagngangalit 7
▁nagpapagaling 7
▁nagpapakita 7
▁nagpapautang 7
▁nags 7
▁nagsigawa 7
▁nagsisisigaw 7
▁nagsusu 7
▁nagtagal 7
▁nagtatayo 7
▁nahihiya 7
▁nakala 7
▁nakasama 7
▁nakatuon 7
▁nakipagdigma 7
▁nalungkot 7
▁namalagi 7
▁namumuhay 7
▁namumul 7
▁namumula 7
▁nanaig 7
▁nangingil 7
▁naninibugho 7
▁napakadakila 7
▁napakalayo 7
▁napakaliit 7
▁nasiyahan 7
▁natatakpan 7
▁naubos 7
▁ner 7
▁nilabag 7
▁nilait 7
▁nilakaran 7
▁niyan 7
▁niyapakan 7
▁numbers 7
▁ocean 7
▁offend 7
▁officer 7
▁oholibamah 7
▁origin 7
▁orphans 7
▁overwhelm 7
▁paddan 7
▁pagbabawal 7
▁paghahanda 7
▁pagkakabaha 7
▁pagkalito 7
▁pagkapanganak 7
▁pagkapanganay 7
▁pagmamatigas 7
▁pagpapagal 7
▁pagpapatawad 7
▁pagsisikap 7
▁pagsumpa 7
▁pagtata 7
▁paki 7
▁palaaway 7
▁pale 7
▁pallet 7
▁pamama 7
▁pambalikat 7
▁panadero 7
▁pananabik 7
▁panga 7
▁pangala 7
▁pangulo 7
▁pant 7
▁pantakip 7
▁panulok 7
▁panustos 7
▁papag 7
▁papahintulutan 7
▁patak 7
▁pavement 7
▁payagan 7
▁perfected 7
▁pi 7
▁pinababa 7
▁pinagpapatay 7
▁pinags 7
▁pinagsisikapan 7
▁pinahalagahan 7
▁pinakadulo 7
▁pinakamalayo 7
▁pinala 7
▁pinangalat 7
▁pinanggalingan 7
▁pinaniwalaan 7
▁pinulot 7
▁pinupu 7
▁plainly 7
▁plata 7
▁pots 7
▁praetorium 7
▁pri 7
▁prophesies 7
▁prophetess 7
▁pumapailanglang 7
▁pumuto 7
▁puw 7
▁quarrels 7
▁rabsake 7
▁rabshakeh 7
▁rebels 7
▁reddish 7
▁reduce 7
▁reeds 7
▁refrain 7
▁relented 7
▁rememb 7
▁render 7
▁repented 7
▁resol 7
▁restless 7
▁retain 7
▁riblah 7
▁rider 7
▁rottenness 7
▁rules 7
▁salterio 7
▁sandal 7
▁scatters 7
▁sealtiel 7
▁sefanias 7
▁severely 7
▁shap 7
▁sheepfolds 7
▁shefatias 7
▁siddim 7
▁sighing 7
▁singing 7
▁sinimulan 7
▁sink 7
▁sinusugo 7
▁skillfully 7
▁sla 7
▁slanderer 7
▁smaller 7
▁socket 7
▁sora 7
▁sounded 7
▁sowed 7
▁span 7
▁speck 7
▁speechless 7
▁stoop 7
▁stray 7
▁striped 7
▁sugatan 7
▁sumakanya 7
▁sumusulat 7
▁sunk 7
▁surrender 7
▁susulong 7
▁tagapa 7
▁takalan 7
▁talukap 7
▁tanim 7
▁tatangayin 7
▁tendons 7
▁terafim 7
▁tetrarch 7
▁tetrarka 7
▁thinks 7
▁thomas 7
▁tiktik 7
▁timber 7
▁timnah 7
▁tini 7
▁tiniti 7
▁tinubuan 7
▁tolera 7
▁tomas 7
▁tonight 7
▁topaz 7
▁torches 7
▁tormented 7
▁tradisyon 7
▁tradition 7
▁travel 7
▁tuluy 7
▁tumahan 7
▁tumatanggi 7
▁turmoil 7
▁tutubo 7
▁ugl 7
▁undergo 7
▁unloved 7
▁uns 7
▁untie 7
▁uttered 7
▁uubusin 7
▁vicious 7
▁violate 7
▁vipers 7
▁weaned 7
▁whirl 7
▁whitewash 7
▁wondrous 7
▁worried 7
▁yu 7
▁yuma 7
▁yumuyukod 7
▁yuyukod 7
▁zephaniah 7
▁zere 7
▁zif 7
▁zilpa 7
▁zipor 7
▁zippor 7
00 6
54 6
5; 6
6 6
aahitan 6
aakala 6
aangkin 6
aapoy 6
abibigat 6
acob 6
ado 6
aganap 6
aglilibing 6
agpapahiram 6
agtuturo 6
agumpay 6
akin 6
alipin 6
alitaan 6
aluktot 6
ams 6
amu 6
anggaling 6
antayan 6
anyaya 6
apak 6
apu 6
arurusahan 6
atuwiran 6
ayapakan 6
aysay 6
bagsakin 6
bahay 6
banggit 6
bethsaida 6
born 6
bugan 6
buko 6
bulong 6
butin 6
course 6
dagon 6
daluyan 6
dama 6
diyos 6
drago 6
dugtong 6
edo 6
ema 6
ery 6
filistia 6
fourth 6
gai 6
gbubuhat 6
gbunga 6
gibis 6
gnanasa 6
gon 6
gpapakababa 6
gpapasakop 6
gpasalamat 6
gsasakdal 6
habol 6
hac 6
hamath 6
hampasin 6
hangad 6
hash 6
hoglah 6
holah 6
idlip 6
igdal 6
ight 6
iginhawa 6
ihahambing 6
ihasik 6
ikim 6
ikot 6
ilabutan 6
inaliw 6
ingay 6
intay 6
ith 6
itigil 6
iyakan 6
kaalam 6
kabit 6
kandado 6
kapagod 6
kapantay 6
kas 6
kasundu 6
katuwang 6
kaya 6
kinig 6
kipagkasundo 6
kitungo 6
kop 6
kukubk 6
kulong 6
labimpito 6
lagutan 6
lah 6
lalantad 6
land 6
lap 6
lapped 6
leba 6
lel 6
liban 6
ligid 6
lilitaw 6
lly 6
luho 6
magsisinungaling 6
malasakit 6
mariah 6
mas 6
masdan 6
mentary 6
mil 6
nagpalabunutan 6
nakmal 6
nanabik 6
nanamsam 6
naog 6
ner 6
ngalakal 6
nhi 6
nhik 6
nias 6
opo 6
ows 6
paghihiganti 6
pagi 6
pagpapakumbaba 6
pahiram 6
pain 6
pakabanal 6
palabunutan 6
pamamahagi 6
panaginip 6
paningas 6
panukala 6
paran 6
parito 6
pastol 6
pasuk 6
pinaglilingkuran 6
pinamahala 6
pinapatnubayan 6
piraso 6
rhan 6
saac 6
sahe 6
sakit 6
saliksik 6
sambahin 6
sanay 6
sandaan 6
sanlibutan 6
sap 6
sasagot 6
sasara 6
sawayin 6
sayang 6
scription 6
sefer 6
shemes 6
shemesh 6
sikatan 6
sira 6
six 6
stand 6
sulit 6
tagal 6
taglay 6
tagpuan 6
tah 6
talikod 6
talino 6
tanungan 6
tanyag 6
tatahimik 6
teen 6
tesalonica 6
they 6
tisod 6
titiis 6
tutumbas 6
tuwina 6
ubin 6
ugnay 6
ukso 6
ulous 6
uma 6
ung 6
unggab 6
unot 6
untok 6
up 6
usay 6
usbong 6
usig 6
usog 6
uukit 6
uway 6
uyo 6
vocation 6
void 6
worthy 6
yayanig 6
zah 6
zer 6
▁12 6
▁15 6
▁250 6
▁74 6
▁aawitin 6
▁abida 6
▁abihail 6
▁abijah 6
▁abominable 6
▁abound 6
▁acquaintances 6
▁adma 6
▁adopt 6
▁advisers 6
▁afflict 6
▁agag 6
▁alahas 6
▁amihud 6
▁ammihud 6
▁apdo 6
▁apog 6
▁apple 6
▁aramean 6
▁argob 6
▁arguments 6
▁asriel 6
▁assess 6
▁assur 6
▁astarot 6
▁attempt 6
▁avenged 6
▁avoid 6
▁await 6
▁azar 6
▁babaguhin 6
▁backward 6
▁baging 6
▁bahagya 6
▁bakuran 6
▁balances 6
▁banks 6
▁bantayog 6
▁barefoot 6
▁barracks 6
▁basag 6
▁basemat 6
▁bathed 6
▁beach 6
▁begging 6
▁belteshazzar 6
▁bereave 6
▁berechiah 6
▁berilo 6
▁bethsaida 6
▁bibi 6
▁bilga 6
▁binnui 6
▁binubuhay 6
▁birthright 6
▁blaspheming 6
▁blowing 6
▁bosra 6
▁breach 6
▁breathed 6
▁brid 6
▁bubusugin 6
▁bulbs 6
▁burda 6
▁cadmiel 6
▁calculate 6
▁cap 6
▁carefree 6
▁ce 6
▁censer 6
▁cheek 6
▁circumcise 6
▁clasps 6
▁cle 6
▁cleared 6
▁coat 6
▁colleagues 6
▁colorful 6
▁complie 6
▁confessed 6
▁confine 6
▁confused 6
▁conquer 6
▁consist 6
▁consolation 6
▁couch 6
▁counselor 6
▁cre 6
▁crows 6
▁crystal 6
▁cunning 6
▁cured 6
▁cyrene 6
▁dadakilain 6
▁damb 6
▁dara 6
▁decorations 6
▁decrease 6
▁defend 6
▁definite 6
▁delilah 6
▁demanded 6
▁denarii 6
▁depend 6
▁deposit 6
▁depriv 6
▁deprive 6
▁descendant 6
▁detriment 6
▁dignity 6
▁dinaanan 6
▁dinidisiplina 6
▁directions 6
▁disc 6
▁disciplines 6
▁displeas 6
▁distort 6
▁divorced 6
▁diyan 6
▁doctrine 6
▁drie 6
▁dumam 6
▁eagles 6
▁earnestly 6
▁earnings 6
▁earthly 6
▁effect 6
▁effort 6
▁elder 6
▁ele 6
▁elect 6
▁emerald 6
▁encompass 6
▁endures 6
▁enduring 6
▁enraged 6
▁ensnared 6
▁escol 6
▁espiya 6
▁evi 6
▁evident 6
▁excluded 6
▁excuse 6
▁exercise 6
▁exists 6
▁extinguished 6
▁fa 6
▁faithfully 6
▁faithless 6
▁fatness 6
▁fellowship 6
▁festivals 6
▁figure 6
▁finally 6
▁fishermen 6
▁flash 6
▁flogged 6
▁foreskin 6
▁forfeit 6
▁fortresses 6
▁frost 6
▁fulfillment 6
▁furnishings 6
▁gallows 6
▁game 6
▁gap 6
▁garing 6
▁gateway 6
▁gebal 6
▁geder 6
▁gentleness 6
▁gileadite 6
▁ginigi 6
▁ginising 6
▁gleaming 6
▁gnats 6
▁gomer 6
▁graciously 6
▁grandson 6
▁grudg 6
▁guardhouse 6
▁habitually 6
▁hagdan 6
▁hahasikan 6
▁hahawak 6
▁hahawakan 6
▁haka 6
▁hamul 6
▁hananel 6
▁hanapbuhay 6
▁handle 6
▁hangarin 6
▁haserot 6
▁haza 6
▁heated 6
▁hides 6
▁hihipan 6
▁hinuba 6
▁hinuhuli 6
▁hipuin 6
▁hittites 6
▁hivites 6
▁holes 6
▁holon 6
▁hometown 6
▁horites 6
▁horma 6
▁hormah 6
▁hosana 6
▁hosanna 6
▁howl 6
▁humaba 6
▁humihi 6
▁ibinabagsak 6
▁ibinabali 6
▁ibinubun 6
▁iglap 6
▁ihahanda 6
▁immer 6
▁impatient 6
▁implore 6
▁inaaring 6
▁infant 6
▁iniinom 6
▁inilaan 6
▁injure 6
▁insert 6
▁ip 6
▁ipagkakaila 6
▁ipagkakaloob 6
▁ipaliwanag 6
▁ipapanganak 6
▁iparirinig 6
▁ipinaaalam 6
▁ipinaglalaban 6
▁ipinanata 6
▁isauli 6
▁islands 6
▁israelite 6
▁ithiel 6
▁itinatapon 6
▁ititi 6
▁itu 6
▁jair 6
▁joint 6
▁jokneam 6
▁joktan 6
▁kabutihang 6
▁kadmiel 6
▁kagipitan 6
▁kagustuhan 6
▁kahapon 6
▁kakaladkarin 6
▁kalakip 6
▁kalamangan 6
▁kaliwanagan 6
▁kamanggagawa 6
▁kapansanan 6
▁kasalatan 6
▁ke 6
▁kenan 6
▁key 6
▁kinasuklaman 6
▁kineo 6
▁kinilos 6
▁kinuku 6
▁kirot 6
▁kish 6
▁knead 6
▁kohathites 6
▁kumi 6
▁lakarin 6
▁lalampas 6
▁lalangin 6
▁lata 6
▁leviatan 6
▁libni 6
▁lilies 6
▁lilipa 6
▁limbs 6
▁limit 6
▁limping 6
▁loan 6
▁lowe 6
▁lulutuin 6
▁lumab 6
▁lumalamon 6
▁lumalapastangan 6
▁lumapa 6
▁lungga 6
▁lusted 6
▁luxuriant 6
▁maaalis 6
▁mabuwal 6
▁machpelah 6
▁macpela 6
▁madadala 6
▁magdidilim 6
▁maggot 6
▁maghahasik 6
▁maghihiganti 6
▁magigi 6
▁magigiba 6
▁magkakaanak 6
▁magkakapareho 6
▁magkatuwang 6
▁maglalaho 6
▁magliwanag 6
▁magmahal 6
▁magmamadali 6
▁magpabautismo 6
▁magpapatawad 6
▁magsasauli 6
▁magtungo 6
▁magulo 6
▁mah 6
▁mahaha 6
▁mahanaim 6
▁mahiga 6
▁mahipo 6
▁main 6
▁mainom 6
▁maitatag 6
▁maitayo 6
▁maiwan 6
▁makakaalam 6
▁makakapunta 6
▁makakaya 6
▁makalangit 6
▁makapagpa 6
▁makatagal 6
▁makikipagdigma 6
▁makukuha 6
▁malalapit 6
▁maligaw 6
▁maligaya 6
▁malulu 6
▁malulusog 6
▁maluwa 6
▁manampalataya 6
▁mangingisda 6
▁manglilipol 6
▁mangmang 6
▁manini 6
▁maninira 6
▁manipis 6
▁mansanas 6
▁map 6
▁mapagbigay 6
▁mapakinggan 6
▁mapangalunya 6
▁mapanghimagsik 6
▁mapaparam 6
▁mapipi 6
▁mapunta 6
▁mapupu 6
▁marsh 6
▁masubok 6
▁masunurin 6
▁matatayo 6
▁mate 6
▁matino 6
▁matitira 6
▁mature 6
▁matutulog 6
▁matutunaw 6
▁mayabang 6
▁meant 6
▁meanwhile 6
▁member 6
▁mercies 6
▁meshech 6
▁mi 6
▁midwives 6
▁milca 6
▁milcah 6
▁minama 6
▁mini 6
▁miserable 6
▁misha 6
▁mistreat 6
▁mistress 6
▁moabites 6
▁moan 6
▁mocking 6
▁molding 6
▁moons 6
▁motion 6
▁multitudes 6
▁mundo 6
▁mute 6
▁myrtle 6
▁nabunot 6
▁nadalang 6
▁naghugas 6
▁nagkakagulo 6
▁nagkanulo 6
▁nagkataon 6
▁nagkukulang 6
▁nagma 6
▁nagmamalaki 6
▁nagmamataas 6
▁nagmatigas 6
▁nagpapatirapa 6
▁nagpropesiya 6
▁nagsama 6
▁nagsinungaling 6
▁nagsisigawa 6
▁nagsisigawan 6
▁nagsitakas 6
▁nagtatakip 6
▁nagtitiis 6
▁nagtutungo 6
▁nails 6
▁nakababata 6
▁nakakamatay 6
▁nakakulong 6
▁nakalalasing 6
▁nakapatong 6
▁nakasara 6
▁nakatawid 6
▁nakaugalian 6
▁nakayuko 6
▁nananawagan 6
▁nanginginain 6
▁nanunumpa 6
▁napapahamak 6
▁napawi 6
▁naratnan 6
▁nathanael 6
▁nauubos 6
▁needed 6
▁nemuel 6
▁ngalangala 6
▁ninasa 6
▁obligated 6
▁occurs 6
▁ofra 6
▁oils 6
▁onan 6
▁ophrah 6
▁opposed 6
▁orion 6
▁overjoyed 6
▁overturn 6
▁pagbabalik 6
▁pagbawalan 6
▁pagdadala 6
▁pagdurusa 6
▁pagkabili 6
▁pagkagawa 6
▁pagkahabag 6
▁pagkainis 6
▁pagmamalaki 6
▁pagmamasdan 6
▁pagpapakita 6
▁pagrere 6
▁pagsamo 6
▁pagsikat 6
▁pagtakas 6
▁pagtawag 6
▁pagtulog 6
▁pagwawa 6
▁pahirapan 6
▁painful 6
▁palaboy 6
▁palayo 6
▁pali 6
▁panangga 6
▁panggatong 6
▁panginginig 6
▁paniwalaan 6
▁panlasa 6
▁panlilinlang 6
▁panunuya 6
▁papunta 6
▁par 6
▁partakers 6
▁pastur 6
▁patch 6
▁patibong 6
▁patirahin 6
▁pattern 6
▁patutun 6
▁payment 6
▁perceived 6
▁perizzites 6
▁persecuting 6
▁perverted 6
▁physician 6
▁pigilin 6
▁pinagbilinan 6
▁pinagsu 6
▁pinahayo 6
▁pinakaalaala 6
▁pinakamababa 6
▁pinakamana 6
▁pinakawalan 6
▁pinaki 6
▁pinalig 6
▁pinalitan 6
▁pinaniniwalaan 6
▁pinapansin 6
▁pinasasa 6
▁pinatulo 6
▁pinawawalang 6
▁pinipilit 6
▁pinupuk 6
▁pits 6
▁planning 6
▁plea 6
▁pleas 6
▁pomegranate 6
▁portiko 6
▁pottery 6
▁preacher 6
▁privately 6
▁prolonged 6
▁properly 6
▁prosperous 6
▁pumipi 6
▁pursuers 6
▁quakes 6
▁questions 6
▁quick 6
▁radiance 6
▁raped 6
▁razor 6
▁recab 6
▁rechab 6
▁reclined 6
▁refer 6
▁remembers 6
▁remind 6
▁repeat 6
▁representati 6
▁reserved 6
▁resid 6
▁resided 6
▁response 6
▁riders 6
▁riyan 6
▁romans 6
▁rows 6
▁ru 6
▁rumor 6
▁sabsaban 6
▁sacrifici 6
▁saddle 6
▁sailors 6
▁sakuna 6
▁samaritans 6
▁samsamin 6
▁sangkap 6
▁sangnilikha 6
▁sardi 6
▁scarce 6
▁scheme 6
▁scorn 6
▁seals 6
▁seasons 6
▁sekta 6
▁senir 6
▁sered 6
▁shamefully 6
▁sharpened 6
▁sheath 6
▁sheet 6
▁shephatiah 6
▁shining 6
▁signal 6
▁sikapin 6
▁silenced 6
▁simron 6
▁sinakal 6
▁sinasagot 6
▁solomons 6
▁sorry 6
▁sprouted 6
▁staffs 6
▁starting 6
▁stench 6
▁stocks 6
▁stricken 6
▁sub 6
▁subjection 6
▁submit 6
▁success 6
▁sudden 6
▁sumaiyo 6
▁sumibol 6
▁sumisikat 6
▁sunset 6
▁supply 6
▁susi 6
▁tablet 6
▁tafnes 6
▁tagak 6
▁tagapagsalita 6
▁tagtuyot 6
▁tails 6
▁tambourine 6
▁tarangkahan 6
▁taskmaster 6
▁tatalikod 6
▁tatapa 6
▁tawiran 6
▁temanita 6
▁temanite 6
▁temples 6
▁thicket 6
▁thieves 6
▁thistles 6
▁thresh 6
▁tinabas 6
▁tinanggihan 6
▁tinatanong 6
▁tinitingnan 6
▁tirzah 6
▁tofet 6
▁tool 6
▁topheth 6
▁trans 6
▁trembles 6
▁tumaas 6
▁tumaba 6
▁tumatalikod 6
▁tumim 6
▁tumupad 6
▁tuso 6
▁tutulong 6
▁tutuyuin 6
▁tuwirin 6
▁umibig 6
▁umurong 6
▁umuunlad 6
▁uncircumcision 6
▁underfoot 6
▁underneath 6
▁unfaithfully 6
▁unfaithfulness 6
▁unholy 6
▁unjustly 6
▁unrighteous 6
▁unsearchable 6
▁unt 6
▁upstairs 6
▁uziel 6
▁uzziel 6
▁venture 6
▁vicinity 6
▁vigor 6
▁vile 6
▁viper 6
▁virginity 6
▁visible 6
▁vo 6
▁wagons 6
▁wasted 6
▁weapon 6
▁weights 6
▁whip 6
▁woke 6
▁wolves 6
▁workmanship 6
▁worry 6
▁worth 6
▁wrappings 6
▁yantok 6
▁zacur 6
▁zilpah 6
▁zorah 6
,000 5
,400. 5
,700 5
60 5
6; 5
9 5
aagos 5
aawitan 5
aayos 5
abaluktot 5
abba 5
abim 5
abunot 5
access 5
act 5
agbabago 5
agda 5
aghugas 5
agmatigas 5
agpapatirapa 5
ahatulan 5
akay 5
akuran 5
all 5
anah 5
angahas 5
anganlong 5
anyayahan 5
apatan 5
apopoot 5
atch 5
atenas 5
babalukt 5
bac 5
baha 5
bai 5
balikin 5
bangis 5
baro 5
basa 5
baz 5
being 5
biah 5
bias 5
bigla 5
bot 5
bukod 5
bunton 5
buwis 5
ched 5
cre 5
dadala 5
dahan 5
dalos 5
damdam 5
dating 5
dinagdag 5
dingding 5
dpad 5
drachma 5
dudulo 5
dugo 5
dura 5
eca 5
ects 5
eep 5
efeso 5
elet 5
ell 5
enath 5
ente 5
enyas 5
eria 5
ether 5
even 5
fearing 5
filipos 5
fter 5
gagaling 5
gagawa 5
gate 5
gayak 5
ghahambog 5
gibeon 5
glalayag 5
glaruan 5
glilihi 5
gmamalasakit 5
godliness 5
gpagaling 5
gpapatunay 5
gpigil 5
grecia 5
gtaksil 5
guni 5
gutan 5
hadad 5
hadlang 5
hahalaga 5
halal 5
halata 5
halili 5
hall 5
hapdi 5
hasa 5
hatian 5
haven 5
hita 5
hogla 5
hol 5
hon 5
how 5
hugasan 5
ibigay 5
iezer 5
ightly 5
ihan 5
iinumin 5
ilapit 5
ili 5
ililigaw 5
ililiman 5
ilipat 5
intab 5
ip 5
ipagbili 5
isikap 5
ista 5
its 5
juda 5
kabulag 5
kagalit 5
kalbo 5
kampi 5
kamuhi 5
kanais 5
kasin 5
katuwaan 5
klamo 5
lahat 5
lait 5
lalait 5
lalaman 5
lanta 5
larawan 5
libutan 5
liglig 5
lihim 5
liit 5
lik 5
lilikha 5
limampu 5
linisan 5
luc 5
luluwa 5
lumi 5
luray 5
lurayin 5
manaog 5
matuwid 5
mbong 5
ments 5
minal 5
mulaklak 5
mura 5
nagsisinungaling 5
nalig 5
nanaginip 5
natili 5
ngangabayo 5
niah 5
nibugho 5
ninindigan 5
nna 5
nunumbalik 5
oboam 5
oday 5
odias 5
ofi 5
ory 5
pagaspas 5
paghugas 5
pagkait 5
pagsalita 5
pailanglang 5
pakikipagkasundo 5
pakinabang 5
palitada 5
panalanginan 5
pangalagaan 5
pangkat 5
panibago 5
papatay 5
parami 5
pasimulan 5
patay 5
pautang 5
per 5
pinagbawal 5
pinagpalabunutan 5
pinahihintulutan 5
pipe 5
pirit 5
pok 5
ps 5
pulutin 5
putul 5
rador 5
rang 5
rated 5
reh 5
rim 5
rimmon 5
ring 5
ris 5
roon 5
sagwan 5
samantalahan 5
sapalaran 5
sera 5
serah 5
shai 5
shan 5
sok 5
stain 5
steps 5
susukat 5
tagpo 5
tahi 5
tahimik 5
tamar 5
tapusin 5
tarso 5
tataghoy 5
tatakot 5
tawanan 5
tayuan 5
termination 5
then 5
three 5
timate 5
tiwangwang 5
tunggali 5
tutuwid 5
ubusin 5
ugunita 5
ukubli 5
umamo 5
ungkal 5
upuan 5
urol 5
usapan 5
uspos 5
usuway 5
uwalhati 5
we 5
wid 5
wis 5
wood 5
yagan 5
yamot 5
yayaman 5
yukod 5
zaf 5
zek 5
zi 5
ziah 5
zion 5
▁110 5
▁22 5
▁5 5
▁62 5
▁8 5
▁aagawan 5
▁aapawan 5
▁abay 5
▁abd 5
▁abeto 5
▁abidan 5
▁abusive 5
▁acan 5
▁accordingly 5
▁accursed 5
▁achieve 5
▁achor 5
▁acquit 5
▁actions 5
▁activity 5
▁address 5
▁admah 5
▁af 5
▁afflictions 5
▁agagite 5
▁agony 5
▁agreement 5
▁aholiab 5
▁air 5
▁alituntuning 5
▁aloe 5
▁aloes 5
▁amedata 5
▁amisadai 5
▁ammishaddai 5
▁ammonite 5
▁ancestors 5
▁anihan 5
▁annihilate 5
▁annually 5
▁annul 5
▁answering 5
▁approaches 5
▁approve 5
▁approved 5
▁arameo 5
▁archer 5
▁areli 5
▁arfaxad 5
▁argument 5
▁aristarchus 5
▁aristarco 5
▁arrange 5
▁arrive 5
▁arrogantly 5
▁arts 5
▁asshur 5
▁astonishment 5
▁atarot 5
▁attained 5
▁avestruz 5
▁azeka 5
▁azekah 5
▁babaling 5
▁baby 5
▁bait 5
▁balukt 5
▁basemath 5
▁beerot 5
▁beeroth 5
▁beheaded 5
▁benjaminita 5
▁berequias 5
▁bestow 5
▁bewildered 5
▁bezalel 5
▁binabala 5
▁binitiwan 5
▁bit 5
▁bitayan 5
▁biyak 5
▁boastful 5
▁boiled 5
▁bold 5
▁borrow 5
▁bother 5
▁br 5
▁bra 5
▁breastplate 5
▁brief 5
▁bubungkalin 5
▁buckler 5
▁buka 5
▁bumabati 5
▁bundle 5
▁bungk 5
▁bungo 5
▁bystanders 5
▁ca 5
▁caldea 5
▁cefas 5
▁cemos 5
▁censers 5
▁cephas 5
▁chal 5
▁char 5
▁charm 5
▁cheeks 5
▁chemosh 5
▁chephir 5
▁circl 5
▁circumstances 5
▁cliffs 5
▁cluster 5
▁collector 5
▁columns 5
▁complaining 5
▁compulsion 5
▁confession 5
▁confident 5
▁conflict 5
▁confuse 5
▁consistent 5
▁conspire 5
▁contain 5
▁containers 5
▁contentious 5
▁contributions 5
▁contrite 5
▁convict 5
▁corpse 5
▁cos 5
▁countryside 5
▁counts 5
▁crave 5
▁creditor 5
▁creta 5
▁crete 5
▁crumble 5
▁crushes 5
▁cushan 5
▁dahas 5
▁damage 5
▁dance 5
▁dangal 5
▁danger 5
▁daragdagan 5
▁daungan 5
▁debate 5
▁debt 5
▁decapolis 5
▁deceitfully 5
▁delayed 5
▁delicate 5
▁deliverance 5
▁descent 5
▁describ 5
▁devastate 5
▁developed 5
▁diligent 5
▁disciplined 5
▁discretion 5
▁discussion 5
▁dissension 5
▁division 5
▁document 5
▁doorkeeper 5
▁dor 5
▁downward 5
▁drain 5
▁drench 5
▁drives 5
▁drowned 5
▁drunken 5
▁dull 5
▁dumadaloy 5
▁durugin 5
▁dwelt 5
▁dying 5
▁earlie 5
▁earrings 5
▁elealeh 5
▁elimelec 5
▁elimelech 5
▁elnatan 5
▁elnathan 5
▁emission 5
▁emptiness 5
▁enan 5
▁engraving 5
▁enos 5
▁entrust 5
▁ephrath 5
▁erect 5
▁eser 5
▁eshcol 5
▁esht 5
▁esmeralda 5
▁estaol 5
▁eternity 5
▁ethiopian 5
▁ewe 5
▁ewes 5
▁excessive 5
▁exhortation 5
▁explore 5
▁ezer 5
▁fails 5
▁fairly 5
▁fam 5
▁favorably 5
▁fearful 5
▁feeble 5
▁fixed 5
▁flames 5
▁foam 5
▁folded 5
▁followers 5
▁forbid 5
▁forevermore 5
▁fortifications 5
▁fox 5
▁furrows 5
▁gagantimpalaan 5
▁galileans 5
▁gath 5
▁gerahs 5
▁gergeseo 5
▁gid 5
▁glass 5
▁gleanings 5
▁glow 5
▁gra 5
▁granizo 5
▁grieving 5
▁grope 5
▁groups 5
▁growl 5
▁growth 5
▁gu 5
▁guides 5
▁gumagapas 5
▁gumul 5
▁hagupitin 5
▁hahagupitin 5
▁hahan 5
▁hahanap 5
▁hal 5
▁halt 5
▁hammedatha 5
▁hanoc 5
▁hanoch 5
▁happiness 5
▁harass 5
▁harbor 5
▁harness 5
▁hazeroth 5
▁headband 5
▁hearth 5
▁heavi 5
▁heel 5
▁heels 5
▁hinalo 5
▁hire 5
▁hissing 5
▁holder 5
▁hole 5
▁hollow 5
▁honorable 5
▁horeo 5
▁horribl 5
▁housetop 5
▁hubar 5
▁humana 5
▁humihiga 5
▁humuhu 5
▁hurrie 5
▁hurrying 5
▁hush 5
▁ibinangon 5
▁ibinibi 5
▁ibinuwal 5
▁ibuka 5
▁iconium 5
▁idle 5
▁ikaluluwalhati 5
▁ikinulong 5
▁illness 5
▁inaaka 5
▁inahi 5
▁inani 5
▁inapi 5
▁inapo 5
▁inawit 5
▁incurable 5
▁injur 5
▁insanity 5
▁intercede 5
▁inupuan 5
▁inuu 5
▁invade 5
▁involve 5
▁inwardly 5
▁ipangi 5
▁ipapakilala 5
▁ipatatawad 5
▁ipinagbibili 5
▁ipinasundo 5
▁ismaelita 5
▁issue 5
▁italia 5
▁itatago 5
▁itinabi 5
▁itinatakuwil 5
▁jabbok 5
▁jaboc 5
▁jachin 5
▁jakin 5
▁jars 5
▁jeroboam 5
▁kababaihan 5
▁kahali 5
▁kaiba 5
▁kaldero 5
▁kaluban 5
▁kapaki 5
▁kapangahasan 5
▁kapitel 5
▁karangyaan 5
▁karpintero 5
▁kasabihan 5
▁katibayan 5
▁katunayan 5
▁kawali 5
▁kenite 5
▁kinatatayuan 5
▁kinau 5
▁kiriathaim 5
▁knives 5
▁kumil 5
▁kumpol 5
▁kusing 5
▁kuto 5
▁lalago 5
▁lalam 5
▁laps 5
▁laughs 5
▁lavish 5
▁lawyers 5
▁layer 5
▁leviathan 5
▁lied 5
▁limos 5
▁listra 5
▁lit 5
▁litisin 5
▁loads 5
▁lodging 5
▁lovely 5
▁lumalapa 5
▁lumam 5
▁lumilingon 5
▁lumukso 5
▁lunas 5
▁lust 5
▁lystra 5
▁maaa 5
▁mababasa 5
▁mabagsik 5
▁mabasa 5
▁mabibintog 5
▁mabuksan 5
▁madulas 5
▁madungisan 5
▁magbabalik 5
▁magbubukid 5
▁magdurusa 5
▁maghimagsik 5
▁magic 5
▁maglilihi 5
▁maglilinis 5
▁magmamalaki 5
▁magnificent 5
▁magpapasiya 5
▁magpupu 5
▁magpupuri 5
▁magsama 5
▁magsikap 5
▁magtaka 5
▁magtiis 5
▁magugutom 5
▁mahahaba 5
▁maitatayo 5
▁major 5
▁makakarating 5
▁makakasum 5
▁makapito 5
▁makikilos 5
▁makinang 5
▁malamb 5
▁malay 5
▁malilito 5
▁maluluwalhati 5
▁mamamalagi 5
▁mamamana 5
▁mambuburda 5
▁mamimili 5
▁mamumulaklak 5
▁manager 5
▁manahin 5
▁manangis 5
▁mandrakes 5
▁mangalunya 5
▁manganganlong 5
▁manger 5
▁mangingil 5
▁mangungu 5
▁manlulupig 5
▁manunugtog 5
▁manunuya 5
▁mapagaling 5
▁mapakiapid 5
▁mapanglaw 5
▁mapapalayas 5
▁mapapawi 5
▁mapatunayan 5
▁mapayapa 5
▁mapupuksa 5
▁marahan 5
▁mararahas 5
▁marcos 5
▁marker 5
▁marketplace 5
▁maruru 5
▁masaktan 5
▁masasaktan 5
▁matalo 5
▁matisod 5
▁matitinag 5
▁matusalem 5
▁matutuluyan 5
▁matutunan 5
▁mayayanig 5
▁meaning 5
▁memphis 5
▁mer 5
▁merchant 5
▁meremot 5
▁meremoth 5
▁meshec 5
▁methuselah 5
▁michael 5
▁midianite 5
▁mill 5
▁ministeryo 5
▁ministro 5
▁mirto 5
▁miscarri 5
▁misled 5
▁miz 5
▁moabitess 5
▁mob 5
▁molec 5
▁molech 5
▁monster 5
▁morsel 5
▁mourners 5
▁mustasa 5
▁nababal 5
▁nabigyan 5
▁nagb 5
▁nagbabaga 5
▁nagbabautismo 5
▁nagbulung 5
▁nagkakalat 5
▁nagkakamali 5
▁naglakad 5
▁nagpapahiram 5
▁nagpapainit 5
▁nagpapasuso 5
▁nagpasabi 5
▁nagsasama 5
▁nagsisita 5
▁nagsiyuko 5
▁naguguluhan 5
▁naipa 5
▁nakaabang 5
▁nakahanay 5
▁nakahilig 5
▁nakapaligid 5
▁nakaratay 5
▁nakataas 5
▁nakatala 5
▁nakatali 5
▁nakatatanda 5
▁nakatut 5
▁naliligtas 5
▁nandoon 5
▁nangalunya 5
▁naninira 5
▁nanlulumo 5
▁nardo 5
▁natitigilan 5
▁natupok 5
▁nauupo 5
▁nawawalan 5
▁neglected 5
▁nilalait 5
▁nilibak 5
▁nilimot 5
▁ninanasa 5
▁noa 5
▁nullif 5
▁nursed 5
▁oaths 5
▁ochran 5
▁ocran 5
▁offensive 5
▁ofir 5
▁ohol 5
▁oholiab 5
▁oholiba 5
▁oholibah 5
▁ophir 5
▁oppresse 5
▁ostriches 5
▁overcomes 5
▁overlook 5
▁overseers 5
▁overshadow 5
▁owe 5
▁owed 5
▁padalu 5
▁padaya 5
▁pagbalik 5
▁pagbilang 5
▁pagbubuka 5
▁pagdurugo 5
▁paghahasik 5
▁pagkabirhen 5
▁pagkabukod 5
▁pagkadala 5
▁pagkainggit 5
▁pagkalooban 5
▁pagkatisod 5
▁paglilibing 5
▁pagpapagaling 5
▁pagpapaupa 5
▁pagsasaya 5
▁pagsisiyasat 5
▁pagsu 5
▁pagtu 5
▁pahiran 5
▁pairs 5
▁pakikipagdigma 5
▁pako 5
▁palda 5
▁pallu 5
▁pamilya 5
▁pamphylia 5
▁pamukpok 5
▁pangangalakal 5
▁pangit 5
▁pangkubkob 5
▁panibugho 5
▁paninira 5
▁paniniwalaan 5
▁panumbalikin 5
▁panuntunan 5
▁papalitan 5
▁papayagan 5
▁parosh 5
▁partial 5
▁partner 5
▁paso 5
▁passage 5
▁pathway 5
▁patiently 5
▁patrol 5
▁patros 5
▁pauwi 5
▁pelican 5
▁penalty 5
▁perlas 5
▁permanently 5
▁perplexed 5
▁pertain 5
▁perversion 5
▁philippi 5
▁pighati 5
▁piloto 5
▁pinadanak 5
▁pinagbabato 5
▁pinagbilhan 5
▁pinaghati 5
▁pinagtawanan 5
▁pinakain 5
▁pinakamamahal 5
▁pinakauna 5
▁pinakitunguhan 5
▁pinapagmatigas 5
▁pinatahimik 5
▁pinatutunayan 5
▁pini 5
▁pinsalain 5
▁pir 5
▁pitchers 5
▁plac 5
▁planting 5
▁plat 5
▁pleadings 5
▁pleasures 5
▁plotting 5
▁polished 5
▁poll 5
▁pound 5
▁presses 5
▁provision 5
▁prow 5
▁prun 5
▁pukawin 5
▁pum 5
▁purposes 5
▁quake 5
▁qui 5
▁rains 5
▁ramp 5
▁ravine 5
▁reconciled 5
▁recover 5
▁refidim 5
▁refine 5
▁reflect 5
▁regulation 5
▁relat 5
▁relation 5
▁relied 5
▁relieve 5
▁remaliah 5
▁remalias 5
▁renown 5
▁rephidim 5
▁responsib 5
▁results 5
▁retained 5
▁returning 5
▁revenge 5
▁revert 5
▁rewarded 5
▁rim 5
▁ripen 5
▁risk 5
▁roared 5
▁roars 5
▁rope 5
▁ros 5
▁runs 5
▁rushes 5
▁sagisag 5
▁sanctuaries 5
▁sangkatauhan 5
▁saplot 5
▁sapphire 5
▁sashes 5
▁satisf 5
▁sav 5
▁scab 5
▁scorpions 5
▁sect 5
▁selfish 5
▁senseless 5
▁senses 5
▁ser 5
▁seth 5
▁sharpen 5
▁shear 5
▁shecaniah 5
▁shecanias 5
▁shefela 5
▁shields 5
▁shortened 5
▁shortly 5
▁shrivel 5
▁sibmah 5
▁sidonio 5
▁signed 5
▁sikomoro 5
▁similar 5
▁simons 5
▁sinamsam 5
▁sinilangan 5
▁sipingan 5
▁sirion 5
▁sisibol 5
▁sisiyasatin 5
▁skull 5
▁slipped 5
▁soldier 5
▁sore 5
▁sores 5
▁spice 5
▁splend 5
▁srael 5
▁stag 5
▁steals 5
▁stem 5
▁stepp 5
▁stirring 5
▁ston 5
▁str 5
▁stretcher 5
▁strict 5
▁strive 5
▁stumbles 5
▁suar 5
▁sufferings 5
▁sumasaiyo 5
▁sumayaw 5
▁summ 5
▁sumuko 5
▁sumusugat 5
▁supported 5
▁surviv 5
▁survive 5
▁susubukin 5
▁taana 5
▁tagapagtayo 5
▁tagapamagitan 5
▁tambourines 5
▁tappuah 5
▁tarsus 5
▁tassel 5
▁tataha 5
▁tatalikuran 5
▁teachings 5
▁temptation 5
▁thessalonica 5
▁thighs 5
▁thr 5
▁thummim 5
▁tinaha 5
▁tinali 5
▁tinapakan 5
▁tinatawanan 5
▁tiniis 5
▁tirsa 5
▁titigil 5
▁titik 5
▁torch 5
▁torrent 5
▁totter 5
▁tri 5
▁trials 5
▁trim 5
▁troso 5
▁truthful 5
▁tsismis 5
▁tumaghoy 5
▁tumut 5
▁tutuliin 5
▁twent 5
▁tyrants 5
▁umaapaw 5
▁umagos 5
▁umuusok 5
▁unbelieving 5
▁undisturbed 5
▁unsuspecting 5
▁upset 5
▁ur 5
▁valiantly 5
▁verdict 5
▁vindication 5
▁vinegar 5
▁violator 5
▁wadi 5
▁weari 5
▁willingly 5
▁winakasan 5
▁winawasak 5
▁wisely 5
▁wished 5
▁wishes 5
▁wrestl 5
▁wrists 5
▁writhe 5
▁yapak 5
▁yapakan 5
▁yumaman 5
▁zaccur 5
▁zattu 5
▁zeboiim 5
▁zuar 5
,1 4
,300 4
17 4
45 4
73 4
aahit 4
aahon 4
aalsa 4
abok 4
acle 4
action 4
adaanan 4
adiah 4
adlangan 4
agaslas 4
agos 4
agsabihan 4
agsisimula 4
agtatalaga 4
agubilin 4
ahihintul 4
ahihiya 4
aiah 4
akma 4
ako 4
alah 4
alalaglag 4
alik 4
alinlangan 4
ananambang 4
angunahan 4
ans 4
ants 4
apanatili 4
apasailalim 4
apostol 4
approval 4
aramdam 4
arded 4
aris 4
asam 4
ayanig 4
ayunan 4
azz 4
babalik 4
babalita 4
babilonia 4
bagsik 4
balat 4
batan 4
bibintang 4
binhi 4
broth 4
bubukod 4
bubuksan 4
buh 4
bulok 4
bungkalin 4
buntis 4
buwal 4
cable 4
cated 4
cation 4
ci 4
cio 4
cla 4
coal 4
controlled 4
cut 4
dakila 4
dalaw 4
dden 4
del 4
derbe 4
ders 4
dge 4
didilig 4
dilim 4
dudurog 4
dugtung 4
dukha 4
earned 4
ebe 4
ecause 4
ection 4
ehi 4
elu 4
enan 4
enon 4
ently 4
eret 4
eri 4
esem 4
fected 4
fifth 4
fully 4
gbigkis 4
ghihiwalay 4
ghuhubad 4
giliw 4
giray 4
gisin 4
gkakabaha 4
gluksa 4
gpapakuluan 4
gpapalit 4
gpapasimula 4
gsilapit 4
gsisigawan 4
gtatagal 4
gtatanggol 4
gwawasak 4
habilin 4
hagulhol 4
hahadlangan 4
hapay 4
haph 4
hapon 4
harsa 4
hataava 4
hatiin 4
hatol 4
hattaavah 4
hen 4
herefore 4
heres 4
hihikayat 4
hihipo 4
hihiram 4
hihiwalay 4
hinagpis 4
hindi 4
histle 4
hood 4
hubad 4
hugong 4
huli 4
ibza 4
ically 4
icol 4
ide 4
ified 4
igin 4
ihag 4
ikla 4
ikut 4
ilid 4
ilitaw 4
ingkaw 4
inhawa 4
ipagbibili 4
ipahayag 4
isc 4
ished 4
isibol 4
isiksik 4
israel 4
isulat 4
itaas 4
ities 4
ito 4
ja 4
jasub 4
jeshimoth 4
jesimot 4
kagalak 4
kahoy 4
kailan 4
karanas 4
kasiyahan 4
katulong 4
kaugat 4
kinita 4
kinulong 4
kisama 4
kulog 4
kumpuni 4
kung 4
lam 4
lan 4
lapad 4
lar 4
lets 4
lie 4
ligtad 4
likas 4
lilibak 4
lilipol 4
lingap 4
lisan 4
llen 4
lod 4
looking 4
luluray 4
luluwalhati 4
lumb 4
lundag 4
lungkot 4
mababago 4
main 4
maitaas 4
makasarili 4
marry 4
mataas 4
mate 4
megido 4
metic 4
minded 4
mish 4
mmed 4
mposed 4
ms 4
nagkubli 4
nagot 4
nagpagala 4
nagsikap 4
nahahabag 4
nai 4
naksak 4
nalangin 4
nanariwa 4
ngailangan 4
ngingilabot 4
ngitngit 4
nim 4
nlilibak 4
nood 4
nugan 4
ome 4
omer 4
ose 4
ote 4
ou 4
pagbabayaran 4
paglilingkod 4
pagniningas 4
pagpag 4
pagpapatawad 4
pagsampalataya 4
pahin 4
pakabusog 4
pananda 4
panginig 4
paniniwala 4
panuluyan 4
paparatang 4
pasiyahan 4
patalas 4
patigas 4
pauulan 4
pele 4
pher 4
pinaghiganti 4
pinapaglingkod 4
pplied 4
pukaw 4
punan 4
pupunta 4
que 4
rangal 4
rimon 4
rior 4
ripe 4
risataim 4
rishathaim 4
rity 4
rn 4
roma 4
room 4
ros 4
roth 4
round 4
salita 4
salubung 4
sam 4
sapagkat 4
sar 4
sasaliksik 4
sayawan 4
sepher 4
seven 4
sheth 4
sibol 4
sidon 4
sigaw 4
silim 4
siria 4
sisamba 4
sisigaw 4
spir 4
ssing 4
sukatin 4
sulat 4
supil 4
susuklaman 4
susumpungan 4
tabor 4
tabuyan 4
taka 4
takbo 4
tambakan 4
tanggalin 4
tatagan 4
tatakutin 4
tawaran 4
tax 4
tempered 4
ten 4
that 4
tial 4
tip 4
tiwala 4
tri 4
tula 4
tunay 4
ture 4
tustusan 4
tututo 4
ubaya 4
ubog 4
ufa 4
ugtog 4
ugugol 4
uha 4
uia 4
umbo 4
unahan 4
unge 4
unod 4
unos 4
upad 4
upha 4
ured 4
use 4
usim 4
usumpa 4
utugis 4
uugat 4
uungal 4
vah 4
van 4
white 4
yrus 4
yuyukur 4
zabad 4
zaphan 4
zedek 4
zefon 4
▁,400. 4
▁,600 4
▁aapaw 4
▁abarim 4
▁abdo 4
▁abiezer 4
▁abiezerita 4
▁ability 4
▁abolish 4
▁acaia 4
▁acbor 4
▁accustomed 4
▁achaia 4
▁achan 4
▁achbor 4
▁achzib 4
▁acor 4
▁acr 4
▁adaiah 4
▁adaya 4
▁aeneas 4
▁afec 4
▁aged 4
▁akub 4
▁alalay 4
▁alapaap 4
▁alejandro 4
▁alexander 4
▁alkitran 4
▁allowance 4
▁alpombra 4
▁amaze 4
▁ambag 4
▁amihan 4
▁amounts 4
▁anchor 4
▁angle 4
▁antok 4
▁apparel 4
▁arch 4
▁ard 4
▁arguing 4
▁arimathea 4
▁arpachshad 4
▁ashera 4
▁ashur 4
▁associates 4
▁assyrian 4
▁ataroth 4
▁athens 4
▁attire 4
▁awakened 4
▁awitin 4
▁azazel 4
▁babantayan 4
▁babawasan 4
▁babylonians 4
▁balance 4
▁balisa 4
▁baptize 4
▁barri 4
▁barzillai 4
▁batt 4
▁believing 4
▁belo 4
▁belts 4
▁bene 4
▁bereaved 4
▁beryl 4
▁besiege 4
▁betroth 4
▁bibihagin 4
▁binal 4
▁binanggit 4
▁binibigk 4
▁binibigkas 4
▁binibilang 4
▁binigti 4
▁binihisan 4
▁binubulay 4
▁bituka 4
▁blasphem 4
▁blasphemy 4
▁blinded 4
▁blocks 4
▁blown 4
▁boasting 4
▁bodi 4
▁box 4
▁breached 4
▁breathe 4
▁bribes 4
▁brick 4
▁bruise 4
▁bub 4
▁bud 4
▁bulung 4
▁bumaho 4
▁bumibil 4
▁bumigkas 4
▁bumubula 4
▁buslo 4
▁buwi 4
▁buyer 4
▁caftor 4
▁canceled 4
▁capital 4
▁caps 4
▁careless 4
▁cares 4
▁cef 4
▁certainty 4
▁cha 4
▁chain 4
▁channel 4
▁character 4
▁charging 4
▁che 4
▁childhood 4
▁chilion 4
▁chinnereth 4
▁chislev 4
▁cho 4
▁chop 4
▁chronicles 4
▁cineret 4
▁cinnamon 4
▁cisterns 4
▁clan 4
▁cliff 4
▁clubs 4
▁coast 4
▁coastland 4
▁coin 4
▁coins 4
▁colors 4
▁comb 4
▁commotion 4
▁compar 4
▁comparison 4
▁compensat 4
▁complacen 4
▁composed 4
▁condemns 4
▁conferred 4
▁consequen 4
▁conspiracy 4
▁cont 4
▁contemptible 4
▁content 4
▁contention 4
▁continuing 4
▁couriers 4
▁courts 4
▁crack 4
▁craft 4
▁credit 4
▁crime 4
▁criminal 4
▁criminals 4
▁cris 4
▁crouch 4
▁crowed 4
▁cru 4
▁cult 4
▁cur 4
▁cursing 4
▁cymbals 4
▁dadaan 4
▁dadalisayin 4
▁dadami 4
▁danita 4
▁danites 4
▁daranasin 4
▁dariko 4
▁darken 4
▁daybreak 4
▁dealings 4
▁debtors 4
▁decisions 4
▁declar 4
▁decorate 4
▁decreed 4
▁decrees 4
▁dedicate 4
▁defraud 4
▁delicacies 4
▁deliverer 4
▁delivery 4
▁demolish 4
▁dens 4
▁deport 4
▁derbe 4
▁deride 4
▁derision 4
▁despaired 4
▁destitute 4
▁detail 4
▁detest 4
▁devote 4
▁devouring 4
▁diamond 4
▁dictation 4
▁dignitaries 4
▁dinaragdagan 4
▁dinudugo 4
▁disclosed 4
▁displeased 4
▁disregard 4
▁disturbed 4
▁divid 4
▁domineer 4
▁downfall 4
▁dress 4
▁drifter 4
▁drinker 4
▁drinkers 4
▁drought 4
▁drunkenness 4
▁dudu 4
▁dungeon 4
▁dwindle 4
▁edges 4
▁educated 4
▁eleale 4
▁embalm 4
▁emptied 4
▁encampment 4
▁encounter 4
▁endow 4
▁engage 4
▁enlighten 4
▁enlightened 4
▁enosh 4
▁ep 4
▁escapes 4
▁espada 4
▁etham 4
▁examin 4
▁exc 4
▁excess 4
▁exert 4
▁exiled 4
▁exits 4
▁expecting 4
▁expend 4
▁expert 4
▁fade 4
▁fallu 4
▁farm 4
▁farmer 4
▁fee 4
▁feeling 4
▁fence 4
▁fenicia 4
▁fifties 4
▁filthiness 4
▁firepans 4
▁fla 4
▁flight 4
▁flog 4
▁flowers 4
▁fo 4
▁folds 4
▁foolishly 4
▁foremen 4
▁fortune 4
▁frustrate 4
▁fuel 4
▁fugitive 4
▁furious 4
▁gagamba 4
▁gains 4
▁gali 4
▁galilean 4
▁galler 4
▁galli 4
▁galloping 4
▁garland 4
▁gemariah 4
▁gemarias 4
▁genealogy 4
▁gershom 4
▁gesh 4
▁geshureo 4
▁geshurites 4
▁ginagawan 4
▁ginalaw 4
▁ginantihan 4
▁girgashite 4
▁gleam 4
▁gleaned 4
▁gloat 4
▁gloomy 4
▁goldsmith 4
▁grandsons 4
▁grasped 4
▁grating 4
▁greece 4
▁greeting 4
▁grieve 4
▁guardian 4
▁gugupit 4
▁guidance 4
▁gumala 4
▁gumalaw 4
▁habagat 4
▁habit 4
▁hadlangan 4
▁hak 4
▁hakkoz 4
▁han 4
▁hapis 4
▁harem 4
▁hashub 4
▁hashum 4
▁hasshub 4
▁hasum 4
▁hatac 4
▁havila 4
▁havilah 4
▁hebrea 4
▁hegai 4
▁helpers 4
▁heritage 4
▁hihina 4
▁hihirang 4
▁himig 4
▁himno 4
▁hinahawakan 4
▁hinder 4
▁hiniwalayan 4
▁hira 4
▁holiday 4
▁homage 4
▁hop 4
▁hosea 4
▁hoseas 4
▁hoy 4
▁hubo 4
▁hugis 4
▁huhu 4
▁humihinga 4
▁humiliate 4
▁humiliation 4
▁hy 4
▁hymn 4
▁hyrax 4
▁ibibi 4
▁ibigkis 4
▁iconio 4
▁ignorance 4
▁ignore 4
▁iim 4
▁ikaliligtas 4
▁ikapu 4
▁ikatatlumpu 4
▁ikatitibay 4
▁ilalaga 4
▁ilihim 4
▁illuminate 4
▁immoral 4
▁impl 4
▁impre 4
▁imprison 4
▁impuls 4
▁inaagaw 4
▁inaalala 4
▁inaani 4
▁inaapawan 4
▁inahin 4
▁incur 4
▁indicate 4
▁infe 4
▁iniata 4
▁iniiling 4
▁inspection 4
▁instantly 4
▁intelligence 4
▁intelligent 4
▁interrogate 4
▁interv 4
▁ipinagbabawal 4
▁ipinagpa 4
▁ipinagtanggol 4
▁isanlibo 4
▁ishmaelites 4
▁isilang 4
▁israelites 4
▁itaboy 4
▁itali 4
▁italy 4
▁itinata 4
▁itinatalaga 4
▁itinira 4
▁itinutula 4
▁itutulad 4
▁iwagayway 4
▁izar 4
▁izhar 4
▁jacinto 4
▁jamin 4
▁jehoiachin 4
▁jehoshafat 4
▁jehoshaphat 4
▁kaapihan 4
▁kabinataan 4
▁kabukiran 4
▁kadalamhatian 4
▁kadayaan 4
▁kahaba 4
▁kahalili 4
▁kalaki 4
▁kalalagyan 4
▁kalamo 4
▁kalinga 4
▁kalupitan 4
▁kalusugan 4
▁kapakinabangan 4
▁kapakumbabaan 4
▁karbungko 4
▁katu 4
▁kayabangan 4
▁kedorlaomer 4
▁kenizeo 4
▁kerioth 4
▁kikil 4
▁kinalagan 4
▁kinalugdan 4
▁kinamumuhian 4
▁kinatakutan 4
▁kiryot 4
▁kiskisan 4
▁kisse 4
▁kit 4
▁knee 4
▁kneeling 4
▁knife 4
▁knock 4
▁knocking 4
▁knocks 4
▁kumu 4
▁kuneho 4
▁kuwerdas 4
▁labans 4
▁lain 4
▁lais 4
▁laish 4
▁lala 4
▁lament 4
▁languish 4
▁laughed 4
▁layag 4
▁libra 4
▁lick 4
▁lifeblood 4
▁liqu 4
▁lisani 4
▁loins 4
▁loo 4
▁loosen 4
▁loving 4
▁lumabo 4
▁lumalaganap 4
▁lumimot 4
▁lumipa 4
▁lumipad 4
▁lumuk 4
▁lustful 4
▁lusu 4
▁maaliw 4
▁mabago 4
▁mabibilis 4
▁mabisa 4
▁mabubu 4
▁mabubunot 4
▁mad 4
▁madada 4
▁madadaig 4
▁madaldal 4
▁magaga 4
▁magbuka 4
▁magdilim 4
▁maghahati 4
▁magkakadikit 4
▁magkakaloob 4
▁magkakatulad 4
▁magkubli 4
▁maglaho 4
▁maglalakbay 4
▁magpakabanal 4
▁magpakapantas 4
▁magpakasama 4
▁magpapalit 4
▁magpasakop 4
▁magpropesiya 4
▁magsibangon 4
▁magsipag 4
▁magsipasok 4
▁magsiyukod 4
▁mahl 4
▁maiinit 4
▁mailibing 4
▁mailigaw 4
▁maintained 4
▁maisagawa 4
▁maitalaga 4
▁makabalik 4
▁makapagligtas 4
▁makapagpahinga 4
▁makaya 4
▁makikisig 4
▁makinis 4
▁makipagkasundo 4
▁malalab 4
▁malalantad 4
▁malalayo 4
▁malluch 4
▁malubos 4
▁malumanay 4
▁mamamala 4
▁mamamasdan 4
▁manahimik 4
▁mangalat 4
▁mangangaso 4
▁manghahasik 4
▁mangilabot 4
▁manlala 4
▁mantekilya 4
▁mapansin 4
▁mapapagaling 4
▁maralita 4
▁marketplaces 4
▁marrying 4
▁marvel 4
▁masusunog 4
▁masuwayin 4
▁matata 4
▁matatahanan 4
▁matatalian 4
▁mating 4
▁matulin 4
▁matulog 4
▁matutuli 4
▁mauuhaw 4
▁mediator 4
▁meditation 4
▁megiddo 4
▁menstruation 4
▁micaiah 4
▁micaya 4
▁michmas 4
▁mid 4
▁midday 4
▁mik 4
▁millstones 4
▁minana 4
▁missing 4
▁mist 4
▁mix 4
▁moabite 4
▁motives 4
▁mudd 4
▁mules 4
▁multi 4
▁multiplie 4
▁multo 4
▁murderers 4
▁musi 4
▁nababago 4
▁nababalot 4
▁nabalian 4
▁nagagalit 4
▁nagbabago 4
▁nagbabayad 4
▁nagbubunton 4
▁nagdu 4
▁naghaha 4
▁naghahati 4
▁naghihiganti 4
▁naghihingalo 4
▁naghul 4
▁nagkaila 4
▁nagkamali 4
▁nagkasundo 4
▁nagkukunwari 4
▁naglalaho 4
▁nagnakaw 4
▁nagpagal 4
▁nagpakala 4
▁nagpakasama 4
▁nagpapakasama 4
▁nagpapastol 4
▁nagpatawa 4
▁nagpatawad 4
▁nagpulong 4
▁nagsakdal 4
▁nagsika 4
▁nagsipag 4
▁nagtakbuhan 4
▁nagtalo 4
▁nagtataka 4
▁nagtiis 4
▁nagwawakas 4
▁nahatulan 4
▁naibigan 4
▁nakakalakad 4
▁nakalalason 4
▁nakapatay 4
▁nakatanaw 4
▁nakatitig 4
▁nakikipanirahan 4
▁nalito 4
▁namamangha 4
▁namimili 4
▁namuo 4
▁nananakit 4
▁nananakmal 4
▁nangangahulugan 4
▁nanghuhula 4
▁nangingibabaw 4
▁nanunuya 4
▁napakayaman 4
▁napala 4
▁napaparam 4
▁napipig 4
▁nard 4
▁nariyan 4
▁nasisilo 4
▁nasubasob 4
▁nasugatan 4
▁nasusu 4
▁natatandaan 4
▁natulog 4
▁nebaioth 4
▁nebayot 4
▁neph 4
▁ninanakawan 4
▁obligations 4
▁obot 4
▁oboth 4
▁occup 4
▁openly 4
▁oppose 4
▁opposition 4
▁outburst 4
▁overflows 4
▁owners 4
▁pagbubuh 4
▁pagkabasa 4
▁pagkagiba 4
▁pagkahulog 4
▁pagkakagulo 4
▁pagkamangha 4
▁pagkasalanta 4
▁pagkatay 4
▁pagkauhaw 4
▁pagkayamot 4
▁pagkukupkop 4
▁paglago 4
▁paglalayag 4
▁pagliko 4
▁pagluha 4
▁pagpapahayag 4
▁pagparito 4
▁pagpuri 4
▁pagsasayaw 4
▁pagsilang 4
▁pagsinta 4
▁pagsulat 4
▁pagsusuri 4
▁pagtulo 4
▁pagtutuwid 4
▁pagtuya 4
▁pahahalagahan 4
▁paiikutin 4
▁pakuluan 4
▁pamfilia 4
▁pananamit 4
▁panatilihin 4
▁pandangal 4
▁pangalatin 4
▁pangangatuwiran 4
▁panghihilakbot 4
▁panghulog 4
▁panimbang 4
▁paninda 4
▁paninirahan 4
▁panlalait 4
▁pantal 4
▁pap 4
▁paparito 4
▁pare 4
▁parilya 4
▁paros 4
▁pasasam 4
▁pasayahin 4
▁passion 4
▁pasulong 4
▁pasusuhin 4
▁pataba 4
▁pathros 4
▁patient 4
▁patriyarka 4
▁pawalan 4
▁peaceful 4
▁pedahzur 4
▁pedaiah 4
▁pedasur 4
▁pedaya 4
▁pelikano 4
▁permissi 4
▁persecutors 4
▁persians 4
▁persuade 4
▁physicians 4
▁piging 4
▁pinagpagalan 4
▁pinakamainam 4
▁pinakasalan 4
▁pinakintab 4
▁pinalili 4
▁pinangalatan 4
▁pinarangalan 4
▁pinaupo 4
▁pinawalan 4
▁pinipili 4
▁pl 4
▁planks 4
▁plate 4
▁platero 4
▁platter 4
▁plott 4
▁pompiyang 4
▁pont 4
▁por 4
▁practic 4
▁predestined 4
▁prefects 4
▁prefer 4
▁previous 4
▁principles 4
▁prisons 4
▁profan 4
▁promote 4
▁protected 4
▁psalms 4
▁psaltery 4
▁pugo 4
▁pumaparoo 4
▁pumipili 4
▁punung 4
▁purged 4
▁putikan 4
▁qua 4
▁quail 4
▁quarantine 4
▁race 4
▁radiant 4
▁ramps 4
▁realize 4
▁recogniz 4
▁recovery 4
▁reel 4
▁refugees 4
▁refute 4
▁register 4
▁registered 4
▁represent 4
▁representatives 4
▁reprimanded 4
▁reputation 4
▁repute 4
▁requirement 4
▁respected 4
▁revelers 4
▁riddles 4
▁rinse 4
▁rubbish 4
▁ruling 4
▁rumaragasa 4
▁rust 4
▁sahig 4
▁sakes 4
▁salamin 4
▁sam 4
▁samaritan 4
▁sank 4
▁sasaiyo 4
▁sasakmalin 4
▁sasampalataya 4
▁sasamsamin 4
▁sash 4
▁scoff 4
▁scrap 4
▁script 4
▁seacoast 4
▁sebna 4
▁secu 4
▁sennacherib 4
▁seventeen 4
▁sever 4
▁severity 4
▁shamed 4
▁shebna 4
▁shethar 4
▁shimron 4
▁shovels 4
▁shrewd 4
▁shrines 4
▁shrink 4
▁shudder 4
▁sibma 4
▁sicknesses 4
▁sigh 4
▁sil 4
▁silungan 4
▁simple 4
▁sinangag 4
▁siniksik 4
▁sinisin 4
▁sinning 4
▁sinturon 4
▁size 4
▁skip 4
▁skirt 4
▁sl 4
▁sledge 4
▁sling 4
▁slope 4
▁smelt 4
▁somewhere 4
▁sorceries 4
▁sort 4
▁sounding 4
▁sovereignty 4
▁sowing 4
▁sparing 4
▁spark 4
▁sparkl 4
▁sparrows 4
▁speed 4
▁spitting 4
▁spoil 4
▁spots 4
▁stallions 4
▁stated 4
▁step 4
▁stink 4
▁story 4
▁straighten 4
▁strings 4
▁struggle 4
▁stump 4
▁subsided 4
▁suliranin 4
▁sumakanila 4
▁sumakop 4
▁sumuk 4
▁sund 4
▁sunu 4
▁supilin 4
▁supplies 4
▁swifter 4
▁swim 4
▁swoop 4
▁sycamore 4
▁tagatupad 4
▁tagginaw 4
▁tagsibol 4
▁tahpanhes 4
▁tala 4
▁talahib 4
▁tambol 4
▁tanawin 4
▁tangkay 4
▁tanong 4
▁tar 4
▁target 4
▁tataghuyan 4
▁tatahan 4
▁tatanggihan 4
▁tatawa 4
▁taxes 4
▁tebes 4
▁tempest 4
▁tenons 4
▁thebes 4
▁thickness 4
▁thirsts 4
▁threaten 4
▁thresholds 4
▁timugan 4
▁tinagpas 4
▁tinap 4
▁tinatalian 4
▁tinatandaan 4
▁tinutuyo 4
▁tipaklong 4
▁titirhan 4
▁tito 4
▁topacio 4
▁torrents 4
▁tra 4
▁trampl 4
▁trick 4
▁trivial 4
▁tro 4
▁tumanaw 4
▁tumawa 4
▁tumutuktok 4
▁twig 4
▁umaalala 4
▁umaani 4
▁umalalay 4
▁umatras 4
▁umiiwas 4
▁unaware 4
▁uncultivated 4
▁undertake 4
▁undo 4
▁unf 4
▁unfortunate 4
▁unintentional 4
▁unique 4
▁units 4
▁unity 4
▁unsh 4
▁upheld 4
▁uuga 4
▁v 4
▁veils 4
▁vigorous 4
▁volunteer 4
▁vulture 4
▁wanderer 4
▁wari 4
▁waver 4
▁wax 4
▁web 4
▁wineskins 4
▁wink 4
▁wiser 4
▁worshipers 4
▁wr 4
▁zaccheus 4
▁zatu 4
▁zealous 4
▁zeboyin 4
▁zerahites 4
▁zeraita 4
▁ziph 4
▁zoph 4
▁zur 4
▁zurishadai 4
▁zurishaddai 4
,200 3
05 3
3 3
37 3
4 3
47 3
50 3
6,7 3
65 3
72 3
75 3
aagaw 3
aagnas 3
aakma 3
aaral 3
abawasan 3
ability 3
acc 3
adah 3
adakila 3
addar 3
ade 3
adudulas 3
agmamasdan 3
agpak 3
agpatirapa 3
agtatanong 3
ahawakan 3
ahihirap 3
ahol 3
akku 3
alias 3
alin 3
allai 3
amaan 3
amgar 3
amimitas 3
ampon 3
ananaghoy 3
angako 3
angatngat 3
angkas 3
aninibugho 3
anunuluyan 3
apaspas 3
araba 3
arabah 3
arbo 3
arilag 3
arvad 3
asayahin 3
asion 3
athers 3
ative 3
attenai 3
atubili 3
augu 3
authori 3
auubos 3
azanias 3
babakuran 3
baka 3
bako 3
baliin 3
banguhan 3
basan 3
batik 3
bbling 3
bel 3
berea 3
berit 3
berith 3
bezek 3
bihira 3
bol 3
bone 3
bos 3
bozenai 3
bted 3
bubunton 3
buhol 3
buntun 3
busugin 3
but 3
canaan 3
cher 3
cing 3
cit 3
ckles 3
cloth 3
color 3
come 3
conias 3
control 3
corinto 3
dadaya 3
dagok 3
dahilan 3
daloy 3
diah 3
diblataim 3
diblathaim 3
didikit 3
dikit 3
dilig 3
dungaw 3
durug 3
eber 3
edan 3
eengkanto 3
egla 3
ehe 3
ekem 3
elaiah 3
ellow 3
embalsam 3
ements 3
emita 3
emuel 3
enes 3
erech 3
este 3
eta 3
eter 3
ettle 3
eva 3
fact 3
fection 3
ferred 3
ficial 3
ficient 3
fits 3
foot 3
formed 3
fted 3
gagamitan 3
gambala 3
gannim 3
gapas 3
gapasan 3
gapusin 3
gel 3
gimbal 3
glalasing 3
gotten 3
gpapatibay 3
gpapatubo 3
gpapatuloy 3
gress 3
grown 3
gsasaysay 3
gsilabas 3
gtataksil 3
gtatrabaho 3
gue 3
guguluh 3
gusto 3
gustuh 3
gyaya 3
hagoiim 3
hagoyim 3
hahampas 3
hahawakan 3
hahiroth 3
haiah 3
haired 3
hayo 3
hearted 3
hesh 3
him 3
hipo 3
huhug 3
hum 3
iage 3
ial 3
ibabalik 3
ibibigay 3
ibintang 3
ift 3
igid 3
ihah 3
ihambing 3
ihikayat 3
ihimur 3
iinom 3
iiwasan 3
iki 3
ilabas 3
ilamsik 3
ilanglang 3
ililibing 3
ilize 3
ilulugmok 3
imna 3
imnah 3
imus 3
inabangan 3
intel 3
intellig 3
irinig 3
irot 3
isandaan 3
itakda 3
iyo 3
izzite 3
je 3
ject 3
jerusalem 3
kadesh 3
kakalagan 3
kakarating 3
kakasakit 3
kakasalan 3
kaliit 3
kalugod 3
kamit 3
katagpuin 3
kataka 3
katha 3
katuwiran 3
kem 3
kiapid 3
kidigma 3
kilalanin 3
kipamayan 3
kislap 3
known 3
kuwenta 3
laanan 3
lac 3
lagutin 3
lahad 3
lakbay 3
lalampasan 3
lalaylay 3
lamang 3
lambat 3
langayan 3
langoy 3
lashes 3
lea 3
lect 3
lessness 3
leto 3
libya 3
light 3
ligin 3
liguan 3
like 3
liliglig 3
lilinlang 3
limu 3
lines 3
liness 3
lita 3
llegi 3
lohe 3
lululon 3
luluso 3
lunsod 3
lunukin 3
lupaypay 3
lusob 3
mabilang 3
mag 3
mai 3
malapad 3
mamahagi 3
mamalagi 3
mamalita 3
mbot 3
mento 3
merodac 3
milit 3
millo 3
milo 3
minated 3
mizraim 3
mless 3
mmanuel 3
mpi 3
muhian 3
mukha 3
mumuhian 3
mus 3
my 3
nagdamdam 3
nagkaloob 3
nanais 3
ndido 3
nehelam 3
ngilabot 3
nginain 3
ngkukulam 3
ngumbaba 3
ngungusap 3
ngutya 3
niktik 3
nimra 3
nsod 3
ntok 3
nunukso 3
nyag 3
oadias 3
oam 3
occupied 3
oes 3
overed 3
overs 3
own 3
paghahari 3
paghiwalay 3
pagkakasundo 3
pagkumbaba 3
paglulu 3
pagnanakawan 3
pagsisinungaling 3
pagtatanggol 3
pagtitiis 3
pakaligaya 3
palamuti 3
paliguan 3
panghihina 3
pangisay 3
pangunahan 3
papasok 3
papatayin 3
papawi 3
parusa 3
paskuwa 3
pasukan 3
patungan 3
paumanhin 3
pelet 3
peres 3
phel 3
phi 3
pinaghand 3
pinagkakait 3
pinagkakaloob 3
pinagkakatiwala 3
pinaratang 3
pinasok 3
pipilit 3
piras 3
pressed 3
puin 3
puksa 3
pula 3
pun 3
rahin 3
ramdaman 3
ranas 3
raw 3
reath 3
repare 3
ries 3
riph 3
roph 3
rough 3
routed 3
runk 3
runner 3
sakyan 3
samsaman 3
sanga 3
sarezer 3
sasakyan 3
sasanib 3
sasaway 3
sdan 3
secrate 3
sena 3
senaah 3
seventh 3
shed 3
sinagot 3
sinampalatayanan 3
sinungaling 3
sipsip 3
sisibul 3
sisipag 3
siyam 3
skirt 3
sobra 3
solve 3
stairs 3
stic 3
stitute 3
sukat 3
sulatan 3
susugatan 3
tai 3
tain 3
takuwil 3
tali 3
tanggihan 3
tanghaling 3
tangi 3
tanod 3
tataboy 3
tatalo 3
tatapon 3
tes 3
tested 3
this 3
tipha 3
tiro 3
titimpla 3
titirahan 3
tiyagaan 3
togarma 3
togarmah 3
tohanan 3
totoo 3
tract 3
trator 3
tro 3
tub 3
tuklasan 3
tulugan 3
tutugon 3
tych 3
ucal 3
uch 3
uda 3
uff 3
ugmok 3
ukpok 3
ukulan 3
ulent 3
ull 3
ulusok 3
ummim 3
ump 3
umpu 3
unlad 3
unog 3
unugin 3
uous 3
upling 3
upp 3
urning 3
utuklap 3
uzza 3
vast 3
vert 3
vial 3
wagin 3
wel 3
west 3
who 3
wife 3
will 3
work 3
works 3
yakan 3
yaon 3
yukuran 3
zai 3
zaniah 3
▁1,0 3
▁11 3
▁123 3
▁128 3
▁14 3
▁144,000 3
▁245 3
▁52 3
▁603,550 3
▁76 3
▁abba 3
▁abiezrites 3
▁ablaze 3
▁aboard 3
▁absen 3
▁acquaint 3
▁aczib 3
▁admi 3
▁administrat 3
▁administrators 3
▁adullamita 3
▁adullamite 3
▁adulterer 3
▁adulteries 3
▁advise 3
▁aflame 3
▁aground 3
▁ahab 3
▁akkub 3
▁akrabbim 3
▁akto 3
▁alabaster 3
▁alabastro 3
▁alexandrian 3
▁almon 3
▁aloof 3
▁alp 3
▁alpha 3
▁alter 3
▁amasias 3
▁amaziah 3
▁ambassador 3
▁ambition 3
▁amend 3
▁amethyst 3
▁ametista 3
▁amulets 3
▁ankle 3
▁anywhere 3
▁aphek 3
▁apollos 3
▁apolos 3
▁apostas 3
▁apples 3
▁applie 3
▁appropriate 3
▁arah 3
▁arameans 3
▁ararat 3
▁aris 3
▁arisen 3
▁armory 3
▁arod 3
▁arranged 3
▁arrangement 3
▁arrival 3
▁arvad 3
▁asbel 3
▁asenat 3
▁ashbel 3
▁assert 3
▁assist 3
▁autumn 3
▁aveng 3
▁avvi 3
▁awakens 3
▁azzur 3
▁baana 3
▁bags 3
▁bakbukiah 3
▁bakbukias 3
▁baku 3
▁balikan 3
▁balsamo 3
▁bamot 3
▁bamoth 3
▁banayad 3
▁banne 3
▁banner 3
▁banners 3
▁banquets 3
▁bark 3
▁basahan 3
▁bearer 3
▁becher 3
▁beker 3
▁benaiah 3
▁benaya 3
▁beneficial 3
▁benjaminite 3
▁berea 3
▁betfage 3
▁bethphage 3
▁bibitiwan 3
▁biguin 3
▁binibil 3
▁binihag 3
▁binitawan 3
▁birthday 3
▁bitay 3
▁blasphemies 3
▁bloomed 3
▁blunt 3
▁boisterous 3
▁boldness 3
▁borrower 3
▁bounty 3
▁bramble 3
▁brazier 3
▁breathing 3
▁brokenhearted 3
▁brooks 3
▁broth 3
▁bubuka 3
▁bubutas 3
▁bucket 3
▁budd 3
▁buildings 3
▁bukirin 3
▁bulrush 3
▁bumabali 3
▁bumibi 3
▁bumula 3
▁bunutin 3
▁burak 3
▁buying 3
▁cal 3
▁canal 3
▁canopy 3
▁caphtor 3
▁caravan 3
▁carri 3
▁cassia 3
▁cel 3
▁celebrating 3
▁check 3
▁cherishes 3
▁ches 3
▁chests 3
▁chronic 3
▁circle 3
▁citizen 3
▁clamor 3
▁claudio 3
▁claudius 3
▁clever 3
▁club 3
▁coats 3
▁cobra 3
▁collapsed 3
▁collar 3
▁comforters 3
▁commendable 3
▁companies 3
▁complet 3
▁conclud 3
▁confesses 3
▁confidently 3
▁conform 3
▁consol 3
▁consultation 3
▁container 3
▁contribut 3
▁convers 3
▁convocations 3
▁convulsions 3
▁copper 3
▁coral 3
▁corinth 3
▁corruption 3
▁cower 3
▁craftsmanship 3
▁cramped 3
▁craving 3
▁creat 3
▁crimes 3
▁cub 3
▁cumin 3
▁danced 3
▁darami 3
▁date 3
▁daylight 3
▁daytime 3
▁debris 3
▁deceiv 3
▁deceiver 3
▁defenses 3
▁delaia 3
▁delaiah 3
▁departs 3
▁departure 3
▁derive 3
▁describe 3
▁deserve 3
▁designs 3
▁determines 3
▁deviate 3
▁dinalisay 3
▁dinam 3
▁dinuk 3
▁disa 3
▁disab 3
▁disagree 3
▁disan 3
▁disappears 3
▁discernment 3
▁disguise 3
▁dishan 3
▁disowned 3
▁displace 3
▁disposal 3
▁disrespectfully 3
▁dissensions 3
▁distracted 3
▁doorpost 3
▁downpour 3
▁dreadful 3
▁dreamer 3
▁dregs 3
▁dripped 3
▁du 3
▁duk 3
▁earns 3
▁earthquakes 3
▁easi 3
▁edomita 3
▁egla 3
▁elapse 3
▁elda 3
▁embittered 3
▁emim 3
▁eminen 3
▁emmanuel 3
▁encamp 3
▁encamps 3
▁enchante 3
▁encourag 3
▁engaged 3
▁enlarged 3
▁enroll 3
▁entertain 3
▁enticed 3
▁epafras 3
▁epaphr 3
▁ephesians 3
▁ephrathah 3
▁err 3
▁espongha 3
▁esta 3
▁estate 3
▁ethiopia 3
▁evildoer 3
▁excel 3
▁exempt 3
▁exhort 3
▁expertise 3
▁exploit 3
▁expose 3
▁expression 3
▁exterminate 3
▁extort 3
▁faded 3
▁failing 3
▁fainthearted 3
▁falcon 3
▁farmers 3
▁farms 3
▁farthe 3
▁fervent 3
▁fester 3
▁festiv 3
▁filth 3
▁fin 3
▁fist 3
▁flags 3
▁fleeting 3
▁flew 3
▁flourishe 3
▁fol 3
▁forbidden 3
▁forcefully 3
▁fork 3
▁formation 3
▁fortunate 3
▁furnish 3
▁futilities 3
▁gadareno 3
▁gagalaw 3
▁gagantihin 3
▁gaius 3
▁galis 3
▁gash 3
▁gastusin 3
▁gaze 3
▁genealogi 3
▁gennesaret 3
▁gerasenes 3
▁ghost 3
▁giddel 3
▁gigiik 3
▁gigipitin 3
▁gileadites 3
▁gineto 3
▁ginhawa 3
▁ginnetho 3
▁ginugugol 3
▁gleaning 3
▁glutton 3
▁goal 3
▁goiim 3
▁gol 3
▁goldsmiths 3
▁golgota 3
▁golgotha 3
▁goodwill 3
▁gossiper 3
▁granddaughter 3
▁grasshopper 3
▁gratitude 3
▁griddle 3
▁groves 3
▁grumbling 3
▁guest 3
▁gugu 3
▁guiltless 3
▁gulugod 3
▁gumigising 3
▁gumuho 3
▁gupit 3
▁hab 3
▁habitation 3
▁hadad 3
▁hagab 3
▁hagkan 3
▁hagui 3
▁hakoz 3
▁hamm 3
▁hammers 3
▁hamon 3
▁handled 3
▁harshly 3
▁hattush 3
▁hatus 3
▁hawk 3
▁hayupan 3
▁headwaiter 3
▁hedge 3
▁hedgehog 3
▁hele 3
▁helec 3
▁helek 3
▁hena 3
▁herbs 3
▁herodi 3
▁hesitate 3
▁hihiwa 3
▁himu 3
▁hinahayaan 3
▁hinalikan 3
▁hinanga 3
▁hinarap 3
▁hinasikan 3
▁hinihi 3
▁hinihipan 3
▁hinnom 3
▁hinug 3
▁hinuhug 3
▁honesty 3
▁hook 3
▁horde 3
▁horonita 3
▁horonite 3
▁horrif 3
▁hug 3
▁humahaba 3
▁humihili 3
▁humihinto 3
▁humina 3
▁hunter 3
▁iaata 3
▁ibabali 3
▁ibilang 3
▁ibinabaon 3
▁ibinubuwal 3
▁ibubuk 3
▁ibuwal 3
▁idina 3
▁iginaga 3
▁ihain 3
▁ihilig 3
▁ikamatay 3
▁ikapupuri 3
▁ikinagalak 3
▁ikinamatay 3
▁imagination 3
▁iminu 3
▁imitat 3
▁imm 3
▁impair 3
▁impart 3
▁impe 3
▁import 3
▁important 3
▁impoverished 3
▁impur 3
▁incite 3
▁inde 3
▁indict 3
▁individual 3
▁iniyakan 3
▁iniyuko 3
▁injury 3
▁innocence 3
▁inquir 3
▁insensitive 3
▁instant 3
▁intention 3
▁interests 3
▁intermi 3
▁intimately 3
▁invent 3
▁invisible 3
▁ipagmamalaki 3
▁ipandirinig 3
▁ipasu 3
▁ipinaglihi 3
▁ipinaglingkod 3
▁ipinagtabuyan 3
▁ipinapanganak 3
▁ipinapata 3
▁ipinapataw 3
▁ipinataw 3
▁ipini 3
▁isinisigaw 3
▁isinisilang 3
▁isinusuka 3
▁isuk 3
▁itataghoy 3
▁itinala 3
▁itinindig 3
▁jacinth 3
▁jahleel 3
▁jahzeel 3
▁jalam 3
▁jalel 3
▁jaw 3
▁jerem 3
▁jeremoth 3
▁jeshaiah 3
▁jeshaias 3
▁jezer 3
▁jog 3
▁joking 3
▁joses 3
▁jotbata 3
▁jotbathah 3
▁jug 3
▁jurisdiction 3
▁justifies 3
▁kaayusan 3
▁kababaan 3
▁kabagsikan 3
▁kadalagahan 3
▁kadena 3
▁kagubatan 3
▁kahapisan 3
▁kakahuyan 3
▁kalugihan 3
▁kaluwagan 3
▁kanela 3
▁kapatas 3
▁kapinsalaan 3
▁karga 3
▁kasia 3
▁katamisan 3
▁katuturan 3
▁kedemot 3
▁kedemoth 3
▁keila 3
▁keilah 3
▁ken 3
▁kikita 3
▁kinakalaw 3
▁kinasabikan 3
▁kindred 3
▁kite 3
▁kor 3
▁kriminal 3
▁kudlit 3
▁kumikin 3
▁kumikislap 3
▁kumot 3
▁kumukulo 3
▁kumulog 3
▁laborer 3
▁lair 3
▁lal 3
▁lalasingin 3
▁lame 3
▁lamig 3
▁latak 3
▁latian 3
▁laughing 3
▁lawless 3
▁lawyer 3
▁lazuli 3
▁leaks 3
▁leans 3
▁learning 3
▁leg 3
▁legion 3
▁lept 3
▁libya 3
▁lily 3
▁lime 3
▁limits 3
▁linger 3
▁literat 3
▁lizard 3
▁loath 3
▁located 3
▁loloob 3
▁lonely 3
▁looted 3
▁luke 3
▁lumalabo 3
▁lumilitaw 3
▁lumiliwanag 3
▁lumipol 3
▁lumuluray 3
▁luxuriously 3
▁lydda 3
▁lye 3
▁maaantala 3
▁maacathites 3
▁maacatita 3
▁mababalisa 3
▁mababawi 3
▁mabalahibo 3
▁mabali 3
▁mabatid 3
▁mabibili 3
▁madadaya 3
▁magagalaw 3
▁magbabantay 3
▁magbunton 3
▁magdiwang 3
▁magliliyab 3
▁magmasid 3
▁magnified 3
▁magnining 3
▁magog 3
▁magpakababa 3
▁magpakasaya 3
▁magpatala 3
▁magpipi 3
▁magsasan 3
▁magsibalik 3
▁magsilabas 3
▁magsiparito 3
▁magsisila 3
▁magsisisi 3
▁magsisiyasat 3
▁magsitayo 3
▁magsitigil 3
▁magtagal 3
▁magtaksil 3
▁magtanim 3
▁magtrabaho 3
▁mahinahon 3
▁mahlon 3
▁maibuwal 3
▁maidadahilan 3
▁mail 3
▁maipapatay 3
▁maipasok 3
▁maitatatag 3
▁makaalam 3
▁makabahagi 3
▁makabangon 3
▁makaiwas 3
▁makakapagpa 3
▁makakapatay 3
▁makalupa 3
▁makapagbibigay 3
▁makapagsasalita 3
▁makapagtatag 3
▁makirita 3
▁malalasing 3
▁malcam 3
▁malchiel 3
▁malilibing 3
▁malkias 3
▁malkiel 3
▁malon 3
▁malulungkot 3
▁maluno 3
▁malusog 3
▁mamula 3
▁mamumuk 3
▁management 3
▁mananakbo 3
▁mananalangin 3
▁mananamsam 3
▁mandaya 3
▁mangangalat 3
▁manggagapas 3
▁manggugupit 3
▁manghahabi 3
▁manghuli 3
▁mangingibabaw 3
▁mangwasak 3
▁manlililok 3
▁manlulumo 3
▁mapagbulong 3
▁mapalaya 3
▁mapapagod 3
▁mapapanatili 3
▁mapapasailalim 3
▁mapasainyo 3
▁mapaurong 3
▁marble 3
▁market 3
▁masakop 3
▁masasagana 3
▁masasakop 3
▁masilo 3
▁masumpungan 3
▁matahimik 3
▁matatakaw 3
▁matatakutin 3
▁matenai 3
▁matiisin 3
▁matirahan 3
▁matiti 3
▁matitigil 3
▁mattath 3
▁mattenai 3
▁matutulin 3
▁meaningless 3
▁medium 3
▁mefaat 3
▁melody 3
▁mene 3
▁mephaath 3
▁mesiyas 3
▁micm 3
▁midheaven 3
▁migrat 3
▁mildew 3
▁min 3
▁minni 3
▁mirac 3
▁miracle 3
▁mirror 3
▁misael 3
▁mistake 3
▁mistaken 3
▁mixture 3
▁mizpeh 3
▁mol 3
▁molada 3
▁mold 3
▁moresheth 3
▁murdered 3
▁murders 3
▁muster 3
▁mysteri 3
▁naaangkop 3
▁naaantala 3
▁naamathite 3
▁naamatita 3
▁nababatid 3
▁nabubusog 3
▁nadaya 3
▁nadudulas 3
▁nadulas 3
▁nagbabanta 3
▁nagbukod 3
▁nagbunton 3
▁naghahagi 3
▁nagigising 3
▁nagkakamit 3
▁nagkulang 3
▁naglilimos 3
▁nagliliparan 3
▁nagmahal 3
▁nagmamatigas 3
▁nagnining 3
▁nagp 3
▁nagpabagsak 3
▁nagpalaya 3
▁nagpapala 3
▁nagpaparumi 3
▁nagpaparusa 3
▁nagpapawalang 3
▁nagpasuray 3
▁nagpupu 3
▁nagpupugad 3
▁nagre 3
▁nagsagawa 3
▁nagsialis 3
▁nagsisiawit 3
▁nagsisibalik 3
▁nagsisikain 3
▁nagsisimula 3
▁nagsisisamba 3
▁nagtangka 3
▁nagtata 3
▁naguluhan 3
▁nahahalata 3
▁nahahapis 3
▁naitayo 3
▁nakakaalala 3
▁nakakapandiri 3
▁nakakapaso 3
▁nakalabas 3
▁nakalitaw 3
▁nakapagsalita 3
▁nakatalaga 3
▁nakatigil 3
▁nakatiklop 3
▁nakikiapid 3
▁nakikisal 3
▁nakukutaan 3
▁nalalaglag 3
▁nalul 3
▁namamalayan 3
▁namamalimos 3
▁namumuti 3
▁namutla 3
▁nananaghoy 3
▁nangangamba 3
▁nangangatal 3
▁nangingitim 3
▁nanlalabo 3
▁nanlupaypay 3
▁nanunungkulan 3
▁napakabuti 3
▁napakaga 3
▁napakahaba 3
▁napakatindi 3
▁napakinggan 3
▁napapahiya 3
▁napaparusahan 3
▁nasasaktan 3
▁nasipingan 3
▁nasisira 3
▁nasuklam 3
▁natata 3
▁nauhaw 3
▁necess 3
▁nehelamite 3
▁neighing 3
▁nekoda 3
▁nephilim 3
▁nesi 3
▁nests 3
▁nicodemo 3
▁nicodemus 3
▁nililok 3
▁nimrod 3
▁niyayapakan 3
▁niyu 3
▁nob 3
▁noba 3
▁nobah 3
▁noblemen 3
▁nourishe 3
▁nurture 3
▁obadiah 3
▁obadias 3
▁obst 3
▁occ 3
▁ofel 3
▁ointment 3
▁olivet 3
▁omens 3
▁oneself 3
▁ophel 3
▁opinion 3
▁opponent 3
▁opponents 3
▁originat 3
▁oth 3
▁outcasts 3
▁padada 3
▁pagbasa 3
▁pagbubuk 3
▁pagbubun 3
▁pagdadal 3
▁paggamit 3
▁paghahatian 3
▁pagkagutom 3
▁pagkakadugtong 3
▁pagkakaloob 3
▁pagkakasakit 3
▁pagkatalaga 3
▁pagkatawag 3
▁pagkatuyo 3
▁pagkawala 3
▁pagku 3
▁paglala 3
▁paglilitis 3
▁paglingon 3
▁pagmamalupit 3
▁pagpapaganda 3
▁pagpapakasama 3
▁pagsigaw 3
▁pagsuso 3
▁pagtatakipsilim 3
▁pagtataksil 3
▁pagtatawanan 3
▁pagtawa 3
▁pagtutol 3
▁pahalagahan 3
▁pahiyas 3
▁paibaba 3
▁pakukuluan 3
▁pakunwari 3
▁palate 3
▁palikpik 3
▁palms 3
▁pamagat 3
▁pamahid 3
▁pambayo 3
▁pamimili 3
▁pamumul 3
▁panambang 3
▁pananakit 3
▁pananambang 3
▁panel 3
▁pangangaso 3
▁pangatlo 3
▁panggapos 3
▁panggiling 3
▁panghabi 3
▁panghuli 3
▁pangingikil 3
▁panoorin 3
▁papatagin 3
▁papupurihan 3
▁papuput 3
▁papurihan 3
▁parcel 3
▁paseah 3
▁pasisimulan 3
▁passer 3
▁passions 3
▁pastulin 3
▁pat 3
▁patitirahin 3
▁patutulu 3
▁peaks 3
▁peg 3
▁pelatiah 3
▁pelatias 3
▁pen 3
▁perceiv 3
▁perfection 3
▁periods 3
▁perpet 3
▁perpetual 3
▁persever 3
▁persian 3
▁petaya 3
▁pethahiah 3
▁phil 3
▁phoenicia 3
▁phy 3
▁pillage 3
▁pinagbibilinan 3
▁pinagbubuksan 3
▁pinagda 3
▁pinagku 3
▁pinaglala 3
▁pinagmalupitan 3
▁pinagod 3
▁pinagtitipunan 3
▁pinakamahin 3
▁pinakamalaki 3
▁pinalala 3
▁pinanghahawakan 3
▁pinanghina 3
▁pinararangalan 3
▁pinaroonan 3
▁pinasakdal 3
▁pinasusu 3
▁pinatoto 3
▁pinions 3
▁pirathon 3
▁piraton 3
▁pitcher 3
▁plateau 3
▁pleiades 3
▁pleyades 3
▁plowshares 3
▁plucked 3
▁pocket 3
▁pole 3
▁ponder 3
▁pools 3
▁poplar 3
▁populate 3
▁portico 3
▁possessors 3
▁potifar 3
▁potifera 3
▁potiphera 3
▁powder 3
▁preced 3
▁preeminen 3
▁presumptuously 3
▁pret 3
▁pretorio 3
▁priscilla 3
▁procession 3
▁profess 3
▁profusely 3
▁prompt 3
▁proof 3
▁proposal 3
▁propose 3
▁prospered 3
▁prospers 3
▁prostrat 3
▁prudence 3
▁prune 3
▁psalm 3
▁pulverize 3
▁pumapaitaas 3
▁pumapanaw 3
▁pumas 3
▁pumupuk 3
▁punitin 3
▁pupu 3
▁pupun 3
▁purchaser 3
▁pursuit 3
▁qualif 3
▁quarter 3
▁quota 3
▁quote 3
▁raama 3
▁raamah 3
▁rages 3
▁rags 3
▁rameses 3
▁ramot 3
▁ranks 3
▁rap 3
▁ration 3
▁ravens 3
▁reaper 3
▁reaps 3
▁reasonable 3
▁rebuk 3
▁recabita 3
▁rechabites 3
▁recovered 3
▁referr 3
▁refin 3
▁reform 3
▁refu 3
▁regla 3
▁rehoboth 3
▁rela 3
▁relate 3
▁reli 3
▁relihiyon 3
▁relihiyoso 3
▁remark 3
▁repair 3
▁repe 3
▁repents 3
▁replace 3
▁replaster 3
▁reprimand 3
▁reptile 3
▁repudiate 3
▁rescu 3
▁reserve 3
▁respects 3
▁restor 3
▁restraint 3
▁revered 3
▁revived 3
▁rib 3
▁ridge 3
▁riot 3
▁rite 3
▁roble 3
▁rotten 3
▁rouse 3
▁rub 3
▁rubb 3
▁rubble 3
▁rubi 3
▁rudder 3
▁sal 3
▁salamangka 3
▁salarin 3
▁samaritana 3
▁samir 3
▁samla 3
▁samua 3
▁sapphires 3
▁sar 3
▁sardis 3
▁sasakanya 3
▁sasalitain 3
▁scalp 3
▁scapegoat 3
▁scar 3
▁scoffing 3
▁scream 3
▁screamed 3
▁searching 3
▁seasoned 3
▁sedeur 3
▁seduce 3
▁seller 3
▁semida 3
▁senaa 3
▁senakerib 3
▁shak 3
▁shal 3
▁shamir 3
▁shammua 3
▁shawl 3
▁shemida 3
▁sheph 3
▁shesbazar 3
▁sheshbazzar 3
▁shillem 3
▁shim 3
▁shobal 3
▁shore 3
▁shua 3
▁shuhite 3
▁shun 3
▁shutela 3
▁shuthelah 3
▁sickly 3
▁sihor 3
▁silk 3
▁siloam 3
▁simeonites 3
▁sinampal 3
▁sinasaktan 3
▁sinisind 3
▁sisiw 3
▁situat 3
▁slanderous 3
▁slippery 3
▁smoking 3
▁sn 3
▁snatche 3
▁snort 3
▁sobal 3
▁soft 3
▁soothsayers 3
▁spacious 3
▁specific 3
▁spell 3
▁sponge 3
▁spun 3
▁stack 3
▁stadia 3
▁staggering 3
▁stalk 3
▁stalks 3
▁stall 3
▁stammer 3
▁stank 3
▁stare 3
▁stings 3
▁sto 3
▁stops 3
▁storehouse 3
▁storeroom 3
▁stormy 3
▁strain 3
▁stroke 3
▁structure 3
▁stud 3
▁subo 3
▁subsequent 3
▁subsides 3
▁suet 3
▁sumaakin 3
▁sumaklolo 3
▁sumandal 3
▁sumasagana 3
▁sumasakanya 3
▁superior 3
▁supper 3
▁supplied 3
▁surg 3
▁surpass 3
▁surpasse 3
▁sust 3
▁susuts 3
▁susuway 3
▁sw 3
▁swamp 3
▁sweetness 3
▁swell 3
▁swiftly 3
▁swing 3
▁sympathize 3
▁sympathy 3
▁tabba 3
▁tagapagbigay 3
▁tagapangala 3
▁tagpi 3
▁talukbong 3
▁tasteless 3
▁tatawirin 3
▁tatenai 3
▁tebe 3
▁temper 3
▁temporary 3
▁tendon 3
▁terribly 3
▁territories 3
▁thoughtless 3
▁threatening 3
▁tiatira 3
▁tinakasan 3
▁tinam 3
▁tinatalikuran 3
▁tinirahan 3
▁tinutuk 3
▁tinutukso 3
▁tinutulu 3
▁tiquico 3
▁titus 3
▁tiyuhin 3
▁trac 3
▁tracks 3
▁trance 3
▁tranquil 3
▁trappe 3
▁travelers 3
▁treasurers 3
▁tribulations 3
▁trough 3
▁troughs 3
▁trustworth 3
▁truthfully 3
▁tudling 3
▁tuko 3
▁tumubos 3
▁tumuktok 3
▁tuyain 3
▁tychicus 3
▁tyrant 3
▁umaalipusta 3
▁umaliw 3
▁umii 3
▁umimik 3
▁uminit 3
▁umugong 3
▁undergarments 3
▁undertakings 3
▁unpleasant 3
▁unproductive 3
▁unw 3
▁uunlad 3
▁uusigin 3
▁uza 3
▁uzi 3
▁uzzi 3
▁vapor 3
▁vegetables 3
▁vehemently 3
▁ver 3
▁vi 3
▁victim 3
▁victorious 3
▁vindicated 3
▁vinedressers 3
▁violat 3
▁wadis 3
▁wag 3
▁waists 3
▁waterpot 3
▁wayside 3
▁weakness 3
▁weighs 3
▁wick 3
▁wo 3
▁won 3
▁workmen 3
▁worries 3
▁wrathful 3
▁writhes 3
▁yumuyuko 3
▁zanoa 3
▁zanoah 3
▁zaqueo 3
▁zared 3
▁zebulunite 3
▁zefo 3
▁zered 3
▁zeresh 3
▁zichri 3
▁zicri 3
▁ziha 3
▁zilla 3
▁zillah 3
▁zimr 3
▁zipporah 3
▁zo 3
,400 2
03 2
20 2
33 2
337 2
53 2
62 2
730 2
80 2
90 2
930 2
95 2
aalimpuyo 2
aalingasaw 2
aaruga 2
abib 2
abzeel 2
ace 2
ackle 2
adar 2
addon 2
agmamatigas 2
agulhol 2
ailed 2
ainty 2
aked 2
aksak 2
aliah 2
almusal 2
alyze 2
amim 2
amon 2
ananiah 2
ander 2
anites 2
ank 2
anna 2
anned 2
antly 2
anunuwag 2
apastangan 2
apatnapu 2
aphtali 2
apolis 2
appoint 2
apyas 2
arah 2
aret 2
asha 2
ashore 2
asia 2
asting 2
astus 2
ature 2
avelin 2
avid 2
ayan 2
azaniah 2
azmavet 2
babayaran 2
babel 2
back 2
baladan 2
bantayan 2
bbeth 2
bbing 2
bearing 2
because 2
beha 2
bethel 2
bethlehem 2
bibigyan 2
bility 2
binagsak 2
bintang 2
bitiw 2
blemish 2
board 2
bowl 2
breed 2
bulaanan 2
bunga 2
buwan 2
cades 2
cain 2
cam 2
ccording 2
ception 2
city 2
cles 2
closed 2
clusion 2
col 2
commend 2
communi 2
condemned 2
count 2
crow 2
curred 2
cyprus 2
dain 2
dded 2
debir 2
desirable 2
detected 2
dinadagdag 2
dinig 2
doubt 2
duced 2
dunong 2
eans 2
ear 2
ebre 2
eck 2
effective 2
egation 2
ei 2
ejected 2
ejoice 2
ekah 2
ekod 2
elaia 2
elchizedek 2
elem 2
eluded 2
emon 2
ench 2
engeance 2
eopard 2
ept 2
eresh 2
esar 2
etur 2
ext 2
ezib 2
fall 2
fields 2
figure 2
firm 2
flame 2
flowing 2
fluent 2
fork 2
form 2
forward 2
fraud 2
fruitful 2
fts 2
fus 2
ganito 2
gar 2
gates 2
gathering 2
gaz 2
gdalamhati 2
geber 2
generation 2
ghihilakbot 2
ghimagsik 2
gkagutom 2
gkukulang 2
gmamadali 2
gnified 2
gog 2
goiim 2
gsikapan 2
guard 2
hage 2
hahasikan 2
halaman 2
hanan 2
haplos 2
hareseth 2
her 2
himutok 2
hiram 2
hirt 2
hoz 2
hudyat 2
hugot 2
hukuman 2
hul 2
huphamites 2
ially 2
ibboleth 2
icket 2
idal 2
ieve 2
ification 2
ikatan 2
ikayat 2
ilities 2
iluwal 2
imeon 2
imnite 2
impla 2
indol 2
indulg 2
intuang 2
inu 2
isigawan 2
isted 2
itatalaga 2
itting 2
iyuko 2
jaakan 2
jesus 2
kaburda 2
kabzeel 2
kakamit 2
kalapat 2
kalasin 2
kalupkop 2
kamatay 2
karnaim 2
kasalubong 2
katarungan 2
katugma 2
kendeng 2
killed 2
kipaglaban 2
kiryat 2
kl 2
kulang 2
labingwalo 2
ladder 2
lagas 2
leased 2
lene 2
let 2
libis 2
libna 2
lifted 2
lilitis 2
liyab 2
lk 2
lled 2
llowed 2
loyal 2
lubid 2
lulugay 2
lulugdan 2
luma 2
macedonia 2
makatarungan 2
makers 2
mamamayan 2
mapula 2
master 2
mation 2
mature 2
merodach 2
mic 2
milipit 2
minsan 2
mizpa 2
morali 2
morr 2
mounted 2
mpha 2
muhi 2
mul 2
mumula 2
nacle 2
nagbilin 2
nalilimutan 2
namel 2
nararapat 2
nasain 2
nate 2
nated 2
nauli 2
ngasiwa 2
nggagayuma 2
not 2
nounce 2
ntage 2
nue 2
ocated 2
olad 2
olence 2
orted 2
oses 2
ounded 2
ounding 2
overing 2
owner 2
oyed 2
pabango 2
pader 2
paghand 2
pagpayapa 2
pahayag 2
panginoon 2
pararating 2
pareho 2
pearl 2
penetra 2
perez 2
phan 2
phia 2
phra 2
pilay 2
pinanukala 2
pinaparatang 2
please 2
posts 2
ppress 2
q 2
quee 2
quench 2
quiet 2
rachel 2
rans 2
razin 2
redit 2
reyna 2
ridden 2
rils 2
rive 2
rk 2
rmor 2
ruhama 2
safan 2
salamat 2
samantala 2
sandata 2
sannah 2
scr 2
second 2
seiah 2
sense 2
sequence 2
service 2
setting 2
shal 2
shearers 2
shelishiyah 2
shem 2
sho 2
shub 2
sick 2
sight 2
significant 2
sinabi 2
since 2
sinusukat 2
sipat 2
sition 2
slaught 2
smith 2
specting 2
spense 2
steady 2
still 2
storm 2
stricted 2
suan 2
sumpungan 2
susulong 2
tabla 2
talinghaga 2
talumpati 2
tanikala 2
tappuah 2
tatahanan 2
tatalikur 2
tawirin 2
teries 2
than 2
therwise 2
third 2
tiklop 2
times 2
tracted 2
trained 2
treat 2
tubig 2
tungko 2
tuntungan 2
tuous 2
tutumba 2
ually 2
ubungkal 2
udah 2
udent 2
ukk 2
ular 2
ule 2
umapi 2
umilit 2
une 2
ungkulan 2
upham 2
upuntahan 2
ural 2
urers 2
ursed 2
usual 2
uted 2
uti 2
uturan 2
uudy 2
versity 2
vil 2
vows 2
vvah 2
wallow 2
water 2
way 2
weed 2
went 2
what 2
where 2
wise 2
wns 2
workers 2
xion 2
yself 2
yuyukod 2
zan 2
zanias 2
zeba 2
zel 2
zephon 2
zum 2
zzl 2
▁,3 2
▁1,7 2
▁2,0 2
▁2,81 2
▁20 2
▁337,500 2
▁41 2
▁43 2
▁45,6 2
▁46 2
▁60 2
▁64 2
▁642 2
▁66 2
▁675 2
▁7 2
▁84 2
▁aabutin 2
▁aalipinin 2
▁abhorre 2
▁abhorren 2
▁abihud 2
▁absence 2
▁absolutely 2
▁acceptance 2
▁accomplishment 2
▁achim 2
▁acqui 2
▁active 2
▁activities 2
▁admit 2
▁adram 2
▁adumim 2
▁advised 2
▁affairs 2
▁afford 2
▁agabo 2
▁agabus 2
▁agitat 2
▁agitation 2
▁ahiram 2
▁aimlessly 2
▁alejandria 2
▁alfeo 2
▁allegiance 2
▁alliance 2
▁almendr 2
▁alphaeus 2
▁alternat 2
▁alush 2
▁ammonites 2
▁amra 2
▁amrafel 2
▁anath 2
▁ancestr 2
▁anew 2
▁anklets 2
▁annihilation 2
▁anti 2
▁anticipat 2
▁apiece 2
▁apostasy 2
▁appall 2
▁appease 2
▁appeased 2
▁aramaic 2
▁archippus 2
▁areopagus 2
▁arida 2
▁arquipo 2
▁arti 2
▁artist 2
▁ashkenaz 2
▁ashpenaz 2
▁askenaz 2
▁assail 2
▁assari 2
▁asserted 2
▁astarte 2
▁astonish 2
▁atalia 2
▁attribute 2
▁avail 2
▁aven 2
▁averted 2
▁avim 2
▁awl 2
▁azm 2
▁azmon 2
▁azor 2
▁baalah 2
▁baalath 2
▁babawas 2
▁babawiin 2
▁bakbuk 2
▁balm 2
▁bandage 2
▁bandaged 2
▁banish 2
▁banished 2
▁bared 2
▁bargain 2
▁barren 2
▁bartholomew 2
▁bartolome 2
▁barzilai 2
▁bat 2
▁battlement 2
▁bazl 2
▁bdellium 2
▁beads 2
▁beak 2
▁bedelio 2
▁berde 2
▁bern 2
▁bigger 2
▁bigthan 2
▁binibih 2
▁bitawan 2
▁biz 2
▁blackness 2
▁blade 2
▁blame 2
▁blanket 2
▁blindness 2
▁bochim 2
▁boquim 2
▁bottle 2
▁brandish 2
▁brave 2
▁breaches 2
▁breakfast 2
▁bri 2
▁briers 2
▁brotherhood 2
▁bruises 2
▁bugnutin 2
▁builder 2
▁bulati 2
▁bulge 2
▁bumubukal 2
▁bumubulusok 2
▁bunni 2
▁burie 2
▁buzita 2
▁buzite 2
▁calculated 2
▁calneh 2
▁caphtorim 2
▁captors 2
▁caretaker 2
▁carousing 2
▁carpenters 2
▁carv 2
▁carve 2
▁casiphia 2
▁casipia 2
▁cav 2
▁chair 2
▁champion 2
▁charity 2
▁chasm 2
▁cheat 2
▁cheerfulness 2
▁cherethites 2
▁cherish 2
▁chim 2
▁chinner 2
▁choirs 2
▁christian 2
▁chryso 2
▁ciner 2
▁circulate 2
▁clo 2
▁coastline 2
▁coffin 2
▁collection 2
▁colon 2
▁color 2
▁comforter 2
▁communi 2
▁compass 2
▁compete 2
▁compl 2
▁compos 2
▁conceit 2
▁condu 2
▁confi 2
▁congratulate 2
▁conjurers 2
▁consented 2
▁constant 2
▁constellations 2
▁contentions 2
▁continuously 2
▁contr 2
▁contradict 2
▁contributed 2
▁convened 2
▁convert 2
▁convulsion 2
▁cori 2
▁corro 2
▁couches 2
▁cow 2
▁cozbi 2
▁crane 2
▁crash 2
▁cret 2
▁crimson 2
▁cristiano 2
▁critici 2
▁cro 2
▁cultivat 2
▁cure 2
▁cushi 2
▁customer 2
▁customers 2
▁cypr 2
▁daberat 2
▁damaged 2
▁damuhan 2
▁dances 2
▁debtor 2
▁deck 2
▁decreased 2
▁defame 2
▁defiantly 2
▁defil 2
▁demas 2
▁demetrius 2
▁denial 2
▁deported 2
▁depraved 2
▁desir 2
▁desponden 2
▁destin 2
▁determine 2
▁device 2
▁devis 2
▁dimon 2
▁disclos 2
▁discourag 2
▁dislocated 2
▁dismay 2
▁disorder 2
▁dispersion 2
▁disrespectful 2
▁distinguishe 2
▁diviner 2
▁dophkah 2
▁dorcas 2
▁doubting 2
▁dreamers 2
▁drift 2
▁dripping 2
▁drows 2
▁earring 2
▁eas 2
▁ebanghel 2
▁edible 2
▁edification 2
▁edomites 2
▁elasah 2
▁eldad 2
▁eliph 2
▁elishah 2
▁eliud 2
▁elk 2
▁ellasar 2
▁elm 2
▁eloquen 2
▁elteke 2
▁emasculate 2
▁embar 2
▁embracing 2
▁embroidered 2
▁emer 2
▁emperor 2
▁empire 2
▁enact 2
▁encampments 2
▁endless 2
▁engedi 2
▁engraver 2
▁enjoyment 2
▁enrich 2
▁enslave 2
▁epaphroditus 2
▁equipped 2
▁esc 2
▁estimation 2
▁evangelist 2
▁evaporate 2
▁eve 2
▁excellen 2
▁exclude 2
▁exclusive 2
▁executioner 2
▁exhi 2
▁expens 2
▁expense 2
▁expresse 2
▁extortion 2
▁extremity 2
▁eze 2
▁fair 2
▁fairness 2
▁faithlessness 2
▁famili 2
▁farewell 2
▁fathoms 2
▁favoritism 2
▁fiercely 2
▁fil 2
▁final 2
▁fists 2
▁flogging 2
▁foams 2
▁footprints 2
▁forefather 2
▁foretold 2
▁forewarn 2
▁forti 2
▁fou 2
▁fowl 2
▁fragile 2
▁fragments 2
▁frail 2
▁framework 2
▁fringe 2
▁fro 2
▁frontier 2
▁frustrated 2
▁gabba 2
▁gaddi 2
▁galatian 2
▁gall 2
▁gasp 2
▁gaunt 2
▁gazite 2
▁gederoth 2
▁genital 2
▁gentile 2
▁gersho 2
▁gethsemane 2
▁gibbethon 2
▁gigiba 2
▁gluttons 2
▁goads 2
▁goddess 2
▁godliness 2
▁goring 2
▁gossip 2
▁gossips 2
▁gouge 2
▁grasshoppers 2
▁gravel 2
▁grinder 2
▁guarantee 2
▁guardians 2
▁guardroom 2
▁gudgodah 2
▁gushe 2
▁hacaliah 2
▁hagg 2
▁haggi 2
▁hallo 2
▁hamstr 2
▁handkerchief 2
▁haradah 2
▁harbona 2
▁harmon 2
▁harpists 2
▁hashabneiah 2
▁hatch 2
▁haughti 2
▁haughtily 2
▁hauran 2
▁headlong 2
▁healer 2
▁hedges 2
▁helkath 2
▁herodians 2
▁hethlon 2
▁hirah 2
▁hoarded 2
▁homelessness 2
▁hornet 2
▁hoshaiah 2
▁hoshea 2
▁hospitality 2
▁humbl 2
▁hunters 2
▁hushed 2
▁hypocrite 2
▁idleness 2
▁idolater 2
▁idolatr 2
▁idolatry 2
▁ignorant 2
▁illuminated 2
▁illumine 2
▁imagin 2
▁immovable 2
▁implications 2
▁implor 2
▁impose 2
▁inaag 2
▁incapa 2
▁indulg 2
▁infa 2
▁influen 2
▁infuriated 2
▁innumerable 2
▁insistent 2
▁insisting 2
▁instinct 2
▁insufficient 2
▁intens 2
▁invalidat 2
▁investigating 2
▁investigation 2
▁iphtahel 2
▁irad 2
▁irijah 2
▁irreparable 2
▁irritating 2
▁irritation 2
▁ishv 2
▁ishvi 2
▁isolated 2
▁isusuk 2
▁itutubo 2
▁jaddua 2
▁jahze 2
▁jairus 2
▁janoah 2
▁japhia 2
▁jare 2
▁jareb 2
▁jebus 2
▁jehu 2
▁jewel 2
▁joel 2
▁joke 2
▁jokshan 2
▁joram 2
▁joyously 2
▁julius 2
▁justus 2
▁juttah 2
▁kabil 2
▁kain 2
▁kark 2
▁karta 2
▁kataga 2
▁kerub 2
▁ket 2
▁kick 2
▁kidnap 2
▁kidron 2
▁kil 2
▁kinalag 2
▁kinula 2
▁kishion 2
▁kohathite 2
▁kolaiah 2
▁lan 2
▁languishes 2
▁launderer 2
▁lawgiver 2
▁lawsuit 2
▁laz 2
▁leadership 2
▁leb 2
▁lebana 2
▁lender 2
▁lessen 2
▁lewd 2
▁lewdness 2
▁lib 2
▁liber 2
▁libnites 2
▁lighten 2
▁listeners 2
▁localit 2
▁lookout 2
▁loom 2
▁louder 2
▁lucius 2
▁luxurious 2
▁lycaonia 2
▁lydia 2
▁lysias 2
▁mabalo 2
▁madmen 2
▁magician 2
▁magpapalipa 2
▁magpapatulo 2
▁magwawa 2
▁mahawa 2
▁mahlites 2
▁maimed 2
▁makeup 2
▁makheloth 2
▁makikip 2
▁malalanta 2
▁maliciously 2
▁malignancy 2
▁mamimi 2
▁manass 2
▁mangingi 2
▁manu 2
▁mareshah 2
▁marrow 2
▁masasa 2
▁mason 2
▁mast 2
▁mattanah 2
▁matthan 2
▁matthew 2
▁maturity 2
▁meadow 2
▁medad 2
▁mehujael 2
▁melchi 2
▁melqui 2
▁memucan 2
▁meshezabel 2
▁methushael 2
▁michm 2
▁mightily 2
▁mil 2
▁miletus 2
▁miscarry 2
▁mischie 2
▁miseries 2
▁misgivings 2
▁mishal 2
▁mithkah 2
▁mizp 2
▁mizraim 2
▁mockers 2
▁mole 2
▁monsters 2
▁moreh 2
▁mottled 2
▁mule 2
▁mus 2
▁mushi 2
▁mushites 2
▁mutter 2
▁muzzle 2
▁mysterious 2
▁naamah 2
▁nabibi 2
▁nagbibi 2
▁naghuhuk 2
▁nagkuku 2
▁nagkukula 2
▁nagtutulak 2
▁nahalal 2
▁nahaliel 2
▁nahum 2
▁nakabuka 2
▁nakahand 2
▁natutuk 2
▁nazare 2
▁needle 2
▁negligent 2
▁nephew 2
▁netopha 2
▁netophathite 2
▁nicolaitans 2
▁nineteen 2
▁nobleman 2
▁nois 2
▁normal 2
▁nullifie 2
▁nullified 2
▁oars 2
▁obstruct 2
▁occupation 2
▁offender 2
▁opportun 2
▁ornament 2
▁orpah 2
▁oseph 2
▁outwardly 2
▁oversee 2
▁ozni 2
▁pact 2
▁pagkabig 2
▁pagmama 2
▁pagpupu 2
▁pagtiti 2
▁palti 2
▁pampalit 2
▁pamumun 2
▁pangangalat 2
▁papayag 2
▁paphos 2
▁paradise 2
▁partic 2
▁participa 2
▁patched 2
▁patriarchs 2
▁pavilion 2
▁paws 2
▁pedestal 2
▁pekod 2
▁pentecost 2
▁perfumer 2
▁perfumers 2
▁perpetually 2
▁perplexity 2
▁persuasion 2
▁persuasiveness 2
▁pethor 2
▁phi 2
▁philosoph 2
▁phrygia 2
▁pig 2
▁pigeon 2
▁pinagdu 2
▁pinagla 2
▁pinamumun 2
▁pisidia 2
▁players 2
▁pluck 2
▁plum 2
▁plumage 2
▁plunderers 2
▁ponds 2
▁populated 2
▁porticoes 2
▁possibl 2
▁premeditation 2
▁preparing 2
▁presum 2
▁presumptuous 2
▁private 2
▁problems 2
▁procedure 2
▁produc 2
▁profound 2
▁promis 2
▁proselyte 2
▁proselytes 2
▁prostrate 2
▁prote 2
▁proudly 2
▁prov 2
▁puah 2
▁publi 2
▁punon 2
▁pursuits 2
▁quantity 2
▁quarr 2
▁quench 2
▁quenched 2
▁raam 2
▁rabbit 2
▁rabboni 2
▁rafters 2
▁rai 2
▁raisin 2
▁rakk 2
▁rampart 2
▁rape 2
▁ratified 2
▁rations 2
▁rattling 2
▁ravag 2
▁ravages 2
▁rece 2
▁reconcile 2
▁reconciliation 2
▁reef 2
▁refreshed 2
▁refus 2
▁reg 2
▁registration 2
▁rehoboam 2
▁relenting 2
▁reliable 2
▁religion 2
▁remarking 2
▁reme 2
▁remedy 2
▁remov 2
▁repairer 2
▁repayment 2
▁representative 2
▁reprimands 2
▁reservoir 2
▁residence 2
▁reve 2
▁revelry 2
▁revile 2
▁reviv 2
▁rhod 2
▁ridd 2
▁ridicul 2
▁rims 2
▁rites 2
▁rithmah 2
▁roadway 2
▁robber 2
▁rogue 2
▁rom 2
▁rowers 2
▁royalty 2
▁rubies 2
▁rut 2
▁sab 2
▁sabt 2
▁sacrific 2
▁salecah 2
▁saliva 2
▁sallu 2
▁salome 2
▁salu 2
▁sanctification 2
▁sardius 2
▁sarid 2
▁sasamb 2
▁scare 2
▁scaveng 2
▁scent 2
▁schem 2
▁scorpion 2
▁scour 2
▁scrape 2
▁screen 2
▁seers 2
▁seizure 2
▁sela 2
▁sepharvaim 2
▁settl 2
▁shamm 2
▁shaph 2
▁shar 2
▁shaveh 2
▁shelomi 2
▁shema 2
▁shemariah 2
▁shepham 2
▁shepher 2
▁shihor 2
▁shimeites 2
▁shin 2
▁shiph 2
▁shock 2
▁shrine 2
▁shrub 2
▁shuham 2
▁shulammite 2
▁shuni 2
▁sift 2
▁silently 2
▁sinking 2
▁situated 2
▁slap 2
▁smear 2
▁smelter 2
▁smile 2
▁smith 2
▁smolder 2
▁smoothly 2
▁sna 2
▁sneer 2
▁soap 2
▁soften 2
▁soot 2
▁sorceress 2
▁spatter 2
▁spectacle 2
▁spiritists 2
▁sprig 2
▁spurn 2
▁squa 2
▁squander 2
▁stat 2
▁statut 2
▁stead 2
▁stew 2
▁stiff 2
▁stiffen 2
▁stole 2
▁stories 2
▁straggler 2
▁straightened 2
▁strictly 2
▁stripp 2
▁stylus 2
▁substance 2
▁subuk 2
▁successive 2
▁sung 2
▁super 2
▁supervis 2
▁suph 2
▁surp 2
▁suspect 2
▁sways 2
▁swea 2
▁swindler 2
▁swirl 2
▁syene 2
▁sym 2
▁syr 2
▁taber 2
▁tabitha 2
▁tahan 2
▁tahath 2
▁talmai 2
▁tanner 2
▁tatanggi 2
▁team 2
▁teem 2
▁teko 2
▁tekoa 2
▁tempt 2
▁terebinth 2
▁tertullus 2
▁thankful 2
▁thebez 2
▁theophilus 2
▁threat 2
▁threats 2
▁thwart 2
▁thyatira 2
▁tiberias 2
▁tigris 2
▁tir 2
▁tires 2
▁torture 2
▁track 2
▁translat 2
▁trapper 2
▁traveler 2
▁trays 2
▁treacher 2
▁tribunal 2
▁trig 2
▁triumphant 2
▁troas 2
▁troop 2
▁troubl 2
▁trousers 2
▁tuks 2
▁tumatawa 2
▁tumindi 2
▁tumult 2
▁turquoise 2
▁tutulu 2
▁ulai 2
▁unceasing 2
▁unceasingly 2
▁unchangeable 2
▁undefiled 2
▁unfastened 2
▁unfeeling 2
▁unload 2
▁unnoticed 2
▁unrestrained 2
▁unseen 2
▁unstable 2
▁uphaz 2
▁uzal 2
▁vanishes 2
▁vault 2
▁vigorously 2
▁voluntarily 2
▁wares 2
▁watchtower 2
▁wavering 2
▁waving 2
▁weaknesses 2
▁wholeheartedly 2
▁wielded 2
▁wil 2
▁wildly 2
▁witchcraft 2
▁wolf 2
▁worshiper 2
▁wove 2
▁wrongdoer 2
▁yumaya 2
▁yuyuko 2
▁zaanan 2
▁zabbai 2
▁zacc 2
▁zalmon 2
▁zalmonah 2
▁zaphon 2
▁zebadiah 2
▁zemar 2
▁zena 2
▁zepho 2
▁zephon 2
▁zimri 2
,750 1
agpapakita 1
ahiah 1
amagitan 1
guided 1
hindered 1
mpung 1
nize 1
reo 1
rolled 1
silid 1
ther 1
tter 1
▁annihilat 1
▁broo 1
▁encircl 1
▁envi 1
▁kinal 1
▁pinaghal 1
▁pinupun 1
▁sprinkl 1
▁tad 1
madeupword0000 0
